{"<s>":0,"<cls>":1,"<cls1>":2,"<pad>":3,"</s>":4,"<unk>":5,"<mask>":6,"!":7,"\"":8,"#":9,"$":10,"%":11,"&":12,"'":13,"(":14,")":15,"*":16,"+":17,",":18,"-":19,".":20,"/":21,"0":22,"1":23,"2":24,"3":25,"4":26,"5":27,"6":28,"7":29,"8":30,"9":31,":":32,";":33,"<":34,"=":35,">":36,"?":37,"@":38,"A":39,"B":40,"C":41,"D":42,"E":43,"F":44,"G":45,"H":46,"I":47,"J":48,"K":49,"L":50,"M":51,"N":52,"O":53,"P":54,"Q":55,"R":56,"S":57,"T":58,"U":59,"V":60,"W":61,"X":62,"Y":63,"Z":64,"[":65,"\\":66,"]":67,"^":68,"_":69,"`":70,"a":71,"b":72,"c":73,"d":74,"e":75,"f":76,"g":77,"h":78,"i":79,"j":80,"k":81,"l":82,"m":83,"n":84,"o":85,"p":86,"q":87,"r":88,"s":89,"t":90,"u":91,"v":92,"w":93,"x":94,"y":95,"z":96,"{":97,"|":98,"}":99,"~":100,"¡":101,"¢":102,"£":103,"¤":104,"¥":105,"¦":106,"§":107,"¨":108,"©":109,"ª":110,"«":111,"¬":112,"®":113,"¯":114,"°":115,"±":116,"²":117,"³":118,"´":119,"µ":120,"¶":121,"·":122,"¸":123,"¹":124,"º":125,"»":126,"¼":127,"½":128,"¾":129,"¿":130,"À":131,"Á":132,"Â":133,"Ã":134,"Ä":135,"Å":136,"Æ":137,"Ç":138,"È":139,"É":140,"Ê":141,"Ë":142,"Ì":143,"Í":144,"Î":145,"Ï":146,"Ð":147,"Ñ":148,"Ò":149,"Ó":150,"Ô":151,"Õ":152,"Ö":153,"×":154,"Ø":155,"Ù":156,"Ú":157,"Û":158,"Ü":159,"Ý":160,"Þ":161,"ß":162,"à":163,"á":164,"â":165,"ã":166,"ä":167,"å":168,"æ":169,"ç":170,"è":171,"é":172,"ê":173,"ë":174,"ì":175,"í":176,"î":177,"ï":178,"ð":179,"ñ":180,"ò":181,"ó":182,"ô":183,"õ":184,"ö":185,"÷":186,"ø":187,"ù":188,"ú":189,"û":190,"ü":191,"ý":192,"þ":193,"ÿ":194,"Ā":195,"ā":196,"Ă":197,"ă":198,"Ą":199,"ą":200,"Ć":201,"ć":202,"Ĉ":203,"ĉ":204,"Ċ":205,"ċ":206,"Č":207,"č":208,"Ď":209,"ď":210,"Đ":211,"đ":212,"Ē":213,"ē":214,"Ĕ":215,"ĕ":216,"Ė":217,"ė":218,"Ę":219,"ę":220,"Ě":221,"ě":222,"Ĝ":223,"ĝ":224,"Ğ":225,"ğ":226,"Ġ":227,"ġ":228,"Ģ":229,"ģ":230,"Ĥ":231,"ĥ":232,"Ħ":233,"ħ":234,"Ĩ":235,"ĩ":236,"Ī":237,"ī":238,"Ĭ":239,"ĭ":240,"Į":241,"į":242,"İ":243,"ı":244,"Ĳ":245,"ĳ":246,"Ĵ":247,"ĵ":248,"Ķ":249,"ķ":250,"ĸ":251,"Ĺ":252,"ĺ":253,"Ļ":254,"ļ":255,"Ľ":256,"ľ":257,"Ŀ":258,"ŀ":259,"Ł":260,"ł":261,"Ń":262,"Ġì":263,"Ġë":264,"ìĿ":265,"Ġí":266,"Ġê":267,"íķ":268,"ìĹ":269,"ti":270,"ìł":271,"Ġ-":272,"ëĭ":273,"ĺì":274,"me":275,"ê³":276,"´ì":277,"Ģì":278,"Ġìŀ":279,"time":280,"Ġìķ":281,"Ĥ¬":282,"Ġë°":283,"ĥģ":284,"Ġtime":285,"ìĿĮ":286,"ëĬ":287,"¼ë":288,"ìĦ":289,"ìķ":290,"ê°":291,"ì§":292,"ìĿ´":293,"Ġìł":294,"ìĹĲ":295,"on":296,"ìĭ":297,"Ġìĭ":298,"¡ľ":299,"ê³ł":300,"Ġíķ":301,"ĠìĿ":302,"°ë":303,"ê²":304,"ìŀ":305,"ëĬĶ":306,"Ġê°":307,"in":308,"Ģë":309,"ĺë":310,"Ġm":311,"ìľ":312,"ìļ":313,"ľë":314,"Ħë":315,"íĺ":316,"Ġp":317,"Ġë³":318,"ê¸":319,"ĠìĹ":320,"Ġê²":321,"ìĥģ":322,"Ġc":323,"ëĭ¤":324,"ĽĲ":325,"th":326,"ĸĳ":327,"Ġb":328,"Ġs":329,"id":330,"´ë":331,"ĠëĤ":332,"kg":333,"Ġ:":334,"ĨĮ":335,"Ġì§":336,"Ġìĺ":337,"ĽĦ":338,"ìľ¼ë":339,"al":340,"Īë":341,"ìĿĢ":342,"ıĦ":343,"Ġmon":344,"¸ë":345,"ĠíĻ":346,"Ġíĺ":347,"íĺ¸":348,"ìĤ¬":349,"¶Ģ":350,"¦Ŀ":351,"íķĺ":352,"Ġê¸":353,"ê°Ģ":354,"ì§Ģ":355,"ìłķ":356,"Ġìĸĳ":357,"Ġmonth":358,"£Į":359,"ĪìĿĮ":360,"ëĭĪ":361,"ĠìĪ":362,"re":363,"Ġd":364,"íĻ":365,"ĠìĹĨ":366,"£¼":367,"¦¬":368,"Ġf":369,"Ġëĭ":370,"°ì":371,"Ġë§":372,"ìķ½":373,"Ġê³":374,"Ġg":375,"Ġì²":376,"ĢìĤ¬":377,"ë°":378,"or":379,"µ¬":380,"ìĦľ":381,"Ġa":382,"ìĭľ":383,"íĥ":384,"¨¹":385,"ìĪ":386,"¤ĳ":387,"íķ¨":388,"er":389,"Ġt":390,"Ġìľ":391,"Ġìĥģ":392,"¢ħ":393,"ìĬ":394,"íķľ":395,"ëıĦ":396,"en":397,"ìľ¼ë¡ľ":398,"¤ë":399,"ìłľ":400,"Ġ(":401,"Ġbid":402,"ìĦ±":403,"ìŀ¥":404,"ê¸°":405,"ìĿ¸":406,"ìĿĺ":407,"ĠìĭĿ":408,"ìłģ":409,"ìĿĦ":410,"Ħí":411,"ĠíĻķ":412,"ìĸ":413,"Ġkg":414,"ar":415,"Ġë¶":416,"Ġìĸĳíĺ¸":417,"ìĹ¬":418,"Ħì":419,"ê´":420,"´í":421,"¹ĺ":422,"ĠíĽĦ":423,"ë³":424,"ìļķ":425,"ìĿ¼":426,"ĠìĦ":427,"Ĥĺ":428,"łë":429,"ļĮ":430,"Ġo":431,"Ġìłķ":432,"íĦ":433,"ìĽĲ":434,"¸¡":435,"íĻĶ":436,"Ġê·":437,"°©":438,"íķĺì":439,"ro":440,"Ġë¨¹":441,"Ġh":442,"ĠìĨĮ":443,"Ġëª":444,"´ìĽĲ":445,"Ġìļ":446,"Ġë°ı":447,"ê³¼":448,"ĠìŀĪ":449,"§Ģ":450,"ì²":451,"ëĭĪëĭ¤":452,"ra":453,"ĠìłĦ":454,"Ġê´":455,"íĨ":456,"Ġìĭ¬":457,"ĠìķĬ":458,"ĵľë":459,"ĠìĪĺì":460,"Ġn":461,"Ġêµ¬":462,"Ġ1":463,"ìłĦ":464,"ìŀĲ":465,"Ġl":466,"Ġìķ½":467,"ĩ¨":468,"ìĭĿ":469,"Ġìĺ¤":470,"Ħľ":471,"Ġë¹":472,"ìĹĲìĦľ":473,"ĠìĭĿìļķ":474,"Ġìŀ¬":475,"ol":476,"ìĨĮ":477,"íĥľ":478,"ł¥":479,"ë§":480,"ine":481,"ĠìĤ¬":482,"Ġì¢":483,"Ġë³´":484,"Īìłķ":485,"ë¶":486,"ıĻ":487,"ĠP":488,"Ġì¶":489,"Ġì¦Ŀ":490,"Ġì¤ĳ":491,"Ŀ¼":492,"ì§Ħ":493,"Ġe":494,"ì¦Ŀ":495,"is":496,"Ġë°°ë":497,"ĸī":498,"il":499,"ic":500,"ëĲ":501,"ìĿ´ì":502,"Ġìľł":503,"ëĭ¤ê³ł":504,"am":505,"Ġê²ĢìĤ¬":506,"¬¼":507,"ìĿ¸ë":508,"ĮĮ":509,"ìĦł":510,"íĨł":511,"Ġë°ľ":512,"ĠíĶ":513,"Łī":514,"ĠìĹĨìĿĮ":515,"ĥĿ":516,"ê±":517,"ĭ¬":518,"íĦ°":519,"Ġpo":520,"ìļ©":521,"íĽĦ":522,"ur":523,"an":524,"ìĿ¸ëĲ":525,"at":526,"ìĺ":527,"Ĩį":528,"ĠíĻķìĿ¸ëĲ":529,"Ġì¹":530,"ê²ĢìĤ¬":531,"´ìĦľ":532,"ê°Ħ":533,"¸í":534,"Ġì£¼":535,"©´":536,"ì¢ħ":537,"ìĹ¼":538,"ĸ´":539,"tion":540,"Ġíķ¨":541,"ĠìķĪ":542,"ĠìĻ":543,"as":544,"Ġ2":545,"ë¡ľ":546,"ë£Į":547,"ay":548,"ĠíĺĪ":549,"³Ģ":550,"ë¶Ģ":551,"Ġëĭ¤":552,"ê·":553,"ĠìŀĲ":554,"ac":555,"Ġê°Ħ":556,"Ġê²ĥ":557,"ìļĶ":558,"ĠëĤ´ìĽĲ":559,"Ġê²½":560,"Ġëĵ":561,"ĠìķĪë":562,"Ġêµ¬íĨł":563,"ì¶":564,"it":565,"Ġ0":566,"ìķĦ":567,"¡°":568,"ìĪĺ":569,"¦¼":570,"ìĿ´ë":571,"ê¸°ë":572,"Ġíı":573,"´ë³":574,"Ĥ´":575,"Ġì¶Ķ":576,"ê²¬":577,"ec":578,"es":579,"ĠC":580,"ĠO":581,"Ġìĭľ":582,"ĺì¹ĺ":583,"íĺĪ":584,"ì£¼":585,"Ġë°©":586,"©°":587,"ĺë°©":588,"ì¸¡":589,"¹¨":590,"ĮĢ":591,"¥¼":592,"Ŀ¡":593,"ĠìĺĪìłķ":594,"ìĹĪìĿĮ":595,"ìĸĳ":596,"od":597,"Ġê±":598,"Īł":599,"Ġë³µ":600,"Ġin":601,"ĠìŀĪìĿĮ":602,"êµ¬":603,"Ġì§Ħí":604,"Ġìŀĺ":605,"us":606,"Ġíķĺì":607,"Ġ3":608,"ĠíļĮ":609,"ê²Į":610,"ìĻ":611,"ph":612,"¨ë":613,"ĺë£Į":614,"ëĭ¨":615,"ê²½":616,"Ġê°Ĳ":617,"Ġì¦Ŀìĥģ":618,"ing":619,"Ġì´":620,"íķŃ":621,"Ħë£Į":622,"ł¤":623,"íķ´":624,"Ġi":625,"ķĮ":626,"ĠìĬ":627,"Ġê°Ģ":628,"ul":629,"íĺ¸ìŀĲ":630,"ëĬ¥":631,"Ġre":632,"ì¹":633,"ëŁī":634,"Ġì§Ħíĸī":635,"ĠíĬ":636,"Ġìĭł":637,"Ġì²ĺë°©":638,"Ġíĺ¸í":639,"Ġìŀħ":640,"em":641,"Ġìĥģíĥľ":642,"ĠT":643,"ĠìĿ¼":644,"ìĭ¬":645,"²Ī":646,"ľëł¥":647,"ĠA":648,"Ġìłķìĥģ":649,"ĠìĽĲ":650,"Ģë¦¬":651,"íķĺìĹ¬":652,"ĠìĤ":653,"íĶ":654,"Ġíĺ¸íĿ¡":655,"ĠìĪĺìĪł":656,"Ġë¬":657,"íļĮ":658,"ë°ľ":659,"ìĸ´":660,"ª½":661,"´ë³µ":662,"ìĹĪ":663,"íķĺë":664,"´ë³µìķ½":665,"¬ë":666,"Ġì¢ħ":667,"Ġv":668,"ĠìĿ´í":669,"Ģìľ":670,"µëĭĪëĭ¤":671,"ia":672,"Ġr":673,"ĠìĿ´ì":674,"¶ĢíĦ°":675,"Ġë¹Ħ":676,"Ġ/":677,"Ġê¸°ì":678,"Ġë³´íĺ¸ìŀĲ":679,"ĠN":680,"ìķĪ":681,"ĠíĬ¹":682,"ĠíĶ¼ë":683,"ìķ¡":684,"ê¸ī":685,"ìĬ¤":686,"ìłĪ":687,"Ġme":688,"ĠS":689,"ĠëĤ´ë³µìķ½":690,"ĳìĽĲ":691,"ĠíĻľëł¥":692,"Ġê¸ī":693,"Ġì°":694,"Ġë§İ":695,"ĠíĿ":696,"ìĥĿ":697,"ıĦë":698,"´ìŀ":699,"Ġce":700,"£¨":701,"Ġë°°ëĩ¨":702,"ìļ°":703,"ìħ":704,"Ġê²°":705,"íĮĮ":706,"Ġì§Ģì":707,"ation":708,"§ģ":709,"ĠíĻķìĿ¸":710,"),":711,"os":712,"Ī¬":713,"Ġì¡°":714,"ĦìļĶ":715,"Ġê°ĢëĬ¥":716,"ĵľë¦¼":717,"íķ´ì":718,"§Į":719,"Ġì¢Į":720,"ĠëĴ":721,"ìľ¼ëĤĺ":722,"ĠB":723,"ê¸°ë¡ľ":724,"Ĩµ":725,"ĠìĪĺ":726,"ĠíķŃ":727,"©ëĭĪëĭ¤":728,"íĬ":729,"le":730,"ĠëıĻ":731,"Ġëį":732,"ìĬµëĭĪëĭ¤":733,"tid":734,"ìĤ¬ìĦł":735,"ĠìĿ´ë":736,"íķĺê³ł":737,"ĠìķĬìĿĮ":738,"ed":739,"Ġsid":740,"¯¸":741,"ĠíķĦìļĶ":742,"ëĭĺ":743,"ĠìĿ´":744,"¨ëĭĪ":745,"Ġíķĺë":746,"Ġëĵ±":747,"ma":748,"ìłģìĿ¸":749,"Ġday":750,"ë¶Ħ":751,"ĳì¢ħ":752,"Ġê°ľ":753,"Ġth":754,"ģ¬":755,"ĠìłķëıĦ":756,"Ġw":757,"ê²Ģ":758,"ĠëĪ":759,"ĠíĪ¬":760,"Ġë³Ģ":761,"ĠìŀħìĽĲ":762,"ĠìļĶ":763,"ĺì§Ģ":764,"ë¬":765,"Ġëĭ¤ë":766,"ì§Ģë":767,"ëĤ":768,"Ġë°°ë³Ģ":769,"ìª½":770,"ë³Ģ":771,"°ì¸¡":772,"op":773,"ĠR":774,"ìĶ":775,"¤ìĤ¬":776,"Ġê´Ģì":777,"Ġíķĺ":778,"Ł¬":779,"ê¹":780,"ĠI":781,"Ġì¹ĺë£Į":782,"Ĳ¨":783,"ìĪĺì":784,"ê´Ģ":785,"ê³Ħ":786,"Ġìľłì§Ģ":787,"ent":788,"amo":789,"ķ¡":790,"Ġìĸ´":791,"Ġê³ł":792,"ĠëĤ´":793,"ĪìĿĮíĮĮ":794,"ĠìĹĲ":795,"íķł":796,"ĠìķĦ":797,"íı":798,"Ġì²´ì":799,"Ġê´Ģì°":800,"ĠìĿ´íĽĦ":801,"Įë":802,"ì°":803,"Ġì¢ĭ":804,"ĠìłĦë":805,"ëĭ´":806,"íĸ":807,"ĭľ":808,"ê¸Ī":809,"ê±°":810,"ŀĪ":811,"Ġìļ°ì¸¡":812,"Ġê¸Ī":813,"Ġë§İìĿ´":814,"ood":815,"st":816,"ìŀ¬":817,"ëį":818,"Ġíĩ":819,"un":820,"Ġiv":821,"ĠëĴ¤":822,"Ġan":823,"et":824,"Ġfamo":825,"ĠëĮĢ":826,"ĠëĦ":827,"ch":828,"ìĭł":829,"ì¤ĳ":830,"Ġê°ĢëĬ¥ìĦ±":831,"ë¦¬":832,"Ġë°©ìĤ¬ìĦł":833,"ĠìĤ¬ë£Į":834,"ĠìĻ¸":835,"ey":836,"Ġê°Ļ":837,"Ġtx":838,"ve":839,"ĠH":840,"ê°ľ":841,"Ġal":842,"ĠìĿĮ":843,"Ġíĥ":844,"ê±°ë":845,"ëĬĺ":846,"ĥī":847,"Ġìŀ¬ì§Ħ":848,"Ġrx":849,"ĺìĸ´":850,"Ġì¶Ķê°Ģ":851,"ĠìĬ¤":852,"ĠíĨµ":853,"Ġìĭ¬ìŀ¥":854,"Ġíĩ´ìĽĲ":855,"Ġì¢Įì¸¡":856,"íĦ°ë":857,"Ĩ¡":858,"Ġëª¨ëĭĪ":859,"Ġìĭ¤":860,"Ġì§ĢìĨį":861,"¥¸":862,"Ĳë":863,"ĠìĦ¤ìĤ¬":864,"ë¬¼":865,"ìĭ¤":866,"Ģì§":867,"Ġë°Ľ":868,"ìŀĳ":869,"cc":870,"ìłģìľ¼ë¡ľ":871,"ìķķ":872,"ĠëĤĺì":873,"Ġëª»":874,"ê°Ĳ":875,"Ġìĸ":876,"Ġê³µ":877,"ap":878,"Ġë§Ī":879,"ĠìľĦ":880,"ì¶©":881,"ìĸ´ì":882,"ĠF":883,"ë²":884,"tis":885,"ìľ¼":886,"¡Ŀ":887,"íĦ°ë§ģ":888,"ĠìĹĨìĹĪìĿĮ":889,"ox":890,"Ġìŀ¬ê²Ģ":891,"Įì§Ģ":892,"ł¨":893,"½Ķ":894,"lu":895,"Ġê¸°":896,"ĠíĶ¼ë¶Ģ":897,"Ĳĺ":898,"el":899,"om":900,"Ġ4":901,"ĠíĺĪìķ¡":902,"ë¥¼":903,"ĠìĥĿ":904,"ĠìĤ°ì":905,"ĠíĬ¹ìĿ´ì":906,"İ¸":907,"łĪ":908,"ë§Į":909,"Ġê¸°ë":910,"ĠëķĮ":911,"ĠD":912,"Ġ+":913,"ĠíĺĦ":914,"Ġë¶Ģì":915,"ªħ":916,"Ġì§Ģë":917,"£¼ë":918,"Ġëª¨ëĭĪíĦ°ë§ģ":919,"ĢìľĦ":920,"Ġê°ĲìĨĮ":921,"Ġìĺ¤ëĬĺ":922,"¦°":923,"ĠëĶ":924,"ĵľ":925,"Ġê³łë":926,"°ĺ":927,"ê²ĥ":928,"Ġìµ":929,"Ġby":930,"ê°ķ":931,"Ġìĭłìŀ¥":932,"men":933,"µĲ":934,"ĠìĿ¸":935,"day":936,"ì²´":937,"Ġìŀ¥":938,"Ġê¸°ì¹¨":939,"Ġê·Ģ":940,"Ġì£¼ìĤ¬":941,"ĠíĿī":942,"Ġìłľ":943,"ì§ģ":944,"ì¹ĺ":945,"ìĺ¤":946,"Ġu":947,"Ġmoney":948,"ĠëĪĪ":949,"ron":950,"ìĦ¸":951,"Ġê°Ģë":952,"pi":953,"ê·¼":954,"Ġê´Ģì°°ë":955,"az":956,"ìĥģíĥľ":957,"Ġê¸ĪìĿ¼":958,"Ġìķ½ê°Ħ":959,"Ġìłģ":960,"Ġíķľ":961,"ìŀĦ":962,"ep":963,"Ġê¸īìĹ¬":964,"ĠM":965,"ds":966,"ì§Ī":967,"ŀĲ":968,"ĠëįĶ":969,"´ìŀĦ":970,"ìĤ¬íķŃ":971,"ĠìłĦíĻĶ":972,"Ġst":973,"ĠíĪ¬ìķ½":974,"ê³¨":975,"Ġì²ĺì¹ĺ":976,"ĠìĪĺìķ¡":977,"¹Ħ":978,"íķĺê²Į":979,"ĵ¤":980,"ut":981,"ëĭ¹":982,"Ġìĸ´ìłľ":983,"ëĬĶëį":984,"Ġë¬¸":985,"ĠìĿ´ìĥģ":986,"ê´Ģë¦¬":987,"Ġíķĺìĭ¬":988,"ê´ĳ":989,"ĠìłĲ":990,"íķĺìĭ¬":991,"oc":992,"íķ´ìĦľ":993,"Ġìµľ":994,"yp":995,"Ġì°¨":996,"ĠíĺĦìŀ¬":997,"ĠíĮĮ":998,"Ġsc":999,"ħģ":1000,"ati":1001,"ëĬĶëį°":1002,"Ġë°Ķ":1003,"Ġì§Ģ":1004,"Ġê·¸ë":1005,"ĳĲ":1006,"ĠíıĲ":1007,"íķ©":1008,"Ģëħģ":1009,"ëª":1010,"ì·":1011,"Ġì¤":1012,"Ġìĥģëĭ´":1013,"ĠìķĦì":1014,"Ġê´Ģë¦¬":1015,"Ġam":1016,"Ġof":1017,"ê°Ģë":1018,"Ġì´ĪìĿĮíĮĮ":1019,"Ġì§ĳ":1020,"ìĪĺì¹ĺ":1021,"Ġand":1022,"og":1023,"Ģì§Ģ":1024,"Ġch":1025,"Ġìĸĳì¸¡":1026,"ĺ¨":1027,"Ģë¶":1028,"Ġ5":1029,"Ġë§Ĳ":1030,"Ġtra":1031,"ge":1032,"one":1033,"Ġ->":1034,"ild":1035,"ig":1036,"¥ĺ":1037,"³´":1038,"ĠìŀĲë°ľ":1039,"ê»":1040,"ìłĢ":1041,"ìĻĦë£Į":1042,"ê¹Įì§Ģ":1043,"§Ĳ":1044,"ìľ¼ë©°":1045,"ĺìŀĲ":1046,"Ġen":1047,"ĠìĿ¼ë":1048,"Ġìĭ¤ìĭľ":1049,"Ġíķĺë£¨":1050,"Ġê³µê¸ī":1051,"ĠìĹ¬":1052,"ì¦Ŀìĥģ":1053,"Ġëħ":1054,"ê²©":1055,"Ġíĺ¸":1056,"ë°©":1057,"©´ìĦľ":1058,"Ġk":1059,"Ġíıī":1060,"ĠPO":1061,"orm":1062,"uc":1063,"ĠìŀĪëĬĶ":1064,"ìĸ´ìĦľ":1065,"Ġë©":1066,"ıħ":1067,"ìŀħ":1068,"Ŀ½":1069,"ĠìĨĮê²¬":1070,"ment":1071,"ìĿĳ":1072,"§Ī":1073,"tin":1074,"kin":1075,"³ĳìĽĲ":1076,"Ġpk":1077,"ŀĺ":1078,"ĶìĦľ":1079,"ye":1080,"ĠíĶ¼":1081,"Ġëĭ¤ìĭľ":1082,"Ġë¯¸":1083,"ìĭľë":1084,"ìĬ¹":1085,"Ġê¹":1086,"ëĭ¤ê°Ģ":1087,"ì·¨":1088,"ĠìĺĪ":1089,"ĠíĮ":1090,"íĬ¸ë":1091,".\"":1092,"ìĹĲëĬĶ":1093,"ë§ī":1094,"ĺë¢":1095,"Ġfor":1096,"tidine":1097,"ĠìĿĺì":1098,"ë³µ":1099,"im":1100,"ìĥī":1101,"Ġmet":1102,"ĠëĨ":1103,"ł¸":1104,"Ġë¬¼":1105,"ìĹĨ":1106,"Ġcr":1107,"ĶĶ":1108,"ħĮ":1109,"Ģì§Ħ":1110,"ëĲ¨":1111,"ĠëĮ":1112,"Ġìĸĳìĥģ":1113,"ëĤ´":1114,"Ġ::":1115,"Ŀ¼ê³ł":1116,"Ġë³´ìŀĦ":1117,"¤ëªħ":1118,"ĠìķĪëĤ´":1119,"ĠU":1120,"Ġë°©ê´ĳ":1121,"Ġì»":1122,"ĠíĻķìĿ¸ëĲ¨":1123,"Ġëĭ¤ìĿĮ":1124,"íķĺëĬĶ":1125,"ĠìłĢëħģ":1126,"ĠL":1127,"Ġpds":1128,"ea":1129,"ļ©":1130,"íĮ":1131,"days":1132,"´ëĤ":1133,"Ġìłĳì¢ħ":1134,"ìłĳì¢ħ":1135,"Ġíĸ":1136,"ter":1137,"Ġë§¤":1138,"um":1139,"di":1140,"ĠE":1141,"Ġìĺ¤ìłĦ":1142,"Ġod":1143,"Ģëł¨":1144,"ĠìĦ¤ëªħ":1145,"ì´":1146,"ìłľë":1147,"Ġíķľë":1148,"ê°Ģì":1149,"ĠìĿĺë¢":1150,"ëıĦë":1151,"Ġtid":1152,"íĻĺ":1153,"ìĶ©":1154,"ë¬¸":1155,"ìĦĿ":1156,"ê´´":1157,"yst":1158,"Ġì¡°ê¸Ī":1159,"ĠìĹ°":1160,"ĠìĿ´ìłĦ":1161,"Ġ[":1162,"Ġê²½ìļ°":1163,"ëĭ¬":1164,"ìĺģ":1165,"Ġë³ĳìĽĲ":1166,"ë³´":1167,"ĠëĬ":1168,"Ġos":1169,"ist":1170,"ëł¥":1171,"ìĹ°":1172,"Ġê°ĦìĭĿ":1173,"bc":1174,"ab":1175,"ĠíĻĺìŀĲ":1176,"Ġthe":1177,"Ġì²´ì¤ĳ":1178,"ĠìĥģìĬ¹":1179,"Ġceph":1180,"Ġhyp":1181,"ºĶ":1182,"Ġë³´ì":1183,"Ġph":1184,"ìĨ¡":1185,"ĠíĻķìĿ¸ëĲĺì§Ģ":1186,"ìĻĢ":1187,"Ġëĸ":1188,"ĠìĹ¼":1189,"ĠTx":1190,"íķĺì§Ģ":1191,"Ġì£¼ë":1192,"Ġra":1193,"ĠíĨµì¦Ŀ":1194,"ëıħ":1195,"ìľł":1196,"ĠìķĦì¹¨":1197,"Ġë¶Ħ":1198,"íĭ":1199,"Ġfood":1200,"íŀĪ":1201,"ĠëĲ":1202,"§ī":1203,"ĭľë":1204,"Ġcc":1205,"ìħĺ":1206,"ë²ķ":1207,"¼ë¡ľ":1208,"Ġë¡ľ":1209,"±ħ":1210,"Ġê²°ê³¼":1211,"ĠíĺĪìķ¡ê²ĢìĤ¬":1212,"ì¹ĺë£Į":1213,"azol":1214,"ide":1215,"Ġë°¥":1216,"ĠêµĲ":1217,"ĠIV":1218,"Ġíİ¸":1219,"Ġì¦Ŀê°Ģ":1220,"Ġê±°":1221,"Ģë¶Ħ":1222,"Ġë¨¹ìĿĮ":1223,"ate":1224,"ê´Ģë¦¬ìĤ¬íķŃ":1225,"Ġìĸ´ë":1226,"ìłĦë":1227,"íı¬":1228,"Ġê¶":1229,"ĠìķĦë":1230,"Ģë¡ľ":1231,"ĵľëł¸":1232,"ĠëĤĺ":1233,"Ĥ¬íķŃ":1234,"Ġìĺ¤ë":1235,"Ġìĺ¤íĽĦ":1236,"Ġ<":1237,"Īë°©":1238,"Ġê·¸":1239,"Ġëĵ¤":1240,"Ġê³Ħì":1241,"ì¼":1242,"ì½Ķ":1243,"Ġì§Ħ":1244,"ion":1245,"Ġë°ľìłģ":1246,"ĠìĿĺìĭ¬":1247,"ìľĦ":1248,"ĠìĿ¼ì£¼":1249,"ĠíĻķìĿ¸ëĲ©ëĭĪëĭ¤":1250,"Ġnr":1251,"urine":1252,"Ġë³µìļ©":1253,"Ġì²´ìĺ¨":1254,"íĸĪ":1255,"íĶ¼":1256,"res":1257,"ID":1258,"Ġë°ĺ":1259,"ĠëĶ°ë":1260,"Ġ,":1261,"ìł¸":1262,"Ġê²ĥìľ¼ë¡ľ":1263,"pl":1264,"yl":1265,"Ġëĭ¹":1266,"Ġê°ķ":1267,"Ġê³łëł¤":1268,"Ġto":1269,"uro":1270,"ìĽ":1271,"Ħë¡ľ":1272,"ĠíĺĪìķķ":1273,"Ġëª¨ë":1274,"Ġpl":1275,"ì°¨":1276,"ìŀĪ":1277,"Įìŀ¥":1278,"ë°ķ":1279,"Ġì§Ħë£Į":1280,"Ġê´Ģëł¨":1281,"ory":1282,"ĨĮê²¬":1283,"Ġë§ĲìĶ":1284,"Ġë²":1285,"Ġìłľê±°":1286,"Ġë¶Ħë":1287,"Ħ±":1288,"ê·ł":1289,"ìķĺ":1290,"Ġë³´íĺ¸ìŀĲë¶Ħ":1291,"Ġnrf":1292,"eces":1293,"Ġìĥ":1294,"ous":1295,"ìĿ´ëĤĺ":1296,"ìľ¼ë©´":1297,"Ķë":1298,"ìĨ¡ìĻĦë£Į":1299,"Ġ)":1300,"Ġmild":1301,"Ġë´":1302,"ħ¨":1303,"ĠëĨĴ":1304,"Ġìĸĳíĺ¸íķ¨":1305,"ĠĊ":1306,"ëĲĺ":1307,"ĠìłĢ":1308,"Ġê¸°ëł¥":1309,"ë¥ĺ":1310,"tic":1311,"Ġíģ¬":1312,"Ġë°°":1313,"¨¹ìĿĮ":1314,"ĠìĤ°ì±ħ":1315,"ê²°":1316,"ĵ±":1317,"Ġë³ĳ":1318,"Ġskin":1319,"Ġìļ°":1320,"´íģ¬":1321,"Ġë¶Ī":1322,"ct":1323,"ì§Ģì":1324,"Ġvit":1325,"ob":1326,"Ġde":1327,"ê°ģ":1328,"íķĺìĺ":1329,"Ġpro":1330,"íĬ¸":1331,"íĺķ":1332,"ĠëĤ´ì":1333,"Ġê°ģ":1334,"ĠìĹ¼ì¦Ŀ":1335,"Ġê³ĦìĨį":1336,"íĻķ":1337,"Ġìµľê·¼":1338,"ìĭĿìļķ":1339,"įĺ":1340,"ëĮĢ":1341,"Ġno":1342,"year":1343,"Ġfamotidine":1344,"ular":1345,"Ĥ¬ë£Į":1346,"Ġìĭľìŀĳ":1347,"ip":1348,"Ġë¨¹ê³ł":1349,"te":1350,"ŀĢ":1351,"Ŀ¼ë":1352,"łë¶Ģ":1353,"Ġex":1354,"Ġê²½ë":1355,"ĠíĬ¹ìĿ´ìĨĮê²¬":1356,"ĠìĿ¼ì£¼ìĿ¼":1357,"do":1358,"Ġë§Į":1359,"ĠNR":1360,"Ġê·Ģì":1361,"ĠíķŃìĥĿ":1362,"ess":1363,"ĠíĥĪ":1364,"ĠìłĦë¶ĢíĦ°":1365,"ĠìĹ°ë":1366,"ce":1367,"Ġì·":1368,"Ġìĭłê²½":1369,"ĠíĹ":1370,"dx":1371,"ith":1372,"Ġëĸ¨":1373,"íĸī":1374,"Ġ*":1375,"ìĸ´ë":1376,"ìĹĲëıĦ":1377,"==":1378,"Ġì¢ħê´´":1379,"ìĦ±íĻĶ":1380,"ĭł":1381,"Ġëħ¸ë":1382,"Ġë¶Ģì¢ħ":1383,"Ġëĩ¨":1384,"urg":1385,"ıĦë¡Ŀ":1386,"ì§Ĳ":1387,"ìĿ¼ë":1388,"Ġê°Ģì":1389,"ĠìłĦë°ĺ":1390,"ormal":1391,"ĠìĨĮíĻĶ":1392,"Ġìŀĺë":1393,"ì°©":1394,"ĠNRF":1395,"ren":1396,"ìķĦì":1397,"Ħ¸":1398,"dol":1399,"Ġ7":1400,"Ġëĭ¤ë¥¸":1401,"ĠëĤ¨":1402,"ĠRx":1403,"ow":1404,"ĠíĽĦì§Ģ":1405,"ĠìķĪìłķ":1406,"ìĭ±":1407,"Ġcl":1408,"ë§Ī":1409,"Ġì¶Ķì²":1410,"ĠCR":1411,"luid":1412,"tc":1413,"ìĤ":1414,"madol":1415,"ĠíķŃìĥĿìłľ":1416,"¦¬ê³ł":1417,"ì¢":1418,"Ġne":1419,"ĠíĪ¬ìĹ¬":1420,"´íĸī":1421,"ħĶìĦľ":1422,"Ġë¨¹ìĿ´ì":1423,"Ġ6":1424,"ĠëıĦ":1425,"Ġfuro":1426,"ĠìĨĮëŁī":1427,"ĠìķĪìķ½":1428,"ëĩ¨":1429,"ime":1430,"ne":1431,"ill":1432,"ure":1433,"Ġê°ľìĦł":1434,"ĠíĶ¼ë¶":1435,"Ġì¶ľ":1436,"ĠìĨĮëıħ":1437,"Ġíģ":1438,"ê»ĺ":1439,"ĠìĿĺ":1440,"ìĿ´ê³ł":1441,"act":1442,"Ġë¹Ī":1443,"ĦíŀĪ":1444,"ĠëĮĢíķľ":1445,"Ġë³µë¶Ģ":1446,"íĥĢ":1447,"Ġë§ĲìĶĢë":1448,"ĠìĭĿìĤ¬":1449,"Ġì¤ĳìĦ±íĻĶ":1450,"Ġì´Ī":1451,"¹Ħë":1452,"ial":1453,"Ġetc":1454,"itis":1455,"Ġpin":1456,"¨ëĶĶ":1457,"Ġì¹ĺì":1458,"Ġê´Ģì°°ëĲ":1459,"Ġì¤ĳëĭ¨":1460,"Ġë³¸":1461,"ì²ĺì¹ĺ":1462,"ìĥģì¶©":1463,"ys":1464,"Ġê¸īìĭĿ":1465,"Ġê±´ì":1466,"Ġíķľë²Ī":1467,"ĠìĦ¸":1468,"ĠíĬ¹ìĿ´ìĤ¬íķŃ":1469,"Ġëª©":1470,"Ġì¤Ħ":1471,"ĠìĬ¬":1472,"ìĹŃ":1473,"Ġyear":1474,"ĠOD":1475,"Ġíķ´ì":1476,"íķĺê¸°ë¡ľ":1477,"ë¶Ģì":1478,"ì²Ń":1479,"Ġì·Įìŀ¥":1480,"Ġëĭ¨":1481,"ĠìĭĿìĿ´":1482,"ĠìłĦìĹĲ":1483,"Ġëĵľë":1484,"Ġtramadol":1485,"ĠOS":1486,"yc":1487,"Ġë³ĢíĻĶ":1488,"ary":1489,"¯¼":1490,"¨ëĶĶìħĺ":1491,"Ġac":1492,"ëıĻ":1493,"Ġì§ĳìĹĲìĦľ":1494,"Ġmm":1495,"ass":1496,"ĭ¤":1497,"CC":1498,"íĥĪ":1499,"ym":1500,"Ġìľłë":1501,"Ġë°ľìĥĿ":1502,"Ġì¢Ģ":1503,"ì¡":1504,"ķĦ":1505,"Ġê±°ìĿĺ":1506,"Ġis":1507,"íĥĢë":1508,"ê°ľê³¨":1509,"ax":1510,"ĠëĤ´ìĿ¼":1511,"Ġcef":1512,"íĥľë":1513,"eck":1514,"ĠëĤĺìĺ":1515,"Ġë¹Ħë":1516,"ê¸°ì":1517,"Ġê³¨":1518,"´ëĵľë¦¼":1519,"Ġë¶ĢìľĦ":1520,"Ġëģ":1521,"ìħ¨":1522,"ĠíĮĲ":1523,"Ġíĺ¸íĿ¡ìĪĺ":1524,"ĠìĺĪë°©":1525,"Ġë§Īì·¨":1526,"ĠìĪĺì¹ĺ":1527,"ot":1528,"íĶĦ":1529,"age":1530,"ĠìĤ°ìĨĮ":1531,"ĠìĻĦë£Į":1532,"¬ìĺģ":1533,"Ġcon":1534,"Ġìķ½ë¬¼":1535,"Ġì²´íģ¬":1536,"Ģìľ¼ë":1537,"ĠìķĦí":1538,"ľì°":1539,"ŀĳ":1540,"tra":1541,"ĠG":1542,"ľì°®":1543,"ëıĦë¡ľ":1544,"ĠìĿĺë¢°ë":1545,"ì¶Ķ":1546,"ëĲľ":1547,"ain":1548,"Ġddx":1549,"ĠìķĪëĤ":1550,"ê¸°ê³Ħ":1551,"lox":1552,"ìĦ¸ìļĶ":1553,"Ġìŀĳ":1554,"Ġpink":1555,"Ġë³´íĸī":1556,"Ġê·¼":1557,"ìĦłë":1558,"Ġê°Ħë":1559,"Ġê´ľì°®":1560,"Ġurine":1561,"ìĸĳê°Ĳ":1562,"ĠìĿµ":1563,"Ġì½Ķ":1564,"ìĤ¬ë£Į":1565,"§Ģë":1566,"ead":1567,"Ġìĺģ":1568,"Ġê¶Į":1569,"ĠìĹ°ê³ł":1570,"Ġsu":1571,"ë³ĳ":1572,"Ġë§¤ìļ°":1573,"Ł¬ì§Ģ":1574,"ĠìķĬìĬµëĭĪëĭ¤":1575,"ìķ¼":1576,"¬´":1577,"ê±°ëĤĺ":1578,"Ġì¸¡":1579,"Ġëĺ":1580,"Ġat":1581,"ĠìĪł":1582,"Ġê³Ħí":1583,"ë°©ë²ķ":1584,"ĠìĭĿìļķìĥģíĥľ":1585,"Ġë°ĺìĿĳ":1586,"Ġìķŀ":1587,"ë°ĺ":1588,"ĠìĥĪë":1589,"ë¶ĢíĦ°":1590,"íģ":1591,"Ġìķħ":1592,"ì¢ħë¥ĺ":1593,"Ġìłģìļ©":1594,"ril":1595,"Ġwith":1596,"Ġì¢ĭìĿĮ":1597,"ìĻ¸":1598,"Ĥ¤":1599,"all":1600,"Ġë²Ī":1601,"ìľ¡":1602,"Ġì§Ħëĭ¨":1603,"Ġì»¨ëĶĶìħĺ":1604,"ĺìĦľ":1605,"ë¬¼ë":1606,"ê´ĢìłĪ":1607,"ë¶Ģë":1608,"Ġì¸¡ìłķ":1609,"ëĵ±":1610,"ĠìĦ¸í":1611,"íķĺìĭľ":1612,"ëĲĺìĸ´":1613,"Ġëį°ë":1614,"ĦíĹ":1615,"ë°Ľ":1616,"ŀĺë":1617,"ì¡°":1618,"of":1619,"ê¶":1620,"10":1621,"íķĺë©°":1622,"ìķĦë":1623,"ëĭ¤ë¦¬":1624,"mur":1625,"cre":1626,"łĪë":1627,"ĠìĤ¼":1628,"rop":1629,"ĠìĿµìĿ¼":1630,"Ġê³¼":1631,"ìĪĺë":1632,"Ġë³´íĺ¸ìŀĲëĭĺ":1633,"ìķĦìĦľ":1634,"Ġor":1635,"Ġì§ĢëĤ":1636,"Ġê²°ìłķ":1637,"itor":1638,"Ġê°ľìĦłë":1639,"Ġ.":1640,"ìĪł":1641,"Ġë¶Ģ":1642,"Ġfluid":1643,"ĠíĸĪ":1644,"ì¶ľë":1645,"ĠíĮĲëĭ¨":1646,"ëª¨":1647,"Ġcre":1648,"Ġë¶Ģë¶Ħ":1649,"ĠìĨĮìĸĳê°Ĳ":1650,"ĠìĭĿìĤ¬ì¢ħë¥ĺ":1651,"Ġê¸īìĭĿë°©ë²ķ":1652,"ļķ":1653,"ĥģíĥľ":1654,"ìĪĺìļķ":1655,"Ġdx":1656,"ı¬":1657,"Ġcepha":1658,"ļį":1659,"ĠìĪłë¶Ģ":1660,"ë²Ī":1661,"´ëıĻ":1662,"íĺ¸í":1663,"ver":1664,"Ġíģ¬ê¸°":1665,"íĻ©":1666,"ĠìķĦì§ģ":1667,"itoring":1668,"ł¤ë":1669,"Ġcor":1670,"ìĿ´ì§Ģ":1671,"door":1672,"ìŀ¥ëĭĺ":1673,"Ġbun":1674,"ĠíĺĪë":1675,"íİ¸":1676,"ĠìłĪ":1677,"Ġëĸ¨ìĸ´ì":1678,"ĠìĿĳ":1679,"ĠìľĦíķ´":1680,"íķ´ì£¼":1681,"ĠìŀĦ":1682,"ìłĲ":1683,"Ġpan":1684,"Ġë¶ĢíĦ°":1685,")\"":1686,"Ġhpi":1687,"ì¤":1688,"ì¶ľ":1689,"ìľ¼ìĭ¬":1690,"Ġíı¬":1691,"íķ´ì§Ī":1692,"Ġë³¸ìĽĲ":1693,"¯¸ë":1694,"oma":1695,"Ġìŀł":1696,"Ġhr":1697,"Ġì¼":1698,"ĠìĬ¬ê°ľê³¨":1699,"Ġì¹¨":1700,"ĠìĦ¤ëªħë":1701,"Ġnormal":1702,"ĠìĤ¬ìļ©":1703,"ĠV":1704,"ìłĢíķĺ":1705,"Ġë°±":1706,"Ġì¹ĺ":1707,"istory":1708,"Ġíķĺê³ł":1709,"urgor":1710,"iet":1711,"ĠìºĶ":1712,"ıĮ":1713,"ĠëĺĲ":1714,"hr":1715,"ķ¼":1716,"°ĺì":1717,"íĺ¸íĿ¡":1718,"ĠëĶ°ëĿ¼":1719,"íĨµ":1720,"ign":1721,"ĠëĦ¥":1722,"ìĹĪìľ¼ëĤĺ":1723,"ĠëĮĢì":1724,"eral":1725,"Ġturgor":1726,"ìłķëıĦ":1727,"Ġ10":1728,"ystem":1729,"êµĲ":1730,"ĠìķĮ":1731,"Ġê°ĲëŁī":1732,"íĸ¥":1733,"iz":1734,"Ġê°ģë§ī":1735,"Ġindoor":1736,"vi":1737,"Ġë¹Ħìļ©":1738,"Īĺì":1739,"ìłĦíŀĪ":1740,"Ġìĭľê°Ħ":1741,"Ġìĥģíĥľë":1742,"ĠìĿĺíķľ":1743,"Ġê´Ģì°°ëĲ¨":1744,"¥´":1745,"DS":1746,"Ġê³Ħíļį":1747,"urmur":1748,"ë°°ë":1749,"ĠìĿĮìĪĺìļķ":1750,"³´ëĭ¤":1751,"Ġê°Ħê²©":1752,"Ġê±´ìĤ¬ë£Į":1753,"ĠìĽĲìĿ¸":1754,"ë³Ħ":1755,"ĠíĿīë¶Ģ":1756,"ĽĦë":1757,"ª¨":1758,"Ġmonitoring":1759,"ì§ĢëĬĶ":1760,"ral":1761,"ì¹´í":1762,"Ġë³Ģê²½":1763,"ëĭ¤ë":1764,"Ġì´¬ìĺģ":1765,"Ġmurmur":1766,"°ľ":1767,"ens":1768,"de":1769,"ë§Ŀ":1770,"azole":1771,"³ĳ":1772,"Ġê´Ģ":1773,"Ġì½":1774,"ìĺĪìłķ":1775,"Ġì¶©":1776,"łĪìĭ±":1777,"ĠìĹĨìĿ´":1778,"ĠíĶ¼íķĺì":1779,"ting":1780,"Ĳľ":1781,"Ġê´Ģì°°":1782,"ase":1783,"ģĶ":1784,"ë¬¸ìĹĲ":1785,"sem":1786,"ìĪĺìĪł":1787,"\"*":1788,"ê³µ":1789,"osis":1790,"ĠìĨĮë³Ģ":1791,"Ġê°ĳ":1792,"ë°±":1793,"¦Ħ":1794,"Ġíķł":1795,"ĠìĻ¸ìĿ´":1796,"ìĬ¤ë":1797,"ĠìĿ¼ëĭ¨":1798,"Ġìĭ¬íķľ":1799,"Ĥł":1800,"ĠìĺĪìķ½":1801,"ìĿ´ë©°":1802,"semide":1803,"ĠíļĮë³µ":1804,"¦¼íĶĦ":1805,"Ġhg":1806,"ĺë©´":1807,"Ġê³Ħ":1808,"gen":1809,"Ġê²°ìĦĿ":1810,"ĠìĦł":1811,"ĠBID":1812,"ìĿ´ëĬĶ":1813,"ress":1814,"ination":1815,"³ĳìĽĲìĹĲìĦľ":1816,"Ħì²":1817,"Ġìĭ¬ë°ķ":1818,"Ġle":1819,"Ġmass":1820,"ì§Ģë§Į":1821,"Ġìĭłìŀ¥ìĪĺì¹ĺ":1822,"ity":1823,"ĠëĳĲ":1824,"Ġë¹ĪíĺĪ":1825,"ĠëĮĢíķ´":1826,"Ġpim":1827,"ĠíıīìĨĮ":1828,"loxac":1829,"BC":1830,"ĠìķĮë":1831,"ĠHg":1832,"Ġfordays":1833,"ĠìľłìĤ¬":1834,"igh":1835,"Ġcom":1836,"Ġë§ŀ":1837,"Ġëĭ¤ë¦¬":1838,"ìĹĨìĿĮ":1839,"©Ķ":1840,"íħĮ":1841,"ical":1842,"¯Ģë¡ľ":1843,"Ġab":1844,"ì¶ľë¬¼":1845,"Ġì¡":1846,"Ġë°ľìŀĳ":1847,"(-":1848,"ĠìķħíĻĶ":1849,"ĠìŀĲë°ľìĭĿìļķ":1850,"ĠìŀĪìĹĪìĿĮ":1851,"Ġcbc":1852,"ìĤ°":1853,"īíķ©":1854,"¼ìª½":1855,"Ġë¨¹ëĬĶ":1856,"Ġsp":1857,"Ġmed":1858,"ĠìĿĳê¸ī":1859,"Ġud":1860,"Ġìĭ¬íķ´ì":1861,"Ġtr":1862,"ì²ĺë°©":1863,"Ġë§ĲìĶĢëĵľë¦¼":1864,"íķĺë©´":1865,"²½":1866,"ì¢ĭ":1867,"ĠëĤ®":1868,"ìĬ·":1869,"Īë¦¬":1870,"Ħì¦Ŀ":1871,"ĺë©°":1872,"check":1873,"ĠìłĦíķ´ì§Ī":1874,"\"[":1875,"Ġë°ľë":1876,"ĠìĿ´ë¬¼":1877,"íķ´ë³":1878,"Ġê¸ģ":1879,"ath":1880,"ĠëĨį":1881,"Īĺìķ¡":1882,"ĠíĺĪëĭ¹":1883,"ìķĺìĿĮ":1884,"Ġì¢ħìĸĳ":1885,"ìŀħëĭĪëĭ¤":1886,"Ġexam":1887,"ĠìĨį":1888,"ĠíĬ¹ìĿ´":1889,"±Ħ":1890,"ĠíĻķìĿ¸ëĲĺìĸ´":1891,"Ġë¬¸ìłľ":1892,"EN":1893,"Ġê²½ë¯¸":1894,"Ġcat":1895,"ĠíĮĮíĸī":1896,"able":1897,"Ġíĺķ":1898,"Ġë¹ĦìĬ·":1899,"Ġì·Įìŀ¥ìĹ¼":1900,"ìĤ¬ìĥģì¶©":1901,"end":1902,"ĻĢ":1903,"ĠìłĦë°ĺìłģìĿ¸":1904,"ĠìĥĿê°ģ":1905,"ĠìŀĪìĸ´":1906,"Ġíķľëĭ¬":1907,"ë¶ĢìľĦ":1908,"Ġres":1909,"Ġìłķìĥģë³Ģ":1910,"Ġëĭ¤ëŁī":1911,"Ġê²½ê³¼":1912,"ĠìĦŀ":1913,"ĠìĪĺë":1914,"ĠìĹ¬ë¶Ģ":1915,"Ġ&":1916,"Ġê°ĦìĪĺì¹ĺ":1917,"íķ©ëĭĪëĭ¤":1918,"ĠìĥģíĻ©":1919,"Ġenro":1920,"Ġëĵ¯":1921,"¡Į":1922,"Ġì¦ĿëŁī":1923,"ĠëıĻìĿ¼":1924,"´ë¡ľ":1925,"Ġfeces":1926,"PH":1927,"íĿ":1928,"°ë§ī":1929,"Ġëª¨ëĳĲ":1930,"ë¹Ħ":1931,"ĠìĤ¼ì¶ľë¬¼":1932,"ĠìķĪë¨¹":1933,"oph":1934,"ale":1935,"Ġrecheck":1936,"ë¨¹":1937,"ĠíĨ":1938,"Ġou":1939,"Ġê°ĢëģĶ":1940,"ª¨ëĭĪ":1941,"ĠëĦ£":1942,"Ġë°ľìĨ¡ìĻĦë£Į":1943,"ĠìĿ¸íķľ":1944,"êµ":1945,"ĲĺëĬĶ":1946,"la":1947,"ĤŃ":1948,"ħĮíĦ°":1949,"íĶ¼ë":1950,"ystemic":1951,"ëĲ©ëĭĪëĭ¤":1952,"ĠëĤĺíĥĢë":1953,"Ġíıīê°Ģ":1954,"ĠìĬ¤ì¼":1955,"Ġìĭ¬íķ¨":1956,"ĠìĿ¼ë°ĺì":1957,"īì§Ħ":1958,"Ġìļ´ëıĻ":1959,"ĠìŀĲì£¼":1960,"Ġë¯¸ìļ©":1961,"Ġì¶ľíĺĪ":1962,"ca":1963,"ĺìĸ":1964,"Ġhead":1965,"cm":1966,"Ġì½§":1967,"Īëįĺ":1968,"ardi":1969,"int":1970,"Ķĺ":1971,"Ġall":1972,"íģ¬":1973,"Ġì°¸":1974,"20":1975,"Ġq":1976,"ìĥģëĭ´":1977,"íĳ":1978,"íķĺìĭľë":1979,"CV":1980,"Ġëĳ":1981,"\"<":1982,"Ġ38":1983,"ìĿ´ëĵľ":1984,"´íļĮ":1985,"Ġíķ´ì£¼":1986,"ĨĲ":1987,"ìļ´":1988,"Ġx":1989,"Ġcrp":1990,"į°":1991,"Ġì¢ħíķ©":1992,"Ġì²Ń":1993,"ĺì¹":1994,"íİ":1995,"¶Ģì":1996,"´ìŀ¥":1997,"Ġê²ĢìĤ¬ìĥģ":1998,"Ġíĺ¸ìłĦ":1999,"ĠìŀĪëĭ¤ê³ł":2000,"ĦíĹĲ":2001,"ìĽĮ":2002,"Ġë°¤":2003,"Ġinf":2004,"ĠìľĦì":2005,"Ĳĺìĸ´":2006,"ìĥ":2007,"¦½":2008,"ìľ¨":2009,"rol":2010,"Ġse":2011,"ĠK":2012,"Ġì§Ī":2013,"ìĭľê³ł":2014,"Ġhyper":2015,"cular":2016,"Ġê°ĻìĿ´":2017,"Ġì¡°ì§ģ":2018,"íĺĦ":2019,"ĠíĶ¼íķĺìĪĺìķ¡":2020,"ĠëĵľëłĪìĭ±":2021,"ĠìĦ±":2022,"ĠìĻĦ":2023,"ê²ł":2024,"val":2025,"Ġë¬´ë":2026,"ëĵľë":2027,"ub":2028,"ĠìĻ¼ìª½":2029,"ê¶ģ":2030,"íķĺë©´ìĦľ":2031,"ace":2032,"Ġì¢ĭìķĦ":2033,"ĠíĮĮëª¨":2034,"Ġon":2035,"íĨłë":2036,"ronid":2037,"íķĺìĺĢìľ¼ë":2038,"Ġdis":2039,"ĠëĭŃ":2040,"->":2041,"Ġìĭ¬ìŀ¥ìĤ¬ìĥģì¶©":2042,"Ķ©":2043,"ĠìľłìĦł":2044,"ìĿĦë":2045,"ĠëĴ·":2046,"ìĿĺì":2047,"ìĹĪëĭ¤ê³ł":2048,"Ġë¹Ħí":2049,"Ġë¯¸ìķ½":2050,"ìħĶìĦľ":2051,"ĠìŀĪìľ¼ëĤĺ":2052,"ymph":2053,"ŀ¥":2054,"ëħ":2055,"ĠFood":2056,"ĠíĥĪêµ¬":2057,"tive":2058,"Ġbl":2059,"ĠëĦ¥ì¹":2060,"³µ":2061,"erap":2062,"¦¼íĶĦìłĪ":2063,"ĠìŀĦìĥģ":2064,"ľëıĦ":2065,"Ġcm":2066,"ĵ¯":2067,"Ġê°ĦíĹĲ":2068,"rom":2069,"ìľ¤":2070,"Ġìŀ¬ë°ľ":2071,"¥¸ìª½":2072,"¤ëŀĢ":2073,"ê¸°ë¡Ŀ":2074,"Ġê²Ģ":2075,"Ġdays":2076,"Ġê°ĻìĿĮ":2077,"ĠìĭĿìļķìĿĢ":2078,"Ġsh":2079,"ĺìĿĮ":2080,"ĠSC":2081,"ĠìķĦëĭ":2082,"loxacin":2083,"ĠëłĪë":2084,"ĠìĹ¬ìłĦíŀĪ":2085,"Ġìļ©":2086,"Ġìĭ¬ë°ķìĪĺ":2087,"Ġê²°ë§ī":2088,"Ġì§ĳìĹĲ":2089,"ection":2090,"ł¹":2091,"Ġìŀ¥ì°©":2092,"nal":2093,"ļĶ":2094,"ìŀĪìĿĮ":2095,"Ġìĭ¤ë":2096,"ect":2097,"ronidazole":2098,"ĠìļĶëıĦ":2099,"ĺìľ":2100,"Ġì£¼ë³Ģ":2101,"§Ħ":2102,"ĠìķĬê³ł":2103,"°©ìĤ¬ìĦł":2104,"ëĤĺ":2105,"Ġì¹´í":2106,"ë³´íĺ¸ìŀĲ":2107,"ĠëĤ´ë":2108,"Ġë¯¸ë":2109,"Ġinj":2110,"ëĲĺëĬĶ":2111,"if":2112,"ìºĶ":2113,"êµ¬íĨł":2114,"line":2115,"ĠMM":2116,"Ļķ":2117,"renia":2118,"°°":2119,"Ġad":2120,"Ġsign":2121,"íĺ¸ìĨĮ":2122,"Ġ;":2123,"Ġë³ĳë³Ģ":2124,"ĠìĹĨëĬĶ":2125,"ight":2126,"Ġhep":2127,"Ġíŀĺë":2128,"Ġë©´íļĮ":2129,"Ġì§Ģì¼":2130,"emia":2131,"Ġì¶Ķì²ľ":2132,"Ġcime":2133,"ĢìĿĮ":2134,"Ġray":2135,"ĠíķĺëĬĶ":2136,"Ġê´Ģì°°ëĲĺì§Ģ":2137,"ĠêµĲìłķ":2138,"Ġudca":2139,"íĸĪìĿĮ":2140,"Ġì§ĦíĨµ":2141,"ĠëıĮ":2142,"Ġë¹Ħìŀ¥":2143,"ĠìĿ¼ë°ĺ":2144,"Ġas":2145,"ative":2146,"Ġê°Ħëª¨ëĭĪ":2147,"ìĨĮê²¬":2148,"ìĥĿëĭĺ":2149,"Ġì§ģ":2150,"Ġbil":2151,"Ġê¸°ìĻķ":2152,"ł¤ê³ł":2153,"UR":2154,"íķĺëĤĺ":2155,"Ġpm":2156,"ĠëĤ´ê³¼":2157,"´ìļ©":2158,"Ġì¶Ķì²ľë":2159,"Ġvac":2160,"ìĹ½":2161,"Ġ>":2162,"ì´Ī":2163,"ĠìķĦìĿ´":2164,"Ġìĸ´ìłľë":2165,"íķ´ë":2166,"ĠìķĪì¢ĭ":2167,"Ġop":2168,"duc":2169,"Ġë¬¼ë":2170,"Ġì¤Ģ":2171,"Ġpc":2172,"ĠëĤ´ìļ©":2173,"Ġê°Ħëª¨ëĭĪíĦ°":2174,"cl":2175,"ĠìĽ":2176,"íĺĪë":2177,"ŀĮ":2178,"pp":2179,"ĠìĥĪë²½":2180,"ir":2181,"ĠìĤ¬ë":2182,"ĠìĤ¬ìĿ´":2183,"ìĹ´":2184,"ĠëĦĪë":2185,"RE":2186,"Ġì§Ģì¼ľë":2187,"ray":2188,"¼ëĿ¼":2189,"íĩ":2190,"íĬ¸ëłĪ":2191,"Ġìŀĺë¨¹ìĿĮ":2192,"ateral":2193,"ere":2194,"rine":2195,"Ġì¡°ìłľ":2196,"Ġë¬¸ì§Ħ":2197,"ib":2198,"Ġë¶Īë":2199,"ëŀĺ":2200,"ê°ĢëĬ¥":2201,"Ġì½§ë¬¼":2202,"Ġmod":2203,"ë¶Ģì§Ħ":2204,"Ĭ¤":2205,"íķĺìħĶìĦľ":2206,"atitis":2207,"Ġê±´":2208,"se":2209,"yd":2210,"ĠìłĢíķĺ":2211,"ë°°":2212,"Ġë°ľìĤ¬":2213,"Ġ20":2214,"Ġê°Ī":2215,"ĠìĨĮíĻĶê¸°":2216,"ê¼":2217,"ĠìĹ°ëĿ½":2218,"³¸":2219,"ì±Ħ":2220,"Ġê¼":2221,"Ġíı¬ë":2222,"ĠíķĦìļĶíķ¨":2223,"ëĤ´ìŀ¥":2224,"Ġë°°ì":2225,"ĠìĿĮìĭĿ":2226,"ìķĶ":2227,"PI":2228,"titis":2229,"¾¸":2230,"Ġê¶Įìľł":2231,"Ġmetro":2232,"ĠìĿĺë¢°":2233,"Ġfurosemide":2234,"ĠëĺĲëĬĶ":2235,"¬ëĿ¼":2236,"Ġj":2237,"ê·¹":2238,"íĭ°ë":2239,"ì´ĪìĿĮíĮĮ":2240,"Ġê²½ë¯¸íķľ":2241,"est":2242,"Ġì§ĢìĨįìłģìľ¼ë¡ľ":2243,"Ġìĭ¬ìŀ¥ìķ½":2244,"ĽĦë¡ľ":2245,"ëĤ´ìĽĲ":2246,"ĮĢë¡ľ":2247,"Ġë³ĳìĽĲìĹĲìĦľ":2248,"¦¬ëĬĶ":2249,"Ġpre":2250,"ë¶Ģë°©ìĤ¬ìĦł":2251,"ìŀĪëĬĶ":2252,"ìłĦíĻĶ":2253,"Ġì¦ĿìĥģìĿĢ":2254,"ind":2255,"ĠëĦĪë¬´":2256,"ì²ĺ":2257,"ĠíĶ¼ë¶Ģë":2258,"Ġcrea":2259,"Ġê°ĲìĹ¼":2260,"Ġë°ĺë":2261,"ìĹĪê³ł":2262,"ĠìĬ¤íĬ¸ëłĪ":2263,"ĠìķĬìķĦ":2264,"ĠìŀĲê¶ģ":2265,"ug":2266,"Ġìĺ¤ë¥¸ìª½":2267,"ĠëĿ¼":2268,"Ġíķ¥":2269,"ĠíĻķìŀ¥":2270,"ant":2271,"ness":2272,"ĠìĻ¸ìĿ´ìĹ¼":2273,"Ġì¶ĶíĽĦ":2274,"Ġìĸ´ëł¤":2275,"´ĪìĿĮíĮĮ":2276,"(-)":2277,"ê°Ħë":2278,"Ġtherap":2279,"ĠìŀĲìľ¨":2280,"ĠìĽĲëĤ´":2281,"íĮĲ":2282,"Ġëį°ëł¤":2283,"ĠìĽĲíķĺìĭ¬":2284,"ast":2285,"Ġíļ":2286,"Ġê³łëł¤ë":2287,"Ġëª¨":2288,"Ġê´ĢìłĪ":2289,"Ġmetronidazole":2290,"´ëĤŃ":2291,"ĠPDS":2292,"Ġenal":2293,"====":2294,"Ġrenal":2295,"Ġë©Ķ":2296,"Ġim":2297,"íĻľ":2298,"ìłĦìĹĲ":2299,"Ġê²½ëł¨":2300,"Ġcerenia":2301,"Ġê´ĳ":2302,"Ġìº":2303,"ĠìĹĨìĸ´":2304,"¹ł":2305,"ê¸°ëĬĶ":2306,"ìĭ¤ë":2307,"Ġê³łì§Ģ":2308,"ell":2309,"Ġëĭ¤ìĿĮì£¼":2310,"ĠìĦ¤ëªħëĵľë¦¼":2311,"Ġìłķìĥģëĩ¨":2312,"Ġë¹Ħíķ´":2313,"ĠìłĦìĭł":2314,"íıī":2315,"Ġê¸°ìĻķëł¥":2316,"Ġhistory":2317,"¸ë¶Ģ":2318,"ore":2319,"Ġíģ°":2320,"CA":2321,"ost":2322,"erv":2323,"ĠëĤĺë":2324,"Ġê¸°ëł¥ìłĢíķĺ":2325,"¦´":2326,"ased":2327,"Ġìĥģëĭ":2328,"ĠìĦľ":2329,"ĠìĺĪë°©ìłĳì¢ħ":2330,"ê³¤ëŀĢ":2331,"ìŀħìĽĲ":2332,"ĠíĺĦì¦Ŀ":2333,"ëª©":2334,"Ġê·Ģì§Ģ":2335,"ĠìŀĦìĥģì¦Ŀìĥģ":2336,"Ġê¸°íĥĢ":2337,"ĠìĭĿìļķë¶Ģì§Ħ":2338,"ĠìľłëıĻ":2339,"Ġ9":2340,"Ġê·Ģê°Ģ":2341,"las":2342,"³´ì":2343,"ĠëķĮë¬¸ìĹĲ":2344,"¯¤":2345,"ıĦë§Ĳ":2346,"ê¹Į":2347,"Ġê±°ë":2348,"inal":2349,"Ĳë¦°":2350,"ĠìłĦì§Ģ":2351,"ĠëĪĪë":2352,"ìĿĦëķĮ":2353,"Ļ¸":2354,"ë§¥":2355,"íķĺìħ¨":2356,"Ġë¨¹ìĿ´ê³ł":2357,"ħĶ":2358,"ĠìķĪìłķìłģ":2359,"ĠëĤ´ìĽĲíķĺìĹ¬":2360,"ĠëĦ¥ì¹¼ëĿ¼":2361,"ĠìĪĺíĺĪ":2362,"Ġcan":2363,"Ħ¸ìłķ":2364,"Ġëĭ´ëĤŃ":2365,"íħĮë¡ľ":2366,"Ġë³´ë":2367,"Ġíĺ¹":2368,"Ġëĭ¤ìĨĮ":2369,"Ġstage":2370,"Ġêµ":2371,"ª©":2372,"Ġë°Ķë¡ľ":2373,"ì²´ê°Ģ":2374,"art":2375,"Ġê°Ļëĭ¤ê³ł":2376,"¦¬ë":2377,"Ġë³µë¶Ģì":2378,"ĠìĽĲëŀĺ":2379,"ĠëĲĺ":2380,"ĠëĮĢë":2381,"¥ë¶Ħ":2382,"Ġpain":2383,"ëĭ¤ë©´":2384,"ĠìĺĪíĽĦ":2385,"Ġìĥģíĥľë¡ľ":2386,"ìĿ´ëĿ¼":2387,"Ġspi":2388,"Ġì²ĺìĿĮ":2389,"ì²´ê²ĢìĤ¬":2390,"Ġ\"":2391,"Ġìľłì§Ģë":2392,"ĬµëĭĪëĭ¤":2393,"§Ģë§Į":2394,"¡°ìłľ":2395,"Ġë°ľê²¬":2396,"ĠìĹĨê³ł":2397,"arb":2398,"ĠìłĲìķĪ":2399,"ìĬµ":2400,"Ġíİ":2401,"ìĺ¤ìłĦ":2402,"ê²Ģì§Ħ":2403,"Ġhct":2404,"amine":2405,"Ġì¦ĿìĥģìĿ´":2406,"ĠìŀĪìĬµëĭĪëĭ¤":2407,"Īłë":2408,"Ġìļ°ìĦł":2409,"ĺëĤĺ":2410,"and":2411,"Ġgra":2412,"ĠìķĦíĮĮ":2413,"ĠìķĪëĲ¨":2414,"ìĹĪìĬµëĭĪëĭ¤":2415,"Ġqid":2416,"UN":2417,"ĠíĺĪëĩ¨":2418,"§Īë":2419,"ĠìĿ´ìłĦê³¼":2420,"Ġ8":2421,"ĠíĤ¤":2422,"Ġca":2423,"atic":2424,"ê²°ìĦĿ":2425,"ê·¸ë":2426,"ly":2427,"ì¹¨":2428,"oint":2429,"Ġíķĺì§Ģ":2430,"ome":2431,"unc":2432,"ĠìķĪëĤ´ëĵľë¦¼":2433,"Ħìĸĳ":2434,"ê¸¸":2435,"Ġë³´ìĿ´ì§Ģ":2436,"Ġê·Ģë":2437,"ë³ĳìĽĲ":2438,"Ġíķ¨ê»ĺ":2439,"und":2440,"Ġpat":2441,"įĶ":2442,"íĹ":2443,"íħĮë¡ľìĿ´ëĵľ":2444,"Ġê¹Įì§Ģ":2445,"Ġì²ľ":2446,"ĠìļĶì²Ń":2447,"Ġcri":2448,"Ġdiet":2449,"ìĺ¤íĽĦ":2450,"ĠëĴ·ëĭ¤ë¦¬":2451,"Ģìĥī":2452,"Ġì§Ģëĥ":2453,"Ġlow":2454,"(+":2455,"ł¥ìĦ±":2456,"Ġíĺ¸ìłĦë":2457,"Ġë³µìĪĺ":2458,"Ġlymph":2459,"Ġì§ĢëĤľ":2460,"ì£¼ë":2461,"Ġê³Ħìĭ¬":2462,"Ġìĭłê²½ì¦Ŀìĥģ":2463,"Ġper":2464,"Ġë¹Ħëĩ¨":2465,"Ġë³´ìĹ¬":2466,"¥´ë":2467,"Ġì´Īì§Ħ":2468,"ĦĿ":2469,"ì¢ħìĸĳ":2470,"ĠìĤ¬íķŃ":2471,"ìĹĶ":2472,"Ġlt":2473,"ì¹´íħĮíĦ°":2474,"ĠìľłëıĻìĭĿ":2475,"ĭĢ":2476,"ĠìĦ¸íĮĮ":2477,"yt":2478,"ĠíĻķìĿ¸ëĲĺ":2479,"ema":2480,"ĥĿì¶©":2481,"ri":2482,"Ġìŀ¡":2483,"ry":2484,"¤ìĸĳ":2485,"oth":2486,"Ġì´īì§Ħ":2487,"Ġë¦¼íĶĦìłĪ":2488,"til":2489,"Ġëªĩ":2490,"ĠCRI":2491,"Ġmin":2492,"íķĻ":2493,"ĠíĸĪìĿĮ":2494,"Ġill":2495,"Ġë´īíķ©":2496,"ĠëıĻìķĪ":2497,"Ġë³µê°ķ":2498,"Ġì¸¡ìłķëĲ©ëĭĪëĭ¤":2499,"ìķĪë":2500,"¤Ģ":2501,"Ġgi":2502,"ĠíĿ¥ë¶Ħ":2503,"Ġëĵľë¦¼":2504,"enic":2505,"illin":2506,"ĠìŀĪìĿĦ":2507,"ĠìĹĲì½Ķ":2508,"¡ìĬ":2509,"Ġê·ĢìĦ¸ìłķ":2510,"Ġêµ¬ê°ķ":2511,"ĠíĽĦë":2512,"ĠìĬ¤íĬ¸ëłĪìĬ¤":2513,"Ġê·¸ëŁ":2514,"Ġì£¼ì¹ĺ":2515,"ĠìŀĪìĸ´ìĦľ":2516,"Ġìĺģìĥģ":2517,"Ġëª»íķ¨":2518,"neal":2519,"Ġìļ©ëŁī":2520,"ì§Ģë§ī":2521,"Ġrt":2522,"ena":2523,"Ġì²ĺì¹":2524,"¡ìĬĲ":2525,"ĵ¤ìĸ´":2526,"alc":2527,"Ġë¨¹ìĹ¬":2528,"ĠìĤ¬ë§Ŀ":2529,"¬ë¦¬":2530,"ľëł":2531,"ad":2532,"Ġur":2533,"Ġìķ½ìĿĦ":2534,"łĪìĿ´":2535,"Ġê¸°ë³¸":2536,"ķ½":2537,"ĠíĨł":2538,"oxy":2539,"Ġë§ĮìĦ±":2540,"ĺëŁ":2541,"Ġê±´ê°ķ":2542,"ìĬĲë¦°":2543,"ĠíĻį":2544,"Ġëħ¸ëł¥ìĦ±":2545,"ĠFeces":2546,"Ġíı¬íķ¨":2547,"ĭĿ":2548,"ìŀĲë£Į":2549,"Ġë¯¸ìķ½íķľ":2550,"ëħĦ":2551,"Ġwbc":2552,"ĠëıĻê±°":2553,"iver":2554,"bid":2555,"ê¸´":2556,"Ġear":2557,"Ġhypere":2558,"ĠíĬ¸ë":2559,"íĴ":2560,"¨¸":2561,"ìĹĪìľ¼ë©°":2562,"¡´":2563,"ĠìĹ¬ë":2564,"vere":2565,"Ġíķĺìĺ":2566,"ĠìĦ¸ê·ł":2567,"ê¼½":2568,"ê²°ê³¼":2569,"´íĳ":2570,"Ġê¸°ê´":2571,"ĭľê³ł":2572,"Ġtherapy":2573,"arin":2574,"ë°°ëĩ¨":2575,"Ġup":2576,"ĠUrine":2577,"ĠìĬ¤íħĮë¡ľìĿ´ëĵľ":2578,"ĠíĥĪë":2579,"íĤ¤":2580,"Ġìľłì§Ģì":2581,"Ġêµ¬ì¶©":2582,"ì¦":2583,"ê·Ģ":2584,"ìłĪë":2585,"ĠìĿĺë¢°ë³ĳìĽĲ":2586,"fil":2587,"ĠìŀĪê³ł":2588,"Ġillness":2589,"Ġplan":2590,"ĲëĿ¼":2591,"ĠíĦ¸":2592,"ĠUD":2593,"Ġct":2594,"ĠëıĻê±°ë":2595,"Ġbut":2596,"Ġout":2597,"íĶĦë":2598,"Ġë§Īì§Ģë§ī":2599,"ìłĦë¶ĢíĦ°":2600,"ll":2601,"ĠAL":2602,"ĠëĤ¨ìķĦ":2603,"ìĹĲì½Ķ":2604,"mia":2605,"Ġìķ¼":2606,"Ġì¢ħëĮĢ":2607,"Ġsus":2608,"ĠìĿĮìĦ±":2609,"ronic":2610,"ĠìķĪêµ¬":2611,"ĠìĿ¼ë¶Ģ":2612,"ĠíķŃìķĶ":2613,"Ġê²Ģì§Ħ":2614,"Ġë¦¬":2615,"ë°ĺìĿĳ":2616,"ody":2617,"ĠëĤ´ìĽĲìĭľ":2618,"°Ķ":2619,"´ëıĦ":2620,"¸Į":2621,"cination":2622,"ìĿ´ìĥģ":2623,"icillin":2624,"ĠíĨµíĻĶ":2625,"Ġë¹ł":2626,"ated":2627,"Ġë¶ķ":2628,"Ġìĵ":2629,"cy":2630,"ĠìĹ°ë³Ģ":2631,"Ġcorneal":2632,"ĠëĤĺìĺ´":2633,"obend":2634,"CT":2635,"Ġdone":2636,"ëĭ¤ê³łíķ¨":2637,"ìĦ¸í":2638,"ĢëıĦ":2639,"Ġìķłë":2640,"ëĪ":2641,"ĠìĿ´ìłĦìĹĲ":2642,"ìĸĳìĿ´":2643,"obendan":2644,"ov":2645,"ĠíĶ¼ë¶Ģì":2646,"Ġì»¤":2647,"Ġì¢ĮìķĪ":2648,"íĤ":2649,"ë¬¼ë³ĳìĽĲ":2650,"PL":2651,"Ġë¨¹ì§Ģ":2652,"Ġê±¸":2653,"¸Įë":2654,"ĠìŀĪìľ¼ë©°":2655,"ë°ľë":2656,"Ġë¹ĦêµĲ":2657,"ane":2658,"Ġamp":2659,"±ìłķ":2660,"Ġsild":2661,"ĠìĨĲ":2662,"Ġë§¤ìĿ¼":2663,"Ġare":2664,"Ġìĺ¤ëĬĺìĿĢ":2665,"ah":2666,"ê»ĺìĦľ":2667,"ode":2668,"Ģì§ģ":2669,"íĭ±":2670,"Ġë²ł":2671,"ĢìĿ¼ë":2672,"11":2673,"Ġëĭ¤ìĪĺ":2674,"ìĸ´ìłľ":2675,"Ġpcv":2676,"´ëĭ¹":2677,"ĠCC":2678,"Ġëĵ±ìĿĺ":2679,"ĠêµĲì²´":2680,"ĺ¤":2681,"ìĪĺëŁī":2682,"Ġmen":2683,"¦Ŀìĥģ":2684,"ĠìľĦìŀ¥":2685,"¶ĢìľĦ":2686,"Ġë°ľì¹ĺ":2687,"Ġì§Ģê¸Ī":2688,"ĠìķĪë¨¹ìĿĮ":2689,"ENT":2690,"ĠíĿīë¶Ģë°©ìĤ¬ìĦł":2691,"ĢìĦľ":2692,"he":2693,"ĢìĿ¼ë§ģ":2694,"ìĸĳíĺ¸":2695,"ĠìĨĮë¦¬":2696,"ëĭ¤ëĬĶ":2697,"Ġpancre":2698,"orph":2699,"ëĭ¥":2700,"íĺĪì¦Ŀ":2701,"ĠíĺĪìķķtime":2702,"Ġë¹ĦíĽĦ":2703,"ĠìķĦì¹¨ìĹĲ":2704,"oplas":2705,"Ġì¶©íĺĪ":2706,"ìļ¸":2707,"Ġsur":2708,"Ġrec":2709,"Ġë¶Īíİ¸":2710,"¶Ħ":2711,"ìŀĲê¸°":2712,"Ġtub":2713,"ì¢Į":2714,"ĵľëł¸ìĬµëĭĪëĭ¤":2715,"Ġag":2716,"ĠíķĦìļĶíķł":2717,"Ġê·¼ìľ¡":2718,"ĠíĻĶ":2719,"Ġbar":2720,"Ģìľ¼ë¡ľ":2721,"ì¹ĺì":2722,"Ġdog":2723,"Ġenrof":2724,"Ġì¡°ì§ģê²ĢìĤ¬":2725,"Ġì±":2726,"Ġref":2727,"up":2728,"Ġì£¼ì¹ĺìĿĺ":2729,"ervous":2730,"ê±°ë¦¼":2731,"Ġë³µë¶Ģì´ĪìĿĮíĮĮ":2732,"Ġcardi":2733,"mon":2734,"ìĹ¬ë¶Ģ":2735,"Ġco":2736,"Ġìŀ¬ì±Ħ":2737,"Ĭ´ì":2738,"Ġë°©ë²ķ":2739,"OP":2740,"Ġalone":2741,"íķ´ìķ¼":2742,"worm":2743,"ĠìĦ¸íı¬":2744,"ĠBUN":2745,"Ġìĭ¬íķĺê²Į":2746,"íıĲ":2747,"ĠíĥĪìĪĺ":2748,"ĶìľĦ":2749,"¡ł":2750,"Ġì¤Ħìĸ´ë":2751,"ìĽĢ":2752,"ED":2753,"min":2754,"Ġ30":2755,"AC":2756,"ĺëŁ¼":2757,"ĠìĿ´ë²Ī":2758,"ĠìĨįëıĦë¡ľ":2759,"tal":2760,"erate":2761,"ication":2762,"ìķ¡ìĦ±":2763,"ĠìĿ´ëĩ¨":2764,"ysical":2765,"ìĸ´ë³":2766,"ê¸°ëıĦ":2767,"Ġ]":2768,"ert":2769,"Ġë°Ľìľ¼":2770,"bil":2771,"ĠìĬµ":2772,"ìħ¨ìĿĮ":2773,"Ġsil":2774,"ìĺ¤íĽĦê´Ģë¦¬ìĤ¬íķŃ":2775,"ģ¼":2776,"ĠìĤ¬ìĥģì¶©":2777,"ìłĳ":2778,"Ġìĺ¤íĽĦê´Ģë¦¬ìĤ¬íķŃ":2779,"Ġech":2780,"oll":2781,"ĠPL":2782,"ŃìĨĮ":2783,"Ġì¡°ê¸ĪìĶ©":2784,"Ġê°Ĳë³Ħ":2785,"enafil":2786,"Ġìļ°ìķĪ":2787,"ĠìĤ¬ì§Ħ":2788,"aurine":2789,"³´í":2790,"Ġê¹Ģì":2791,"ĩĮ":2792,"ë¬¸ë":2793,"íĥĪêµ¬":2794,"Ġsevere":2795,"Ġê²ĥìĿĢ":2796,"ê²¬ë³ĳ":2797,"ĠìĥĿìĭĿ":2798,"ìĹĪëĬĶëį°":2799,"Ġë°©ê´ĳìĹ¼":2800,"ris":2801,"Ġpimobendan":2802,"Ġalb":2803,"ľë²Ī":2804,"ĠìĿ´íĽĦë¡ľ":2805,"Ġê°ĳìŀĲê¸°":2806,"Ġìĭłê²½ê³Ħ":2807,"Ġbe":2808,"Ġíĺ¸íĿ¡ê³¤ëŀĢ":2809,"ylline":2810,"Ġcalc":2811,"Ġì¶Ķìłķ":2812,"ery":2813,"Ġê²½êµ¬":2814,"Ĳĺê³ł":2815,"ĠìĪĺìĪłë":2816,"idn":2817,"ple":2818,"Ġns":2819,"AR":2820,"ìłķìĥģ":2821,"ĠíĶĦ":2822,"HPI":2823,"usion":2824,"ĠëĤĺìĺ¤":2825,"¿ł":2826,"idney":2827,"Ġíĺ¼":2828,"Ģê³ł":2829,"ĠX":2830,"Ġ15":2831,"Ġed":2832,"ĠëĪĪê¼½":2833,"ì»":2834,"ĽĮ":2835,"Ġëĵ¤ìĸ´":2836,"Ġê±±ìłķ":2837,"´ìŀĪ":2838,"ê¸īìĹ¬":2839,"Ġneg":2840,"ë¹":2841,"ĠìĪĺìĪłìłģ":2842,"íķĺëĭ¤ê³ł":2843,"ê°ĲìĨĮ":2844,"ĠìłĢì":2845,"na":2846,"Ġpimo":2847,"Ġë¶Ħìĸĳ":2848,"Ġë°ķ":2849,"íķĺìĭľëĬĶ":2850,"íķĺê¸°":2851,"ĠíĹ¥":2852,"ĠìĿ¸ìĬĲë¦°":2853,"íĥģ":2854,"ĠRt":2855,"rox":2856,"ĠëıĦë§Ĳ":2857,"alex":2858,"Ġpr":2859,"Ġêµ¬íĨłë":2860,"ìł¸ìĦľ":2861,"ten":2862,"Ŀ¼ëıĦ":2863,"ĠCRP":2864,"ìĸĳìĥģ":2865,"ë²½":2866,"ĠLt":2867,"ëĲł":2868,"ĠìĿ´ëĩ¨ìłľ":2869,"Ġìķķ":2870,"asis":2871,"ĠíĶ¼ë¶Ģë³ĳ":2872,"Ġpres":2873,"Ġê¸ĪìĭĿ":2874,"Ĥ·":2875,"ĠìĬ¤ì¼ĢìĿ¼ë§ģ":2876,"ĠUDCA":2877,"ëĵ¤":2878,"RI":2879,"Ġë¨¹ìĿĢ":2880,"Ġì§ĢìĹŃ":2881,"ì¡°ë":2882,"arg":2883,"april":2884,"ê²¨":2885,"Ġfl":2886,"aract":2887,"Ġíķ©ëĭĪëĭ¤":2888,"Ġì£¼ìĤ¬ê¸°ë¡ľ":2889,"ĠìķĶ":2890,"ĠìĿ´ìļ©":2891,"ĠìķĦëŀĺ":2892,"ĠíĮĲëĭ¨ëĲ¨":2893,"ìĭľê°Ħ":2894,"Ġìľ¼ë¡ľ":2895,"ĠìĹĨìľ¼ëĤĺ":2896,"ĺëıĦ":2897,"³´íĤ·":2898,"Ġë°Ķë":2899,"ìĬ¤ë¡ľ":2900,"Ġblood":2901,"ĠìķĪìķķ":2902,"ose":2903,"ĠDD":2904,"ural":2905,"Ġì§ĪíĻĺ":2906,"Ġtube":2907,"Ġjoint":2908,"ram":2909,"ê°ĢìĬ´ì":2910,"Ġë¨":2911,"Ġë°°ìłľ":2912,"ss":2913,"ìĺ¤ìłĦê´Ģë¦¬ìĤ¬íķŃ":2914,"Ġëª¸":2915,"ization":2916,"ĨĶ":2917,"ĠìĿ´íĭĢ":2918,"ìķħ":2919,"ĠíķŃì²´ê°Ģ":2920,"Ġë³´ê³ł":2921,"Ġê¸°ê´Ģì§Ģ":2922,"ëĭ¬ë":2923,"Ġint":2924,"¸ë¡ľ":2925,"30":2926,"Ġê°ķê¸ī":2927,"ìĹĨìĿ´":2928,"Ġë°Ķê":2929,"ĠëĨĴìĿĮ":2930,"Ġsildenafil":2931,"ë³Ħíķľ":2932,"ìľ¼ë¯Ģë¡ľ":2933,"Ġìĺ¤ìłĦê´Ģë¦¬ìĤ¬íķŃ":2934,"Ġvital":2935,"ê±´":2936,"ĢìĬµëĭĪëĭ¤":2937,"ĠìķĬëĬĶ":2938,"Ġsystemic":2939,"opath":2940,"ĠíĻľëł¥ìĿĢ":2941,"Ġê´ĳê²¬ë³ĳ":2942,"ĠìĦłìĥĿëĭĺ":2943,"Ġìĸ´ìłľë¶ĢíĦ°":2944,"Ġpanting":2945,"ë¬¸ëĤŃ":2946,"ì²ľ":2947,"Ġ12":2948,"po":2949,"Ġê°ľìĿ¸":2950,"ee":2951,"Ġchronic":2952,"Ġfat":2953,"ĠìĽĲìŀ¥ëĭĺ":2954,"nea":2955,"rac":2956,"°°ë":2957,"Ġëį°ë¦¬ê³ł":2958,"Ġë°±ëĤ´ìŀ¥":2959,"ĠìłķíĻķ":2960,"mer":2961,"ĠìĽĢì§ģ":2962,"ıĻìķĪ":2963,"pira":2964,"Ġì¢ħë£Į":2965,"Ħëĵľ":2966,"Ġìĸĳíĺ¸íķľ":2967,"Ġë°¥ìĿĦ":2968,"Ġìľ¡":2969,"´ëĤ´ìļ©":2970,"íĻĺê²½":2971,"Ġ=":2972,"ĵľë³´íĤ·":2973,"ĠëıĻê±°ê²¬":2974,"Ġcv":2975,"Ġì¹ĺìĦĿ":2976,"alf":2977,"MED":2978,"Ġsup":2979,"Ġprop":2980,"ìŀ¡":2981,"ĠìļĶêµ¬":2982,"Ġëħ¸":2983,"zle":2984,"ux":2985,"creased":2986,"Ġëļ":2987,"Ġìĥģëĭ´ëĤ´ìļ©":2988,"Ġë¶ķëĮĢ":2989,"ĠìĿĮìĪĺëŁī":2990,"ĮĢì":2991,"ĺìľ¼ë":2992,"Ġul":2993,"Ġsusp":2994,"Ġmoderate":2995,"ĵľëł¸ìľ¼ëĤĺ":2996,"ë°ľìĨ¡ìĻĦë£Į":2997,"ĠìķĮëŁ¬ì§Ģ":2998,"viron":2999,"ĠíĥĪëª¨":3000,"ĠìĻ¸ë¶Ģ":3001,"íķĺìĭ¤":3002,"Ġcataract":3003,"vironment":3004,"ue":3005,"íĺĪìķķ":3006,"Ġêµ¬íĨłëĬĶ":3007,"Ġstable":3008,"ugh":3009,"ĠIn":3010,"Ġchem":3011,"ĠëĤľ":3012,"ents":3013,"Ġphi":3014,"íķ´ë³´":3015,"ë°Ķ":3016,"Ġplt":3017,"Ġëªħ":3018,"Ġë°ĶìĿ´":3019,"ĠíķŃë¬¸":3020,"Ġì£¼ë¡ľ":3021,"Ġëª©ìļķ":3022,"ê°Ļ":3023,"íĺĢ":3024,"Ġapp":3025,"ĠìĪĺìķ¡ì²ĺì¹ĺ":3026,"Ġë°©ìĤ¬ìĦłìĥģ":3027,"Ġì¡°ìłľìķ½":3028,"Ġmg":3029,"Ġê°Ģë£¨":3030,"ĠìŀĳëħĦ":3031,"íĨ±":3032,"Ġëĵ±ìª½":3033,"íĮ¡":3034,"ĠëĤł":3035,"Ġbp":3036,"Ġë¶Ħë°°":3037,"Ġê³¼ìłķ":3038,"ofol":3039,"ag":3040,"ì¤Į":3041,"Ġì§ĦíĨµìłľ":3042,"Ġlef":3043,"TR":3044,"ĠìķĪëĤ´ë":3045,"ìĭľëĬĶ":3046,"azzle":3047,"Ġìĭłì²´ê²ĢìĤ¬":3048,"Ġgen":3049,"Ġeent":3050,"ì½":3051,"tiv":3052,"ĠìĿ¼ë°ĺìĤ¬ë£Į":3053,"ĠíĥĢì":3054,"ĠíĶ¼íķĺ":3055,"ĠíķĺëĤĺ":3056,"°íĮ¡":3057,"ĠíĬ¹ë³Ħíķľ":3058,"ê³łê¸°":3059,"°ľìĨ¡ìĻĦë£Į":3060,"Ġìº¡ìĬĲ":3061,"Ġë³´ìĺ":3062,"Ġck":3063,"Diet":3064,"Ġìĺ¤ìĭ¬":3065,"ìĸ´ëĤ":3066,"Ġê³¨ìłĪ":3067,"sul":3068,"Ġê°ĢëĬ¥ìĦ±ìĿ´":3069,"ìĭľë©´":3070,"ran":3071,"ê°ĢìĬ´ìĤ´":3072,"SUR":3073,"Ġì¢Įìĭ¬":3074,"worming":3075,"ë¯¸":3076,"Ġbg":3077,"Ġcell":3078,"Ġë§ĲëĿ¼":3079,"ĠW":3080,"Ġsuc":3081,"ê³¼ë":3082,"Ġdex":3083,"ê²ĢìĤ¬ìĥģ":3084,"ëĬĶì§Ģ":3085,"Ġpresent":3086,"íĺĪê´Ģ":3087,"ĠíĽĦìĹĲ":3088,"Ġìķłëĵľë³´íĤ·":3089,"ĠìľłìĿĺ":3090,"íķ´ëĵľë¦¼":3091,"ĠìĨĮìŀ¥":3092,"ĠìŀĳìĿĢ":3093,"Ġë³´ì¡°ìłľ":3094,"Ġì¹´íĨ¡":3095,"ĠëĳĲë":3096,"Ġcrt":3097,"rh":3098,"Ġíķĺê¸°ë¡ľ":3099,"ĠìķĪê³¼":3100,"Ġë§Īë":3101,"Ġkidney":3102,"ìłľë¡ľ":3103,"ĠíķŃë¬¸ëĤŃ":3104,"Ġì°¨íĬ¸ë":3105,"Ġë¨¹ìĹĪìĿĮ":3106,"Ġìĸĳìª½":3107,"ë¬¼ë³ĳìĽĲìĹĲìĦľ":3108,"Ġë¶Ģë":3109,"ë§Īë":3110,"ì§Ħë£Į":3111,"ĠëĬĲ":3112,"Ġê¸°ê´Ģ":3113,"ĠíķĺìħĶìĦľ":3114,"Ġìķ¡":3115,"íķĺìĺĢìľ¼ëĤĺ":3116,"cs":3117,"íıīê°Ģ":3118,"Ġ39":3119,"Ġê³łê´ĢìłĪ":3120,"Ġhem":3121,"ĠìĬ¬ë":3122,"ĠíĶ¼ë¶ĢìĹ¼":3123,"Rx":3124,"Ġê²ĥìĿ´":3125,"Ġê¸°ì¡´":3126,"Ġaz":3127,"ĠëıĦíı¬":3128,"dom":3129,"Ġìŀ¬ì±Ħê¸°":3130,"Ġpost":3131,"valu":3132,"ĠCBC":3133,"Ġì¤ĳëĵ±":3134,"Ġì¿ł":3135,"Ġchol":3136,"£¨ë":3137,"ĠëĶ°ë¡ľ":3138,"Ġlux":3139,"Ġìĭ¬íķ´ì§Ĳ":3140,"Ġíķĺìħ¨":3141,"ìĸ´ìļĶ":3142,"ìľłë":3143,"Ġcomment":3144,"ìĦ¤ìĤ¬":3145,"Ġbw":3146,"ĠìķĦëĭĪë":3147,"ascular":3148,"12":3149,"Ġì´Ŀ":3150,"Ġbilateral":3151,"MS":3152,"ĠìĭĿìļķìĿ´":3153,"ëĭĮ":3154,"icam":3155,"íĳ¼":3156,"ĠìłĦì":3157,"ì§Ħí":3158,"\"-":3159,"umor":3160,"ìłľíķľ":3161,"Ġcephalex":3162,"ĠìĦ¸ë":3163,"Ġì°¨íĬ¸ë°ľìĨ¡ìĻĦë£Į":3164,"Ġenalapril":3165,"ĠíĴ":3166,"ìķĺìľ¼ë":3167,"ìĿ´ìĦ±":3168,"ĠëĤĺíĥĢëĤ":3169,"Ġìķ½ì²ĺë°©":3170,"ĠìłĢëħģìĹĲ":3171,"Ġì§Ģë°©":3172,"ìłĢëħģ":3173,"Ġey":3174,"Ġgrade":3175,"íĴĪ":3176,"GI":3177,"ung":3178,"ĠíĻ©":3179,"ĠBAR":3180,"ĠëģĿ":3181,"Ġevalu":3182,"ĺģ":3183,"junc":3184,"Ġus":3185,"Ġë¶Ħë³Ģ":3186,"ĻĶ":3187,"Ġms":3188,"Ġì²ĺë°©ë°Ľ":3189,"ê°Ģëĵľ":3190,"ì²Ļ":3191,"ogenic":3192,"Ġëª¨ìĬµ":3193,"ê°ĦìĹĲ":3194,"ĠëĤĺìĦľ":3195,"ìłĦë³´ëĭ¤":3196,"ĠëĩĮ":3197,"Ġbody":3198,"KD":3199,"Ġì¹ĺìķĦ":3200,"tory":3201,"Ġì§ĢìĹŃë³ĳìĽĲ":3202,"Ġê°ĻìĿĢ":3203,"ëĲĺì§Ģ":3204,"Ġì²ĺë°©ìĭĿ":3205,"ìķĦì¡Į":3206,"oos":3207,"ĠìĻ¸ê³¼":3208,"Ġíĺķíĥľ":3209,"ĠëĲ¨":3210,"Ġìķ½ìĿĢ":3211,"Ġìŀĩ":3212,"Ġë°ĽìĿĮ":3213,"ber":3214,"ronch":3215,"asal":3216,"ìĹĪëįĺ":3217,"Ġë¹Īíĺ¸íĿ¡":3218,"ĠìĸĳìķĪ":3219,"ìĿ´ëĿ¼ê³ł":3220,"Ġì¶Ķê°Ģìłĳì¢ħ":3221,"Ġê°Īìĥī":3222,"ìĿ¸ì§Ģ":3223,"olic":3224,"ĠìľĦë":3225,"ìĪĺì¢ħ":3226,"¹Ħë¬¼":3227,"omy":3228,"piratory":3229,"Ġê¹¨":3230,"Ġckd":3231,"Ł¬ìĬ¤":3232,"ì§ĳ":3233,"ìĿĢë":3234,"Ġgl":3235,"Ġz":3236,"Ġì¡°ì":3237,"ĠëłĪëĤł":3238,"ì¤Ģ":3239,"Ĳĺì§Ģ":3240,"íĥĢì":3241,"íĢ":3242,"ĠìĿĮìĪĺ":3243,"°ì¹ł":3244,"rane":3245,"Ġ:-":3246,"Ġê³°íĮ¡":3247,"ĠìĥģíĥľëĬĶ":3248,"Ġê°ĦíĹĲìłģìľ¼ë¡ľ":3249,"ê²łëĭ¤ê³ł":3250,"Ġì§ĢìĹ°":3251,"ìļ°ì¸¡":3252,"ķħ":3253,"Ġê¸°ìĥĿì¶©":3254,"ê¹Ģ":3255,"18":3256,"ĠìĿ¸í":3257,"ĠìĭľëıĦ":3258,"ĠìłĦíĻĶìĻĦë£Į":3259,"Ġì¹¨ìľ¤":3260,"ìĺĪë°©":3261,"íĪ¬":3262,"ĠíķĺìĹ¬":3263,"ĠìĿ¼ìĪĺ":3264,"Ġkit":3265,"ĠëĭŃê°ĢìĬ´ìĤ´":3266,"ĵľë¦¬":3267,"ĠíĦ":3268,"ì²´ì":3269,"ĠíĿīìĪĺ":3270,"ease":3271,"ĠCT":3272,"otax":3273,"¡±":3274,"ìĿ´ê²½":3275,"Ġíķ´ìĦľ":3276,"ê°ĢëĿ½":3277,"Ġ18":3278,"¹ĺë£Į":3279,"Ġê²¬":3280,"Ġcefa":3281,"ĪëıĦ":3282,"arc":3283,"ĠìĪłíĽĦ":3284,"ì¸":3285,"Ġtru":3286,"Ġincreased":3287,"¥´ì":3288,"Ħëĵľê¸°":3289,"normal":3290,"íķĺìĺĢìľ¼ë©°":3291,"ĠìłķëıĦë¡ľ":3292,"ĠëĶĶ":3293,"dominal":3294,"ole":3295,"TRU":3296,"ëĨį":3297,"Ĵ¤":3298,"Ġì§ĢìĨįìłģìĿ¸":3299,"ĠìłĢë":3300,"Ġ#":3301,"Ġreg":3302,"ĠìłĦë°ĺìłģìľ¼ë¡ľ":3303,"CR":3304,"Ġenrofloxacin":3305,"Ġìķķë°ķ":3306,"íĶĮë":3307,"tinal":3308,"ë¶Ģì¢ħ":3309,"Ġë°ĺë³µ":3310,"Ġpe":3311,"ìĹĲê²Į":3312,"eration":3313,"ĠëªħíĻķ":3314,"Ġëĸ¨ìĸ´ì§Ĳ":3315,"Ġìŀħìĸĳ":3316,"Ġì¤ĳëĵ±ëıĦ":3317,"15":3318,"ì¹´íĨ¡":3319,"ĠBG":3320,"ĠìĹĨìĿĦ":3321,"essment":3322,"Ġëĭ´ëĭ¹":3323,"amm":3324,"Ġalt":3325,"ĠëĮĢì¦Ŀ":3326,"ĦìĽĮ":3327,"Ġë°ĶìĿ´íĥĪ":3328,"Ġspiron":3329,"Ġsurg":3330,"NA":3331,"ĠìĨĮìĭ¤":3332,"Ġì§Ħíĸīíķ¨":3333,"ë§Īì·¨":3334,"Ġê±·":3335,"ìĬ¤íģ¬":3336,"ìĭľëĿ¼ê³ł":3337,"ĠìĿ¸íķ´":3338,"°ĺìĿĳ":3339,"ľëł·":3340,"ĠìĥģìĿĺ":3341,"íĸĪìľ¼ëĤĺ":3342,",,":3343,"ĠìĤ¬ëŀĮ":3344,"ìĥģìĦł":3345,"ìĭľëıĦë¡Ŀ":3346,"Ġì¢ĭì§Ģ":3347,"Ġpancreatitis":3348,"Ġì¿łìĭ±":3349,"ë³ĢíĻĶ":3350,"ĠíĺĪë³Ģ":3351,"iv":3352,"eight":3353,"ressing":3354,"Ġê³łìĸĳìĿ´":3355,"ìĦ¸íı¬":3356,"ĠDDx":3357,"VAC":3358,"Ġìĥģì²ĺ":3359,"Ġì°½":3360,"EENT":3361,"Ġcimetidine":3362,"Ġtaurine":3363,"Ġë´Ħ":3364,"Ġtumor":3365,"Ġíĺ¸ìĨĮ":3366,"Ġexamination":3367,"¡¤":3368,"ĠìĬ¬ëŁ¬ì§Ģ":3369,"Ġëļľëł·":3370,"ĠìĹĨìľ¼ë©´":3371,"Ġcefazol":3372,"ìłľê±°":3373,"ycin":3374,"Ġ37":3375,"Ġë¨¹ìĿ´ìĭ¬":3376,"ĠìłĦíĻĶìĥģëĭ´":3377,":-":3378,"Ġìĭľëł¥":3379,"ìĺ¤ë":3380,"¥¸ë":3381,"ìłĦì":3382,"ëĭĪìķĦ":3383,"ëķĮ":3384,"Ġìĭ¤ìĭľíķ¨":3385,"ëģ":3386,"ŀĳìļ©":3387,"ĠëĮĢíĩ":3388,"ĠìĿ´ìĻ¸":3389,"Ġíľ":3390,"Ġeh":3391,"êµŃ":3392,"Ġìĭ¶":3393,"ĠìŀĲê·¹":3394,"Ġê¸¸":3395,"ë³´ì":3396,"Ġìĭ¬ìŀ¥ì´ĪìĿĮíĮĮ":3397,"ĠìĸĳìĦ±":3398,"Ġinter":3399,"Ġalp":3400,"Ġevaluation":3401,"Ġë³´ìĿ´ëĬĶ":3402,"ìľ¡íĻĺê²½":3403,"ê²ĥìľ¼ë¡ľ":3404,"Ġagents":3405,"Ġsy":3406,"ì§ĪíĻĺ":3407,"olog":3408,"arge":3409,"ĠíĶĦë":3410,"Ŀ½ìĤ¬":3411,"ior":3412,"´īíķ©":3413,"ĠSID":3414,"amin":3415,"ê°ĢëĬ¥ìĦ±":3416,"ĠìļĶêµ¬ìĤ¬íķŃ":3417,"sc":3418,"Ġìŀ¥ìĹ¼":3419,"Ġê°Ģëł¤":3420,"ìĹĲìĦľëĬĶ":3421,"roph":3422,"Ġê²ĢìĿ´ê²½":3423,"Ġcyst":3424,"ĠíĻľë":3425,"ìĺ¤ëĬĺ":3426,"ĠìĪ¨":3427,"Ġna":3428,"ë¹Ħë":3429,"¤ë¡ľ":3430,"Ġë¶Ģìĭł":3431,"Ġlip":3432,"íıŃ":3433,"íķŃëª©":3434,"ĠìķĦëª©":3435,"ĠìķĬìľ¼ëĤĺ":3436,"14":3437,"¶ķ":3438,"Ġtest":3439,"Ġedema":3440,"ĠìĨĮíĻĶê¸°ê³Ħ":3441,"Ġëľ":3442,"łëķĮ":3443,"ĠìķĬìķĺìĿĮ":3444,"Ġëħ¸ëŀ":3445,"ìĹ°ê³ł":3446,"ĠìĪłë":3447,"Ġì§Ģê°Ħ":3448,"ìĸ´ì£¼":3449,"Ġhyperemia":3450,"CS":3451,"Ħìĥ":3452,"Ġcalcul":3453,"Ġser":3454,"ê±°ë¦¬ëĬĶ":3455,"ĠìłĦíĺĢ":3456,"Ġbac":3457,"ĠìĦŃ":3458,"Ġboos":3459,"ĠìĿ´ëıĦ":3460,"ĠìķĦëĭĺ":3461,"olact":3462,"ê´Ģì":3463,"Ġëĭ¹ìĭľ":3464,"ĠìĹĨìĸ´ìĦľ":3465,"ìĿ´ë©´":3466,"Ġë¬¸ì§ĦìĤ¬íķŃ":3467,"§ĢëĬĶ":3468,"ê°Ī":3469,"Ġ14":3470,"łë¶ĢìłĦ":3471,"¬ĺ":3472,"Ġíķĺë£¨ìĹĲ":3473,"ê²©ê³Ħ":3474,"ŁìĪĺ":3475,"Ġê³łëł¤ëĲ¨":3476,"Ġmal":3477,"ĠìļĶëıĦì¹´íħĮíĦ°":3478,"ĠíıĲìķ¼":3479,"Ġìłĳ":3480,"Ġê°ľìĦłëĲ¨":3481,"ê±´ì":3482,"ĠBP":3483,"Ġpropofol":3484,"Ġla":3485,"ĠEn":3486,"Ġphen":3487,"§Ģì":3488,"Ġê°Ģë£¨ìķ½":3489,"Ġìĺ¤ìłĦìĹĲ":3490,"Ġplas":3491,"Ġë¨¹ìŀĦ":3492,"ìĨ":3493,"ĠìłĦì²":3494,"ĠìĺĪìłķìŀħëĭĪëĭ¤":3495,"unt":3496,"ĠìĿĺìĭĿ":3497,"íĺĪëĭ¹":3498,"Ġê¸īìĹ¬ìŀĲ":3499,"ĠDx":3500,"Ġìĭ¤ì§Ī":3501,"ĠíĪ¬ìķ½ìŀĲ":3502,"Ġíķľë²ĪìĶ©":3503,"Ġê²ĥìĿĦ":3504,"Ġë°ĽìķĦë":3505,"Ġê°ķìłľ":3506,"Ġìķł":3507,"Ġìµľê·¼ìĹĲ":3508,"ì¶ķ":3509,"Ġì¯¤":3510,"íķ´ì£¼ìĦ¸ìļĶ":3511,"PHI":3512,"Ġìķ½ë¨¹":3513,"Īë§ģ":3514,"ĠëĶ±":3515,"ĠëģĬ":3516,"ë°°ì":3517,"EH":3518,"Ġhalf":3519,"íĻĺìŀĲ":3520,"ì¼ģ":3521,"ľë¸Į":3522,"íķĺìĭł":3523,"ë©":3524,"Ġrep":3525,"ĠíıĲìĪĺì¢ħ":3526,"ach":3527,"Ġphos":3528,"Ġì¶Ķê°ĢìłģìĿ¸":3529,"ĥĦìĥ":3530,"ĠëĲľ":3531,"ĠìķĬìĿĢ":3532,"Ġì°¸ê³ł":3533,"Ġì²ĺë°©íķ¨":3534,"ration":3535,"ë²ĶìľĦ":3536,"osp":3537,"ĠíĺĦìŀ¬ëĬĶ":3538,"ropine":3539,"ĠìķĪëĿ½ìĤ¬":3540,"ĠCKD":3541,"Ģìĸ":3542,"Ġíķ´ë":3543,"Ġê·Ģì²":3544,"Ġìĭľìŀĳíķ¨":3545,"Ġë¶Ħë¹Ħë¬¼":3546,"Ġê³łêµ¬":3547,"oflu":3548,"Ġíļ¨":3549,"íĺĪêµ¬":3550,"38":3551,"ĠëıĻë°ĺ":3552,"ĵł":3553,"¤ìĤ¬ìĿ´":3554,"oflurane":3555,"ëĪĪ":3556,"duction":3557,"ĠëĮĢíķ´ìĦľ":3558,"TI":3559,"Ġë°¤ìĹĲ":3560,"ıĪ":3561,"Ĥ©":3562,"ĠëĬĲë":3563,"íĻķìĿ¸":3564,"Ġì¼Ģ":3565,"Ġsec":3566,"opid":3567,"Ġhw":3568,"Ġë¬¸ìĿĺ":3569,"Ġë°ľíĨ±":3570,"Ġê·Ģì§":3571,"Ġë§ĲìĶĢ":3572,"erative":3573,"¡°ì§ģ":3574,"ìĽĲìŀ¥ëĭĺ":3575,"ĠìĦŀìĸ´ìĦľ":3576,"Ġë¶Ģìŀĳìļ©":3577,"ophylline":3578,"ĠíĻĶìŀ¥":3579,"pe":3580,"¬¼ë":3581,"ĠíĶĮë":3582,"ëĭ¬ëĿ¼ê³ł":3583,"Ġgab":3584,"eter":3585,"Ġneoplas":3586,"ĠìĨĮìĭ¤ë":3587,"Ġë©´":3588,"ĭľëıĦë¡Ŀ":3589,"enter":3590,"Ġìŀ¬íĻľ":3591,"³Ĳ":3592,"Ġtap":3593,"ainten":3594,"ĠìķĦëŀĺíķŃëª©":3595,"Ġì§ĢëĥĪìĿĮ":3596,"ĠìĿĺë¢°ë§Į":3597,"íĭ°ëĶĺ":3598,"dd":3599,"Ġì¡°ìłĪ":3600,"ł¤ìĦľ":3601,"ĠíĻķìĿ¸ëĲĺë©°":3602,"ê°ľë":3603,"inding":3604,"Ġì¶Ķê°Ģë":3605,"Ġíĺ¹ìĿĢ":3606,"íķĺìĭľëıĦë¡Ŀ":3607,"ĠíĻĺìŀĲë¡ľ":3608,"24":3609,"Ġì´Īì§ĦìĿ¼":3610,"ĠíķĦìļĶíķľ":3611,"Ġê°ģì§Ī":3612,"Ġacid":3613,"Ġëª¨ëĭĪíĦ°":3614,"ĠëĮĢë³Ģ":3615,"Ġspironolact":3616,"Ġtp":3617,"Ġbronch":3618,"Ġíĸī":3619,"ê´Ģëł¨":3620,"ê²½ë":3621,"ER":3622,"Ġê°ľë":3623,"Ġglu":3624,"ëª¸":3625,"Ġê³¼ìłķê³¼":3626,"íĦ´":3627,"°°ëĩ¨":3628,"ĠìµľìĨĮ":3629,"Ġê¼¬ë¦¬":3630,"ud":3631,"Ġë³ĳëł¥":3632,"ĠìŀĪìľ¼":3633,"íģĲ":3634,"rel":3635,"Ġíģ¬ê²Į":3636,"Ĳł":3637,"ë³´ëĭ¤":3638,"Ġë¡ľìĸ":3639,"Ġì°¸ì¡°":3640,"ĥ¥":3641,"Ġnegative":3642,"Ġob":3643,"Ġatropine":3644,"Ġdressing":3645,"ì§Ģê³ł":3646,"Ġì¼ģ":3647,"ule":3648,"ê²½ëł¨":3649,"ĠìĤ¬ë£Įë¥¼":3650,"ì¹¨ìľ¤":3651,"ĠìĪĺëıĦ":3652,"ang":3653,"Ġiop":3654,"Ġë¹łë":3655,"Ġê°Ģì§Ģ":3656,"ìļ°ë":3657,"ĠìľĦíĹ":3658,"ê³¨ê²©ê³Ħ":3659,"Ġì¤Ģíķľ":3660,"ê¹Įì§ĢëĬĶ":3661,"HS":3662,"ĠìĤ¬ë£ĮëĬĶ":3663,"íĶ¼ë¶Ģ":3664,"ŀĺì":3665,"ĠìłĦíĻĺ":3666,"Ġpul":3667,"Ġíŀĺ":3668,"ence":3669,"ĠìĿ´ìłĦë³´ëĭ¤":3670,"íĿī":3671,"Ġíĺ¸íĿ¡ê¸°":3672,"Ġdep":3673,"Ġêµ¬ì¡°ë":3674,"Ġë¸Įë":3675,"ìĨĮíĮĲ":3676,"Ġê°ĳìĥģìĦł":3677,"ê³±":3678,"¬¸":3679,"ĠìĹĨëĭ¤ê³ł":3680,"ĠìĬ¤ì¼Īë§ģ":3681,"Ġplasma":3682,"Ġì²ĺì¹ĺë":3683,"king":3684,"ĠHistory":3685,"Ġgood":3686,"Ġìĭ¬íķĺì§Ģ":3687,".)":3688,"ë§¤":3689,"ì§¸":3690,"ķĬ":3691,"Ġbcs":3692,"Ġìĸ¸":3693,"ĠëĲł":3694,"Ġìµľë":3695,"ëĲĺê³ł":3696,"Ġfinding":3697,"ĠìĿ¼ë°ĺìĥģíĥľ":3698,"ĠíĻĺ":3699,"ĠíĶĦë¡ľ":3700,"Ġmenace":3701,"ìĿ¸íĽĦ":3702,"ĠëĪĦìĽĮ":3703,"Ġìļ´ëıĻìłľíķľ":3704,"Ġìĺ¬":3705,"ìľĦíķ´":3706,"¸ëĵľ":3707,"tio":3708,"ull":3709,"ìŀ¡ìĿĮ":3710,"ovascular":3711,"Ġì±Ļ":3712,"ĠìķĦëª©ìĭľ":3713,"ĠIM":3714,"Ġìķ½ê°ĦìĿĺ":3715,"Ġíŀĺëĵ¤ìĸ´":3716,"Ġëħ¸ëŀĢ":3717,"ĠìłĦìĿ´":3718,"Ġë°°ìĸĳ":3719,"¼Ī":3720,"Ġë¬´":3721,"Ġì§ĢëĤľë²Ī":3722,"ĠíĮ¨":3723,"ìĭľëĶĺ":3724,"Ġë¶ĪëŁī":3725,"Ġìĺ¤ëĬ":3726,"íĺĪìķ¡":3727,"ìľ¼ëł¤ê³ł":3728,"Ġìķŀëĭ¤ë¦¬":3729,"Ġclopid":3730,"ìĪľ":3731,"ism":3732,"´íĳ¸":3733,"Ġdry":3734,"ë¶Ħë":3735,"Ġì¼ģì¼ģ":3736,"Ġê±´ê°ķê²Ģì§Ħ":3737,"Ġinc":3738,"Ġulc":3739,"ord":3740,"Ġë¬¸ìŀĲ":3741,"Ġhyd":3742,"Ġë°¤ìĤ¬ìĿ´":3743,"ĠíĿ¬":3744,"ĠìĨĮíıŃ":3745,"ĠìłĪìłľ":3746,"íĬ¸ë¡¤":3747,"ĲëĭĮ":3748,"Ġì¢ĭìķĦì§Ĳ":3749,"Ġcol":3750,"Ġì½Ķë¡ľ":3751,"Ġmax":3752,"ĭľê²½":3753,"ĠìĤ´ì":3754,"ĠìĪłë¶Ģì":3755,"ì¢Įì¸¡":3756,"Ġcephazol":3757,"ĠìķĪëĤ´íķ¨":3758,"Ġì§Ħìłķ":3759,"Ġpod":3760,"ìħī":3761,"Ġdeep":3762,"to":3763,"Ġket":3764,"ĠPCV":3765,"Ġder":3766,"ĠìĽĲì¹ĺ":3767,"rx":3768,"Ġëħ¹":3769,"ĵľëł¸ê³ł":3770,"Ġ),":3771,"Ġsyn":3772,"Ġëį°ëł¤ìĺ¤":3773,"ĠëĽ":3774,"Ġmmc":3775,"ium":3776,"³Ģë":3777,"Ġalert":3778,"ĵľëł¸ìĿĮ":3779,"Ġcefotax":3780,"¨¹ê³ł":3781,"ĠìłĲë§ī":3782,"lex":3783,"EA":3784,"ê¸°ë¥¼":3785,"Ġë§Īëĭ¤":3786,"Ġë¬½":3787,"Ġíķĺìķħ":3788,"Ġì§§":3789,"¹ĦìĿ¸íĽĦ":3790,"ĠìĺĨ":3791,"ĠìľłìĦłì¢ħìĸĳ":3792,"Ġlung":3793,"Ġdia":3794,"¤Į":3795,"ì§Ħë":3796,"Ġíĺ¸ë":3797,"ê¸°ê°Ħ":3798,"ĠìĬ¤ìĬ¤ë¡ľ":3799,"Ġê°Ħê²©ìľ¼ë¡ľ":3800,"anol":3801,"ering":3802,"Ġdazzle":3803,"ff":3804,"ĠíıĲë":3805,"Ġë³ĳìĽĲìĹĲ":3806,"Ġê°ĢëŁī":3807,"ame":3808,"²¤":3809,"Ġë³µìķ½":3810,"Ġê³łêµ¬ë§Ī":3811,"ĠìĥģíĥľìŀĦ":3812,"ëį©":3813,"¶ľ":3814,"Ġìłķê¸°":3815,"Ġflu":3816,"ĠíĦ±":3817,"ĠìļĶê´Ģ":3818,"Ġê¹Ģ":3819,"GEN":3820,"Ġì²Ļ":3821,"ance":3822,"qu":3823,"ogrel":3824,"íĺĪê´Ģê³Ħ":3825,"ĵľë¦¬ê³ł":3826,"ĠIOP":3827,"ĠìĤ¬ìľ¡íĻĺê²½":3828,"Ġë°Ľê³ł":3829,"Ġíķ´ë³":3830,"cal":3831,"Ġìĺ¬ëĿ¼":3832,"ìĤ°ê·ł":3833,"Ġkcl":3834,"opathy":3835,"Ġê´Ģëł¨íķĺìĹ¬":3836,"oid":3837,"ë°ĺë":3838,"ëĦ":3839,"Ġê°ķìķĦ":3840,"ĠìĶ":3841,"ĠíĺĪìĨĮíĮĲ":3842,"Ġì´ĪìĿĮíĮĮìĥģ":3843,"Ġì¶Ķê°Ģì":3844,"ì²ĺëŁ¼":3845,"old":3846,"ì£¼ìĦ¸ìļĶ":3847,"íİ«":3848,"ĠëĶĶìĬ¤íģ¬":3849,"ĠìĿ¸ê³Ħ":3850,"13":3851,"ĠìķĦì£¼":3852,"VD":3853,"Ġê¶¤ìĸĳ":3854,"ìĿĺìĤ¬íķŃ":3855,"¡¬":3856,"ĠëĬĲëģ¼":3857,"ez":3858,"ĠìĨįëıĦ":3859,"ê°ĳ":3860,"ê¸°ë¡ľíķ¨":3861,"ĠëĪĪë¬¼":3862,"Ġhepatic":3863,"feces":3864,"Ġì¶ľíĺĪë":3865,"ther":3866,"ê°Ķ":3867,"ë³µë¶Ģ":3868,"¤ìĿĮ":3869,"Ġcalculi":3870,"asia":3871,"´ìŀ¬":3872,"ìĿ´íĽĦ":3873,"Ġë§Ľ":3874,"Cl":3875,"Ġsd":3876,"ĠìĹī":3877,"ìĬ¬":3878,"++":3879,"ëĲĺë©°":3880,"Ġhypo":3881,"Ĭ¸":3882,"§Ŀ":3883,"hing":3884,"Ġìª½":3885,"ĠìĭĿëıĦ":3886,"ìķĮë":3887,"Ġì²Ńì§Ħ":3888,"Ġë©´ìĹŃ":3889,"ìķĦì§Ĳ":3890,"ıĻë¬¼":3891,"Ġvaccination":3892,"orax":3893,"Ġcys":3894,"Ġìķŀìľ¼ë¡ľ":3895,"Ġê¾¸":3896,"Ġê³¼ë":3897,"Ġ24":3898,"ĠìľĦíķľ":3899,"ual":3900,"Ġì§Ħë£ĮíĽĦ":3901,"Ġweight":3902,"¦ĩ":3903,"uscular":3904,"ëĶ":3905,"Ġeye":3906,"ĠíĺĪê´Ģ":3907,"Ġíĺ¸íħĶ":3908,"Ġìĥī":3909,"Ġsal":3910,"íĩ´ìĽĲ":3911,"fate":3912,"Ġpy":3913,"Ġlact":3914,"íĽĦì§Ģ":3915,"ê¶¤ìĸĳ":3916,"Ġë¨¹ìĺ":3917,"imb":3918,"Ġë§¥":3919,"Ġì¶Ķì²ľëĵľë¦¼":3920,"ìĪĺìĦ±":3921,"ĠíĹĪ":3922,"Ġëĵ¤ìľ¼ìĭ¬":3923,"ĠíĻĺê²½":3924,"ìĺĪ":3925,"Ġsuppl":3926,"monary":3927,"¦Ī":3928,"ëĲĺë©´":3929,"ĠëŃ":3930,"Ġì§Ģì¼ľë³´":3931,"ë¶Ī":3932,"ĠíķĺëĿ½":3933,"ê²¨ë":3934,"Ġintes":3935,"ĠPE":3936,"bl":3937,"ºĦ":3938,"ĠëĦ¤ë":3939,"Ġsucral":3940,"ë§Īë¦¬":3941,"Ġìŀ¬ëĤ´ìĽĲ":3942,"Ġê¾¸ì¤Ģ":3943,"Ġìļ°ë":3944,"Ġê³µë³µ":3945,"Ġampicillin":3946,"Ġì§ĢëıĦ":3947,"§Ģê³ł":3948,"roid":3949,"ĠSkin":3950,"³¼ë":3951,"Ħ¬":3952,"Ġìĵ°ë":3953,"ìĹ¼ë":3954,"´Ĳ":3955,"Ġìĭ«":3956,"ĠìķĬìĿĦ":3957,"ĠìĥĿê°ģëĲ¨":3958,"ĠíĺĪì²Ń":3959,"head":3960,"Ġmri":3961,"ì§Ħíĸī":3962,"ìķł":3963,"25":3964,"ĮĢë":3965,"out":3966,"ĠìĿ´ìļ©íķĺìĹ¬":3967,"ĠëĬĺ":3968,"¹ĦëıĪ":3969,"Ġë¶Īíİ¸íķ´":3970,"ymarin":3971,"ĠìĹ¬ëŁ¬":3972,"ĠìĻĦíĻĶ":3973,"Ġíļ¨ê³¼":3974,"Ġdisease":3975,"°Ľ":3976,"RES":3977,"Ġmainten":3978,"ĠëĪĪê³±":3979,"ĠëĬĺë":3980,"ëįĺ":3981,"ĠëĤĺìķĦ":3982,"ì¡Į":3983,"Ġëĩ¨ëŁī":3984,"Ġë¯¸ë§Į":3985,"´ī":3986,"loxicam":3987,"ĠëĤ´ìĽĲíķ¨":3988,"Ġìĸĳíĺ¸íķĺìĹ¬":3989,"ĠìłĦìĿ¼":3990,"ìĿ´ê°Ģ":3991,"Ġë°ĽìķĦ":3992,"ective":3993,"Ġclopidogrel":3994,"Ġìĭłë¶ĢìłĦ":3995,"Ġpar":3996,"Ġdoxy":3997,"ĠìĿ¼ìĭľ":3998,"erve":3999,"ĠìľĦì¹ĺ":4000,"Ġê²ĢìĤ¬ê²°ê³¼":4001,"ĠëĶ°ë¥¸":4002,"ĠíĨłë":4003,"ĠìĦ¸ìłķ":4004,"Ġìĭ¤ë¦¬":4005,"tial":4006,"ì§Ģë©´":4007,"ĠíĸīëıĻ":4008,"Ġë§ĲëĿ¼ìĦ¸":4009,"ĠìĨĮëŁīìĿĺ":4010,"ĠëĤ´ìĽĲíķĺìĭ¬":4011,"ĠíĻĶìŀ¥ìĭ¤":4012,"ĠìĻ¸ìĿ´ëıĦ":4013,"ĠOU":4014,"ĠëıĻê±°ë¬ĺ":4015,"ital":4016,"Ġêµ¬íĨłë¥¼":4017,"ĠìĥĪë²½ìĹĲ":4018,"ĠëıĻìĿ¼íķĺê²Į":4019,"si":4020,"ĠìĨĮìĹ¼":4021,"ê¸°ì¦Ŀìĥģ":4022,"Systemic":4023,"ĠìĹĨìľ¼ë©°":4024,"Ġë©°ì¹ł":4025,"Ġìķī":4026,"Ġfindings":4027,"ê³³":4028,"ì§Ħëĭ¨":4029,"Ħìº":4030,"Ġhe":4031,"ëĤĮ":4032,"ĠìľłìĤ°ê·ł":4033,"ĠíĮĮëª¨íĭ°ëĶĺ":4034,"¸ëĿ¼":4035,"Ġìŀĩëª¸":4036,"Ġìŀĺì":4037,"ìĹ¼ìĥī":4038,"Ġdef":4039,"ëĬĶê²ĥ":4040,"ķĪ":4041,"Ġìĺ¤ìħĶìĦľ":4042,"Ġy":4043,"ê²Ģì":4044,"ê¸°ì¹¨":4045,"ĺ´":4046,"hs":4047,"ìĻ¸ê³¼":4048,"ìĥĿìĭĿ":4049,"Ġêµ¬ì¡°ë¬¼":4050,"Ġro":4051,"lud":4052,"Ġì´Īê¸°":4053,"Ġsdma":4054,"hyd":4055,"Ġiris":4056,"Ġíķĺë©´ìĦľ":4057,"ìĹ¬ìĦľ":4058,"Ġê¸°ì¹¨ìĿĢ":4059,"Ġê´Ģì°°ëĲĺ":4060,"ĵ¤ë":4061,"ìĤ¬ì§Ģ":4062,"Ġtel":4063,"ĵ¬":4064,"íķľëĭ¤ê³ł":4065,"Ġìĺ¤ìĭ¤":4066,"Ŀ¼ë²":4067,"Ġì²ľìŀĲ":4068,"Ġspironolactone":4069,"ĠìĥĿìĭĿê¸°":4070,"ìĿ´ê¸°":4071,"Ġë³Ģì":4072,"Ġê²°ìłĪ":4073,"Ġechogenic":4074,"Ġë³´ëĤ":4075,"ĠìŀħìĽĲì¹ĺë£Į":4076,"ĠëĪĪìĿĦ":4077,"ĠCE":4078,"ĠCl":4079,"ì£¼ë³Ģ":4080,"gt":4081,"Ġinjection":4082,"Ġëĭ¤ëĭĪ":4083,"Ġmeloxicam":4084,"ally":4085,"ª¬":4086,"ìľĦë":4087,"ĠíĺĪê²Ģ":4088,"ĠìĨĲìĥģ":4089,"Ġure":4090,"Skin":4091,"Ġcpl":4092,"íĬ¹":4093,"ranial":4094,"Ġê²½ëł¥":4095,"ĠìłĢëħģë¶ĢíĦ°":4096,"ìµ":4097,"otemia":4098,"Ġluxation":4099,"Ġëĭ¨ë°±":4100,"íĮ¨":4101,"ĠëıĮìķĦ":4102,"yroid":4103,"ìĿ´ìĸ":4104,"ĠìķĦëĭĪ":4105,"ĠWBC":4106,"Ġast":4107,"tein":4108,"¶ĢìłĦíĻĶ":4109,"íķĺëĭ¤ê°Ģ":4110,"Ġíı¬ë¹ĦëıĪ":4111,"Ġcefazolin":4112,"ĠìŀĲìĦ¸":4113,"Ġvhs":4114,"Ġë³µë§ī":4115,"ĠHW":4116,"ĠìĹŃ":4117,"Ġê·Ģì²ŃìĨĮ":4118,"Ġsm":4119,"ĠëĥĦìĥ":4120,"Ġë¬»":4121,"ĠëıĮìķĦì":4122,"¥´ëª¬":4123,"ĠìĨ¡":4124,"oic":4125,"ì¸µ":4126,"ĦëĦ¬":4127,"ìķĦì£¼":4128,"ħ¨ìĿĮ":4129,"ruc":4130,"tine":4131,"Ġë³´íĺ¸ìŀĲë¶ĦìĿ´":4132,"½ë§Į":4133,"Ġì½Ķë¡ľëĤĺ":4134,"Ġsol":4135,"¶Ħë":4136,"Ġë³ĢìĿ´":4137,"ĠíĹ¤":4138,"Ģë¶Ģë¶Ħ":4139,"Ġ(-":4140,"ĠìķĪíķ¨":4141,"²ł":4142,"ĠìĦ¤ìĤ¬ëĬĶ":4143,"Ġë°±ìĭł":4144,"ê¸ĪìĿ¼":4145,"ĠìĤ´":4146,"ivering":4147,"ĠìĬ¬ê´ĢìłĪ":4148,"sec":4149,"ick":4150,"ust":4151,"ĠHCT":4152,"ĠìĦŃì·¨":4153,"etic":4154,"mat":4155,"ë§Īë¦°":4156,"ë³Ģë":4157,"Ġê³µê¸īì¤ĳ":4158,"ĠíĨµíķ´":4159,"ycl":4160,"ĠìłĪê°ľ":4161,"ute":4162,"Ġìľłì§ĢìĨį":4163,"ĠìĥĿë¦¬":4164,"ìĭ¬ìŀ¥":4165,"ĠìłľìĻ¸":4166,"Ģìľ¼ëĤĺ":4167,"Ġì¹´íħĮíĦ°":4168,"ëĤĺì":4169,"Ġmuc":4170,"ë°¥":4171,"Ġar":4172,"ĠìĿ´íĽĦìĹĲ":4173,"ĥĦ":4174,"íĽĦë":4175,"ìĭłëĭ¤ê³ł":4176,"Ġass":4177,"íĶ¼ëĶ©":4178,"Ġtor":4179,"¸ë¦¬":4180,"Ġìŀ¬ì§Ħìĭľ":4181,"Ġë³´ë¥ĺ":4182,"ĺìĤ¬":4183,"Ġê²°ë§īìĹ¼":4184,"tens":4185,"Ġtapering":4186,"Ġíķ¸ëĵľ":4187,"ë¥":4188,"ĠìĽĲìĿ¸ìľ¼ë¡ľ":4189,"ìĤ¬ì§Ħ":4190,"ëĬĲ":4191,"Ġì¡´ìŀ¬":4192,"Ġë°¥ìĿĢ":4193,"ìĭľíĬ¸ë¡¤":4194,"ìķĮ":4195,"junctiv":4196,"Ġê·¼ê³¨ê²©ê³Ħ":4197,"Ġìĭłìļ°":4198,"Ġfe":4199,"ĠìłķëıĦëĬĶ":4200,"sulin":4201,"Ġê°Ģëł¤ìĽĮ":4202,"ĦìºĲëĭĮ":4203,"eding":4204,"ëĤł":4205,"uria":4206,"Ġmeth":4207,"ric":4208,"ĠCRT":4209,"Ġnod":4210,"ëĨįì¦Ŀ":4211,"16":4212,"ushing":4213,"ĠìłĪë":4214,"Ġìĺ¤ë©Ķ":4215,"vious":4216,"Ġìĭ¬ìŀ¡ìĿĮ":4217,"Ġratio":4218,"Ġê²ĢìĤ¬ëĬĶ":4219,"Ġíķ´":4220,"Ġit":4221,"Ġë°©ê´ĳê²°ìĦĿ":4222,"Ġì£¼ìĭ¬":4223,"ĠëĬĲëĤĮ":4224,"+)":4225,"elid":4226,"ars":4227,"ĠëıĻë¬¼ë³ĳìĽĲ":4228,"ł´":4229,"Ġêµ¬ì¶©ìłľ":4230,"ĠìŀĪìľ¼ë¯Ģë¡ľ":4231,"ound":4232,"µìłľ":4233,"ĠëĤ´ìĭľê²½":4234,"ĠíĺĦì²":4235,"Ġìĭ«ìĸ´":4236,"ik":4237,"Ġëĸ¨ìĸ´":4238,"Ġëĭ¬":4239,"ange":4240,"ĠìĿĺë¢°ë³ĳìĽĲìĹĲìĦľ":4241,"ĠëĤ´ì¸¡":4242,"íĺ¸ìłľ":4243,"Ġ40":4244,"ĠVHS":4245,"Ġsupply":4246,"Ġê³°íĮ¡ìĿ´":4247,"Ġë¶Ģíĥģ":4248,"Ġíĺ¸íĿ¡ê¸°ê³Ħ":4249,"¹ĺì":4250,"Ġìī":4251,"zole":4252,"tif":4253,"ĠìķĶíĶ¼":4254,"Ġsub":4255,"jective":4256,"Ġtable":4257,"°Ķëĭ¥":4258,"ĠìķĬìľ¼ìĭ¬":4259,"ipural":4260,"ond":4261,"ĠìĦĿ":4262,"¦½ëĭĪëĭ¤":4263,"ĠìľĦëĤ´":4264,"Ġë§Īë¦¬":4265,"ĠìĿĮìĺģ":4266,"Ġel":4267,"Ġì§Ģê¸ĪìĿĢ":4268,"ŀ¬":4269,"ĠíıĲì¹¨ìľ¤":4270,"Ġë³¼":4271,"Ġë§İìĿĮ":4272,"ĠìĥģíĥľìĹĲ":4273,"Ġë¹ĦìĬ·íķľ":4274,"ĠíıĲìĥī":4275,"Ġê³³":4276,"Ġsilymarin":4277,"ĠìľĦìŀ¥ê´Ģ":4278,"Ġë³ĢìĿĦ":4279,"ĠíĺĪìķ¡ê²ĢìĤ¬ìĥģ":4280,"pra":4281,"apen":4282,"Ġcefotaxime":4283,"´ìľ":4284,"ê±°ì":4285,"Ġnervous":4286,"íķĺìĭľê³ł":4287,"Ġë§¡":4288,"Ĩĵ":4289,"tration":4290,"Ġrespiratory":4291,"ĠBCS":4292,"ient":4293,"ĠìĪĺì¤Ģ":4294,"Ġíĳ":4295,"įĶëĭĪ":4296,"ĠìĹ¼ìĥī":4297,"ĠMRI":4298,"tib":4299,"ocyt":4300,"ĠëĲĺì§Ģ":4301,"Ġëĭ¤ë¦¬ë¥¼":4302,"Ġíĸ¥":4303,"Ġê°Ģì§Ģê³ł":4304,"red":4305,"Ġìĭ¤ë¦¬ë§Īë¦°":4306,"Ġë°ĽìĿĢ":4307,"Ġë³Ģë":4308,"Ġê¸°ë¦½":4309,"ors":4310,"ĠíĤ¤ìļ°":4311,"ĠìĻĶ":4312,"Ġshivering":4313,"ĠëĮĢë¶Ģë¶Ħ":4314,"ìĹĪìĿĦ":4315,"Ġê±¸ë":4316,"DM":4317,"ĠìĭĿìĿ´ìĦ±":4318,"ìĸ´ì§Ĳ":4319,"Ġcardiac":4320,"Ġvi":4321,"ê²½ìļ°":4322,"Ġìĸ´ëł¤ìĽĢ":4323,"ì§ĢëıĦ":4324,"Ġë°ľê°ĢëĿ½":4325,"Nervous":4326,"ĠëĨĴìĿĢ":4327,"ì¹ĺë":4328,"Ġpale":4329,"íĬľë¸Į":4330,"ìķĺìľ¼ëĤĺ":4331,"Ġì¢Įìĭ¬ë°©":4332,"ĠìĻ¸ì¸¡":4333,"terior":4334,"Ġì°©":4335,"Ġì´īì§Ħìĭľ":4336,"ìĦ¸ë":4337,"ê·¼ë":4338,"com":4339,"ĠNS":4340,"ĠëĦ¥ìĬ¤":4341,"ëĭ´ëıĦ":4342,"ìĦľëıĦ":4343,"fen":4344,"ĠìĥĪë¡ľ":4345,"Ġdi":4346,"Ġram":4347,"Ġ**":4348,"ĠëıĻë°ĺë":4349,"ĠìłĲìķ¡":4350,"ë°°ë³Ģ":4351,"Ġë³´ìĿ´ê³ł":4352,"Ġì¼ĦëĦ¬":4353,"PO":4354,"ĠìĿĮìĭĿë¬¼":4355,"¦°ë":4356,"AM":4357,"£¨ìħĺ":4358,"ì´¬ìĺģ":4359,"Ĥ´ìļ©":4360,"ĠìµľëĮĢ":4361,"Ġìľłë°ľ":4362,"ĠìĨĮê²¬ìĿĢ":4363,"node":4364,"íĥĢìºĦ":4365,"Ġê°ĢëĬ¥ìĦ±ëıĦ":4366,"Ġcephazoline":4367,"Ġdox":4368,"amide":4369,"íĺĪìķ¡ê²ĢìĤ¬":4370,"ĠëĤĺìĻĶ":4371,"ĠíĿĺë":4372,"cor":4373,"Ġê³łìĹĲì½Ķ":4374,"REP":4375,"accination":4376,"edrop":4377,"ĠìĹīëį©":4378,"ĠìłķíĻķíķľ":4379,"Ġìķ½ìļķ":4380,"ëĭĲ":4381,"ĭľëĿ¼ê³ł":4382,"Ġê¼Ń":4383,"ĠíĺĦì²ĺì¹ĺ":4384,"Ġê²ĢìĤ¬ë¥¼":4385,"Ġsaline":4386,"Ġìĭ¬íĺĪê´Ģê³Ħ":4387,"Ġì§ģìłĳ":4388,"Ġah":4389,"Ġë³´ìĿ¸":4390,"ĠìĿ¼ìĸ´ëĤ":4391,"ê¸°ëĬ¥":4392,"Ġë§ī":4393,"íķ´ë³´ì":4394,"Ġggt":4395,"ĠìķĪê²Ģ":4396,"atin":4397,"Ġì§¸":4398,"rin":4399,"Ħł":4400,"³´ìŀĦ":4401,"ìľłì§Ģ":4402,"vd":4403,"erg":4404,"Ġì§Ħíĸīíķĺê¸°ë¡ľ":4405,"ļ°ë":4406,"Ġë¡ľìĸĦìºĲëĭĮ":4407,"Ġabdominal":4408,"no":4409,"ef":4410,"Ġì¶Ķê°Ģê²ĢìĤ¬":4411,"Ġë³¸ìĽĲìĹĲìĦľ":4412,"ë¶Ģë¶Ħ":4413,"ency":4414,"Ġdob":4415,"ĠTP":4416,"íķĺìĺĢìĬµëĭĪëĭ¤":4417,"Ġìĺµ":4418,"íĥķ":4419,"´Ī":4420,"Ġë§¥ìĭľíĬ¸ë¡¤":4421,"ìĭľê¸°ë¡ľ":4422,"Ġëįľ":4423,"ĠìĭŃ":4424,"ĠìĿĢ":4425,"Ġulcer":4426,"Ġìĺ¤ì¤Į":4427,"Ġupc":4428,"Ġha":4429,"ĠUS":4430,"Ġazotemia":4431,"ì¦ĺ":4432,"Ġìĺģìĸĳ":4433,"Ġëħ¸ëŀĢìĥī":4434,"ë¯¸ìļ©":4435,"íĽ":4436,"íļ":4437,"íĻľëł¥":4438,"Ġëĭ¹ìĿ¼":4439,"ĠíĥĢë":4440,"Ġê°ģë§īê¶¤ìĸĳ":4441,"ëĤ´ë³µìķ½":4442,"ail":4443,"Ġê°ĲìĨĮíķ¨":4444,"argin":4445,"Ġëĭ¤ëŁīìĿĺ":4446,"%,":4447,"plasia":4448,"ì£¼íĺ¸ìĨĮ":4449,"lare":4450,"ìĥĿìĭĿê¸°ê³Ħ":4451,"Ġfrom":4452,"ŀĦ":4453,"ìĹ°ë":4454,"ĠìĹ´":4455,"sid":4456,"Ġêµ¬ìłľ":4457,"Ġê°ĦìĭĿìĿĢ":4458,"icro":4459,"ludge":4460,"Ĳ©ëĭĪëĭ¤":4461,"ê°Ģì§Ģ":4462,"apentin":4463,"ë¶Ħê°Ħ":4464,"gency":4465,"ĠëĮĢìĨĮ":4466,"ĠìłĦì²´":4467,"Ħ¸ìļĶ":4468,"Ġë´Ĳ":4469,"ellar":4470,"ely":4471,"Ġê±°ë¶Ģ":4472,"Ġ13":4473,"ĠìĽĲíķ¨":4474,"Ġê¾¸ì¤ĢíŀĪ":4475,"Ġì¢ĭìĿĢ":4476,"ìµľ":4477,"Ġpd":4478,"Ġê¸°ë¡Ŀ":4479,"umb":4480,"ĠíĻĺë":4481,"Ġfx":4482,"pm":4483,"Ġê±°íĴĪ":4484,"Ġë°ĸ":4485,"Ġë¨¼":4486,"yte":4487,"ucle":4488,"ìĿĢì":4489,"íĻķìŀ¥":4490,"°ķ":4491,"Ġì°¾":4492,"Ġíĺ¸íĿ¡ìĿ´":4493,"raph":4494,"íĹ¥":4495,"In":4496,"Ġìĺģíĸ¥":4497,"ê°ĢìĦľ":4498,"ĠíĨµì¦Ŀë°ĺìĿĳ":4499,"mergency":4500,"ìħ¨ëĭ¤ê³ł":4501,"Ġê¸°ìļ´":4502,"ĠPh":4503,"ê³µê¸ī":4504,"ìķĦí":4505,"ĠìĶ©":4506,"Ġpal":4507,"Ġë©ĶíĥĢìºĦ":4508,"ĠìĿ´ë¹ĦìĿ¸íĽĦ":4509,"Ġê·ĵ":4510,"Ġnot":4511,"Ġsludge":4512,"ollow":4513,"ĠNo":4514,"ĠìķĪë¶ĢìłĦíĻĶ":4515,"orphanol":4516,"Ġchange":4517,"ìķ½ìĿĢ":4518,"ĠìłĢíķĺë":4519,"Ġì²«":4520,"ĠíĮ¨ë":4521,"ite":4522,"ducation":4523,"Tx":4524,"aneous":4525,"Ġëĭ¹ëĩ¨":4526,"Ġome":4527,"Ġìķ¼ê°Ħ":4528,"Ġsucralfate":4529,"Ġê°ľìĦłëĲĺ":4530,"Ġinfection":4531,"Ġíģ´ë¡ľ":4532,"¶Ģë":4533,"Ġê·¸ëĮĢë¡ľ":4534,"ono":4535,"Ġëĵ¤ê³ł":4536,"ĠíĨµì¦Ŀíĺ¸ìĨĮ":4537,"Ł°":4538,"ĠTh":4539,"ĠëĨįìĦ±":4540,"ĺĪìłķ":4541,"ĠìĬ¬ê°ľê³¨íĥĪêµ¬":4542,"ĠìºĶìĤ¬ë£Į":4543,"°ëį°":4544,"Ġradi":4545,"ĠëĮĢíĩ´":4546,"ĠëĤĺìģ":4547,"ê²½ê³¼":4548,"Ġmedication":4549,"Ġintra":4550,"Ġíĺ¸ë¥´ëª¬":4551,"Ġgast":4552,"Ġë°©íĸ¥":4553,"Ġlens":4554,"ĠCP":4555,"Ġê¶Įìľłë":4556,"Ġê²ĢìĤ¬ìŀĲë£Į":4557,"Ġdec":4558,"Ġê¶Įìŀ¥":4559,"Ġreflex":4560,"ê·ľ":4561,"(-),":4562,"ograph":4563,"ìĨį":4564,"¼êµ":4565,"ĠìĤ´ì§Ŀ":4566,"ê¾¸":4567,"ocarb":4568,"Ġíķĺì§Ģë§Į":4569,"cat":4570,"ì¶ķëĨįì¦Ŀ":4571,"Ġcycl":4572,"ì²´íģ¬":4573,"Ġë¨¹ìľ¼ë©´":4574,"ëĭĪë":4575,"ĠìłĲìłĲ":4576,"Ġkgtime":4577,"ĠíĬ¸ëĿ¼ë":4578,"ĦíĽĦ":4579,"Ġmid":4580,"ìĿ¼ë¶ĢíĦ°":4581,"Ġê°Ħëĭ´ëıĦ":4582,"Ġëĭ¹ë¶Ħê°Ħ":4583,"Ġë°ľëĿ¼":4584,"ĠVaccination":4585,"§¥":4586,"Ġë³ĢìĿĢ":4587,"Ġdepress":4588,"Ġmetac":4589,"Ġíķ¸ëĵľíĶ¼ëĶ©":4590,"Ġbi":4591,"ystolic":4592,"Ġplr":4593,"ĶĮë":4594,"eak":4595,"ìº":4596,"Ġdil":4597,"Ġíŀĺëĵ¤":4598,"Ġprotein":4599,"Ġì¤ĳìĦ±íĻĶìĪĺìĪł":4600,"ture":4601,"ê·¸ë¦ĩ":4602,"ock":4603,"íħ":4604,"ĠìķĪëĲ":4605,"ĠìķĦëĭĮ":4606,"Ġprn":4607,"):":4608,"ĠëĦ¥ìĬ¤ê°Ģëĵľ":4609,"hrë¡ľ":4610,"Ġì¸":4611,"ì¢ħê´´":4612,"eek":4613,"Ġë°ľë°Ķëĭ¥":4614,"ìĭľìĹĲ":4615,"Ġë¹¨":4616,"ĠBW":4617,"Ġëª»íķĺê³ł":4618,"36":4619,"Ġì§Īë":4620,"Ġhrë¡ľ":4621,"Ġmargin":4622,"Ġì¢ĭìķĦì¡Į":4623,"Ġì²ĺì¹ĺì":4624,"ìĪĺìķ¡":4625,"ĠíĽ":4626,"ĠìĭĿìļķìłĢíķĺ":4627,"Ġëĭ´ì":4628,"ĠíĽĦìĹ½":4629,"ĠìŀłìĿĦ":4630,"ĠìĬµìĭĿ":4631,"lan":4632,"charge":4633,"ìĦłìĥĿëĭĺ":4634,"ĠëĲĺëĬĶ":4635,"Ġfi":4636,"Ġê°Ħì":4637,"Ġanemia":4638,"Ġman":4639,"itrol":4640,"Ġê¸īìĦ±":4641,"Ġcont":4642,"ìħīìħĺ":4643,"íķĺëıĦë¡Ŀ":4644,"Ġpods":4645,"Ġíķľë²":4646,"ise":4647,"Ġsl":4648,"hep":4649,"ļ°ë¦°":4650,"Ġmat":4651,"ìĭłê²½":4652,"Ġë¡ľìļ°":4653,"DMA":4654,"íķĦìļĶ":4655,"Ġë¿":4656,"Ġíķľëĭ¤ê³ł":4657,"Ġsmall":4658,"Ġìĸĳíĺ¸íķ©ëĭĪëĭ¤":4659,"Ġë¬¼ìĿĦ":4660,"íķľë":4661,"Ġmis":4662,"ĪìłķëıĦ":4663,"Ġê°ĲìĪĺìĦ±":4664,"ĠëĦ£ìĸ´ì£¼":4665,"Ġì§ĢìĨįìĭľ":4666,"ë¶ĢìłĦ":4667,"ìĹ¼ìĹĲ":4668,"ĠëłĪë³¼ë":4669,"ĠìķĪê²ĢìĤ¬":4670,"Ġlv":4671,"ĠìĥĿê¹Ģ":4672,"¯¼ë":4673,"Ġë²½":4674,"Ġë¹Ħê°ķ":4675,"Ġfna":4676,"ĠìĿĺìĭ¬ëĲĺëĬĶ":4677,"ĠìĨĮëŁīìĶ©":4678,"¡Ģ":4679,"íĶ¼ìĬ¤":4680,"Ġenvironment":4681,"ĠìĹĲìĦľ":4682,"Ġê·¸ëŁ°":4683,"ĠìĿ¼ë°ĺìłģìĿ¸":4684,"Ġìĸĳíĺ¸íķĺëĤĺ":4685,"íķłëķĮ":4686,"ëĵľë¦¼":4687,"ĠìĻĦìłĦíŀĪ":4688,"Ġgabapentin":4689,"Ġì£¼ê¸°":4690,"ĠìĹĶ":4691,"ĠìľłìĹ°":4692,"ê°ĦìĭĿ":4693,"ĠíļŁìĪĺ":4694,"íĬ¸ë¡ľ":4695,"êº":4696,"ST":4697,"Ġëħ¸ëł¹":4698,"Ġì°½ìĥģ":4699,"íĶ¼ì¦Ŀ":4700,"ĠìľłìĿĺìłģìĿ¸":4701,"§Ģë©´":4702,"´ë¦¬":4703,"ĠëıĻê±°ëıĻë¬¼":4704,"´ìŀĪìĿĮ":4705,"ĠíıĲëł´":4706,"ë¦¬ìħīìħĺ":4707,"íĭ´":4708,"otil":4709,"ĠìĺĪìłķìŀĦ":4710,"Ġíĺ¼íķ©":4711,"prazole":4712,"00":4713,"Ġcp":4714,"Ġhepat":4715,"Ġmul":4716,"Ĥĺì":4717,"Ġwall":4718,"ìĤ°ì":4719,"ĳĲë":4720,"NS":4721,"Ġë¹Ħëĩ¨ê¸°":4722,".(":4723,"ocarbam":4724,"Ġì¹ĺê³¼":4725,"ĠíĹ¥ìĭľëĶĺ":4726,"ĠìķĬìľ¼":4727,"ĠíĶ¼ê°Ģ":4728,"į¼":4729,"íĺĪì²Ń":4730,"ĠìłĢëħģìķ½":4731,"utaneous":4732,"ëĤ´ê³¼":4733,"ìĿ´ë¥¼":4734,"Ġì§Ģì¼ľë³´ì":4735,"Ġì§ĢìĨįëĲ¨":4736,"©Ķì§Ħ":4737,"ìĺģìĥģ":4738,"+,":4739,"ìĪĺëıĦ":4740,"Ġleve":4741,"Ġë³´íĺ¸ìŀĲê°Ģ":4742,"Ġamox":4743,"íĽĪ":4744,"Ġsurgery":4745,"ĠíĨµìĽĲ":4746,"Ġë°ľìłķ":4747,"Ġìŀ¥ê¸°":4748,"ĠNa":4749,"ì¼ľ":4750,"ĠìļĶìĿ¸":4751,"Ġì§Ħíĸīì¤ĳ":4752,"Ĩł":4753,"Ġíĥľ":4754,"Ġë°°ìª½":4755,"Ġì§ĢìĹŃë³ĳìĽĲìĹĲìĦľ":4756,"ĠìĤ¬ì§Ģ":4757,"ìĺĪë°©ìłĳì¢ħ":4758,"ŀµ":4759,"ª¨íģ":4760,"¬´ì":4761,"ì§Ģì§Ģ":4762,"Ġregion":4763,"íķĻìłģ":4764,"ĠEnvironment":4765,"íķ´ì§Ĳ":4766,"Ġê°ķì§ģ":4767,"ĠëĪĪìĿ´":4768,"ocal":4769,"Ġtheophylline":4770,"artar":4771,"Ġìĺ¤ë©Ķê°Ģ":4772,"°¨":4773,"ĠëĤĺë¨¸":4774,"ħ¸ë":4775,"Ġnasal":4776,"ĠìĦ±ê²©":4777,"ëĵ¯":4778,"Ġ36":4779,"Ġacet":4780,"Ġtartar":4781,"17":4782,"ĠìĽĢì§ģìŀĦ":4783,"Ģìĸ´":4784,"ìľĦì":4785,"ĠíĻľëıĻ":4786,"Ġê¸°ì¹¨ìĿĦ":4787,"Ġcephalexin":4788,"Ġheart":4789,"Ġphysical":4790,").":4791,"Ġëł¹":4792,"ĠìĿ´ìĨĮ":4793,"rilost":4794,"ĠíĿ¡":4795,"Ġìĸ¼êµ":4796,"Ġonce":4797,")-":4798,"íķĺìĺĢìĿĮ":4799,"Ġpent":4800,"apse":4801,"ĠìłķëıĦìĿĺ":4802,"ĳì°©":4803,"Ġì£¼ê°Ħ":4804,"Ġvitamin":4805,"ì§Ģë¥¼":4806,"ì¦Ī":4807,"ìļ°ì":4808,"ycline":4809,"ĠëıĻë¬¼ë³ĳìĽĲìĹĲìĦľ":4810,"Ġê°ķìłľê¸īìĹ¬":4811,"Ġíĺ¸íĿ¡ìĸĳìĥģ":4812,"Ġisoflurane":4813,"Ġdeworming":4814,"ĠPLR":4815,"ĠFluid":4816,"che":4817,"Ġintestinal":4818,"Ġì£¼ê³ł":4819,"ĠìŀĶ":4820,"ë¹ĦëĮĢ":4821,"´ìĤ¬":4822,"íķĺìĭľëĿ¼ê³ł":4823,"Ġìĥģìķħ":4824,"ĺë¡ľ":4825,"Ġkcal":4826,"íĺ¹":4827,"§ĪëıĮ":4828,"sis":4829,"Ġmmvd":4830,"Ġliver":4831,"Ġì¹ĺì£¼":4832,"Ġì§ĢëĤ´":4833,"Ġtimebid":4834,"Ġê°ĦíĹĲìłģìĿ¸":4835,"row":4836,"ĺìĦ±":4837,"rad":4838,"ìłģìĿ´ì§Ģ":4839,"ĠíĬ¹íŀĪ":4840,"ĭłëĭ¤ê³ł":4841,"Ġother":4842,"GT":4843,"ê²ĢìĤ¬ìŀĲë£Į":4844,"ĠìķĪìłķíĻĶ":4845,"ĠìĿĳê¸īëĤ´ìĽĲ":4846,"ëĤłë":4847,"Ġpulmonary":4848,"ê´Ģë":4849,"ëĤľ":4850,"ìĿ´ë¯Ģë¡ľ":4851,"ë³ĳëł¥":4852,"ĠìłĲìĭ¬":4853,"ìľ¼ë©´ìĦľ":4854,"ĠìĺĪë":4855,"Ġìľ¡ìķĪ":4856,"tern":4857,"Ġeducation":4858,"Ġsk":4859,"deworming":4860,"ile":4861,"ì¹´ë":4862,"ìĬ¤íĳ¼":4863,"ĠíĶ¼ë¶Ģë³ĳë³Ģ":4864,"Ġbutorphanol":4865,"ON":4866,"ĠíķĦìļĶíķ©ëĭĪëĭ¤":4867,"ĭľëĬĶ":4868,"ĠALT":4869,"ĠìļĶì¦ĺ":4870,"amber":4871,"ech":4872,"hydration":4873,"ĠìĪłìłĦ":4874,"ard":4875,"ħ¸":4876,"Ġìĸĳíĺ¸íķĺë©°":4877,"íĿ¬":4878,"iasis":4879,"ª¨íģ¬ëĿ¼":4880,"ì£¼ìĤ¬":4881,"ê³¨ìłĪ":4882,"Ġë¸Įë¡¬":4883,"ë°ľìĦ±":4884,"ĠëĴ¤ìĹĲ":4885,"ê´ĳìĹ¼ìĥī":4886,"ospor":4887,"Ġìľłì§Ģì¤ĳ":4888,"ìĿ´ìĭ¬":4889,"Ġì§Ħíĸīíķĺì§Ģ":4890,"ì¹ĺìķĦ":4891,"ĠìĨĮíĻĶê¸°ì¦Ŀìĥģ":4892,"ipril":4893,"ĠíĸĪìľ¼ëĤĺ":4894,"ìĺ¨":4895,"Ġep":4896,"Ħì¤ĳ":4897,"Ġë¨¼ìłĢ":4898,"ĠëłĪë³¼ë£¨ìħĺ":4899,"ĠëĿ¼ëĭĪ":4900,"ì§Īë":4901,"ë¹Ħìķ½":4902,"Ġfel":4903,"Ġì¡°ìĺģ":4904,"ĠêµĲìĥģ":4905,"ceph":4906,"ì²´ë":4907,"uma":4908,"Ġtotal":4909,"ìĭĿìĬ¤":4910,"Ġëģ¼":4911,"ĠíĮĮìĹ´":4912,"Ġlactate":4913,"ĠíĬ¸ëĿ¼ë§ĪëıĮ":4914,"Ġìĥģíĥľê°Ģ":4915,"ê¸°ìĥĿì¶©":4916,"ĠëĨįíĶ¼ì¦Ŀ":4917,"ĠëĲĺìĸ´":4918,"íķľì§Ģ":4919,"ĠìŀĪìľ¼ë©´":4920,"Ġíģ¬ë":4921,"ĠìķĪë¨¹ê³ł":4922,"ĠìĦ¸ê·łìĦ±":4923,"Ġíİ¸ìŀĦ":4924,"Ġëª¨ë¥´ì":4925,"Ġchamber":4926,"Ġback":4927,"Ġê±°ì":4928,"ĠëĥĦìĥĪ":4929,"ĠëĳĲë²Ī":4930,"ë³ĦíŀĪ":4931,"agen":4932,"Ġì°į":4933,"ĠCh":4934,"ĠëĬĺìĸ":4935,"ĠìłĲì°¨":4936,"ĠìŀĲê¾¸":4937,"Ġëª»ë":4938,"Ġê°Ģìł¸":4939,"Ġlac":4940,"ĠMMVD":4941,"ìĿ´ëŀĳ":4942,"Ġmaxitrol":4943,"ĠìķħìĦ±":4944,"enteritis":4945,"rack":4946,"limb":4947,"ycycline":4948,"Ġíķµ":4949,"Ġofloxacin":4950,"Ġaus":4951,"ìĭłìŀ¥":4952,"ìķĦìłľ":4953,"Ġê³łì§Ģíķ¨":4954,"Ġì·¨":4955,"¥´ê³ł":4956,"ritis":4957,"ĠìķĦíĶ":4958,"rilostane":4959,"ŃëĭĪëĭ¤":4960,"ìłĦíĻĶìĥģëĭ´":4961,"íĭ°ì":4962,"ĠAb":4963,"ĵ¤ìĿ´":4964,"Ġë³´ìĿ´ë©°":4965,"ĠìķĬìľ¼ë©´":4966,"ì°¬":4967,"Ġ=>":4968,"íķĺê±°ëĤĺ":4969,"ns":4970,"Ġê¸°ì´Ī":4971,"íĸĪëĭ¤ê³ł":4972,"Ġë°Ķê¿":4973,"Ġleft":4974,"Ġìłķìĥģë°°ëĩ¨":4975,"¥¸ë³Ģ":4976,"ìĹĲë§Į":4977,"Ġëĵ¯íķ¨":4978,"atient":4979,"Ġì§Ħíĸīíķł":4980,"¶Ģì¡°ì§ģ":4981,"ĠìłķëıĦë":4982,"Ġgland":4983,"¯¼ë°ĺìĿĳ":4984,"©ĶìĿ¼":4985,"rr":4986,"ĠêµŃìĨĮ":4987,"Ġìĭľê°ĦìĿ´":4988,"ĠSDMA":4989,"³´íĺ¸ìłľ":4990,"39":4991,"ê²¼":4992,"ĠTID":4993,"Ġ16":4994,"AH":4995,"Ġnucle":4996,"domen":4997,"Ġmo":4998,"Ġsubc":4999,"Ġíı¬ëŁ¬ìĬ¤":5000,"´ëķĮ":5001,"Ġìĺ¤ëŀĺ":5002,"Ġìĺ¤íģĲ":5003,"Ġì¦Ŀê°Ģë":5004,"ì³Ĳ":5005,"Ġflare":5006,"Ġmetacam":5007,"Ġìĸ´ë¨¸":5008,"íģ¬ë":5009,"Ġì£¼íĺ¸ìĨĮ":5010,"ìª½ìľ¼ë¡ľ":5011,"ĵľëł¸ìľ¼ë©°":5012,"¤ë©´":5013,"²ĺë°©":5014,"Ġìĸ´ìłľëĬĶ":5015,"Ġnon":5016,"Ġê¸°ì¹¨ìĿ´":5017,"ª¨ë":5018,"ator":5019,"ĠíķĦìļĶìĭľ":5020,"íĸĪê³ł":5021,"rough":5022,"ive":5023,"Ġë³´íĺ¸ìŀĲë¶Ħê»ĺìĦľ":5024,"Ġdv":5025,"ìłĪê°ľ":5026,"ĠìĿĺìĭ¬ëĲ¨":5027,"ĠìĦľë":5028,"tiss":5029,"ĠìĹ°ë¶Ģì¡°ì§ģ":5030,"Ġspiro":5031,"ree":5032,"ĠPH":5033,"łĩ":5034,"Ġpap":5035,"eeth":5036,"Ġsystem":5037,"Ġdischarge":5038,"Ġìĭ¤ëĤ´":5039,"ĠPR":5040,"ĠìĹ°ì":5041,"Ġìłĳê·¼":5042,"ĠPLT":5043,"Ġê³łëł¤íķĺìĹ¬":5044,"ìĿĮìĭĿ":5045,"Ġê·Ģë¥¼":5046,"ĠìŀĲë°ľë":5047,"ĠìĺĪë¯¼":5048,"íĤ¨":5049,"Ł½":5050,"Ġì¤ĳê°ĦìĹĲ":5051,"Ġassessment":5052,"Ġëĵ¤ìľ¼":5053,"Ġfib":5054,"íķĺìĺĢ":5055,"reased":5056,"ĠìŀĲê¶ģì¶ķëĨįì¦Ŀ":5057,"Ġmeto":5058,"Ģì§Ī":5059,"Ġamyl":5060,"ĠìķĦëª¨íģ¬ëĿ¼":5061,"ĠìĤ¬ëĿ¼":5062,"Ġcornea":5063,"Ġë¨¸ë¦¬":5064,"ĠëĽ°ì":5065,"ĠíĬ¹ë³ĦíŀĪ":5066,"ĠëĪĪë¬¼ë":5067,"(+),":5068,"Ġíİľ":5069,"ì¹Ļ":5070,"´ì£¼":5071,"ħëĭĪëĭ¤":5072,"ìķ½ë¥ĺ":5073,"ĠíĥĢìļ°ë¦°":5074,"ĠPODS":5075,"Ġê´ľì°®ìĿĮ":5076,"Ġtiss":5077,"Ġthis":5078,"ìķĪìłķ":5079,"ĠíĤ¤íĬ¸":5080,"esth":5081,"ĠìķĦìĿ´ê°Ģ":5082,"Ġê·¸ëķĮ":5083,"Ġëħ¸ì¶ľ":5084,"Ġdehydration":5085,"ĠìļĶë§Ŀ":5086,"Ġìĸ´ëĸ":5087,"íĺľ":5088,"¥´ëĬĶ":5089,"Ġì¶Ķê°Ģë¡ľ":5090,"ëıĦë¡Ŀ":5091,"orrh":5092,"Ġê°ĢëĬ¥ìĦ±ìĿĢ":5093,"Ġìĺ¤íĽĦìĹĲ":5094,"VI":5095,"ì²ĺì¹":5096,"ew":5097,"Ġìĭ¸":5098,"ĠìĪĺìĪłìĿĦ":5099,"Ġlateral":5100,"ĠíķĦìļĶìĦ±":5101,"ê±¸":5102,"onis":5103,"Ġê³¼ë¯¼ë°ĺìĿĳ":5104,"ĠíķĺìĿ´":5105,"ìĥĪ":5106,"Ġì§Ģìĸ":5107,"ĠìłĢíĺĪëĭ¹":5108,"Ġbooster":5109,"Ġìĺ¨":5110,"lop":5111,"Ġmethocarbam":5112,"ĠDV":5113,"cto":5114,"met":5115,"ĠíĹ¥íĹ¥":5116,"Ġposi":5117,"Ġì§Ģìĭľ":5118,"Ġìĭ¬íķ´":5119,"Ġlefotil":5120,"ype":5121,"Ġover":5122,"ìĭ¤ìĭľ":5123,"Ġë³´ê¸°ë¡ľ":5124,"Ġëħ¹ëĤ´ìŀ¥":5125,"opic":5126,"ìķĺì":5127,"ìħĶ":5128,"Ġëĩ¨ê²ĢìĤ¬":5129,"ĠJ":5130,"ĠFNA":5131,"ĠìłĦëĭ¬":5132,"enia":5133,"ìĩ":5134,"¨ëĵľë":5135,"Ġì£¼ìĿĺìĤ¬íķŃ":5136,"łëĬĶ":5137,"Ġê²°ê³¼ìĹĲ":5138,"ë§Īìķ½ë¥ĺ":5139,"Ġvis":5140,"Ġë§İìĿĢ":5141,"Ġneoplasia":5142,"Ġfem":5143,"ìłķë§Īìķ½ë¥ĺ":5144,"Ġthick":5145,"ìłľë¥¼":5146,"ìĬ¬ê°ľê³¨":5147,"ìĥģìĬ¹":5148,"ìĤ¬ìĿ´":5149,"ĠìŀħìĽĲíķĺìĹ¬":5150,"ìĿĮë¶Ģ":5151,"ë°°ìĸĳ":5152,"Ķľ":5153,"Ġíķĺë©´":5154,"Ġìĥģë¹Ħìķ½":5155,"ĠìĤ¬ìļ©ê¸°ë¡Ŀ":5156,"Ġpol":5157,"ìĿ¸ëĮĢ":5158,"Ġì²´íĳ":5159,"íĬ¸ëĿ¼":5160,"ĠìķĪìłķìłģìĿ¸":5161,"Ġcephalexine":5162,"©ķ":5163,"Ġë¬´ë¥¸ë³Ģ":5164,"ĠëĿ¼ìĭĿìĬ¤":5165,"ĠíķŃê²½ëł¨":5166,"OS":5167,"ĠìķĬìķĦìĦľ":5168,"ysis":5169,"Ġë§ĪìĤ¬ì§Ģ":5170,"ìłģì¶ľ":5171,"Ģìľ¼ë©°":5172,"Ġê³łìłķ":5173,"Ġbidë¡ľ":5174,"ĠìĿ´íķĺ":5175,"ĠìķĮëŁ¬":5176,"reat":5177,"Ġê°ĢëĿ¼":5178,"Ġì£¼ìĿĺ":5179,"amp":5180,"Ġìĸ´ëĬĲ":5181,"Ġëĭ¤ìĪĺìĿĺ":5182,"Ġaml":5183,"´Ħ":5184,"sol":5185,"45":5186,"Ġsystolic":5187,"Ġì¶ľíĺĪëŁī":5188,"Ġë°©ìĤ¬ìĦłê²ĢìĤ¬":5189,"Ġthrough":5190,"Ġgb":5191,"¦İ":5192,"Ġì§Ħëĵľê¸°":5193,"ĠíħĮ":5194,"ezia":5195,"Ġë§¤ëĭ¬":5196,"íķĺëĭ¤":5197,"ĠíĺķìĦ±":5198,"aly":5199,"ìłľëĬĶ":5200,"íİľ":5201,"ĠìĹĶë¡ľ":5202,"íķĺìĺĢê³ł":5203,"Ġíĸ¥íĽĦ":5204,"Ġìŀ¬íĻľì¹ĺë£Į":5205,"ĠíĿ¬ìĦĿ":5206,"ĠëłĪìĿ´":5207,"ĠëĮĢìĨĮë³Ģ":5208,"ì¦Ŀìľ¼ë¡ľ":5209,"ĠìĤ½":5210,"Ġë¹¨ë":5211,"ĠìķĬìķĺ":5212,"Ġ50":5213,"pre":5214,"ĠëĤ´ìĽĲíķĺìħĶìĦľ":5215,"Ġê°Ģìłķ":5216,"íĢ´":5217,"ìĨĮë¦¬":5218,"Ġì±Ļê²¨ë":5219,"ê¸°ìĹĲ":5220,"íĳľ":5221,"ë°©ìĤ¬ìĦł":5222,"Ġê·¸ëĥ¥":5223,"ĠëĦ¤ë·":5224,"Ġramipril":5225,"Ġben":5226,"operative":5227,"ĠìĽĲíķĺìĭľëĬĶ":5228,"TT":5229,"Ġë¶Ħë¦¬":5230,"ì£¼ìĭ¬":5231,"ëĮĢë¡ľ":5232,"ĠíĻķìĿ¸ëĲĺëĤĺ":5233,"Ġì²´ì¤ĳê°ĲìĨĮ":5234,"ìłķë§¥":5235,"Ġ11":5236,"lamm":5237,"ĠíŀĺìĿ´":5238,"Ġsono":5239,"ult":5240,"Ġìļ°ìĭ¬":5241,"³Ģì":5242,"nipural":5243,"oral":5244,"ìļ©ëŁī":5245,"\\'":5246,"Ġê¹Į":5247,"rackle":5248,"ĠíĺĪìķ¡ìĦ±":5249,"Ġëĭ¦":5250,"ella":5251,"Ġë¹Ħëĩ¨ìĥĿìĭĿê¸°ê³Ħ":5252,"ĠìĿ¼ì£¼ìĿ¼ë":5253,"ĠëĲĺìĹĪìĿĮ":5254,"arcin":5255,"ìľ¼ëŁ¬":5256,"Ġê²°ìŀ¥":5257,"ë°±ìĭł":5258,"íĮ©":5259,"renal":5260,"Ġê³ĦíĨµ":5261,"ì£¼ìľĦ":5262,"ĠìľĦíĹĺìĦ±":5263,"¤ë¶ĢíĦ°":5264,"rome":5265,"ĠëĤĺíĥĢëĤ¨":5266,"Ġdet":5267,"ĠìŀĲë":5268,"Ġpattern":5269,"ìĸ´ìŀĪ":5270,"ìķī":5271,"ĠíĨµíķľ":5272,"Ġê·¸ëŁ¬ë":5273,"ĠInj":5274,"Ĥĺë":5275,"Ġsound":5276,"ume":5277,"Ġì»¨ëĶĶìħĺìĿĢ":5278,"Ġcough":5279,"ĠìĿ´ìĥģìĿĢ":5280,"Ġright":5281,"Ġíħ":5282,"Ġë¶Īê·ł":5283,"Ġscore":5284,"Ġê¸ģëĬĶ":5285,"olus":5286,"ĠìĪĺìĪłëªħ":5287,"ĨłíĶ¼":5288,"ĠìĬ¤ë":5289,"Ġdl":5290,"io":5291,"£½":5292,"ĠìĻ¸ìĥģ":5293,"obarb":5294,"Ġê¸ģìĿĮ":5295,"Ġëıħ":5296,"ìĿ´íĬ¸":5297,"ometra":5298,"ģĿ":5299,"Ġê°ľêµ¬":5300,"Ġë´ī":5301,"ĠìĿ´ìĨĮíĭ±":5302,"Ġë°©ê´ĳëĤ´":5303,"łë¦°":5304,"ĠíĺĦìŀ¬ë³ĳëł¥":5305,"ìª½ìĹĲ":5306,"Ġìĭľë":5307,"íĪ¬ìķ½":5308,"esthetic":5309,"Ġì§ĢëĥĦ":5310,"ëĭ¤ëĭĪ":5311,"ĠíĶ¼ì§Ī":5312,"ê·¸":5313,"Ġlymphoma":5314,"ĠíĻ©ëĭ¬":5315,"ìĿ´ëıĦ":5316,"ĠSp":5317,"ê°ĲìĹ¼":5318,"loxacine":5319,"neum":5320,"íĽĦìĹĲ":5321,"Ġpred":5322,"ìķĦì¹¨":5323,"Ġë°ľíĺĦ":5324,"Ħë¦¬":5325,"Ġpcr":5326,"ĠëĬĶ":5327,"ĠPhysical":5328,"terial":5329,"êµĲìłķ":5330,"§īìĹ¼":5331,"Ġê°ĦíĹĲìłģ":5332,"Ġë§ĽìŀĪëĬĶ":5333,"Ġzonis":5334,"Ġìľłíķ©":5335,"Ġteeth":5336,"sa":5337,"ĠëĤŃ":5338,"ĠìĦ¸ì²Ļ":5339,"íĸĪìĿĦ":5340,"atheter":5341,"anyl":5342,"Ġë³µìķķ":5343,"Ġë¶Ģìĸ":5344,"ìļ©ê¸°":5345,"Ġê°Ģìŀ¥":5346,"¤Ħ":5347,"ë°ı":5348,"ë¶Ģë¯¼":5349,"Ġë¡ľìļ°íİ«":5350,"ĠëĤĺìģĺì§Ģ":5351,"ì´Īì§Ħ":5352,"Ġë³´íĺ¸ìŀĲëĭĺìĿ´":5353,"meness":5354,"ë°ĺìĤ¬":5355,"anesthetic":5356,"Ġëĵ±ìĿĢ":5357,"ìĥĿìĦ±":5358,"nis":5359,"Ġtissue":5360,"bul":5361,"´ìľ¼ë¡ľ":5362,"Ġê³ĦíĨµìłģ":5363,"Ġneck":5364,"Ġë°ľìĨ¡":5365,"ëĮĢì":5366,"©Ķë":5367,"Ġë°Ķëĭ¥":5368,"ìĥĪë":5369,"Ġomeprazole":5370,"Ġtrilostane":5371,"Ġë°Ķê¾¸":5372,"ammary":5373,"¨¹ëĬĶ":5374,"Ġëĭ´ëĭ¹ìŀĲ":5375,"clusion":5376,"ķĦì":5377,"ĠìĿ´ëıĻ":5378,"Ġcyclospor":5379,"Ġë°¥ëıĦ":5380,"Ġì²Ńêµ¬":5381,"Ġìłģê·¹":5382,"ìĿ´ì§Ģì":5383,"ëĤ´ì":5384,"TION":5385,")(":5386,"Ġspl":5387,"NP":5388,"Ġê³łê¸°":5389,"Ġcheck":5390,"Ĳê³ł":5391,"ĠAss":5392,"ĠëĤ¨ìķĦìŀĪìĿĮ":5393,"ĠëĤ´ë¶Ģ":5394,"ĠíĿĶë":5395,"ì¹¸":5396,"OM":5397,"¶Ī":5398,"ë§ģ":5399,"Ġìĸ¼ë":5400,"ĠìļĶì¶Ķ":5401,"obarbital":5402,"łë§Į":5403,"con":5404,"bral":5405,"¦°ë¹Ħ":5406,"ĺìĸ´ìŀĪ":5407,"Ġrecumb":5408,"tension":5409,"ĺĪ":5410,"Ġmpl":5411,"Ġcomp":5412,"Ġì£¼ìľĦ":5413,"ĠíĻįìļ©ê¸°":5414,"Ġì¦Ŀìĥģìľ¼ë¡ľ":5415,"ķĮë":5416,"ĠëĤľìĨĮ":5417,"ĠëĤ´ìĽĲíķ´ìĦľ":5418,"ĠìķĬìľ¼ë©°":5419,"ê²łìĬµëĭĪëĭ¤":5420,"Ġìĭ¬íĻĶ":5421,"entanyl":5422,"Ġë°ĺì":5423,"ĠíĹ¤íĮĮ":5424,"Ġë¦¼íĶĦ":5425,"Ġdrop":5426,"Ġmar":5427,"Ġì¶©ë¶":5428,"¢ħê´´":5429,"Ġíķ´ìķ¼":5430,"ĨĲìĥģ":5431,"Ġë¶Ħë³Ģê²ĢìĤ¬":5432,"Ġlas":5433,"radine":5434,"ental":5435,"Ġcystitis":5436,"ĠëĤ¨ìĿĢ":5437,"ĠíĦ¸ìĿ´":5438,"Ġsug":5439,"Ġë¹ĦìĬ·íķ¨":5440,"Ġfr":5441,"ufen":5442,"entral":5443,"ĠCre":5444,"Ġcells":5445,"Ģì§Ģë":5446,"¦°ë¹ĦìķĦ":5447,"Ġspo":5448,"íı¬ë":5449,"Ġchl":5450,"ìłĦìĨ¡":5451,"ë¹Ħìļ©":5452,"Ġurin":5453,"matitis":5454,"ëĭ¤ëĭĺ":5455,"Ġëĵ¤ë":5456,"Ġ====":5457,"ĠìĿ¼ì£¼ìĿ¼ìĹĲ":5458,"ĠìĦ¸ëłĪ":5459,"ĠìĺĪìĥģ":5460,"ending":5461,"ŀĳìĿ´":5462,"ĠëĤĺíĥĢëĤĺ":5463,"Ġê°ĢìĬ¤":5464,"ĠMPL":5465,"for":5466,"íĥĿ":5467,"PC":5468,"Ġdors":5469,"ĦëıĦ":5470,"Ġap":5471,"Ģë¦°":5472,"Ġê³łë¯¼":5473,"ìĤ¬ë":5474,"ĠìĪłë¶Ģìĥģíĥľ":5475,"omeg":5476,"eph":5477,"Ġinsulin":5478,"Ġë¬´ë¦İ":5479,"junctiva":5480,"Ġì£¼ë§Ĳ":5481,"Ġìĵ°":5482,"Ġë³µì´Ī":5483,"Ġíıīê°Ģë":5484,"ĠìĨĮë³ĢìĿĦ":5485,"19":5486,"Ġë§ŀì¶":5487,"ëĭĪê¹Į":5488,"ĠìŀĲê³ł":5489,"oft":5490,"ĠìĦ¤ìĤ¬ë¥¼":5491,"Ġreac":5492,"Ġë³´ìĿ´ëĤĺ":5493,"Ġë³Ħ":5494,"íı´":5495,"Ġê°Ĳë³Ħì§Ħëĭ¨":5496,"ectrol":5497,"tx":5498,"ìļ´ëıĻ":5499,"Ġng":5500,"olone":5501,"ĠìŀĪìĿĮìĿĦ":5502,"Ġë²łìķĦìłľ":5503,"ĠìłĢë²Ī":5504,"Ġsiz":5505,"Ġdvm":5506,"Ġê°Ħíĺ¹":5507,"Ġê´ĢìłĪìĹ¼":5508,"ĺëįĺ":5509,"ĠíĿīê°ķ":5510,"Ġìłľíķľ":5511,"Ġfeeding":5512,"ķĮë¬¸ìĹĲ":5513,"Ġacute":5514,"Ġhyperech":5515,"ì¶©íĺĪ":5516,"Ŀ¼ë²łë¦°":5517,"Ġì°©ìļ©":5518,"ĠëĦ¤":5519,"Ġê·¸ë¦°ë¹ĦìķĦ":5520,"Ġê°ķìķĦì§Ģ":5521,"med":5522,"ëĵľë¦½ëĭĪëĭ¤":5523,"Ġhyperplasia":5524,"amycin":5525,"Ġacetyl":5526,"np":5527,"Ġë°°ìłľíķł":5528,"Ġëı":5529,"íķĺìħ¨ìĿĮ":5530,"ìĸ´ëıĦ":5531,"Ġbrom":5532,"hex":5533,"ĠëĨįëıĦ":5534,"Ġìĸĺ":5535,"umin":5536,"Ġìĺ¬íķ´":5537,"ê¸Īë":5538,"Ġê²½ê³¼ë":5539,"ìĸĳì¸¡":5540,"Ġìŀ¬ê²Ģì":5541,"ì¤ĳêµ¬":5542,"Ġê°ĢëĿ¼ìķī":5543,"assezia":5544,"ê·Ģì§Ģ":5545,"ĠìĹĨìĬµëĭĪëĭ¤":5546,"uld":5547,"Ġdogs":5548,"íĬ¹ìĿ´ì":5549,"Ġë¬¼ìĿĢ":5550,"Ġcoll":5551,"rophy":5552,"Ġvar":5553,"íĥĦ":5554,"ĠDVM":5555,"Ġmedi":5556,"Ġíķ©":5557,"ĠAssessment":5558,"ipine":5559,"ìĿĺë¢":5560,"ĠPOD":5561,"ĺìŀ":5562,"ì²ĺë":5563,"Ġprevious":5564,"Ł¬ë":5565,"ëĭĺìĿ´":5566,"ëĤ¨":5567,"ëĤĺìĦľ":5568,"ific":5569,"ĠëĮĢì¦Ŀì²ĺì¹ĺ":5570,"Ġëĭ¹ë¶Ģ":5571,"ĠAl":5572,"Ġìłľë":5573,"Ġë³´ìĿ¼":5574,"Ġsme":5575,"omegaly":5576,"ì¦Ŀê°Ģ":5577,"Ġë¶Ħìĸĳë°Ľ":5578,"ìłľë¶ĢíĦ°":5579,"Ġíĩ´ìĽĲìĭľ":5580,"ĠëĶ¸":5581,"Ġë°±íĺĪêµ¬":5582,"Ġì¤Ħìĸ´ëĵ¤":5583,"Ġë³´íĸīìĥģíĥľ":5584,"Ab":5585,"Ġì¤ĦìĹĪìĿĮ":5586,"ë³´íĺ¸ìŀĲë¶Ħ":5587,"Ľħ":5588,"Ġ(-)":5589,"Ġìĭ¬ë¹ĦëĮĢ":5590,"Ġì§ĸ":5591,"ĠìŀĪìĹĪìľ¼ëĤĺ":5592,"Ġrer":5593,"40":5594,"ê»Į":5595,"ĠíĽĦëĿ¼ë²łë¦°":5596,"Ġì²ĺì¹ĺëĤ´ìļ©":5597,"Ġê¸īìĹ¬íķ¨":5598,"Ġê·¼ë":5599,"ĺìĸ´ìĦľ":5600,"Ġíķĺìĸ":5601,"ĠíĹĪë¦¬":5602,"ĺìľ¼ë¡ľ":5603,"Ġìĸĳíĺ¸íķĺê²Į":5604,"ìĭ¤ê²ĥ":5605,"ħĦ":5606,"Ġê°Ķ":5607,"itant":5608,"ĠìĿ¸ê³µ":5609,"Ġabnormal":5610,"ĠìķĮìķ½":5611,"Ġthroughout":5612,"ìŀĲìĿ¸ëĮĢ":5613,"cyst":5614,"íĸ¥ìłķë§Īìķ½ë¥ĺ":5615,"Ġbolus":5616,"ort":5617,"ëł":5618,"Ġcrackle":5619,"odipine":5620,"Ġë³´í":5621,"ĠìĦ¤ëªħíķ¨":5622,"ĠíĥĢ":5623,"Ġíķ´ì£¼ìĦ¸ìļĶ":5624,"Ġcaud":5625,"Ġëĵ±ìĹĲ":5626,"Ġuda":5627,"Ġë¶Ļ":5628,"oss":5629,"ithiasis":5630,"ĠìĽĲíķĺìħĶìĦľ":5631,"arcinoma":5632,"ract":5633,"Ġìĩ":5634,"Ġêµ¬ì¡°ë¬¼ìĹĲìĦľ":5635,"Ġëĭ¤ëħ":5636,"Ġë¶Īê°Ģ":5637,"Ġëĵ±ìĿĦ":5638,"êº¼":5639,"ĠìĽĲìĿ¸ìĿĢ":5640,"Ġanterior":5641,"Ġspec":5642,"Ľħì°¬":5643,"Ġìĸ´ìłľë³´ëĭ¤":5644,"ĠëĪĪë¬¼ëŁī":5645,"ĵľëŁ¬":5646,"Ġdecreased":5647,"Ġrecumbency":5648,"íŀ":5649,"ĠìĻĦìłĦ":5650,"ĠëĪĦ":5651,"ĠìĨĮìĹ¼ìłľ":5652,"Ġíķ¥ìĿĮ":5653,"Ġ100":5654,"íĺĦë":5655,"Ġ25":5656,"ì´īì§Ħ":5657,"ìĿ¸ëį°":5658,"Ġë³µìļ©ì¤ĳ":5659,"íĶĦëłĪìĿ´":5660,"Ġlameness":5661,"¥¨":5662,"uture":5663,"blem":5664,"Ġeyelid":5665,"ĠíĿĶ":5666,"istry":5667,"ĠëĤ®ìĿĮ":5668,"Ġë¹Ħìļ©ë¶Ģ":5669,"ì¶ľíĺĪ":5670,"Ġìłķíĺķ":5671,"ëĲĺëĤĺ":5672,"ìĸµìłľ":5673,"ĠíķĺíĬ¸":5674,"ĠìľłëıĻìĭĿìĹĲ":5675,"íĻĶëıĦ":5676,"ĠCat":5677,"ĠìĬ¤íĳ¼":5678,"ê°ĻìĿĢ":5679,"Ġìľłì§ĢëĲĺê³ł":5680,"ĠìŀĪìľ¼ëĭĪ":5681,"ĠALP":5682,"ĠëĭŃê³łê¸°":5683,"RR":5684,"ì£¼ìĹ°":5685,"ĠëĲ©ëĭĪëĭ¤":5686,"ix":5687,"ìĹ°ì":5688,"´ìķ½":5689,"ĠíķŃì²´ê°Ģê²ĢìĤ¬":5690,"ì¡´":5691,"Ġë°©ê´ĳë²½":5692,"êµ¬ë¦¬":5693,"ìĽĲíķĺìĭľëĬĶ":5694,".>":5695,"Ħë¦°":5696,"Ġindays":5697,"ĠìĻ¸ìĹĲ":5698,"Ġíĺķê´ĳìĹ¼ìĥī":5699,"Ġê°ĲëŁīíķĺìĹ¬":5700,"Ġappe":5701,"Ġphenobarbital":5702,"ĠPlan":5703,"azep":5704,"tim":5705,"ìĿ´ì§Ģìŀ¥":5706,"Ġì§Ħë":5707,"Ĳĺë©´":5708,"Ġê·¼ì²ĺ":5709,"ĠëķĮëĬĶ":5710,"Ġë³´ëĭ¤":5711,"ĠìľĦíķ´ìĦľ":5712,"íĨµíĻĶ":5713,"§¤":5714,"Ġê²°ì":5715,"ìĺ´":5716,"Ġë´¤":5717,"Ġrefer":5718,"Ġë¹łë¥¸":5719,"ê¹¨":5720,"ĠìĿ´ìĤ¬":5721,"ĠëĨĴìķĦ":5722,"Ġê²½ë¯¸íķĺê²Į":5723,"Ġì¤ĳìļĶ":5724,"Ġëĭ¨ë°±ëĩ¨":5725,"dye":5726,"Ġì¶©ë¶ĦíŀĪ":5727,"ì§Ħì":5728,"(+)":5729,"ì²µ":5730,"íĥĢë¯¼":5731,"Ġíĭ":5732,"Ġê²¨ëĵľë":5733,"Ġì±Ħ":5734,"ìĿĢìĥī":5735,"Ġë§ĳ":5736,"ĠLV":5737,"Ġoc":5738,"íŀĺ":5739,"Ġì¡°ë":5740,"Ġìłĸ":5741,"Ġë³µíĨµ":5742,"ĠìĹīëį©ìĿ´":5743,"¨íĮĲ":5744,"Ġê²½êµ¬ìłľ":5745,"Ġê°ĢëĬ¥íķľ":5746,"ĠëĳĶ":5747,"ĠíķŃê²½ëł¨ìłľ":5748,"Ġcla":5749,"Ġê·¼ìľ¡ëŁī":5750,"Ġë³ĢíĻĶëĬĶ":5751,"unction":5752,"ĠíĤ":5753,"íķ´ë³´ê¸°ë¡ľ":5754,"rosis":5755,"Ġìķŀë°ľ":5756,"³Ģìľ¼ë¡ľ":5757,"ìŀĺ":5758,"ĠëĤĺë¨¸ì§Ģ":5759,"entil":5760,"ĠìķĦíĨłíĶ¼":5761,"Ġìłķìĥģìľ¼ë¡ľ":5762,"cr":5763,"Ġíķĺìĭľ":5764,"Ġê°Ģì¡±":5765,"Ġë¹ĦëĮĢ":5766,"ergy":5767,"ì±":5768,"ìĥ´íĳ¸":5769,"Ġecto":5770,"ĠëĤĺìĽħì°¬":5771,"Ġë³µë§īìĹ¼":5772,"ĠìĭĿìļķëıĦ":5773,"³´ê³ł":5774,"ĠìĻ¸ë":5775,"Ġê¸°ëĬ¥":5776,"ĠìĥĿê¸´":5777,"ê°Ģë£¨":5778,"£¼ë¡ľ":5779,"ĸĳìĦ±":5780,"Ġë§ĲëĿ¼ìĦ¸ì¹ĺìķĦ":5781,"Ġì¤ĳìĹĲ":5782,"ler":5783,"Ġì§Ħëĭ¨ë°Ľ":5784,"Ġìľłë¬´":5785,"ĠìķĦíĮĮíķ¨":5786,"Ġtorsemide":5787,"Ġë¹¼":5788,"Ġê´Ģì°°ëĲĺìĸ´":5789,"ĠìĿ´ìĥģìĨĮê²¬":5790,"ĠcPL":5791,"ĠëĬĲëģ¼ìĭ¬":5792,"´ë¶Ģ":5793,"Ġë°°ë³Ģë":5794,"Ġdys":5795,"Ġëĸ¨ìĸ´ì§Ħ":5796,"OD":5797,"reatment":5798,"Ġsrr":5799,"ĠìĽĲëĤ´ìĹĲìĦľ":5800,"Ġë¹ĦêµĲìłģ":5801,"ĠìķĦì¹¨ë¶ĢíĦ°":5802,"į¨":5803,"ĠGB":5804,"Ġë¨¹ìĿĦ":5805,"ê°ĢëĬĶ":5806,"Ġì¸Ħë":5807,"Ġìłĳì¢ħìĿĢ":5808,"ì°¨ìłĳì¢ħ":5809,"ìµľê·¼":5810,"Ġpositive":5811,"ê¸ĪëĭĪ":5812,"ì§ĢëĤ":5813,"Ġì§ģê²½":5814,"Ġì¤Ħìĸ´ëĵ¬":5815,"Ġê¹Ĭ":5816,"Ġflushing":5817,"ĠìĥģíĥľìĹĲìĦľ":5818,"ĠìļĶì²Ńìľ¼ë¡ľ":5819,"ĠëĸłëĬĶ":5820,"°Ģë¦°":5821,"ĠCardi":5822,"Ġê°ĻìķĦ":5823,"ìĿĺìĤ¬":5824,"ĠìļĶê²ĢìĤ¬":5825,"Ġê²½ì¶Ķ":5826,"Ġêµ¬ì¡°":5827,"Ġìŀ¬íıīê°Ģ":5828,"ĠNG":5829,"ì²ĺë°©ìĭĿ":5830,"ĠíķŃêµ¬íĨł":5831,"ĠëªĩìĿ¼":5832,"ìłĢì":5833,"ëģĹ":5834,"Ġeff":5835,"Ġê°ĦìĭĿìĿĦ":5836,"Ġid":5837,"Ġìłķìĥģë²ĶìľĦ":5838,"ĠëıĻìĿĺ":5839,"ìĨĮíĻĶ":5840,"ĠíķĺìĿ´íı¬":5841,"Ġperi":5842,"ĠìĹ´ì":5843,"ìĿĺìĭ¬":5844,"ĠíĶ¼ë¶Ģê°Ģ":5845,"Ġê°Ħì§Ī":5846,"Ġëĵ±ìĿ´":5847,"ology":5848,"Ġë¬¸ìłľê°Ģ":5849,"Ġoto":5850,"Ġë°ĽìķĦë¨¹ìĿĮ":5851,"Ġì¹ĺì£¼ìĹ¼":5852,"cci":5853,"erf":5854,"ì¤Ħ":5855,"Ġìĸ´ëł¸":5856,"ª»":5857,"ìĤ´":5858,"Īĺ":5859,"Ġê²¬ê°ĳ":5860,"ĠìµľëĮĢíķľ":5861,"¡°ë":5862,"Ġê´ĢìłĪë":5863,"Ġíķĺìĭ¤":5864,"Ġnerve":5865,"Ġêµ¬ê·ł":5866,"esion":5867,"ĠFI":5868,"Ġechogenicity":5869,"Ġê°ĢëģĶìĶ©":5870,"Ġ~":5871,"ıĻë¬¼ë³ĳìĽĲ":5872,"Ġster":5873,"ì·Įìŀ¥":5874,"Ġìłķì£¼ìĹ°":5875,"¬´ì¹ĺë£Į":5876,"ĺìĸ´ì":5877,"Ġì¹ĺë£Įë¥¼":5878,"ê¸°ê°Ģ":5879,"Ġdoxycycline":5880,"rost":5881,"ould":5882,"Ġboosting":5883,"ĠíĸĪëĭ¤ê³ł":5884,"nisolone":5885,"ĠìŀĪëĬĶì§Ģ":5886,"ĠêµĲìľ¡":5887,"entilator":5888,"ĠAm":5889,"ĠìŀĪëįĺ":5890,"ìĹ¼ì¦Ŀ":5891,"Ġì°¨ìłĳì¢ħ":5892,"ĠíĻķìĭ¤":5893,"Ġpentoxy":5894,"neumon":5895,"êµĲì²´":5896,"Ġìľłì¹ĺ":5897,"Ġì§ĢëĤľì£¼":5898,"Ġev":5899,"Ġivdd":5900,"SI":5901,"Ġê°Ģê¹Į":5902,"DD":5903,"ĠëķĮë¬¸":5904,"Ġíķ´ë³´":5905,"Ġìĭ¤ìĭł":5906,"Ġeyedrop":5907,"Ġë³Ģìĥģíĥľ":5908,"ìĻĦ":5909,"Ġê·ĵë°Ķ":5910,"ĠìĿ´íĽĦìĹĲëıĦ":5911,"Ġë³´ëĬĶ":5912,"ĠìĦ¸ëłĪëĭĪìķĦ":5913,"íĦ¸":5914,"ê¹Ķ":5915,"HE":5916,"Ġband":5917,"ìķĮëŁ¬ì§Ģ":5918,"Ġdose":5919,"íĺľë":5920,"ĠëĪĪìĹĲ":5921,"usc":5922,"Ġê¸īê²©":5923,"Ģì§ĪíĻĺ":5924,"veitis":5925,"ê²Ķ":5926,"Ġíĺ¸ì¤ĳêµ¬":5927,"ìĦľë":5928,"Ġì¹´ë":5929,"IM":5930,"íķĺìĭľë©´":5931,"ĠìĭĿìļķìĹĨìĿĮ":5932,"ĠìĿ´ë²¤":5933,"Ġmaintenence":5934,"ĠìŀĲëıĻ":5935,"Ġamlodipine":5936,"Ġë¹ĦêµĲìĭľ":5937,"Ġsugar":5938,"Ġê·ĢëĬĶ":5939,"BD":5940,"ein":5941,"Ġcyt":5942,"ĠìĺĪìłķìĿ´ë©°":5943,"Ġê°Ħëĭ´ëıĦê³Ħ":5944,"ĵľëłĪìĭ±":5945,"ĠìĤŃ":5946,"íķĺëŁ¬":5947,"Ġë¦¬ì²µ":5948,"ĠëĤ´ëł¤":5949,"íĮ¨íĦ´":5950,"ĠEar":5951,"ĠíĽĦìĹĲëıĦ":5952,"Ġíıīìĥģ":5953,"Ġê´Ģëł¨ëĲľ":5954,"ectomy":5955,"mature":5956,"į¤":5957,"xx":5958,"ìĿ´ìĸ´í":5959,"Ġë²ĶìľĦ":5960,"ĠìĻ¸ìļ©":5961,"Ġêµ¬ëĤ´":5962,"íĶĮ":5963,"ëĭ¨ë°±":5964,"Ġëª»ë¨¹":5965,"íķĦë¦°":5966,"ĠìĹ°ìŀ¥":5967,"Ġher":5968,"ĠëĤ¨ìķĦìŀĪ":5969,"ĠRes":5970,"Ġì¶Ķê°Ģì²ĺë°©":5971,"Ġë³´ìķĦ":5972,"ellow":5973,"Ġëª¨ëĤŃ":5974,"Ġê¸°ì¤Ģ":5975,"Ġì¹ĺìĿĢ":5976,"reg":5977,"ê°Ħë§ī":5978,"ìĸ´ë³´":5979,"Ġ17":5980,"opitant":5981,"Ġhyperechoic":5982,"rus":5983,"Ġì¢ħê´´ëĬĶ":5984,"ľëłģ":5985,"ĠíıīìĨĮìĹĲ":5986,"ì¹´":5987,"ìĹĲìĦľëıĦ":5988,"Ġëĸ¨ìĸ´ìł¸":5989,"Ġsuture":5990,"Ħ¤":5991,"Ġlaser":5992,"ĺë¶ĢíĦ°":5993,"Ġìĸ¼êµ´":5994,"Ġinflamm":5995,"Ġìĺģìĥģê²ĢìĤ¬":5996,"Ġíķĺë©°":5997,"ĠìĤ¬ìĿ´ìĹĲ":5998,"ëĭ¤ë¥¸":5999,"ŀ©":6000,"Ġpatellar":6001,"íĸĪìľ¼ë©°":6002,"ë°Ģ":6003,"Ġìķ¡ì²´":6004,"ele":6005,"Ġlist":6006,"ê³¼ìŀ¥ëĭĺ":6007,"oclop":6008,"ĠìĻ¸ë¶Ģê¸°ìĥĿì¶©":6009,"ìŀ¬ì§Ħ":6010,"Ġê·¸ë¦¬ê³ł":6011,"íĺĦìŀ¬":6012,"ëĭ¤ìĿĮ":6013,"Ġë°°ìķ¡":6014,"Ġvol":6015,"bd":6016,"ĠVit":6017,"Ġë²Ķ":6018,"Ġì²Ļì¶Ķ":6019,"ĠII":6020,"ŀĺëıĦ":6021,"¦¬ê¸°ë¡ľ":6022,"Ġê´´ìĤ¬":6023,"Ġë¶ĪìķĪ":6024,"Ġë¶Ħë¬´ì¹ĺë£Į":6025,"Ġë¹Ħëĩ¨ê¸°ê³Ħ":6026,"Ġfold":6027,"ĠíĦ°":6028,"Ġsoft":6029,"Ġë°Ľìľ¼ìĭ¬":6030,"Ġrate":6031,"ĠìĦ¤":6032,"ĠìĻ¸ìĿĮë¶Ģ":6033,"Ġê·¸ëŁ¬ëĤĺ":6034,"ìĿ´ìĹ¼":6035,"ected":6036,"Ġery":6037,"Ĭ¤ë":6038,"Ġëĥī":6039,"Ġë³ĢìľĦ":6040,"Ġê°ĢíĶ¼":6041,"ëª¨ëĭĪ":6042,"ë§Īëĭ¤":6043,"Ġíĺ¹ìĭľ":6044,"Ġê¹¨ëģĹ":6045,"Ġmethocarbamol":6046,"Ĥ´ì":6047,"Ġì¹¸":6048,"ê°Ģìĭ¬":6049,"Ġìļ¸":6050,"ìķĺìĬµëĭĪëĭ¤":6051,"į°ë":6052,"Ġinfil":6053,"Ġíı¬ëıĦë":6054,"ãħ":6055,"Ġmay":6056,"Ġì¤ĳëĭ¨íķ¨":6057,"ĠKCl":6058,"Ġcaudal":6059,"ĠEy":6060,"dex":6061,"ê¸īìĭĿ":6062,"ëĤŃ":6063,"ìĿ´ëŁ¬ìĬ¤":6064,"sy":6065,"¶Ħë¹Ħ":6066,"ĠìĨĮìĸĳê°ĲìĿĢ":6067,"Ġìĵ°ëŁ¬":6068,"Ġ======":6069,"ĠëĿ½":6070,"ĠëĤ´ìĽĲíķĺìĭ¤":6071,"¨ë¡Ģ":6072,"Ġview":6073,"ĠìĪĺìĪłíĽĦ":6074,"Ġpheno":6075,"tm":6076,"ìĿ¼ì£¼":6077,"Ġíĺ¸ìłĦëĲ¨":6078,"ĠHPI":6079,"Ġcranial":6080,"drome":6081,"Ġê²½íĸ¥":6082,"¹ĺë":6083,"íĥľë¡ľ":6084,"Ġíķ´ëĭ¹":6085,"ĠëĤĺíĥĢëĤł":6086,"Ġmuscular":6087,"ĠìĿ¸ë":6088,"Ġë°°ë³ĢìĿĢ":6089,"Ġìŀ¥ê°Ħë§ī":6090,"ĠíķĺìĺĢìĬµëĭĪëĭ¤":6091,"ĵľë¦¬ê¸°ë¡ľ":6092,"ĠUPC":6093,"Ġacth":6094,"idexx":6095,"ĠìĿ´ëĤ´":6096,"Ġì¤ĳì§Ģ":6097,"!!":6098,"Ġple":6099,"ĠìĤ°":6100,"Ġê°Ħë³´íĺ¸ìłľ":6101,"Ġì¡°ì¹ĺ":6102,"ìłĢë":6103,"Ġmicro":6104,"Ġhigh":6105,"Ġì´Īë":6106,"ìĭĿìĿ´":6107,"Ġìķ½ë¨¹ê³ł":6108,"patient":6109,"íĹĪ":6110,"¹Ħí":6111,"Ġì¢ħê´":6112,"ĠNE":6113,"Ġê·Ģì§Ħëĵľê¸°":6114,"Ġë§ŀì¶Ķ":6115,"ĠLymph":6116,"Ġì§Ģë°©ì¢ħ":6117,"Ġ120":6118,"ì²´ìĺ¨":6119,"ë°°ë¡ľ":6120,"ëĶ±":6121,"ĠìķĮê³ł":6122,"Ġtype":6123,"60":6124,"Ġproblem":6125,"íĸĪëįĺ":6126,"Ġê¹ĢìĨĶ":6127,"¹Ħì":6128,"ëĤłëĿ¼":6129,"´ìĭ¤":6130,"Ġì¶Ķê°Ģíķ¨":6131,"Ġsubcutaneous":6132,"ìłĦì§Ģ":6133,"ĠìĹĨìĸ´ì":6134,"Ġì¦Ŀê°Ģíķ¨":6135,"Ġocufen":6136,"Ġëĭ¨ëĭ¨":6137,"ĠìĿ´ë²¤íĬ¸":6138,"Ġì£¼ì¦Ŀìĥģ":6139,"Ġìĺ¤ë¦¬":6140,"Ġìĭłì²´ê²ĢìĤ¬ìĥģ":6141,"Ġzonisamide":6142,"íķĺìĹĲ":6143,"ible":6144,"Ġê°ĻìĬµëĭĪëĭ¤":6145,"Ġê´Ģë¦¬ì¤ĳ":6146,"Ġêµ¬ë§¤":6147,"Ġretic":6148,"Ġbptime":6149,"ĠìľĦìķ¡ìĦ±":6150,"łĮ":6151,"ìķĪê²Ģ":6152,"ĠíĶĦìĦ¸":6153,"ĠRER":6154,"Ġëĩ¨ì¹´íħĮíĦ°":6155,"ĠìĻĢìĦľ":6156,"ĠíĿīë°©":6157,"ì½Ķë":6158,"rect":6159,"23":6160,"Ġê¸°ëł¥ìĿ´":6161,"Ġthicken":6162,"ĠëĦĵ":6163,"ëĪĪë":6164,"Ġpu":6165,"ĠìĿĺíķ´":6166,"Ġê°ĪìķĦìĦľ":6167,"ĠíķŃìķĶì¹ĺë£Į":6168,"ĠëĶ±ì§Ģ":6169,"ĠíĺĢ":6170,"ìľ¼ëł¤":6171,"iation":6172,"Ġneut":6173,"Ġdefec":6174,"ĠìĥģíĶ¼":6175,"Ġminìľ¼ë¡ľ":6176,"minìľ¼ë¡ľ":6177,"ìĹ°ìłķ":6178,"Ġdist":6179,"Ġë¼Ī":6180,"Ġëª¨ë¥´":6181,"ĠìĪľ":6182,"Ġë¬¼ë¦¬":6183,"Ġuveitis":6184,"łĪë©Ķì§Ħ":6185,"ĠíĥĪìŀ¥":6186,"ìĿĢì§Ģ":6187,"ì¢ħëĮĢ":6188,"ĠìĭŃìĿ´ì§Ģìŀ¥":6189,"Ġê¸īìĹ¬ì¤ĳ":6190,"Ġì§Ģì¼ľë³´ê¸°ë¡ľ":6191,"ĠíĨµìĽĲì¹ĺë£Į":6192,"Ĭ¸ëĿ¼":6193,"Ġamoxicillin":6194,"ìĭ¤ìĹĲìĦľ":6195,"íķĺì§ĢëĬĶ":6196,"ĠìĿ¸íĶĮë":6197,"Ġì²´ì¤ĳìĿ´":6198,"íĬ¹ìĿ´ìĤ¬íķŃ":6199,"ľë¦¬":6200,"Ġë°°ëĩ¨ëŁī":6201,"ìĨľ":6202,"ramide":6203,"Ġê³ĦíļįìŀĦ":6204,"imer":6205,"ĠìĿ¼ìłķ":6206,"Ġub":6207,"omi":6208,"ĠíĸĪëĬĶëį°":6209,"ĳìĬ¤ë":6210,"ĠOb":6211,"ĠìķĮëł¤ë":6212,"ìĿ¸ê³Ħ":6213,"íĺķìĦ±":6214,"========":6215,"¡ĮìĿĮ":6216,"ë°©ê´ĳ":6217,"ĠAn":6218,"¶Ģë¶Ħ":6219,"ĠìĿ´íĽĦìĹĲëĬĶ":6220,"Ġê°ľìĿ¸ìĤ¬ë£Į":6221,"ĠìłĢìĹĲì½Ķ":6222,"Ġtrauma":6223,"Ġëª¸ìĿĦ":6224,"ĠíĮ¨ëĵľ":6225,"Ġinduction":6226,"iff":6227,"Ġë³´íĨµ":6228,"íģ¬ë¡ľ":6229,"³¼":6230,"Ġíĺ¼ìŀĲ":6231,"íĳ¸ë":6232,"ĶëĿ¼ëıĦ":6233,"Ġë³´íĺ¸ìŀĲëĭĺê»ĺ":6234,"Ġìĭ¬íķĺê³ł":6235,"Ġë§Įìł¸":6236,"Ġyellow":6237,"esk":6238,"eren":6239,"ìķĪìķ½":6240,"Ġì£¼ìĤ¬ê¸°":6241,"ìķĺëĬĶëį°":6242,"ìº¡ìĬĲ":6243,"Ġê³¨ìłĪë":6244,"ta":6245,"ĭŃëĭĪëĭ¤":6246,"Ġìłľê±°ì":6247,"Ġë§ŀê³ł":6248,"ë³´ëĭ¤ëĬĶ":6249,"ê³¡":6250,"¡°ëĶľ":6251,"ì§Ģë¡ľ":6252,"Ġtimepo":6253,"Ġì¶ķ":6254,"Ġdimer":6255,"ĠíĽĦë°©":6256,"ĠìĿ¸íĶĮë£¨":6257,"ê·ľì¹Ļ":6258,"Ġê·¸ëłĩ":6259,"Ġëļľëł·íķľ":6260,"Ġì§Ħë£ĮìłĦ":6261,"Ġenteritis":6262,"Ġëĭ¨ê³Ħ":6263,"ĠìľĦìķ¡":6264,"Ġì¶ľëłģ":6265,"íķĺìĭľê¸°ë¡ľ":6266,"Ġê·ĢìĽĲ":6267,"Ġ60":6268,"Ġbt":6269,"´íĶ":6270,"Ġë¶Īê°ĢëĬ¥":6271,"ĠíĻľë°ľ":6272,"ìļ¸ë":6273,"Ġlesion":6274,"etam":6275,"Ġê±´ì¡°":6276,"ĠìĪĺìĪłìĿĢ":6277,"Ġëª¨ë¥´ìĭ¬":6278,"Ġë¨¹ìĿ´":6279,"ĠëĤ´ë¶Ħë¹Ħ":6280,"ĠìĹ¼ì¦ĿìĪĺì¹ĺ":6281,"Ġmr":6282,"nit":6283,"Ġë¨¹ìĿ´ì§Ģ":6284,"ostril":6285,"eth":6286,"ì£¼ìĭľê³ł":6287,"Ġë§Įë":6288,"ĠêµĲìłķìĪł":6289,"ìłģìĿ´":6290,"Ġë¹łì§Ĳ":6291,"íŀĪë":6292,"Ġì¢ħê´´ê°Ģ":6293,"ĠëĬ¦":6294,"Ġì²ł":6295,"ĠëĮĢíķ´ìĦľëĬĶ":6296,"Ġë½":6297,"ìķŀ":6298,"Ġìŀ¬ê²ĢìĤ¬":6299,"íķĺì§Ģë§Į":6300,"ëķĮë¬¸ìĹĲ":6301,"Ġê²¨ëĵľëŀĳìĿ´":6302,"Ġcg":6303,"ĠìĹĲëĤłëĿ¼":6304,"Ġìľłì§ĢëĲ¨":6305,"ìĿ´ë¬¼":6306,"ĠBPtime":6307,"ìķĦíĮĮ":6308,"íķĺë¡ľ":6309,"racture":6310,"Ġker":6311,"¤Ģìľ¼ë¡ľ":6312,"erc":6313,"ĠíĻįìĹ°ìłķ":6314,"íķĢ":6315,"Ġê¸°ìłĪ":6316,"ĠìŀĪëĭ¤":6317,"Ġhalfsol":6318,"ĠEye":6319,"íĻķìĿ¸ëĲ":6320,"Ġê²½ë¶Ģ":6321,"Ġë¶Īê·ľì¹Ļ":6322,"ì§ĢìĨį":6323,"ë´ī":6324,"ìĥīì¦Ŀ":6325,"ì§Ħë£ĮìłĦ":6326,"Ġì¦ĿìĥģìĿĦ":6327,"ĠìĪĺìĸĳìĦ±":6328,"ĠíķŃìĥģ":6329,"ĠíıĲìĩ":6330,"rate":6331,"íĮ½ë§Į":6332,"Ġêµ¬íĨłíķ¨":6333,"Ġíı¬íĶ¼":6334,"ĠíĬ¹ìĿ´ìłģìĿ¸":6335,"Ġbul":6336,"Ġì¢ĭìĿĦ":6337,"ĠìĥĿíĻľ":6338,"Ġtrans":6339,"Ġìĥ´íĳ¸":6340,"łë¶Ħ":6341,"ĠPCR":6342,"Ġê°ĢìĬ":6343,"Ġìĸ´ê¸ĪëĭĪ":6344,"Ġfentanyl":6345,"Ġìķ½ìļ©":6346,"Ġìķ½ë§Į":6347,"Ġble":6348,"Ġìľłì§ĢìĨįëıĦë¡ľ":6349,"Ġìĺ¤ìĭľë©´":6350,"Ġnuclear":6351,"Ġê·¸ìĻ¸":6352,"Ġìŀĺë¨¹ê³ł":6353,"neumonia":6354,"Ġê°Ĳê¸°":6355,"ĠUB":6356,"ostrils":6357,"Ġìŀĺì§Ģë":6358,"oclopramide":6359,"Ġëĭ¤ìĿĮìĹĲ":6360,"ĠìĹĨìĹĪìľ¼ëĤĺ":6361,"ì¢ħë£Į":6362,"ĠìĥĿê²¼":6363,"Ġlipase":6364,"ĠìŀĪì§Ģë§Į":6365,"Ġes":6366,"Ġohe":6367,"Ġë³´ìĺĢìĿĮ":6368,"ìĭľëįĺ":6369,"Ġëĵ¤ìĸ´ì":6370,"©ķíĥĢ":6371,"Ġcap":6372,"ħĶìķ¼":6373,"Ġê°ĢìĦľ":6374,"AL":6375,"Ġresult":6376,"ĠìĨĶ":6377,"Ġserum":6378,"ëĳĲ":6379,"Ġox":6380,"cop":6381,"Ġfollow":6382,"Ġran":6383,"Ġìĸĳíĺ¸íķĺê³ł":6384,"ĠëĤĺìĺ¤ëĬĶ":6385,"Ġìĸĳìĥģìľ¼ë¡ľ":6386,"erial":6387,"upture":6388,"onazole":6389,"ĠIVDD":6390,"ĠíĶ¼ë¶ĢëĬĶ":6391,"Ġë³ĳë¦¬":6392,"ĠìłĦëĤł":6393,"Ġê·ĵë°ĶíĢ´":6394,"Ġë§Īì·¨ìłĦ":6395,"Ġë³µê°ķëĤ´":6396,"Ġlob":6397,"dimer":6398,"Ġë°ľìĥĿíķľ":6399,"ĠìķĦíı¬":6400,"Ġìĭ¶ìĸ´":6401,"ĠëĪĦë":6402,"ĠìĺĨêµ¬ë¦¬":6403,"ì¡°ì":6404,"muscular":6405,"Ġë¶Ģë¶ĦìĹĲ":6406,"ĠìĥĪë°Ģë¦°":6407,"ìĨĮëıħ":6408,"Ġì§ĢíĺĪ":6409,"íķĺìĦ¸ìļĶ":6410,"Ġsyndrome":6411,"Ġë°°ë¡ľ":6412,"Ġì§Īë³ĳ":6413,"¨ë¶Ģ":6414,"uk":6415,"ìľĦë¶Ģ":6416,"ĠëĮĢìŀ¥":6417,"ĠìŀĪëĭ¤ê°Ģ":6418,"ëĭ´ìľ¼ë¡ľ":6419,"Ġë¨¹ìĿ¼":6420,"ĠëĤ´ë³µìķ½ìĿĢ":6421,"ĠëĤĺìĺ¤ë©´":6422,"ìŀĺë":6423,"ìķĺìľ¼ë©°":6424,"Ġê°ĲìĤ¬":6425,"Ġcocci":6426,"íĨµì¦Ŀ":6427,"Ġscler":6428,"ĠìĤ°ì±ħìĭľ":6429,"ĠíķĺíĬ¸ê°Ģëĵľ":6430,"íĮĮíĸī":6431,"ĠíĺĦì¦Ŀê²½ê³¼":6432,"Ġê¸°ì´Īìłĳì¢ħ":6433,"ì°½":6434,"Ġsize":6435,"ê·Ģì":6436,"ĠìłģìĿĢ":6437,"ĠìĨ":6438,"ĠíĻĺìŀ":6439,"ĠìķħíĻĶìĭľ":6440,"ĨĮëıħ":6441,"ìĿĢëį°":6442,"íķĺê¸°ë¡ľíķ¨":6443,"¶ľíĺĪ":6444,"ĠìĪłìĭĿ":6445,"Ġë°°ë³Ģë°°ëĩ¨":6446,"cime":6447,"Ġëĭ¤ìĿĮë²Ī":6448,"Ġornipural":6449,"ê³łë":6450,"Ġê²ĥëıĦ":6451,"ì¤ĳìĹĲ":6452,"Ġeryth":6453,"Ġau":6454,"íķ´ëıĦ":6455,"ì»¨ëĶĶìħĺ":6456,"ìķĺëĭ¤ê³ł":6457,"ìĹĶìŀĲ":6458,"ìĹĨê³ł":6459,"BP":6460,"Ġë¶Ģìľ":6461,"ĠìľłìĤ¬íķĺê²Į":6462,"dog":6463,"¹Ħìļ©":6464,"ĠëĤĺìĺ¨":6465,"ĠMR":6466,"izure":6467,"**":6468,"ĠíĺĦë":6469,"Ġêµ¬ëĤ´ìĹ¼":6470,"ìĿ¼ì£¼ìĿ¼":6471,"ìłķì²´":6472,"ê¹Ĳ":6473,"Ġhemorrh":6474,"ë©´":6475,"Ġbronchitis":6476,"Ġê²Į":6477,"ĠìĿ´ë¯¸":6478,"ĠìĻ¸ì¶ľ":6479,"ĠìĦľíĺľë":6480,"íĸĪëĬĶëį°":6481,"ëĭĿ":6482,"ì²´ì¤ĳ":6483,"Ġëľ¨":6484,"ìĿ´ìĸ´íĬ¸":6485,"ĠìĿ´íĬ¸ëĿ¼":6486,"Ġmammary":6487,"ìĤ¼":6488,"ĠíĨłë¸Įë":6489,"CP":6490,"Ġdiff":6491,"tival":6492,"Ġìĭ¬ìŀ¥ë³ĳ":6493,"ìĹŃì§Ī":6494,"atheterization":6495,"Ġun":6496,"Ġlik":6497,"IU":6498,"ĠìĬ¤íĶĦëłĪìĿ´":6499,"Ġpapule":6500,"Ġnone":6501,"íĺ¸ë":6502,"ìĿ´ìĭł":6503,"íķĺë£¨":6504,"ĠìĤŃëª¨":6505,"ĠìĹ¬ìłĦ":6506,"ĠìľĦì£¼ë¡ľ":6507,"Ġê²ĢìĤ¬ìĻĢ":6508,"Ġì²Ńìĥīì¦Ŀ":6509,"Ġì¹´íĨ¡ë°ľìĨ¡ìĻĦë£Į":6510,"ĵľë¦´":6511,"Ġhypertension":6512,"Ġê¸°ê´Ģì§ĢìĹ¼":6513,"ì§ĢìķĦ":6514,"ĠìĤ¬ëŀĮìĿĮìĭĿ":6515,"ìī":6516,"ĠëĺĲíķľ":6517,"regular":6518,"Ġpending":6519,"Ġìĩ¼":6520,"icial":6521,"Ġìĺģìĸĳìłľ":6522,"duced":6523,"Ġëĭ´ëĭ¹ìĿĺ":6524,"oad":6525,"pt":6526,"ìĭľê¸°":6527,"ĠëĬĺìĹĪìĿĮ":6528,"łµ":6529,"ìľĦë¡ľ":6530,"Ġepi":6531,"Ġii":6532,"Ġacetylcyst":6533,"ĠìĪĺìĿĺìĤ¬":6534,"ìĪĺìĪłë":6535,"ĠìŀĲëĬĶ":6536,"Ġë¯¸ìĨĮ":6537,"ì§ĢìķĬ":6538,"Ġìĸ¸ê¸ī":6539,"ologic":6540,"Ġsw":6541,"ìĨĿ":6542,"cheal":6543,"Ġìĺ¬ë":6544,"atinine":6545,"ëĭ¹ìĭľ":6546,"íĤ´":6547,"Ġhypoth":6548,"Ġìĭ¬ë¶ĢìłĦ":6549,"ìĬ¤íĭ±":6550,"ì¹´íĨ¡ë°ľìĨ¡ìĻĦë£Į":6551,"ĠìĨĮë³":6552,"Ġclind":6553,"Ġpatella":6554,"ìĨĮìĹ¼":6555,"Ġíķĺìħ¨ìĿĮ":6556,"Ġfiel":6557,"ĠìŀĲë°ľë°°ëĩ¨":6558,"ìĥģìĹĲìĦľ":6559,"rug":6560,"ĠìĤ¶":6561,"¼ìĬ":6562,"ìĬ¤íĬ¸":6563,"ì¡°ì§ģ":6564,"ĠìĹŃë¥ĺ":6565,"Ġsame":6566,"Ġhind":6567,"ĠLA":6568,"Ġrupture":6569,"Ġìĸĳíĺ¸íĸĪìĿĮ":6570,"Ġë§Įì§Ģë©´":6571,"ĠAM":6572,"Ġê°ľêµ¬íĺ¸íĿ¡":6573,"ìķ½ìĿĦ":6574,"ĠìłĲìķ¡ìĦ±":6575,"SA":6576,"ĳĲë²Ī":6577,"ercise":6578,"ìĿ´ìĹĪìĿĮ":6579,"ĠìŀĪë":6580,"Ġtach":6581,"ĠìĨĮë³Ģë":6582,"use":6583,"ê°Ģìĭľ":6584,"Ġì¦ĿìĦ¸":6585,"Ġê´Ģìĭ¬":6586,"ëĵľëł¤":6587,"ĠìĿ´ë²Īì£¼":6588,"ĠìĦ¤ëªħëĵľëł¸ìĬµëĭĪëĭ¤":6589,"Ġìĥģë¶Ģ":6590,"§ĢìķĬ":6591,"ì¢ĭìĿĮ":6592,"ĻĢìĦľ":6593,"ëĮĢë":6594,"Ġrecord":6595,"Ġê²°ë§īì¶©íĺĪ":6596,"Ġshould":6597,"Ġë³´ìĿ´":6598,"ìĭŃ":6599,"Ġíģ¬ëłĪë©Ķì§Ħ":6600,"Ġprob":6601,"ĠìŀĪëĬĶëį°":6602,"ĠìĪĺì¹ĺëĬĶ":6603,"ruct":6604,"omiting":6605,"êµ°ëį°":6606,"ĠíĿĳ":6607,"Ġë¨¹ìĿ´ìĭľê³ł":6608,"Ġmaterial":6609,"Ġìłľê±°íķ¨":6610,"Ġë©´ìĹŃìĸµìłľ":6611,"ëįĶ":6612,"TM":6613,"Ġwax":6614,"pler":6615,"Ġëľ¯":6616,"Ġìĭ¬íķ´ìĦľ":6617,"Ġëĭ¤ëħĢì":6618,"ĠëıĦë":6619,"Ġmmf":6620,"ì¶Ķê°Ģ":6621,"ĠìĦŀìĹ¬":6622,"³ĢíĻĶ":6623,"Ġìŀ¦":6624,"Ġë³¸ìĽĲìľ¼ë¡ľ":6625,"Ġìĸ¼ë§Ī":6626,"Ġdepressed":6627,"enal":6628,"Ġë¶ī":6629,"Ġëª¸ë":6630,"Ġ-\"":6631,"Ġêµ¬íĨłì¦Ŀìĥģ":6632,"ĠíĸĪìĬµëĭĪëĭ¤":6633,"Ġì¤ĳëĵ±ëıĦìĿĺ":6634,"Ġeyedrops":6635,"ĠíĻķìĿ¸íķĺê³ł":6636,"ëŀĢ":6637,"ìĭľìŀĳ":6638,"¤ĳìĹĲ":6639,"Ġë¿Įë":6640,"ĠìĪĺì¶ķ":6641,"ìĿ¸ìĦ±":6642,"ĠìķĦìĺĪ":6643,"ĠìĹĲì½ĶìĦ±":6644,"oppler":6645,"Ġìµľì¢ħ":6646,"ĠìķĦì¡°ëĶľ":6647,"Ġê¶Įìľłëĵľë¦¼":6648,"ìĸ´ë³´ìŀĦ":6649,"Ġì¤Ģíķ´":6650,"Ġíı¬ëıĦë§īìĹ¼":6651,"ĠíĬ¹ìĿ´ìłģìĿ´ì§Ģ":6652,"utamine":6653,"ľł":6654,"ĠìķĪì¢ĭìķĦ":6655,"Ġvolume":6656,"Ġcrust":6657,"íļŁìĪĺ":6658,"ĠìĬµì§Ħ":6659,"Ġì¼ĢìĿ´ì§Ģ":6660,"ĠíķĦìļĶíķĺëĭ¤ê³ł":6661,"ĠEX":6662,"Ġibd":6663,"Ģëĭ¤ê³ł":6664,"ĶëĶĶ":6665,"ĠëıĻìĿ¼íķľ":6666,"amotidine":6667,"Ġamin":6668,"ĠëĳĲëĵľëŁ¬":6669,"Ġìŀĺë¨¹":6670,"ì½Ķë¦°":6671,"ì£¼ìĭ¤":6672,"Ġsily":6673,"ĠíĶĦëłĪë":6674,"ectrolyte":6675,"ì¯¤":6676,"Ġì¤ĳëıħ":6677,"íĭ°":6678,"Ġëį°ëł¤ìĺ¤ìĭ¬":6679,"junctival":6680,"Ġfeline":6681,"ìķĻ":6682,"imary":6683,"ĠëıĻë°ĺíķľ":6684,"Ġsclerosis":6685,"Ġìķłê²¬":6686,"ans":6687,"ĠíķŃêµ¬íĨłìłľ":6688,"Ġë¹Ħì":6689,"Ġê·Ģì¹ĺë£Į":6690,"Ġë°ĢëıĦ":6691,"ĠNasal":6692,"ëıĦíı¬":6693,"Ġobjective":6694,"Ġdorsal":6695,"Ġë§ĳìĿĢ":6696,"ëĲĺì":6697,"ĠíĥĢë³ĳìĽĲìĹĲìĦľ":6698,"Ġê³¤ëŀĢ":6699,"gth":6700,"Ġamc":6701,"ĠíĶ¼ë¶ĢìĹĲ":6702,"Ġdo":6703,"Ġëĭ¤ëĭĺ":6704,"ĨįìĦ±":6705,"ĠëĪĪê¼½ìĿ´":6706,"ìŀĳìĬ¤ë":6707,"dib":6708,"pro":6709,"Ġë¬¼ì§Ī":6710,"ıĻë§¥":6711,"ĠíķłìĿ¸":6712,"Ġir":6713,"Ġë°ĺìĿĳìĿ´":6714,"Ġappeti":6715,"ê¸°ê³ł":6716,"Ġì¢Ģë":6717,"Ġcomple":6718,"(++)":6719,"Ġ19":6720,"ìķĺëįĺ":6721,"Ġì¹¨ë":6722,"Ġureter":6723,"íķĺìĭłëĭ¤ê³ł":6724,"ĠìłĦê³¼":6725,"ping":6726,"Ġê»":6727,"Ġpatch":6728,"¦´ëķĮ":6729,"íĺ¸íĿ¡ê¸°":6730,"yroidism":6731,"IN":6732,"eni":6733,"¸Įë¡ľ":6734,"ĠíķŃì§Ħ":6735,"ste":6736,"ê¸°ê´Ģ":6737,"Ġíİĺë":6738,"Ġeod":6739,"Ġìľłì§ĢìĨįëıĦ":6740,"Ġë¨¹ìĿ´ëĬĶ":6741,"Ġlymphnode":6742,"ì½ľ":6743,"fold":6744,"dl":6745,"Ġë³´íĺ¸ìŀĲë¶Ħê»ĺ":6746,"ĠìĬ¤ë©ķíĥĢ":6747,"Ġdermatitis":6748,"racetam":6749,"ê³łê³Ħ":6750,"Ġë¬¸ìłľë¡ľ":6751,"Ġë¯¸ìķ½íķĺê²Į":6752,"Ġcar":6753,"²Ħ":6754,"ĠëłĪ":6755,"Ġê·¸ëıĻìķĪ":6756,"ĠìĿ´ìķ¼":6757,"Ġê³łíĺĪìķķ":6758,"´ìŀħëĭĪëĭ¤":6759,"Ġdexa":6760,"Ġsuction":6761,"dition":6762,"Ġanti":6763,"ĠìĹĳìĬ¤ë":6764,"Ġê·¹":6765,"ıĻë¬¼ë³ĳìĽĲìĹĲìĦľ":6766,"Ġì°½ë°±":6767,"ê°ĲëŁī":6768,"ìĹĨìľ¼ë©´":6769,"¥´ê²Į":6770,"gn":6771,"ìĻ¼ìª½":6772,"Ġëĭ¬ë":6773,"Ġsuperf":6774,"ëĭ¤íķ¨":6775,"CAL":6776,"Ġmode":6777,"ĠíıĲíı¬":6778,"Ġë¨¹ìĿ¸":6779,"thel":6780,"Ġì¹ĺë£Įë°ĺìĿĳ":6781,"ĠìĹİ":6782,"Ġë¹Ħìļ©ìĿĢ":6783,"ë§¥ìĬ¤":6784,"ĠëłĪìĿ´ìł¸":6785,"Ġclient":6786,"Ġëĭ¤ìĿ´ìĸ´íĬ¸":6787,"ĠìĿ¸íĶĮë£¨ìĹĶìŀĲ":6788,"ĠìĭĿìļķì´īì§Ħ":6789,"ĠëĤ´ìĹĲìĦľ":6790,"ĠSpO":6791,"mun":6792,"oxic":6793,"®¨":6794,"ĠJoint":6795,"ĠìĨĮê³łê¸°":6796,"acity":6797,"Ġë°ľìĥĿíķł":6798,"ĠìĨĮê²¬ìĿ´":6799,"ĠìĿ´ìĸ":6800,"kp":6801,"ëģĻ":6802,"ĠìĿ´ìłĦê²ĢìĤ¬":6803,"37":6804,"ĦĲ":6805,"ĠOHE":6806,"Ġì§Ģê°ĦìĹ¼":6807,"ë§Īê²Ķ":6808,"ĠëĴ·ëĭ¤ë¦¬ë¥¼":6809,"Ġíģ¬ê¸°ìĿĺ":6810,"Ġê´Ģì°°ëĲĺë©°":6811,"ĠìĿĺë¢°ì":6812,"Ġë¶ĢëĶ":6813,"Ġenrofloxacine":6814,"Ġëĭ¤ë§Į":6815,"Ĳĺë©°":6816,"Ġë°°ëĩ¨ëĬĶ":6817,"Ģì§Ħê²½":6818,"ĠìĿĺìĭ¬ëĲĺìĸ´":6819,"ĠDog":6820,"Ġì²ĺì¹ĺìĭľ":6821,"Ġloss":6822,"scopic":6823,"ĠRespiratory":6824,"ĠObjective":6825,"Ġaden":6826,"Ġë°ĸìĹĲ":6827,"ĠìĨĶì½Ķë¦°":6828,"ted":6829,"ê±°ë¦¬ê³ł":6830,"ĠìŀĲë£Į":6831,"Ġmir":6832,"Ġecho":6833,"ong":6834,"ĠëĤĻ":6835,"ĺë§Į":6836,"ĠFL":6837,"Ġenv":6838,"ì¢ħíķ©":6839,"ĠìķĪëĤ´íķ´ëĵľë¦¼":6840,"ê³³ëĭĪ":6841,"ĠëĤ¬":6842,"cent":6843,"teeth":6844,"Ġì¢ĢëįĶ":6845,"Ġvë¡ľ":6846,"ĠìĹĨìĹĪê³ł":6847,"ĠìĦľíĺľë¶Ģ":6848,"Ġurinary":6849,"ì·Įìŀ¥ìĹ¼":6850,"Ġë¥¼":6851,"arcoma":6852,"Ġstren":6853,"Ġì§ĢëĤ´ê³ł":6854,"Ġì£¼ìĤ¬ì²ĺì¹ĺ":6855,"³´ë":6856,"INA":6857,"Ġìŀłê¹Ĳ":6858,"Ġcardiovascular":6859,"ĺëŁī":6860,"Ġsigns":6861,"Ġë¶Ģë¶":6862,"Ġhydro":6863,"ĠNerve":6864,"ëĿ¼":6865,"Ġfree":6866,"ĠìĨĮëıħìķ½":6867,"tiracetam":6868,"ex":6869,"ĠíĮ½ë§Į":6870,"Ġë³´ìĹ¬ìĦľ":6871,"£¼ë©´":6872,"Ġê¸īìĹ¬ìĭľ":6873,"ìłķì§Ģ":6874,"ìľ¼ëĭĪ":6875,"azepril":6876,"Ġìĸķ":6877,"ëĭ¤ëĩ¨":6878,"ìĨĮëŁī":6879,"Ġê³łëł¤íķł":6880,"Ġìŀ¤ìĿĮ":6881,"íķ´ìķ¼íķł":6882,"Ġfore":6883,"ëıĦìĿĺ":6884,"ĠìĸĳìĥģìĿĢ":6885,"Ġprol":6886,"ìĦ¼":6887,"Ġmel":6888,"Ġë¶Īê·łíĺķ":6889,"Ġexercise":6890,"Ġë³´ëĭĪ":6891,"ìĿ´ìĹĪìľ¼ëĤĺ":6892,"ê²ĥëıĦ":6893,"ĠìķĦíĮĮíķĺëĬĶ":6894,"Ġë§ĪìĿ´":6895,"Ġcholang":6896,"Ġhypoall":6897,"ì¹ľ":6898,"ĠLymphnode":6899,"ìĭľíĤ¤":6900,"ĠíĮ¨íĦ´":6901,"ĠëĮģ":6902,"(#":6903,"ĠíĦ°ë":6904,"ëĬĶëĭ¤ê³ł":6905,"Ġìłģì¶ľ":6906,"mentation":6907,"ĠCardiovascular":6908,"ĠëĦ£ê³ł":6909,"Ġitra":6910,"Ġopacity":6911,"Ġìŀ¬ê²Ģìĭľ":6912,"ocele":6913,"Ġmit":6914,"Ġcontrol":6915,"ĠëģĻ":6916,"Ġë¹ĪíĺĪìĪĺì¹ĺ":6917,"ĠìĤ°ìĨĮê³µê¸ī":6918,"Ġmalassezia":6919,"ë¨¹ê³ł":6920,"Ġê²ĢìĿĢìĥī":6921,"ification":6922,"µìĹĲìĦľ":6923,"Ġbilat":6924,"Ġíĳľ":6925,"YSI":6926,"ĠìĿ´ìĹĲ":6927,"oprost":6928,"Ġë°ľëª©":6929,"Ŀ¼ë©´":6930,"ĠìĿ´ëıĦë":6931,"ĠìłĦë¦½":6932,"Ġë¬´ë¦¬":6933,"ich":6934,"Ġì²´íĳľ":6935,"ĠìĹ¬ìŀĲ":6936,"Ġì¢ģ":6937,"Ģìĸ´ì":6938,"Ġëĭ¤ë¥¸ë":6939,"Ġtdx":6940,"ìĨĮíĺĪì¦Ŀ":6941,"ĠìĤ°ì±ħìĿĢ":6942,"Ġketamine":6943,"ê°ľìĦł":6944,"Ġìµľê·¼ìĹĲëĬĶ":6945,"Ġì±Ļê²¨ëĵľë¦¼":6946,"ĠìºĶìĹĲ":6947,"Ġmy":6948,"íĻĶìŀ¥":6949,"Ġì¢ħì¢ħ":6950,"íį¼":6951,"ìł¸ë":6952,"Ł¬ìĽĮ":6953,"ĠEXAM":6954,"Ġì¦Ŀìĥģë°ľ":6955,"CO":6956,"Ġpi":6957,"Ġìłģê·¹ìłģìĿ¸":6958,"Ġì°¨ìĿ´":6959,"Ġidexx":6960,"ores":6961,"ĠëĲĺë©´":6962,"zep":6963,"ìķ¼ê°Ħ":6964,"Ġë¶ĪìķĪìłķ":6965,"YSICAL":6966,"ĠEXAMINA":6967,"Ġemergency":6968,"Ġì²łë¶Ħ":6969,"ĠìłķíĻķíŀĪ":6970,"ĠEXAMINATION":6971,"Ġìłķìĥģìłģìľ¼ë¡ľ":6972,"ĠìŀĲë°ľìĿĮ":6973,"Ġhepatopathy":6974,"ëĶĶ":6975,"ìļ±":6976,"Ġë§Ĳë":6977,"Ġê¹Ģì§Ħê²½":6978,"Ġìŀħëł¥":6979,"Ġê¸ĪìĿ¼ìĿĢ":6980,"Ġstt":6981,"Ġíĺ¸íĿ¡ìĿĢ":6982,"Ġìľ¡ìķĦì":6983,"ìĿĮìĺģ":6984,"ĠìŀĪìĹĪëĭ¤ê³ł":6985,"romb":6986,"ì²ľíŀĪ":6987,"ĠíıĲë¶Ģì¢ħ":6988,"Ġë³µë¶ĢíĮ½ë§Į":6989,"42":6990,"generative":6991,"Ġstrength":6992,"SS":6993,"lev":6994,"ĠìĦłíĥĿ":6995,"120":6996,"Lt":6997,"ê³łíĺĪìķķ":6998,"ë³´ê³ł":6999,"ê°Ģê³ł":7000,"ĠëĬĺìĸ´ëĤ":7001,"³Ħ":7002,"ìĵ":7003,"ìĥģíĻ©":7004,"ĺë©´ìĦľ":7005,"ĵľë¦°":7006,"Ġë©ĶìĿ¼":7007,"ĠìŀĦí":7008,"ĠëĶĽ":7009,"azine":7010,"Ġë¶Ģë¶ĦìĿĢ":7011,"ĠëĨĴê²Į":7012,"¯¸ëħ¸":7013,"ĺ¤ë":7014,"Ġcollapse":7015,"Ġmetoclopramide":7016,"¨ë²ł":7017,"ĠíĶĦë¡ľíı¬":7018,"²ľ":7019,"tiple":7020,"Ġë¨¹ëįĺ":7021,"ogen":7022,"ĠìĭĿìļķìĸĳíĺ¸":7023,"ëł¬":7024,"Ġë²łë":7025,"Ġirregular":7026,"ĠGGT":7027,"ëĿ¼ëıĦ":7028,"Ġë´¤ìĿĮ":7029,"Ġíĺ¸ìłĦëĲĺ":7030,"ìĿ´ì§Ģë§Į":7031,"CVIM":7032,"²³":7033,"ĠìĤ¬ë£Įë¡ľ":7034,"vim":7035,"Ġë¶ĢìľĦìĹĲ":7036,"Ġë¬¸ìłľë":7037,"ĠìķĬê²Į":7038,"ĠíĶ¼ëª¨":7039,"Ġrem":7040,"ĠìķĦëĭĪëĿ¼":7041,"ĠìĸĳìĿ´":7042,"íĤ¬":7043,"ëĭī":7044,"ķĦë":7045,"ĠìļĶëıĦë":7046,"Ġë°ĶëĢ":7047,"Ġë°°ê°Ģ":7048,"Ġëª»íķĺìĭ¬":7049,"íĽĦë¶ĢíĦ°":7050,"Ġfip":7051,"Ġë°ĳ":7052,"ĠìķĬëıĦë¡Ŀ":7053,"Ġê±´ìĤ¬ë£ĮìĹĲ":7054,"ĠëģĻëģĻ":7055,"TE":7056,"ĦľëıĦ":7057,"ìĦŃ":7058,"ĠìľłìĤ¬íķ¨":7059,"íĨ¤":7060,"opathic":7061,"ĠdìºĶ":7062,"ĠìŀĪìĹĪëįĺ":7063,"ĠìĽĲíĺķ":7064,"ĠíķĺìĺĢìľ¼ëĤĺ":7065,"ļĿ":7066,"ĠìĿ´ëł¥":7067,"ies":7068,"Ġ35":7069,"Ġëĵ±ìľ¼ë¡ľ":7070,"ĠëĶ±ëĶ±":7071,"body":7072,"ĠìķĪìª½":7073,"íĭ°ë®¨":7074,"Ġë¸Įë¡ľ":7075,"ë°ľìŀĳ":7076,"ìĽĶ":7077,"íĿĺë":7078,"vit":7079,"olar":7080,"Ġë¬¼ì²´ë":7081,"ë³´ë":7082,"Ġëĭ¹ë¶Ģë":7083,"íķĺëĬĶëį°":7084,"Ġì£¼ë©´":7085,"RIS":7086,"erma":7087,"Ġclav":7088,"ĠìĭĿíĽĦ":7089,"Ġì±Ļê²¨":7090,"ĠìĿ´ê°ľ":7091,"ĠíĻĶë":7092,"ramine":7093,"ëıĦë§Ĳ":7094,"sti":7095,"Ġëĭ¨ìķ½":7096,"Ġê°ĢëĬ¥ìĦ±ìĹĲ":7097,"ë²ł":7098,"Ġë¬¼ëıĦ":7099,"Ġê³¼ìĿ¼":7100,"íģ´ë¡ľ":7101,"iosis":7102,"ëĪĪë¬¼":7103,"Ġì²ľì²ľíŀĪ":7104,"rain":7105,"Ġdobu":7106,"soflurane":7107,"Ġtbil":7108,"ĠìĪĺìĪłë¶ĢìľĦ":7109,"Ġì¶ľìĤ°":7110,"¬´ê²Į":7111,"Ġpyometra":7112,"zepam":7113,"ĠìķĪì¢ĭìĿĮ":7114,"ĠíĶĦë¡ľíı¬íı´":7115,"ĠëĴ¤ë¡ľ":7116,"ĠíķĺëĬĶëį°":7117,"Ġì§ģìŀ¥":7118,"ĠAST":7119,"íŀĮ":7120,"Ġê°ľë³µ":7121,"ĠìŀħìĽĲì²ĺì¹ĺ":7122,"íİĺë":7123,"ìĥĺ":7124,"//":7125,"ĠClient":7126,"Ġao":7127,"ĠDazzle":7128,"ĠGI":7129,"ĠëıĻìĺģìĥģ":7130,"ĠëĲĺì":7131,"Ġê°ľìĦłëĲľ":7132,"Ġì¢ħë¥ĺ":7133,"nitol":7134,"Ġhemorrhage":7135,"Ġalkp":7136,"ĠìłģìĿ´":7137,"ĠëĮĢì²":7138,"ures":7139,"Ġsam":7140,"Ġê²ĢìĿĢ":7141,"ĠìŀħìĽĲìŀ¥":7142,"ĠFuro":7143,"Ġë³´ëĭ¤ëĬĶ":7144,"¯¸ê²½":7145,"ĠìĨĮê²¬ìĦľ":7146,"Ġê²ĢìĤ¬ìĭľ":7147,"ê±°ë¦¬":7148,"ìł¤":7149,"ĠíĻķìĿ¸ëĲľ":7150,"Ġbandage":7151,"ulation":7152,"Ġbiddays":7153,"Ġì¹ĺìĿĢìĹ¼":7154,"Ġíģ¬ê¸°ê°Ģ":7155,"Ġtib":7156,"Ġenl":7157,"ĠìłĦìĹ½":7158,"astration":7159,"Ġê°Ħëĭ¨":7160,"ìĤ°ì±ħ":7161,"dìºĶ":7162,"Ġoste":7163,"Ġmetast":7164,"Ġêµ¬íĨłê°Ģ":7165,"Ġcreatinine":7166,"aid":7167,"ì£¼ê³ł":7168,"¸ëĿ¼ìĿ´":7169,"Ġê·¸ëŀĺëıĦ":7170,"Ġê´Ģì°°ëĲĺìĹĪìĬµëĭĪëĭ¤":7171,"Ġë©į":7172,"Ġcode":7173,"oci":7174,"oprostol":7175,"ĠìĦĿìħ":7176,"atory":7177,"erm":7178,"Ġclin":7179,"Ġìĭ¬ì´Ī":7180,"ĠíĿĶìłģ":7181,"ìĹĪëĭ¤":7182,"ìĿ´ëĿ¼ëıĦ":7183,"Ġìľłì§Ģíķĺê³ł":7184,"ĠìŀĺëĿ¼":7185,"ŀĢì":7186,"Ġthorax":7187,"saa":7188,"Ġë¹Īë":7189,"ocytosis":7190,"Ġvitre":7191,"Ġêº":7192,"Ġíıīê°ĢìĹĲìĦľ":7193,"Ġëĭ¤ìĿĮëĤł":7194,"ĠIBD":7195,"Ġì»¨ë²ł":7196,"ĠìĤ½ìŀħ":7197,"Ġë¶Ģì¡±":7198,"ĠìłĲìłģ":7199,"įĶëĿ¼ëıĦ":7200,"íĥĲ":7201,"ê²©ëıĻ":7202,"ìŀĪê³ł":7203,"Ġìĺ¤ëĬĺë¶ĢíĦ°":7204,"Ġê·Ģìĥģíĥľ":7205,"Ġë¬´ë¥¸":7206,"ĠìĨ¡ê³³ëĭĪ":7207,"íķĺìħ¨ìĬµëĭĪëĭ¤":7208,"ĠìĤ¬ë£Įë§Į":7209,"´¤":7210,"aling":7211,"Ġìī¬":7212,"Ġìłķë¦¬":7213,"GC":7214,"Ġì£¼ìĭĿ":7215,"Ġhave":7216,"lauc":7217,"cope":7218,"pebral":7219,"Ġì¦ĿìĭĿ":7220,"Ġíıīìĥģìĭľ":7221,"ìĿ´ë©´ìĦľ":7222,"ĠëĤĺë¹ł":7223,"Ġamo":7224,"Ġê´ľì°®ìķĦ":7225,"ĠëĤĻìĥģ":7226,"Ġê½":7227,"ĦĪ":7228,"ĠíĿĶëĵ¤ë":7229,"Ġìĸ´ëłµ":7230,"ìķĮëŁ¬":7231,"ĠìĹĨìĹĪëĭ¤ê³ł":7232,"furo":7233,"Ġbone":7234,"CTH":7235,"Ġic":7236,"Ġëĭ¨ë":7237,"Ġacvim":7238,"ĠëĤ®ìĿĢ":7239,"íĭ°ë²ł":7240,"Ġë¨¹ìĿ´ìĭ¤":7241,"Ġë¬½ìĿĢ":7242,"Ĥ´ë":7243,"ĠìłĦì¹¨":7244,"ĠDis":7245,"ĠìĭľìłĲ":7246,"ĠìĪĺìĪłê¸°ë¡Ŀ":7247,"Ġë³´ìķ":7248,"Ġë¹ĦíĭĢ":7249,"ĠSRR":7250,"íĺĳì°©":7251,"ë²Īì§¸":7252,"Ġìĭ«ìĸ´íķ¨":7253,"¡¸":7254,"Ġnv":7255,"§Īë£¨":7256,"rid":7257,"azolam":7258,"ĠíĶ¼ë¶Ģìĥģíĥľ":7259,"week":7260,"íķĺì§Ħ":7261,"Ġì§ĳìĹĲìĦľëĬĶ":7262,"Ġìłķë°Ģ":7263,"ĠìĺĪìłĦ":7264,"Ġsym":7265,"Ġë³´ìłķ":7266,"íģ¬ê¸°":7267,"Ġproteinuria":7268,"ĠíĽ¼ë¡ľ":7269,"Ġwh":7270,"Ġë¨¹ìĺĢìĿĮ":7271,"Ġserra":7272,"laucoma":7273,"ĠìłĦì¯¤":7274,"Ġbenazepril":7275,"ìļĶì²Ń":7276,"ĸĳíĺ¸":7277,"Ġprimary":7278,"ħ¨ëĭ¤ê³ł":7279,"ĠëĶ¸ê¸°":7280,"Ġíķľìª½":7281,"Ġì¦Ŀìĥģë°ľíĺĦ":7282,"Ġëĭ¤ë°ľìĦ±":7283,"Ġì¡°ê¸Īë":7284,"Ġë³ĳë³ĢìĿĢ":7285,"Ġif":7286,"Ġì¤ĳëĭ¨íķĺê³ł":7287,"ĠíĥĲ":7288,"Ġë§İìķĦ":7289,"ĠëĨĢë":7290,"íķ´ë³¼":7291,"Ġtimesid":7292,"cbc":7293,"Ġê³µê¸°":7294,"ressure":7295,"openia":7296,"Ġìĺµíĭ°ë®¨":7297,"Ġì²łìłĢ":7298,"ĠëĨĵ":7299,"Ġnebul":7300,"Ġiu":7301,"Ġlev":7302,"ĠíĶ¼íķĺìĪĺìķ¡time":7303,"Ġê¸°ê°Ħ":7304,"Ġsidë¡ľ":7305,"ì§ĳìĹĲìĦľ":7306,"Ġappetite":7307,"Ġìķ½ìĿ´":7308,"ë³ĳì¦Ŀ":7309,"ĠìĹ¼ì¦ĿìĿ´":7310,"Ġtil":7311,"ĠìĤ¬ìļ©íķĺìĹ¬":7312,"Ġtob":7313,"Ġì¶©ë¶Ħ":7314,"²¨íĮĲ":7315,"Ĥ¨":7316,"íķľë²Ī":7317,"íĶĦì":7318,"ĠëĤĺìķĦì§Ĳ":7319,"Ġìĸ´ê¹¨":7320,"Ġì§§ê²Į":7321,"ĠìłĦíĽĦ":7322,"ĠMen":7323,"ĠìŀĪìĹĪê³ł":7324,"terna":7325,"ou":7326,"ì§ľ":7327,"ĠSystemic":7328,"ª¨ëĭĪíĦ°ë§ģ":7329,"Ġë¨¹ìľ¼ëł¤ê³ł":7330,"ìĭłë":7331,"ĠíĿ¬ë§Ŀ":7332,"Ġë³´ìĿ´ë©´":7333,"Ġëĭ¨ìĪľ":7334,"ĠìłĪíıĲ":7335,"Ġë°°ëĩ¨ê³¤ëŀĢ":7336,"omment":7337,"Ġê±°ë¶Ģê°Ĳ":7338,"ameth":7339,"Ġê°ĲìķĪ":7340,"roc":7341,"Ġìĸ´ëĸ¤":7342,"Ġíķĺìĭľë":7343,"ĠìĹ¬ë¦Ħ":7344,"Ġsplenic":7345,"mend":7346,"Ġcpli":7347,"ĠìĺģìĹŃ":7348,"Ġseizure":7349,"ë¹Ī":7350,"Ġë¶Ģëĭ´":7351,"ĠìľłìĤ¬íķľ":7352,"ĠìĨĮë¦¬ê°Ģ":7353,"¡łíĬ¸ëĿ¼":7354,"ĠìľĦì¶ķ":7355,"ancre":7356,"ìĿ´ìĻĢ":7357,"Ġê°ľê»Į":7358,"ķĮëŁ¬ì§Ģ":7359,"ê°Ħì":7360,"ĠëĶ°":7361,"ipi":7362,"Ġê²Ĳ":7363,"Ġì¤ĳìĿ´ë©°":7364,"emas":7365,"ĠìĹ¬ëŁ¬ë":7366,"Ġë³Ħë¡ľ":7367,"ĠìĺĪìłĦìĹĲ":7368,"ĠìĹ°ê²°":7369,"íģ¼":7370,"ĠBT":7371,"21":7372,"Ġíĩ´ìĽĲìĺĪìłķ":7373,"Ġadd":7374,"ĠëĤ´ê³¼ìłģ":7375,"ĠìĤ´ìĿ´":7376,"ĠìĿ¼ìĭľìłģìĿ¸":7377,"Ġ150":7378,"ĠìĪĺëĤ©":7379,"Ġlevetiracetam":7380,"Ġìĸ´ëĬĲìłķëıĦ":7381,"ĠìķĦë¯¸ëħ¸":7382,"íĥĢêµ¬":7383,"Ġìĸ´ìłľìĻĢ":7384,"Ġì²´ì¤ĳë¶Ģ":7385,"Ġìĭľíĸī":7386,"Ġweek":7387,"Con":7388,"°ľì¹ĺ":7389,"Ġmaropitant":7390,"Ġëĸ¨ìĸ´ì§ĢëĬĶ":7391,"fat":7392,"Ġê³¨ë°ĺ":7393,"ì¦ĿìĥģìĿĢ":7394,"ìļ´ë":7395,"Ġê°Ģìł¸ìĺ¤":7396,"ìŃ":7397,"ìħ¨ê³ł":7398,"ificant":7399,"Ġì£¼ë³Ģìľ¼ë¡ľ":7400,"Ġinflammation":7401,"ĠvhsëĬĶ":7402,"Ġìĸĳíĺ¸íķĺë©´":7403,"ack":7404,"ĠìĿ´ì°¨":7405,"ytic":7406,"Ĥ°":7407,"Ġgas":7408,"Ġabdomen":7409,"Ġê´ľì°®ìķĺìĿĮ":7410,"ĠëĤ®ìĹĲ":7411,"íĤ¤ë":7412,"ìĦ±ìľ¼ë¡ľ":7413,"amic":7414,"Ġë°ľìĹ´":7415,"BNP":7416,"Ġíĺ¸íĿ¡ë§Īì·¨":7417,"Ħì²Ń":7418,"ĠìĨĮìĭ¤ëĲ¨":7419,"ĽĲìŀ¥ëĭĺ":7420,"ì¸¡ìłķ":7421,"Ġì´ī":7422,"Ġì¹¨ì¹ĺë£Į":7423,"ĠVHSëĬĶ":7424,"Ġì»¨ë²łëĭĪìķĦ":7425,"Ġpah":7426,"ì¤ĳìĦ±íĻĶ":7427,"Ġhwp":7428,"ortic":7429,"Ġê³łìĸĳ":7430,"ĠìłĲìķ¡ë³Ģ":7431,"ĠìĹ°ëĿ½ëĵľë":7432,"Ġì²´ì¤ĳìĿĢ":7433,"Ġë¹Ħìłķìĥģ":7434,"Ġê°ĸ":7435,"KP":7436,"íģ¬ë¦¬":7437,"Ġë¹¨ë¦¬":7438,"Ġdz":7439,"Ġmedial":7440,"³´ëĭ¤ëĬĶ":7441,"ĠëĦ¤ë·¸ëĿ¼ìĿ´":7442,"ĠíĻĺìŀĲìĥģíĥľ":7443,"Ġìĭłìŀ¥ê²°ìĦĿ":7444,"ĠìķĦìĿ´ë":7445,"genic":7446,"cepha":7447,"íķŃìĥĿ":7448,"³´íĺ¸ìŀĲ":7449,"Ġê·ĢìĹĲ":7450,"Ġìĸ´ë¦´":7451,"ĠìĭĿìļķì´īì§Ħìłľ":7452,"Ġfracture":7453,"©´ì":7454,"Ġì£¼ìĦ¸ìļĶ":7455,"Ġë²łìķĦíĮĮ":7456,"ĠìłĦê¹Įì§Ģ":7457,"ë°į":7458,"ĠìĥĿê¸¸":7459,"Ġpressure":7460,"ìĭ¤ë¦°":7461,"inc":7462,"ĲĺëĤĺ":7463,"íĭ°ë²łìĿ´íĬ¸":7464,"Ġê²©":7465,"Ġê°ĦìĿ´":7466,"ìķĪê³¼":7467,"ĠìĥģíĻ©ìľ¼ë¡ľ":7468,"Ġì¶Ķì²ľëĲ¨":7469,"ê³Ħë¡ľ":7470,"Ġë²Ĺ":7471,"Ġpeak":7472,"Ġê²ĢìĤ¬ìĹĲìĦľ":7473,"ĠíĻľëıĻìĦ±":7474,"Ġë°¤ìĥĪ":7475,"Ġgluc":7476,"Ġìµľê·¼ë":7477,"ĠìĥģíĥľëĿ¼":7478,"Ġli":7479,"ĠëĤ´ê°ķ":7480,"Ġë°°ëĩ¨ìĥģíĥľ":7481,"ë§Ĳ":7482,"Ġsuperficial":7483,"Ġì§ĢìĨįëĲł":7484,"ipient":7485,"ê²ĥìĿĢ":7486,"ĠìłĪìĭĿ":7487,"ĠëĤĳ":7488,"°ìĬ¤":7489,"Ġdilation":7490,"tro":7491,"phar":7492,"ĠìĦŀìĿ¸":7493,"Ġì¢ĭê³ł":7494,"ìĭłì²´ê²ĢìĤ¬":7495,"bp":7496,"Ġthickened":7497,"Ġê³łíĻĺ":7498,"cap":7499,"Ġëª¸ë¬´ê²Į":7500,"CM":7501,"Ġocular":7502,"ìĹĪëĭ¤ê°Ģ":7503,"Ġë³ĢìĹ°":7504,"Ġthat":7505,"Ġëª¨ëĤŃì¶©":7506,"ĠìķĪíķĺê³ł":7507,"ĠìĻĢ":7508,"Ġíģ¬ê¸°ëĬĶ":7509,"ìļĶì¶Ķ":7510,"/-":7511,"ìĨĲìĥģ":7512,"Ġíĩ´ìĽĲê¸°ë¡Ŀ":7513,"ructos":7514,"ĠPD":7515,"Ġfsaa":7516,"¡łíĬ¸ëĿ¼ìĿ¸":7517,"Ġcle":7518,"Ġcystic":7519,"dL":7520,"ĠìļĶëŁī":7521,"¼ë¥¨":7522,"Ġëĵ¤ìĹĪìĿĮ":7523,"En":7524,"ĠíĻľëł¥ìĸĳíĺ¸":7525,"íķ´ì£¼ìĭ¬":7526,"ĠêµĲë°°":7527,"Ġins":7528,"Ġerythema":7529,"Ġconjunctival":7530,"ĠíĮ¨ì¹ĺ":7531,"Ġë³ĳë¦¬íķĻìłģ":7532,"Ġë³´ì¡°":7533,"Ġë²Į":7534,"íĺķìłľ":7535,"ë³´ìŀĦ":7536,"ĠìķĮëŁ¬ì§Ģì":7537,"Ġê²ĥìĹĲ":7538,"28":7539,"SK":7540,"Ġëª¨ë¦Ħ":7541,"Ġìĸ´ëł¤ìĽĮ":7542,"Ġì¶Ķê°Ģìłģìľ¼ë¡ľ":7543,"Ġclindamycin":7544,"´ëĿ¼":7545,"Ġê´Ģëł¨íķ´ìĦľ":7546,"¹ĦíĬ¸":7547,"ĠìłĦë¦½ìĦł":7548,"ĠìĻ¸ìĹĲëĬĶ":7549,"ĠìĹ¬ëŁ¬ë²Ī":7550,"Ġê°ĻìķĦìĦľ":7551,"fluid":7552,"Ġsmear":7553,"ê¸°ìłĢ":7554,"Ġbromhex":7555,"Ġìŀ¥ìķ¡ìĦ±":7556,"ĠìłĢë¥ĺ":7557,"Abnormal":7558,"ĠìĹ¼ë":7559,"ìĻĢìĦľ":7560,"co":7561,"ĠpH":7562,"ĠíĹĪíĶ¼ìĬ¤":7563,"íĥĢêµ¬ëĭĪ":7564,"Ġnph":7565,"enem":7566,"²¼":7567,"Ġì§Ħì":7568,"Ġì¤ĳíĻĺìŀĲ":7569,"ĠíĮĮìķħ":7570,"ĠíĻĺìŀĲìĿĺ":7571,"ha":7572,"ait":7573,"ĠìĦľìĦľ":7574,"ographic":7575,"ĠìķīìķĦ":7576,"ĠìķĦíı¬íĢ":7577,"Ġê°ĳìŀĳìĬ¤ë":7578,"ìķ½ê°Ħ":7579,"Ġì¤Į":7580,"ging":7581,"ĠìĦ±íĸ¥":7582,"íĳ¸ëŀĦ":7583,"ìĦłíĻĶ":7584,"ĠThe":7585,"ĠMenace":7586,"ìķĪëĤ´":7587,"Ġë¬´ì":7588,"ìħ¨ëĬĶëį°":7589,"ìĶ¨":7590,"Ġë¶ĢìľĦëĬĶ":7591,"Ġë¶Ģíĥģëĵľë¦½ëĭĪëĭ¤":7592,"Ġë¬¸ìłľëĬĶ":7593,"Ġê²°ì°°":7594,"ĠìĹĨìĸ´ì§Ĳ":7595,"Ġê²½ê³¨":7596,"ĠìĪĺìĪłìłĦ":7597,"ĠíĻķìĿ¸íķ¨":7598,"ê²¨ìĦľ":7599,"Ġì§ĢìĨįìłģ":7600,"ëĤĳ":7601,"Ġë³¸ìĽĲìĹĲ":7602,"ê±´ìĤ¬ë£Į":7603,"per":7604,"ìĸ´ìłľë¶ĢíĦ°":7605,"Ġocc":7606,"Ġë¶ĢëĶª":7607,"¶Ķ":7608,"ëĭĪíĳ¸ëŀĦ":7609,"íĩ´ìĽĲê¸°ë¡Ŀ":7610,"ĠìĹ°ëĿ½ì£¼":7611,"Ġê°ľë³Ħ":7612,"ĠìľĦíĹĺ":7613,"ĠíĸĪìĹĪìĿĮ":7614,"ìłł":7615,"ĠìĤ¬ëĿ¼ì§Ĳ":7616,"Ġax":7617,"ê²°ë§ī":7618,"Ġmes":7619,"Ġë½ĳ":7620,"rophil":7621,"Ġìĸ´ëł¸ìĿĦ":7622,"pds":7623,"ĠCeph":7624,"Ġì¦ĿìĥģìĹĲ":7625,"ĠìĹĦì²Ń":7626,"Ġleuk":7627,"íĭĢ":7628,"Ġì§§ìĿĢ":7629,"ructosamine":7630,"Ġì£½":7631,"íĺľê²½":7632,"Ġì½§ë¬¼ìĿ´":7633,"Ġë²Ķë°±":7634,"ĠíĺĪìłĦ":7635,"ĠìĨĮë³ĢìĿĢ":7636,"Ġë©´ìĹŃìĸµìłľìłľ":7637,"Ġelev":7638,"Ġê°ĢëĬ¥íķ¨":7639,"Ħ·":7640,"ëĭ¨ê³Ħ":7641,"ĠëĤ´ìĻ":7642,"´íĶ¼":7643,"Ġë§Īë¥¸":7644,"ĠCREA":7645,"ĠíĺĦë¯¸ê²½":7646,"ìĹ¼ë³ĳ":7647,"atus":7648,"Ġinfiltration":7649,"Ġtilt":7650,"ĠPAH":7651,"Ġê°ľíĨµ":7652,"ĠìķĦëĭĪê³ł":7653,"ê³¡ìĦł":7654,"ĠCon":7655,"ĠìĿ´íĺľê²½":7656,"ëıĻë¬¼ë³ĳìĽĲ":7657,"ĠìĸķìĿĢ":7658,"ĠëĲĺê³ł":7659,"Ġê¹ĢìĦ±":7660,"ĵĿ":7661,"ì°¸":7662,"Ġì°¨ëıĦ":7663,"ĠëĮĢì¦Ŀì¹ĺë£Į":7664,"Ġeffusion":7665,"ë³´íĺ¸ìŀĲëĭĺ":7666,"ê°Ķëĭ¤":7667,"Ġotitis":7668,"asm":7669,"ê³¨ë":7670,"ĠíĥĪëĿ½":7671,"íĤ¤ë¡ľ":7672,"taurine":7673,"ìĭłê²½ê³Ħ":7674,"Ġthan":7675,"ìĿ¼ë°ĺì":7676,"?)":7677,"ì¹ĺìľ":7678,"íĶĦë¡ľ":7679,"Ġìĭ¬íķ´ì§Ģë©´":7680,"Ġ(+)":7681,"Ġë¶Ģì§Ħ":7682,"Ġprobnp":7683,"Ġìļ©ëŁīìľ¼ë¡ľ":7684,"Dog":7685,"PD":7686,"íı¬íĻĶëıĦ":7687,"ĠëĤĺìĿ´":7688,"ven":7689,"ë¼Ī":7690,"ìłķíĺķ":7691,"íĸĪìĬµëĭĪëĭ¤":7692,"Ġml":7693,"Ġscre":7694,"xia":7695,"Ġë³Ģë¹Ħ":7696,"struc":7697,"Ġë§Ĳê³ł":7698,"Ġincipient":7699,"¼ìĬĺ":7700,"Ġsupp":7701,"ĠìĻ¸ìļ©ìłľ":7702,"íķ´ë³´ê³ł":7703,"ìĿĢë³Ģ":7704,"Ġì¸Ħë¥´":7705,"íĥĢëĭĲ":7706,"Ġê±¸ìĸ´":7707,"įëĭĪëĭ¤":7708,"physical":7709,"ĠëĬĳ":7710,"ĠìķĬìķĺìľ¼ëĤĺ":7711,"Ġë§¤ë":7712,"Ġíķĺê¸°":7713,"+),":7714,"Ġneph":7715,"Ġë¨¹ìĿ´ê¸°":7716,"íķĳ":7717,"ļ°":7718,"Ġê´Ģì°°ëĲ©ëĭĪëĭ¤":7719,"ĠìĨįëıĦëĬĶ":7720,"NV":7721,"íķľíħĮ":7722,"Ġì¹ľ":7723,"eniramine":7724,"OL":7725,"ĠìĿ´íĽĦë":7726,"ĠëĤĺìĺ¤ê³ł":7727,"ì§Ħì²":7728,"ìłķëł¬":7729,"Ġë¶Ģì¢ħìĿĢ":7730,"ìĪĺìĪłê¸°ë¡Ŀ":7731,"Ġtpr":7732,"ĠTR":7733,"Ġside":7734,"ondary":7735,"roma":7736,"ĠìĿ´ìĥģìĹĨìĿĮ":7737,"Ġì¹¨ëĮĢ":7738,"ĠìĹ°ê³łëıĦíı¬":7739,"ĠíĥľìĦłíĻĶ":7740,"Ġcir":7741,"Ġìĺ´":7742,"ĠíķĺìĭľëıĦë¡Ŀ":7743,"Ġdefecation":7744,"Ġinv":7745,"ĠëģĬê³ł":7746,"iopathic":7747,"ĠìŀĪì§Ģ":7748,"ì½ĶíĶĦ":7749,"Ġëħ¸ëł¹ìĦ±":7750,"Ġì§ĢìĨįëĲĺìĸ´":7751,"¦¬ë©´ìĦľ":7752,"Ġline":7753,"Ġë°©ë¬¸":7754,"ìłķëıĦë¡ľ":7755,"ĵ¯íķ¨":7756,"ĠTPR":7757,"ĠìĤ°ìĨĮíı¬íĻĶëıĦ":7758,"ĠìĿ´ì²¨íĮĲ":7759,"Ġê¸°ì¡":7760,"§Ģì§Ģ":7761,"Ġê¶ģ":7762,"ª¨ë²¤":7763,"ĠìĦĿíļĮ":7764,"Ġê±´ë":7765,"ĠìĿ´ë£¨":7766,"oxap":7767,"ª¨ë²¤ëĭ¨":7768,"Ŀ¡ì°©":7769,"Ġíķ´ë§Īë£¨":7770,"Ġë°Ķëĭ¥ìĹĲ":7771,"ĠíķĺìĺĢìľ¼ë©°":7772,"ìĭľê¸¸":7773,"Ġê°ĲìĤ¬íķ©ëĭĪëĭ¤":7774,"Ġê³¼ê±°":7775,"Ġë§Ŀ":7776,"ili":7777,"Ġhepagen":7778,"ĠìķĮë§Īê²Ķ":7779,"Ġê¸°ìļ´ìĿ´":7780,"ë©ĶìĿ¼":7781,"OMM":7782,"ocardi":7783,"50":7784,"Ġì¤Ģíķ´ìĦľ":7785,"Ġusg":7786,"Ġìĺ¤íģĲíİľ":7787,"ornea":7788,"ĠìĤ°ë":7789,"Ġbest":7790,"Ġëĵ¤ìĿĮ":7791,"Ġmental":7792,"Ġhern":7793,"Ġê¸°ìłĢ":7794,"mit":7795,"´īì§Ħ":7796,"ģĦë":7797,"Ġìľłì°©":7798,"Ġë¹Ħëªħ":7799,"ê°ĢëŁī":7800,"ĠFIP":7801,"Ġëª»íķĺëĬĶ":7802,"ĠìŀĦìĭł":7803,"Ġì²łë¶Ħìłľ":7804,"Ġíĩ´ìĭ¤":7805,"Ġug":7806,"Ġìĸ´ë¨¸ëĭĺ":7807,"Ġaf":7808,"ĠëĨĢ":7809,"Ġmisoprostol":7810,"ë§ŀ":7811,"ĠAlert":7812,"round":7813,"Ġë¨¹ìĿ´ìħ¨ìĿĮ":7814,"ĠìĿ¼ì£¼ìĿ¼ëĴ¤":7815,"ĠìĹ´ìĥģ":7816,"Ġëĳ¥":7817,"Ġíĺ¸íħĶë§ģ":7818,"Ġvel":7819,"ìĬ¤íĶ¼ìĬ¤":7820,"PHYSICAL":7821,"Ġadrenal":7822,"ĠíĻĶëĨįìĦ±":7823,"Pre":7824,"Ġíĺĳì°©":7825,"Ġsti":7826,"Ġë©Ī":7827,"ĠíĨłíķ¨":7828,"Ġë¶ĵ":7829,"ĠëĽ°ìĸ":7830,"ark":7831,"IV":7832,"íķŃìĥĿìłľ":7833,"ĠëĤĳëĤĳ":7834,"Ġë°°ë³Ģì":7835,"Ġê¸īíķĺê²Į":7836,"ĠìķĮë¶Ģë¯¼":7837,"Ġsteroid":7838,"Ġìĥģëĭ¹":7839,"ĠíĮĶ":7840,"Ġdobutamine":7841,"ized":7842,"isory":7843,"Ġê³¨ìłķëł¬":7844,"£¨ìĨĿ":7845,"brox":7846,"ĠìĪłì¤ĳ":7847,"Ġë¨¹ìĸ´ìĦľ":7848,"ĭľë¡ľ":7849,"Ġê±¸ìĿĮ":7850,"Ġfluores":7851,"ĠlìĶ©":7852,"ĠíĨłë¸ĮëĿ¼":7853,"Ġê³Ħë":7854,"Ġìµľê³ł":7855,"Ġdirect":7856,"Ġìŀłë³µ":7857,"²Ħë":7858,"ìķĪëĲ¨":7859,"Ġwas":7860,"/.":7861,"ĠíĮĮë³´":7862,"ê±¸ë¡ľ":7863,"Ġì§Ħíĸīíķĺê³ł":7864,"ìĸ´ë¦¬":7865,"ê³Ħí":7866,"Ġê°ĲìĹ¼ìĦ±":7867,"Ġdtm":7868,"Ġexc":7869,"Ġê°ľìĦłëĲĺì§Ģ":7870,"broxol":7871,"Ġmineral":7872,"Ġì¼ģì¼ģê±°ë¦¼":7873,"Ġeq":7874,"ëĤĺë":7875,"ĠìłģíĺĪêµ¬":7876,"Ġë¶Īë¦°":7877,"ĠPHI":7878,"Ġì£¼ì¦Ŀìľ¼ë¡ľ":7879,"Ġê²ĢìĤ¬ê°Ģ":7880,"Ġtramadole":7881,"olol":7882,"Ġ28":7883,"alt":7884,"Ġglaucoma":7885,"ĠìĿĳê³łê³Ħ":7886,"Ġë°´ë":7887,"ê³Ħë":7888,"ê³łìĸĳìĿ´":7889,"Ġëª»ëľ":7890,"ĠëĦ£ìĸ´ì":7891,"ĠíĶ¼ë¶Ģìķ½":7892,"ìĪĻ":7893,"Ġtt":7894,"Ġë¹Ħë£¨":7895,"hepatitis":7896,"Ġsympt":7897,"Ġdoppler":7898,"Ġì¢ħíķ©ë°±ìĭł":7899,"Ġbacterial":7900,"undus":7901,"íģ¬ë¦¬ëĭĿ":7902,"ĠíĻľëł¥ëıĦ":7903,"Ī¬ë":7904,"orexia":7905,"ĠíķĺìĺĢìĿĮ":7906,"aden":7907,"osit":7908,"ĠEq":7909,"Ġhindlimb":7910,"ìľ¼ë¡ľëĬĶ":7911,"ĠëĲľëĭ¤ê³ł":7912,"ecal":7913,"ĠíĻķìĿ¸ëĲĺëĬĶ":7914,"Ġë¬¼ë¦¬ì¹ĺë£Į":7915,"axia":7916,"Ġëĭ´ëıĦ":7917,"ĠìłĦíĻĶë¡ľ":7918,"Ġconjunctiva":7919,"order":7920,"ĠSTT":7921,"Ġë³´ì§Ģ":7922,"ĠíĶĦë¡łíĬ¸ëĿ¼ìĿ¸":7923,"Ġì¹ĺë£ĮëĬĶ":7924,"ì§Ħì²¨ë¶Ģ":7925,"Ġë³ĳìĽĲìľ¼ë¡ľ":7926,"Ġì²ĺëŁ¼":7927,"Ġblephar":7928,"ĠìĶ¹":7929,"Ġê²½ìĹĲ":7930,"Ġê´ľì°®ìķĦì§Ĳ":7931,"Ġê´ĢìłĪëĤŃ":7932,"§Īë¦¬":7933,"ici":7934,"ĠíĶ¼ëª¨ë²¤ëĭ¨":7935,"Ġbab":7936,"ĠíĻķìĿ¸ìĭľ":7937,"ëĨ":7938,"Ġìĭłìŀ¥ìĿĺ":7939,"ĠìķĦë¬´":7940,"Ġíĺĳ":7941,"Ġë¨¹ê¸°":7942,"ĠìĤ¬íĥĢêµ¬ëĭĪ":7943,"Ġê¶Įê³ł":7944,"Ġë¹ĦêµĲíķĺìĹ¬":7945,"Ġhemat":7946,"Ġëĭ¤ìĸĳ":7947,"Ġìĸĺê¸°":7948,"ìķĪë°©":7949,"ķĪë":7950,"ëĤ´ìĿ¼":7951,"Ġcons":7952,"ĠíĻķì§Ħ":7953,"Ġê¸ĪìĿ¼ë¶ĢíĦ°":7954,"ĠALKP":7955,"ĠìĿ´ìĥģìľ¼ë¡ľ":7956,"Ġmusc":7957,"Ġsep":7958,"ĸĪ":7959,"ìĺ¤ë¥¸ìª½":7960,"ĠíħĶë":7961,"ĠìĭľíĤ¤":7962,"Ġê±·ëĬĶ":7963,"ĠìĿ¼ìľ¼":7964,"¼ë¦¬":7965,"ë³¸":7966,"´íĸīìĦ±":7967,"rolithiasis":7968,"Ġë¹ĪëıĦ":7969,"Ġdiazepam":7970,"ĢëĬĶëį°":7971,"³µë¶Ģ":7972,"Ġclemas":7973,"Ġì²ĺë°©ë°ĽìĿĢ":7974,"Ġë³ĳíĸī":7975,"UG":7976,"ĠìĹĳìĬ¤ëłĪìĿ´":7977,"Ġì¡°ìłķ":7978,"ĠëĦĺ":7979,"ìī¬":7980,"Ġê¶ģê¸Ī":7981,"ĠACTH":7982,"ìĬ¤ì¼":7983,"Ġìĸ´ë¦´ëķĮ":7984,"ĠBARH":7985,"Ġë°Ķë¡ľë°ķ":7986,"ĠëıĦì¤ĳ":7987,"³´ì¡°ìłľ":7988,"Ġë°ĽìķĺìĿĮ":7989,"ìĻĢë":7990,"iohepatitis":7991,"ĠìĹ¼ì¦ĿìĦ±":7992,"ĠìľłëıĦ":7993,"48":7994,"ê³łíĻĺ":7995,"ĠìłķëıĦìĹĲ":7996,"ĠíĮĲëĭ¨ëĲĺë©°":7997,"Ġê²½ê³Ħ":7998,"ë¯¼":7999,"ĠëĤĺê°Ĳ":8000,"ĠëªħíĻķíķľ":8001,"ì´ī":8002,"ĠíĹĽ":8003,"Ġadv":8004,"otic":8005,"ĠíıĲìĩĦë":8006,"Ġë¹ĦìĬ·íķĺê²Į":8007,"ĠìĥĪ":8008,"Ġcyclosporin":8009,"Ġlikely":8010,"Ġmirt":8011,"íĿīë¶Ģ":8012,"Ġ@":8013,"Ġëª¨ìĸĳ":8014,"íĨ¡":8015,"Ġíı¬ëıĦ":8016,"Ġcastration":8017,"ĠìłķíĺķìĻ¸ê³¼":8018,"ë°ĳ":8019,"Ġë¬¼ìĹĲ":8020,"ĳ¥":8021,"ĠìĥģìĹĲìĦľ":8022,"ìķĪìĹĲ":8023,"ifit":8024,"Ġsymptom":8025,"Ġind":8026,"ì¹©":8027,"Ġë§Įìķ½":8028,"§ĪìĿ´ìĭł":8029,"ĠìĽĲìĿ¸ìĿ´":8030,"Ġbronchial":8031,"cranial":8032,"Ġë³´íĺ¸ìŀĲëĭĺê»ĺìĦľ":8033,"ê°ĦëıĻìķĪ":8034,"Ġbarh":8035,"Ġì§Ģìĭľë":8036,"Ġtheo":8037,"ìĿ¼ë¡ľ":8038,"ìļĶë²ķ":8039,"Ġgeneral":8040,"Ġë§ĲëĿ¼ìĦ¸ì§ĢìķĦ":8041,"ylazine":8042,"ĠìŀħìĽĲê´Ģë¦¬":8043,"Ġëĭ¨ìľĦ":8044,"rem":8045,"ĠíĴĢë":8046,"ĠëĬĲê»":8047,"que":8048,"ĪĦ":8049,"£¼ìĤ¬":8050,"Ġíķĺë£¨ë":8051,"Ġtoxic":8052,"Ġë¯¸ë¦¬":8053,"Ġìłľê±°ìĪł":8054,"íĸĪìĹĪìĿĮ":8055,"ìłĦì¤ĳ":8056,"Ġnodule":8057,"íĪ¬ìĹ¬":8058,"Ġtreatment":8059,"ites":8060,"ĠëĤĺì¤ĳìĹĲ":8061,"Ġreaction":8062,"hist":8063,"Ġcanine":8064,"Ġê·ĢëıĦë§Ĳ":8065,"ĠìķĪë¨¹ìĸ´ìĦľ":8066,"Ġdr":8067,"Ġë´īíķ©ìĤ¬":8068,"Ġdepression":8069,"ĠíĬ¸ë£¨ìĨĿ":8070,"Ġê·¸ëŀ":8071,"ì¡°ì¹ĺ":8072,"ê¿":8073,"ĺìĸ´ìŀĪìĿĮ":8074,"Ġ80":8075,"Ġíķĺìĭľê³ł":8076,"ìĿ´ìĸ´ìĦľ":8077,"Ġê°ģê°ģ":8078,"ì¹ĺìľ¤":8079,"Ġë°Ľìķĺ":8080,"Ġíķľê·¸ë¦ĩ":8081,"Ġarea":8082,"ĠìŀĪëıĦë¡Ŀ":8083,"Ġìĥģì²ĺë":8084,"ìĺĪë":8085,"ĠëĤ¨ìŀĲ":8086,"Ġìĭ¬íķ´ì§Ħ":8087,"Ġprednisolone":8088,"ĠìĭĿíĥĲ":8089,"Ġë³´ìĿ¸ëĭ¤ê³ł":8090,"Ġclinical":8091,"Ġtc":8092,"ëĭŃ":8093,"orpheniramine":8094,"ì¦ĿìĭĿ":8095,"ĠìłĦíĻĶíĨµíĻĶ":8096,"opy":8097,"osin":8098,"Ġê¸°ëł¥ìĿĢ":8099,"Ġitrac":8100,"ìķ½ë¬¼":8101,"¸Ķë":8102,"ŀĪìĿĮ":8103,"Ġmultiple":8104,"Ġìĭ¬ê°ģ":8105,"ĠìĦĿìħĺëŁī":8106,"Ġsyncope":8107,"Ġmidazolam":8108,"HA":8109,"Ġì²ĺë°©íķĺê³ł":8110,"Ġì¶©íĺĪë":8111,"Ġhs":8112,"Ġì§ĦíĨµìĨĮìĹ¼":8113,"íĻį":8114,"rof":8115,"Ġíĺ¸ìĬ¤íĶ¼ìĬ¤":8116,"Ġmuscle":8117,"Rt":8118,"ìĥģíĥľëĬĶ":8119,"´ëĤĺ":8120,"ĠìĪĺìĭľë¡ľ":8121,"Ġì²´ì¤ĳë¶Ģíķĺ":8122,"ĠThorax":8123,"ĠìłĦíĻĶëĵľë":8124,"ëŀĳ":8125,"ìĻĶ":8126,"ygen":8127,"acin":8128,"ĠìķĪìĹ°ê³ł":8129,"ression":8130,"ê²łìĿĮ":8131,"ospasm":8132,"jection":8133,"ĠBL":8134,"ĠíĺĦìŀ¬ê¹Įì§Ģ":8135,"35":8136,"ĠíıīìĨĮë³´ëĭ¤":8137,"Ġìķ½ìļ©ìĥ´íĳ¸":8138,"Ġì¢ħê²©ëıĻ":8139,"Emergency":8140,"iop":8141,"ê´Ģì°°":8142,"Ġë¹¼ê³ł":8143,"ĠìĿ´ëıĦëĤ´":8144,"Ġêµ¬ìŀħ":8145,"ĠìĬ¤íģ¬ë¦¬ëĭĿ":8146,"ĠëĶ°ëĿ¼ìĦľ":8147,"Ġíİ«":8148,"Ġê¸Īì§Ģ":8149,"ĠCV":8150,"Ġventral":8151,"ĠìĦłìĥĿëĭĺê»ĺ":8152,"ĠìķĪìĹĲ":8153,"Ġì²´ì¤ĳê°ĲëŁī":8154,"ìĤ¬ìĭł":8155,"arrh":8156,"Ġidiopathic":8157,"Ġì¹¨íĿĺë":8158,"ĠìłĦìĹ¼ë³ĳ":8159,"ìĸ´ë³¼":8160,"ĠìĹ´ê°Ĳ":8161,"Ġsë¡ľ":8162,"Ġsurgifit":8163,"Ġì¶ĶìłķëĲ¨":8164,"history":8165,"ĠìĦ±ë¶Ħ":8166,"ë¶Īë":8167,"íĶ¼ë¡ľ":8168,"įê²Į":8169,"ĠìķĦìĿ´ì":8170,"Ġcefradine":8171,"tivity":8172,"Ġsolcor":8173,"Ġcefazoline":8174,"Ġë¨¹ìĹĪ":8175,"²´íģ¬":8176,"Ġgc":8177,"ĠìĤ¬ë£ĮìĹĲ":8178,"Ġê°Ħì§Ģë":8179,"ì·¨ë":8180,"Ġë¶Ģìłķë§¥":8181,"¢ħìĸĳ":8182,"Ġval":8183,"Ġëĵ£":8184,"³´ê¸°ë¡ľ":8185,"ĠíĻĺê²½ë³ĢíĻĶ":8186,"ì§Ħíĥķ":8187,"ìĪĺìĪłëªħ":8188,"Ġíķ©ë³ĳì¦Ŀ":8189,"ĠìĨ¡ì¹ĺìľ¤":8190,"íļ¨":8191,"Ġê°ľìĦłëĲĺìĹĪìľ¼ëĤĺ":8192,"Ġflap":8193,"ĠíĮĲëĭ¨ëĲĺìĸ´":8194,"ision":8195,"Ġnit":8196,"ëıĻìķĪ":8197,"ĠëĤĺìĺ¤ì§Ģ":8198,"osa":8199,"Ġglucose":8200,"Ŀ¼ë²¡":8201,"ìĦ±ìĿ´":8202,"ĠíħĶë¹ĦíĬ¸":8203,"Ġchemistry":8204,"Ġacetylcystein":8205,"Ġ22":8206,"ĠAMC":8207,"Ġvomiting":8208,"Ġenala":8209,"Ġmarb":8210,"Ġbestase":8211,"atous":8212,"ĠìĪĺìłķì²´":8213,"Ġê³°íĮ¡ìĿ´ìĦ±":8214,"Ġê¸¸ë":8215,"Ŀ¡ì°©ìłľ":8216,"ĠAD":8217,"ë´īíķ©":8218,"Ġsbp":8219,"Ġextra":8220,"ĠìĨĮìĪĺ":8221,"ĠíĻľëł¥ìĿ´":8222,"Ġê°ĲìĨĮíķľ":8223,"Ġë³µë¶Ģì´īì§Ħ":8224,"ramycin":8225,"Induction":8226,"Ġë³µë²½":8227,"ĠëªħíĻķíķĺì§Ģ":8228,"Ġ+++":8229,"ĠëĤ´ìĽĲíķĺìĭľëıĦë¡Ŀ":8230,"Ġìļ°ì¸¡ìĿĢ":8231,"ĠMet":8232,"Ġê°ľìĦłëĲĺìĸ´":8233,"ĠCef":8234,"ĠìłĪëļĿ":8235,"ĠëĽ°ìĸ´":8236,"Ġì±ĦíĺĪ":8237,"Env":8238,"ahìĹĲìĦľ":8239,"ĠìĮ":8240,"ĵľìĭľ":8241,"Ġìĥīê¹Ķ":8242,"ĠLN":8243,"ĠPRN":8244,"íķłê²ĥ":8245,"ê¸°ê²¬":8246,"Ġëĭ¤ìĿĮëĭ¬":8247,"ĠìĿ¸ê³µëĪĪë¬¼":8248,"echoic":8249,"Ġdegen":8250,"ĠíĨµì¦ĿìĿĢ":8251,"Ġíģ´ë":8252,"ĠNe":8253,"Ġë³´íĸīìĭľ":8254,"êµ¬ì¶©":8255,"ĠìĪ¨ìĿĦ":8256,"Ġstatus":8257,"ĠìłľëĮĢë¡ľ":8258,"ìĸ´ë³´ì":8259,"ĠìŀĪìĹĪëĬĶëį°":8260,"Ġbarking":8261,"Ġìį¨":8262,"ĠìĭľìĹĲ":8263,"ĠìĿ´ìķ¼ê¸°":8264,"ĠíĻĺìŀĲë":8265,"Ġë¹µ":8266,"ĠìŀĲìĦ¸ë":8267,"Ġìĭ¬ìĿĮ":8268,"ĠìķĪëĤĺì":8269,"£¨ìĤ¬":8270,"Ġíİ¸ìĿ´ëĤĺ":8271,"Ġ90":8272,"Ġë¹Ħë§Į":8273,"Ġìĸ´ëł¤ìļ´":8274,"Ġì¡°ìŀĳ":8275,"Ġë¶ĦìłĪ":8276,"ki":8277,"Ġë³´ìŀħëĭĪëĭ¤":8278,"ĠìĹĨìĹĪìľ¼ë©°":8279,"ĠìŀĦìĥģì¦ĿìĥģìĿĢ":8280,"Ġíķľëĭ¬ìĹĲ":8281,"ĠCrea":8282,"ĠíĺĪìŀ¥":8283,"Ġìŀ¥ëĤľ":8284,"ìĦ¤":8285,"ìŀĲê¶ģ":8286,"ĠSt":8287,"Ġthromb":8288,"Intra":8289,"EX":8290,"Ġobstruc":8291,"Ġhepatitis":8292,"ĠíĻĺëĤ©":8293,"ìĿ´íĭĢ":8294,"Ġacup":8295,"Ġventilator":8296,"Ġì²ĺë°©ìķ½":8297,"ë°©íĸ¥":8298,"ĠìŀĲë°ľìĿĮìĪĺìļķ":8299,"ĠëıĦë§Ĳìĥģ":8300,"¹ĺìĺ¨":8301,"Ġì³Ĳ":8302,"ìĻ¸ìĿ´ìĹ¼":8303,"°ìĨĮ":8304,"ĠëĤ´ìĻ¸":8305,"cein":8306,"êµ°":8307,"Ġneutrophil":8308,"Ġë¶Ģìŀ¬":8309,"roxicam":8310,"Ġthere":8311,"ëĭ´ëĭ¹":8312,"Ġmannitol":8313,"Ġë§ĪìĿ´íģ¬ë¡ľ":8314,"ë³´íĸī":8315,"ĠíĻįìĹŃ":8316,"Ġnodular":8317,"Ġì¼ĦëĦ¬ì½ĶíĶĦ":8318,"Ġìŀłìłķ":8319,"ìĤ°íĻĶ":8320,"acl":8321,"ì²´ëĬĶ":8322,"Ġìŀ¬ìĥĿìĦ±":8323,"ĠìķĪë©":8324,"Ġì°¨íĬ¸":8325,"follow":8326,"Ġë¯¸ëģĦë":8327,"ìĿ´íķĺ":8328,"Ġìľłë¦¬ë":8329,"Ġëĭ¹ë¶Ģëĵľë¦¼":8330,"Ġambroxol":8331,"unture":8332,"ĠëĦ¥ì¹´ëĿ¼":8333,"ĠíĽĦë¡ľ":8334,"Ġataxia":8335,"ĠìĭľìĪł":8336,"Ġë³´íĸīìĿĢ":8337,"íķ´ì£¼ìĭľê³ł":8338,"Ġê·¼ìľ¡ì¸µ":8339,"Ġtherapic":8340,"Ġë°´ëĶĶ":8341,"ges":8342,"ĠìłĢíĺĪìķķ":8343,"ìĸ´ìķ¼":8344,"Ġë¶ĪëŁīíķł":8345,"Ġë³´íĺ¸ìŀĲìĹĲê²Į":8346,"ë°¤":8347,"Ġìŀ¥ëĤ´":8348,"ëĿ½":8349,"ëª¨ë":8350,"onic":8351,"Ġë¨¹ëĭ¤ê°Ģ":8352,"ĠìĹ¬ìŃ":8353,"Ġsolcorin":8354,"ìĪĺë¡ľ":8355,"ofloxacin":8356,"ĠìĹĨëĭ¤ë©´":8357,"Ġpreanesthetic":8358,"¦ī":8359,"ĠìĭĿìłĦ":8360,"ħ¸ëŀĳ":8361,"previous":8362,"´ê·¼":8363,"´ìĬ¤":8364,"Ġë¹ĦíĽĦê°Ģ":8365,"Ġê¸°ê´ĢíĬľë¸Į":8366,"ĠìĨĮëıħìĨľ":8367,"ĠëĤĺëĬĶ":8368,"ĠìĿ´íĽĦë¶ĢíĦ°":8369,"Ġpartial":8370,"ìĤ¬ìļ©":8371,"ë¥´í":8372,"ĠìĭĿìĿ´ì":8373,"ê´Ģì§Ģ":8374,"Ġë²Ħë":8375,"Ł½ê²Į":8376,"ìĹĨìĹĪìĿĮ":8377,"Ġì£¼ì§Ģ":8378,"ë³´ì¡°ìłľ":8379,"ĠìĤ¬ê³¼":8380,"Ġë§Īë¹Ħ":8381,"Ġëĭ¤ëĭĪìĭľëįĺ":8382,"Ġmiso":8383,"ê°Ħê²©":8384,"Ġìľ¡ìķĦì¡°ì§ģ":8385,"mild":8386,"Ġê·ł":8387,"Ġë¶Ģë¶ĦìĿ´":8388,"ĠëĪĪë¬¼ìĿ´":8389,"ëª¨ëĭĪìķĦ":8390,"ĠìĪłìłĦê²ĢìĤ¬":8391,"íĮĮìĹ´":8392,"ìħĶìķ¼":8393,"Ġë³´ê¸°":8394,"Ġ//":8395,"ĠìļĶíķ¨":8396,"ĠëĤĺê³ł":8397,"Ġìĭ¬íķĺìĹ¬":8398,"ĠìĿ¼ìĭľìłģìľ¼ë¡ľ":8399,"ìĭ¤ì§Ī":8400,"erapy":8401,"Ġureth":8402,"ŀįëĭĪëĭ¤":8403,"ĠìłĦí":8404,"Ġafter":8405,"iment":8406,"°¤":8407,"ìĪłì¤ĳ":8408,"Ġìķ¡íĭ°ë²łìĿ´íĬ¸":8409,"Ġtur":8410,"ĠìķĬì§Ģë§Į":8411,"Ġìŀ¬ìĪĺìĪł":8412,"ëĦ¤":8413,"íķłì§Ģ":8414,"ĠDDX":8415,"Ġperit":8416,"Ġê²¨":8417,"ì¦ĿìĦ¸":8418,"Ġìĭ¤ë°¥":8419,"Ġhair":8420,"man":8421,"tation":8422,"ìŀ¥ì°©":8423,"ĠíĻķìĿ¸ëĲĺê³ł":8424,"ĠìłĦìķĪë°©":8425,"Ġê´Ģë¦¬ê°Ģ":8426,"ĠìĪĺë¡ľ":8427,"ëĵ¤ìĿ´":8428,"¼ì§Ģ":8429,"Ġë°ľëģĿ":8430,"Ġê°ĦìĿĺ":8431,"Ġëĭ¤ëĩ¨":8432,"erence":8433,"Ġë³µìķ½ì§ĢëıĦ":8434,"ĭľê¸°ë¡ľ":8435,"ĠìķĮëł¤":8436,"ĠìļĶì²Ńíķĺìĭ¬":8437,"ë¹Ħì¤ĳ":8438,"ìłĦì²":8439,"ĠìŀħìĽĲì¤ĳ":8440,"ìĺĪë¦¼":8441,"ĠìŀĲëĭ¤ê°Ģ":8442,"ĠìŀĪìĹĪ":8443,"ë³µìļ©":8444,"ìłķìĥģë³Ģ":8445,"ìłľë§Į":8446,"ĠìĿ´ìłĦê²ĢìĤ¬ìĻĢ":8447,"Ġì²ĺìĿĮìĹĲëĬĶ":8448,"Ġpancreas":8449,"Ġì§ľ":8450,"¡łíĥĪ":8451,"Ġpa":8452,"ì§ĦíĨµ":8453,"Ġì¢ĭìķĺìĿĮ":8454,"ĠíĪ¬ìĹ¬íķ¨":8455,"ìĬ´":8456,"Ġhydrox":8457,"ìľ¼ìħĶìĦľ":8458,"ĠëĳĲê»ĺ":8459,"Ġë¨¹ëĬĶìķ½":8460,"ĠíİľíĥĢëĭĲ":8461,"Ġsecondary":8462,"Ġë¸ĮëĿ¼ë²¡":8463,"junctivitis":8464,"tifle":8465,"Ġì¤¬":8466,"ĠìķĪë³´ìŀĦ":8467,"Ġì§ĪìĨĮíĺĪì¦Ŀ":8468,"ĥ¥ìĿ´":8469,"Ġìłķë§¥":8470,"ĠìĪĺì¹ĺê°Ģ":8471,"ardia":8472,"Ġê°Ħê·ł":8473,"ĠAH":8474,"ë¬´ë":8475,"ĠíķĢ":8476,"ëĲĺìĹĪìľ¼ëĤĺ":8477,"Ġì§ģíĽĦ":8478,"wk":8479,"ese":8480,"Ġintraoperative":8481,"Ġfunction":8482,"elay":8483,"ice":8484,"Ġtracheal":8485,"ĠìĤ°ì¦Ŀ":8486,"mt":8487,"Ġì¤ĳìķĻ":8488,"Ġgran":8489,"Ġë²Īì§¸":8490,"íĬ¸ë¡ľë°ĺ":8491,"Ġì¹ĺë£Įì¢ħë£Į":8492,"Ġíĩ´íĸīìĦ±":8493,"Ġë¦¼":8494,"ĠìĦĿíļĮíĻĶ":8495,"Ġì¹ĺë£Įê°Ģ":8496,"ĠëĴ¤ìª½":8497,"Ġgaba":8498,"Ġìĺ¤ëŀĺë":8499,"Ġê°ľìĦłëĲĺëĬĶ":8500,"ĠTC":8501,"ĠìĹ°êµ¬":8502,"íķĦ":8503,"Įê³ł":8504,"ìŀł":8505,"ĠAc":8506,"ĠíĬľë¸Į":8507,"Ġì°¡":8508,"ĠìĶĮ":8509,"ìĺĪìĿ¸":8510,"Ġslow":8511,"'s":8512,"ĠëĤ´ìļ©ë¬¼":8513,"Preanesthetic":8514,"¹ĦëĮĢ":8515,"ĠUDA":8516,"¡Įëĭ¤ê³ł":8517,"EXX":8518,"Ġì¦ĿëŁīíķĺìĹ¬":8519,"Ġoperation":8520,"medi":8521,"ĠìłĦíĻĶì£¼":8522,"oderma":8523,"ĠìłķëıĦë§Į":8524,"ë§İ":8525,"ê·Ģë":8526,"ìłĪíıĲ":8527,"yal":8528,"íı¬ì§ģ":8529,"Ġë¨¹ìĹ¬ë³´ì":8530,"Ġdegeneration":8531,"Ġëį©":8532,"Ġë³´íĺ¸ìŀĲìĻĢ":8533,"Ġíķĺëĭ¤ê°Ģ":8534,"ëħ¸ë":8535,"ì§ĢìĦł":8536,"ĠíıĲìķ¼ìĹĲìĦľ":8537,"Ġë¹¨ê°":8538,"Ġuop":8539,"Ġcolor":8540,"ĠDisease":8541,"chem":8542,"ĠëģĿìĹĲ":8543,"Ġìµľê·¼ëĵ¤ìĸ´":8544,"OR":8545,"Ĺê²Į":8546,"ĠOP":8547,"Ġê°Ģê²©":8548,"íķĺë¯Ģë¡ľ":8549,"Ġlowfat":8550,"Ġvisible":8551,"Ġhypothyroidism":8552,"Intraoperative":8553,"ĠíĥĢì¹ĺìĺ¨":8554,"§¥ìĬ¤":8555,"ĠíĸĪê³ł":8556,"Ġë§ŀìĿĮ":8557,"êµ¬ìĹŃì§Ī":8558,"90":8559,"Ġwet":8560,"¶Ģì¢ħ":8561,"ĠìĿ¼ìĹĲ":8562,"vë¡ľ":8563,"Ĭµ":8564,"Ġsap":8565,"ì£¼ìĿĺìĤ¬íķŃ":8566,"ê°Ħëª¨ëĭĪíĦ°ë§ģ":8567,"ĠëĤ¨ìĺĪë¦¼":8568,"Ġfructosamine":8569,"Ġëĸ¨ê³ł":8570,"ĠìķŀëĭĪ":8571,"Ġpalpebral":8572,"ìĬ¬ê°ľê³¨íĥĪêµ¬":8573,"íĻĺìľ¼ë¡ľ":8574,"ìĽĮë":8575,"Ġcorrug":8576,"ìĪĺì¹ĺì":8577,"Ġíľ´ë":8578,"Ġê³łì²´ìĺ¨":8579,"ĠìķĦíĶĪ":8580,"Ġtumors":8581,"Ġìłķê¸°ê²Ģì§Ħ":8582,"Ġíķ¥ëĬĶ":8583,"Ġë¬¼ë§Į":8584,"ê²ĥê°Ļ":8585,"łë¡ľ":8586,"Ġplate":8587,"Ġë¶ģ":8588,"tch":8589,"ë¡Ŀ":8590,"Ġpad":8591,"ĠëĪĪìĿĢ":8592,"Ġëĭ¨ë°±ì§Ī":8593,"ĠìķĪìķ½ìĿĢ":8594,"Ġê°ģë§īë¶Ģì¢ħ":8595,"Ġëĵľë¡łíĥĪ":8596,"Ġìľ¡ìķĪìĥģ":8597,"Ġëĳĺ":8598,"ìĤ¬ì§ĦìłĦìĨ¡":8599,"ĠìŀĶì¡´":8600,"ĠíĮĮìĹ":8601,"ìĹĨëĬĶ":8602,"ê¹Įì§Ģë§Į":8603,"ĠìŀĪìľ¼ìĭ¬":8604,"Ġìłķìĥģë°°ë³Ģ":8605,"Ġë§ĮìĹĲ":8606,"Ġê²°ìłķíķĺê¸°ë¡ľ":8607,"Ġê¸ģê³ł":8608,"ĠíķĦìļĶíķĺë©°":8609,"Ġgastro":8610,"inf":8611,"insulin":8612,"Ġê´Ģì°°ëĲľ":8613,"ĠìĥĪë¡ľìļ´":8614,"Ġblepharospasm":8615,"Ġëĭ¤ìĿĮëĭ¤ëĩ¨":8616,"ĠíĮĲëĭ¨ëĲ©ëĭĪëĭ¤":8617,"ĠëĬĺëł¤":8618,"Ġê´ľì°®ìķĦì¡Į":8619,"Ġëĭ´ìĦĿ":8620,"ction":8621,"arrhea":8622,"Ġdental":8623,"Ġconclusion":8624,"Ġìĥģë¶Ģíĺ¸íĿ¡ê¸°":8625,"Ġì§ĢëĥĪ":8626,"Ġë¯¸ìļ©íĽĦ":8627,"Ġaminophylline":8628,"Ġnh":8629,"Ĥ´ê³ł":8630,"opt":8631,"ĠìłĦì²´ìłģìľ¼ë¡ľ":8632,"Ġfields":8633,"ĠìĪĺìĪłìĿ´":8634,"ì¦ĿìĥģìĿ´":8635,"Ġìĭłê²½ìĿ¸":8636,"íķľëĭ¬":8637,"ì¡¸":8638,"ĠìķĬìķĺìĬµëĭĪëĭ¤":8639,"Ġê¸°ìł":8640,"ĠíıĲìĩĦë´īíķ©":8641,"our":8642,"ecia":8643,"ë¶Ħìĸĳ":8644,"Ġìĺ¤ìĺĪìĿ¸":8645,"ë²Ķ":8646,"ìĹ£":8647,"ëĭ´ëĭ¹ìŀĲ":8648,"ĠíĿīë¶Ģë°©ìĤ¬ìĦłìĥģ":8649,"ĠëĤĺìĻĶìĿĮ":8650,"Ġìķĵ":8651,"ìĦ¸ë¡ľ":8652,"Ġì¹ĺë£Įë°Ľ":8653,"ĠìłĦë³´ëĭ¤":8654,"Ġë°ĽìķĦìĦľ":8655,"ĠìłģìĿĳ":8656,"Ġcarcinoma":8657,"Ġì°°":8658,"Ġíĩ´ìĽĲìķ½":8659,"ĠìĭĿìĿ´ëĬĶ":8660,"Ġê²Ģì":8661,"ĠìĺĪìłķìĿ¼":8662,"Ġê¸°ì¹¨ìķ½":8663,"very":8664,"Ġíŀĺëĵ¤ìĸ´íķ¨":8665,"Conclusion":8666,"54":8667,"Ġë°ĶìĿ´ëŁ¬ìĬ¤":8668,"monitoring":8669,"ì§ĢëĤľ":8670,"BUN":8671,"injection":8672,"Ġë°°ìłľë":8673,"ĠíķĦìļĶíķĺëĤĺ":8674,"ĠíķŃìķĶìłľ":8675,"matoph":8676,"ĠëĤŃì¢ħ":8677,"Ġ200":8678,"ĠìĤ¬ì§ĦìłĦìĨ¡":8679,"Ġperfor":8680,"ìłķë¦¬":8681,"ìŀħìĸĳ":8682,"ìĻ¸ë":8683,"ervical":8684,"ĠìĦ¸íı¬íķĻ":8685,"orac":8686,"Ġì²ľê³µ":8687,"Ġë°Ķê¿Ķ":8688,"ĠìĿĦ":8689,"ined":8690,"Ġampi":8691,"mb":8692,"ĠìŀĳìĦ±":8693,"Ġê¸°ë³¸ê´Ģë¦¬":8694,"Ġì²Ńì§Ħìĥģ":8695,"Ġfocal":8696,"Ġvess":8697,"ìĿ¼ëıĦ":8698,"ĠìĿ´íĽĦë¡ľëĬĶ":8699,"Ġëĭ¬ëĿ¼":8700,"ĠìĿ´ìłĦìĹĲëıĦ":8701,"ĠComment":8702,"ĠìŀħìĪł":8703,"Ġë¨¹ìĿ´ìĭľëıĦë¡Ŀ":8704,"ëĤ´ìĽĲìĭľ":8705,"Ġcodein":8706,"uric":8707,"ĠëĤ¨ìķĦìŀĪëĬĶ":8708,"ĠëĥĦìĥĪê°Ģ":8709,"ĠìŀĲë¦¬":8710,"´Ĳìķ¼":8711,"IS":8712,"ìĸ´ëĤĺì":8713,"altep":8714,"Ġlimb":8715,"Ġaurine":8716,"Ġìĭľì¼ľ":8717,"Ġìĥĺ":8718,"ìĨĶ":8719,"ĠìĻĶëĭ¤":8720,"ĠíİľíĨ¡":8721,"ìłľëĭī":8722,"ìĹĨìĿĦ":8723,"ĠìĭŃìŀĲìĿ¸ëĮĢ":8724,"pal":8725,"Ġë¶Ħë°°ëĭ´ëĭ¹ìŀĲ":8726,"ĪĺìĪł":8727,"íķŃì§Ħ":8728,"ĠìŀĪìĹĪìľ¼ë©°":8729,"ĵ¤ìĿĢ":8730,"ĠìķĦëŀĺì":8731,"Ġbuto":8732,"ĠSAM":8733,"Ġitraconazole":8734,"ìłĦìĿ´":8735,"ĠëĳĲêº¼":8736,"ĠíĬ¸ëĿ¼":8737,"į°ëĤĺ":8738,"§Ħë£Į":8739,"¦¬ë©°":8740,"ĻĦ":8741,"ophil":8742,"ìĹĩ":8743,"ĠHyp":8744,"Ġíİ¸ì¸¡":8745,"Ġíķ´ìĨĮ":8746,"Ġìŀ¬ì§Ħì":8747,"Ġì¤ĦìĹ¬":8748,"ìĭŃìŀĲìĿ¸ëĮĢ":8749,"Ġë§Īìĭ¬":8750,"ìŀĪìĹĪìĿĮ":8751,"Ġëĸ¨ìĸ´ì§Ģê³ł":8752,"Ġìĺ¤íĽĦë¶ĢíĦ°":8753,"ê²ĥìĿ´":8754,"ìķĦë³´ìŀĦ":8755,"ĠëĬĲê»´ì":8756,"¶ľë":8757,"Ġë°Ľìľ¼ëŁ¬":8758,"Ġë¶Īëł¤ìĦľ":8759,"ĠìķĪëĲľ":8760,"Ġê²½ìļ°ê°Ģ":8761,"ë¹µ":8762,"Ġíķ´ì£¼ê³ł":8763,"ìĺĪëıĦ":8764,"´íĿ":8765,"£¨ìĹ£":8766,"íĮ¨ë":8767,"cta":8768,"ography":8769,"ĠëıĮìķĦìĺ¤":8770,"Ġê°Ģê¹Įìļ´":8771,"ë³ĳìĽĲìĹĲìĦľ":8772,"Ġcomments":8773,"Ġì§ĢìĨįëĲĺë©´":8774,"ĠìĿ´ìĥģìĿ´":8775,"Ġìļ°ë£¨ìĤ¬":8776,"ìĿĺë¢°":8777,"Ġmvi":8778,"Ġelectrolyte":8779,"Ġtachion":8780,"Ġë¸ĮëĿ¼ë²¡íĨł":8781,"Ġìłķì¤ĳ":8782,"¡ĿìĤ¬ìĭł":8783,"ĠíĺķíĥľìŀĪëĬĶ":8784,"ĠìłĦìĿ¼ê³¼":8785,"Ġì§Ħíĸīì¤ĳìĿ¸":8786,"Ġvessel":8787,"Ġì¢Įì¸¡ìĿĢ":8788,"Ġpiroxicam":8789,"íĺĢì":8790,"ezing":8791,"nex":8792,"Ġê²¬ê´ĢìłĪ":8793,"ĠìŀĲê¶ģê°ģ":8794,"%)":8795,"ìĿĺìĦľ":8796,"eyedrop":8797,"Ġê³µê²©":8798,"ĠMMF":8799,"°Ķë":8800,"Ġì»¤ì§Ĳ":8801,"Ġlobe":8802,"Ġscaling":8803,"ļ©ëŁī":8804,"Ġíķ´ì£¼ìĭ¬":8805,"Ġcyclosporine":8806,"ëĬĶëį°ë":8807,"Ġêµ°ëį°":8808,"Ģëįĺ":8809,"íķĺëĭĪ":8810,"Ġì§ĢìĨįëĲĺê³ł":8811,"Ġë»":8812,"ĠIRIS":8813,"ĠìĹİëĵľëł¤":8814,"íı¬íķ¨":8815,"NR":8816,"Ġê°Ģìĭ¬":8817,"Ġê²ĥìŀĦ":8818,"Ġwithin":8819,"ĠìĬµìĭĿìĤ¬ë£Į":8820,"Ġê²°ìłľ":8821,"ĠTra":8822,"stitial":8823,"mus":8824,"Ĭ¸ë¡ľ":8825,"Ġë°ľìĿĦ":8826,"ĠìŀħëĭĪëĭ¤":8827,"Ġì¤Ħìĸ´ëĵł":8828,"Ġê±¸ì³Ĳ":8829,"Ġfull":8830,"Ġì¤ĳìĪľ":8831,"ĠNPH":8832,"Ġvariation":8833,"íŀĪëł¤":8834,"ìŀĲê³ł":8835,"ĠëĤĺìĺ¬":8836,"Ġê°Ģë²¼":8837,"Ġmyd":8838,"ìĺ¤ìĭ¬":8839,"ĠQ":8840,"ê°ľìĿĺ":8841,"ê³łëł¤":8842,"Ġê·ĢëĵľëłĪìĭ±":8843,"Ġtl":8844,"ĠëĿ¼ìĿ¸":8845,"ìłĲìķĪ":8846,"Ġëļľëł·íķĺì§Ģ":8847,"22":8848,"ĠìĤ¬ê°ķ":8849,"ĠëĴ·ë°ľ":8850,"Ġìľłì§Ģíķł":8851,"imarin":8852,"Ġì¿łìĭ±ìķ½":8853,"ĽĲìĹĲìĦľ":8854,"itrate":8855,"Ġì§ĦíĸīëĲł":8856,"rofloxacin":8857,"Ġalop":8858,"ĠëŃī":8859,"ĠíĶĦëłĪëĵľ":8860,"Ġì°¨ê¹Įì§Ģ":8861,"¬´ë":8862,"Ġform":8863,"Ġconcent":8864,"Ġë°ĽìĿĦ":8865,"Ġë§ĪìĿ´íģ¬ë¡ľì¹©":8866,"ê³Ħì":8867,"Ġ180":8868,"Ġë¦¬íı¬ì§ģ":8869,"ĠìķĪëĤ´ëĵľëł¸ìĿĮ":8870,"Ġboth":8871,"ìĬ¤íĥĢ":8872,"Ġëĭ¤ë¦Ħ":8873,"ìĦŀ":8874,"Ġê·¸ëŀĺìĦľ":8875,"ĠìĹŃë¥ĺìĿĺ":8876,"»µ":8877,"ê±´ì§Ģ":8878,"Ġë¹¨ê°Ľ":8879,"ĠíĻķìĿ¸íķ´ìķ¼íķł":8880,"Ġtw":8881,"enile":8882,"ê¸°ëł¥":8883,"Ġì¢ĭëĭ¤ê³ł":8884,"Ġë°ķíĬ¸ë¡ľë°ĺ":8885,"Th":8886,"ĠìĤ¬ìłķ":8887,"oxib":8888,"Ġíķĺë³µë¶Ģ":8889,"Ġìķŀìª½":8890,"Ĭ¬":8891,"ìĬ¤íĭ°ë":8892,"sh":8893,"DT":8894,"ĠëĤ´ìĽĲíķĺìĭľëĿ¼ê³ł":8895,"Ġallergy":8896,"Ġretinal":8897,"othy":8898,"Ġë°Ľìľ¼ìĭľëıĦë¡Ŀ":8899,"Ģì§Ģì":8900,"ĠìŀĲìĹ°":8901,"Ģì§Ħë£Į":8902,"Ġë³´ëĤ´ì£¼":8903,"ĠëĮģìĹĲìĦľ":8904,"ĠíĺĪìķ¡ìĿ´":8905,"ergenic":8906,"Ġìĭľê¸°":8907,"ĠëĤ®ìķĦ":8908,"ĠìĹ¬ìŃ¤ë":8909,"05":8910,"ĠìĭĿìļķìłĪíıĲ":8911,"ĠìķĪêµ¬ì§Ħíĥķ":8912,"ĠíĦ¸ë":8913,"Ħľë":8914,"Ġëĵ¯íķľ":8915,"ìĸ´ëĤĺ":8916,"íĺĪìĦ±":8917,"Ġdelay":8918,"Ġê¸°ìĻķì¦Ŀ":8919,"ĠìĿ¸íħĮ":8920,"ìļ°ì¹ĺ":8921,"ĠíĻĺë¶Ģ":8922,"Ġacupunture":8923,"ìĪĺìĿ¸ê³Ħ":8924,"ê³µê°Ħ":8925,"ĠëĤĺëĪł":8926,"Ŀ¼ìĿ´":8927,"Ġalbumin":8928,"ĠIVS":8929,"Ġë§İì§Ģ":8930,"Ġíĩ´ê·¼":8931,"ĠëĤ´ìĽĲìĺĪìłķ":8932,"ulmonary":8933,"Ġì§Ģìĸ´":8934,"Ġìĸ´ë¦°":8935,"ìķĪìĹĲìĦľ":8936,"ëªħ":8937,"ķĲ":8938,"Ġmob":8939,"ĠìĨĮìļĶ":8940,"ĠíĿīë§ī":8941,"ìĺĪìķ½":8942,"ê³¤ë":8943,"Ġdilated":8944,"Ġìĺ¤íĨłë":8945,"ĠìĿ´ìłĦìĹĲëĬĶ":8946,"Ġë°°ìĸĳê²ĢìĤ¬":8947,"íĬ¸ë§Į":8948,"ĠìķĦì§ģëıĦ":8949,"Ġíķ´ì£¼ìĭľê³ł":8950,"Ġì§Ģì¼ľë³¼":8951,"Ġcholangiohepatitis":8952,"Ġê·¸ëŁ¬":8953,"Ġìĺ¤íŀĪëł¤":8954,"íĿĶ":8955,"Ġë±":8956,"Ġê·Ģì§Ħë£Į":8957,"Ġmicroscopic":8958,"Ġë°¤ë¶ĢíĦ°":8959,"ystitis":8960,"Ġë¨¹ìľ¼ë©´ìĦľ":8961,"ocity":8962,"³´ëĭĪ":8963,"ìĿ´ìłĦ":8964,"roxine":8965,"thelial":8966,"Ġasc":8967,"Ġcare":8968,"ĠEx":8969,"Ġë¬¼ìķ½":8970,"Ġê¸ģìĸ´ìĦľ":8971,"ĠëįĶìĿ´ìĥģ":8972,"ê°ľë¥¼":8973,"¡°ì":8974,"Ġìĺ®":8975,"ulose":8976,"Ġë³ĳë³":8977,"ìħ¨ìĬµëĭĪëĭ¤":8978,"ĠHWP":8979,"©Ŀ":8980,"ĠìĦłìĺĪëıĦ":8981,"Ġê´ľì°®ìľ¼ë©´":8982,"Ġë¯¼":8983,"Ġnorm":8984,"alteparin":8985,"ĠëĤ´ìĹĲ":8986,"Ġê·ĢìĹ°ê³ł":8987,"Ġì¤ĢíķĺìĹ¬":8988,"cv":8989,"Ġcitrate":8990,"Ġduc":8991,"íĶĦë¦´":8992,"íķ´ì§Ħ":8993,"Ġê³łì§Ģë":8994,"ĠëıĦë§Ĳê²ĢìĤ¬":8995,"ailure":8996,"Ġëĵľëł¸ìľ¼ëĤĺ":8997,"Ġê°Ģìģ":8998,"íķĺëĬĶì§Ģ":8999,"Ġ70":9000,"Ġëĭ´":9001,"Ġë¶Ħìľ¼ë¡ľ":9002,"Ġìĩ¼íģ¬":9003,"Ġì¹¨ìĬµ":9004,"otherapy":9005,"Ġgastric":9006,"Ġìłľê±°ë":9007,"Ġíķ´ì¤Į":9008,"onitis":9009,"ĠëĤĮ":9010,"ĠíĻľ":9011,"ignificant":9012,"ì¡ĮìĿĮ":9013,"ona":9014,"ĠìŀĳëħĦìĹĲ":9015,"ê³¼ìĥģ":9016,"ĠìĦľìļ¸ë":9017,"Ġìļ°ìĦłìłģìľ¼ë¡ľ":9018,"ĠìļĶëıĦë£¨":9019,"°ëĿ¼":9020,"Ġì½§ë¬¼ìĿĢ":9021,"ŀ«":9022,"ĠìķĦë²Ħ":9023,"ìļ´ëĶ©":9024,"ĠíİľíĨ¡ìĭľ":9025,"Ġpoly":9026,"ĠìłĦìĹĲëĬĶ":9027,"ì²Ńì§Ħ":9028,"ikacin":9029,"Ġíİĺ":9030,"Ġlipid":9031,"Ġìĥģì²ĺê°Ģ":9032,"ê¸°ê´ĢíĬľë¸Į":9033,"së¡ľ":9034,"Ġvent":9035,"Ġsa":9036,"Ġìķ½íķľ":9037,"ìłĢíķĺì":9038,"²´ì":9039,"Ġ27":9040,"ules":9041,"Ġë³ĳë³ĢìĿ´":9042,"Ġíľ´ìķ½":9043,"ĠíĹĽêµ¬ìĹŃì§Ī":9044,"Ġaround":9045,"ĥĲê³ł":9046,"ĠìķĪìĹĲìĦľ":9047,"Ġë¶Ħë§Į":9048,"²Īë":9049,"ropofol":9050,"idence":9051,"ë¶Ħìľ¼ë¡ľ":9052,"ë³ĳë³Ģ":9053,"Ġë°´ëĶĶì§Ģ":9054,"ª½ìĹĲ":9055,"ë³µë¶Ģì":9056,"Ġì¹ĺíĤ¨":9057,"ŀĺì§Ħë£Į":9058,"Ġë³´íĺ¸ìŀĲë¶ĦìĿĢ":9059,"Ġìĭłë":9060,"Ġff":9061,"Ġìŀĺëª»":9062,"ĠìłģìĿĮ":9063,"Ġê±°ì¦Ī":9064,"Ġê³ĦëŀĢ":9065,"Ġë¹Ħìļ©ë¶Ģëĭ´":9066,"ĠìĪĺíļĮ":9067,"Ġìĸĩ":9068,"ĠìłĪê°ľíķĺìĹ¬":9069,"Ġíģ´ë¡ľë¥´í":9070,"ìĭľì¼ľ":9071,"Ġë³Ģê²½íķĺìĹ¬":9072,"ìŀĳëħĦ":9073,"100":9074,"ê³Ħíļį":9075,"Ġ42":9076,"Ġì¶ľíĺĪìĿ´":9077,"ĠëıĮìķĦìĺ´":9078,"Ġìķķë°ķë°°ëĩ¨":9079,"ìļ´ì":9080,"ìĺ¤íĭ±":9081,"Ġê°Ħì§ĢëŁ¬ìĽĮ":9082,"famo":9083,"¦¿":9084,"Ġì£¼ìĭľê³ł":9085,"ĠAbdominal":9086,"()":9087,"Ġì´īì§Ħë":9088,"Ġê°Ģë²¼ìļ´":9089,"ê°ĢëıĻ":9090,"ĠíķĦìļĶíķ¨ìĿĦ":9091,"ìĿĦëķĮëĬĶ":9092,"Ġìŀłìĭľ":9093,"Ġê¸°íĺ¸":9094,"ĠìĬĪ":9095,"ĠíĺĪëĭ¹ê³¡ìĦł":9096,"íĺĦë¯¼":9097,"ĠëĤ´ìĻ¸ë¶Ģ":9098,"Ġê¹ĢìĦ±íĽĪ":9099,"Ġê¸°ì¡´ìĹĲ":9100,"Ġë³µë¶Ģë°©ìĤ¬ìĦł":9101,"ĠìĥĿìĭĿê¸°ê³Ħ":9102,"osal":9103,"ĠëĩĮìĪĺë":9104,"ĠìĿ¸íĿ¡ì°©ìłľ":9105,"Ġcomplete":9106,"Ġìłķìĥģìłģ":9107,"ĠìĿ´ìĥģìĿĺ":9108,"Ġmucocele":9109,"ĠíĽ¼ë¡ľë§¥ìĬ¤":9110,"incris":9111,"ĠíĻľëł¥ìĥģíĥľ":9112,"lasma":9113,"ĠíĻĺìŀĲë¥¼":9114,"Ġì§ĦíĸīìĺĪìłķ":9115,"Ġìĭłì²´":9116,"Ġì²ĻìĪĺ":9117,"Ġê·¸ìłĢ":9118,"Ġrr":9119,"unk":9120,"Ġì§ĢìĹ°ë":9121,"Ġvelocity":9122,"ulan":9123,"ê²ĥìĿĦ":9124,"Ġfluorescein":9125,"eption":9126,"ied":9127,"arget":9128,"Ġì¶ľê·¼":9129,"Ġamylase":9130,"²Ħë¦¬":9131,"ĠìŀĲê°Ģ":9132,"Ġëĵ±ëĵ±":9133,"Ġìĺ¤ëĬĺì":9134,"Ġìľłê¸°ê²¬":9135,"Ġwn":9136,"Ġê°ľìĦłëĲĺê³ł":9137,"Ġrod":9138,"Ġíį¼":9139,"Ġpneumonia":9140,"Ġë¬¼ìĦ¤ìĤ¬":9141,"íŀĪëĬĶ":9142,"Ġobstruction":9143,"29":9144,"Ġanorexia":9145,"Ġìĺ¤íĨłë§¥ìĬ¤":9146,"ĠHead":9147,"ts":9148,"acter":9149,"ĠìĻķ":9150,"Ġë°ĶëŀįëĭĪëĭ¤":9151,"³įê²Į":9152,"Ĺ¥":9153,"ĠëĮĢê¸°":9154,"riasis":9155,"łĪìĿ´íĬ¸":9156,"CK":9157,"Ġë°ľì¦Ŀ":9158,"Ġê³łëł¤ëĲ©ëĭĪëĭ¤":9159,"Ġê°Ģë§Į":9160,"ĠDTM":9161,"erior":9162,"Ġë§Īìĭľê³ł":9163,"asone":9164,"Ġë¹Ħíķ´ìĦľ":9165,"ĠìķĦì¹¨ìĹĲëĬĶ":9166,"ĠíĻķìĿ¸ëĲĺìĹĪìľ¼ë©°":9167,"tr":9168,"urren":9169,"Ġproc":9170,"ĠìŀĺëķĮ":9171,"Ġimha":9172,"Ġëĸ¨ìĸ´ìł¸ìĦľ":9173,"ĵľë°":9174,"ĠëķĮë¶ĢíĦ°":9175,"Ġë¨¹ëĬĶëĭ¤ê³ł":9176,"ĠìŀħìĽĲë¹Ħ":9177,"ĠìĨĮë¦¬ë¥¼":9178,"ĠIris":9179,"dder":9180,"Ġë¬¼ì²´ëĵ¤":9181,"Ġì°°ê³¼ìĥģ":9182,"ĮĲ":9183,"ĢìľĦë":9184,"ĠìĹĲíĶ¼":9185,"ĠìĻĢë":9186,"ocortic":9187,"¨ê°Ģ":9188,"íķ´ëĭ¬ëĿ¼ê³ł":9189,"ĠìłĦë°©":9190,"Ġíļ¨ê³¼ê°Ģ":9191,"Ġfemoral":9192,"ìĺĢìĿĮ":9193,"Ġalopecia":9194,"ĠëĮĢëŀµ":9195,"cling":9196,"Ġoxygen":9197,"Ġì¹ĺë":9198,"ë³Ģê²½":9199,"ìłĢëħģìķ½":9200,"Ġì¦Ŀìĥģë°ľíĺĦìĿ¼":9201,"ê¿Ī":9202,"ì°¨ê¹Įì§Ģ":9203,"ĠìĪĺë¡ľëŀĢ":9204,"Ġkcs":9205,"ĠíĹĪë":9206,"Ġcortic":9207,"ìłĲë§ī":9208,"Ġíķľë§Īë¦¬":9209,"ĠíĻĺìŀĲê°Ģ":9210,"ĠìĬ¤íĥĢ":9211,"ĠíķĺìĹĲ":9212,"Ġê°ľìĦłìĿ´":9213,"íĭ°ì¡´":9214,"aph":9215,"ladder":9216,"ìķĮëŁ¬ìłľëĭī":9217,"FP":9218,"ĠCornea":9219,"íģ´ë":9220,"ĠìķĪìłķìłģìŀĦ":9221,"rocoxib":9222,"Ġë§Įíķľ":9223,"rep":9224,"ĠìĿĳê¸īìĥģíĻ©":9225,"Ġì§ĦíĨµìĨĮìĹ¼ìłľ":9226,"ĠíĽĦì²ĺì¹ĺ":9227,"ĠìĤ°ì±ħìĿĦ":9228,"ening":9229,"ĠíıīìĨĮìĹĲëıĦ":9230,"ĠíĹ¤ìĸ´ë³¼":9231,"ê¸°ë§Į":9232,"ember":9233,"Ġê°Ļëĭ¤":9234,"ĠëĲĺë":9235,"Ġì§Ħëħ¸ëŀĳ":9236,"ĠìĥģìľĦ":9237,"ĠëĤŃìĦ±":9238,"histamine":9239,"Ġê´ĢìłĪê°ĢëıĻ":9240,"Ĭ¬ê¸°":9241,"ĠìĨĮìĭ¤ëĲĺ":9242,"ìĪłë¶Ģ":9243,"ĠìĿ´ìĻ¸ìĹĲ":9244,"ìĦŃì·¨":9245,"ĠLens":9246,"Ġëĭ¤ìĿĮì£¼ìĹĲ":9247,"ĠMMC":9248,"ìłĦíķ´ì§Ī":9249,"Ġë§İê³ł":9250,"ĠìĿ¸ì§Ģ":9251,"ĠìĺĪë°©ìĿĢ":9252,"ĠìķĪëĤ´ëĵľëł¸ìĬµëĭĪëĭ¤":9253,"Ġì§Ħíĸīíķľ":9254,"Ġì¡°ìĭ¬":9255,"§Īì§Ħ":9256,"Ġì»¨ëĶĶìħĺìĿ´":9257,"ĠìĿ¸íħĮìĬ¤íĭ°ë":9258,"Ġë³ĢëıĦ":9259,"Ġfecal":9260,"Ġê°Ģë³įê²Į":9261,"ê³¼ë¥¼":9262,"Ġposterior":9263,"ê°Īìĥī":9264,"wise":9265,"Ġxylazine":9266,"ĠìĺĪíĽĦëĬĶ":9267,"ìĨįëıĦ":9268,"Ġì§Ģìł":9269,"ìĸ´ëľ":9270,"ìĿĺë":9271,"Ġfoci":9272,"°ĳ":9273,"Ġë¹Īëĩ¨":9274,"Ġíķľëĭ¬ë":9275,"ĠìĦľìĦľíŀĪ":9276,"Isoflurane":9277,"Ġë°ĺìĤ¬":9278,"Ġê³łìľł":9279,"Ġhypermature":9280,"Ġíķĺìħ¨ìĬµëĭĪëĭ¤":9281,"Ġì£¼ìĭ¤":9282,"ula":9283,"ĠìĿ´ëĬĶ":9284,"Ġinfusion":9285,"ĠìĿ´ë²ĪìĹĲ":9286,"ĦĪë¦¬":9287,"Ġreactive":9288,"Ġì§ĢìĨįëĲĺëĬĶ":9289,"ĠìłķìĥģìłģìĿ¸":9290,"Ġë°©íĸ¥ìľ¼ë¡ľ":9291,"Ġìĸĳíĺ¸íķľíİ¸":9292,"Ġê°Ģëł¤ìĽĮíķ¨":9293,"atellar":9294,"ĠìľĦíķ´ìĦľëĬĶ":9295,"Ġears":9296,"ension":9297,"Ġresp":9298,"ared":9299,"ìĿĺë¢°ë":9300,"Ġìĸ´ìłľê¹Įì§Ģ":9301,"Ġintracranial":9302,"ìĿĢê²ĥ":9303,"Ġface":9304,"pper":9305,"íķĺìħ¨ëĭ¤ê³ł":9306,"ĠíĿ°ì":9307,"Ġìĸ´ì":9308,"Ġíķľë°©":9309,"Ġln":9310,"ĠConjunctiva":9311,"Ġì£¼ì¦Ŀ":9312,"íķĺìĺĢìĿĦ":9313,"ĠíĿīìļĶì¶Ķ":9314,"LV":9315,"omach":9316,"Ġimp":9317,"Ġì¢ĭìķĦì§Ħ":9318,"Ġbiop":9319,"ê²Ģë":9320,"Ġìĭ¬ëĤŃ":9321,"Ġë¬½ìĿĢë³Ģ":9322,"ìłĪìłľ":9323,"Ġë¶Ģë¶ĦìłģìĿ¸":9324,"Ġì²ŃìĨĮ":9325,"Ġslight":9326,"Ġê´Ģìŀ¥":9327,"Ġpentoxyf":9328,"ĠEyelid":9329,"ĠìķĮëł¤ëĵľë¦¼":9330,"trose":9331,"Ġmetastasis":9332,"Ġmobil":9333,"ĠìĿ¸ìĪĺìĿ¸ê³Ħ":9334,"Ġë©ĶíĬ¸ë¡ľ":9335,"ìŀ¬ìĥĿìĦ±":9336,"ìĭłì§Ģ":9337,"Ġnrc":9338,"Ġeyes":9339,"ĠëŃĶ":9340,"Ġ-,":9341,"ìłģìĿĢ":9342,"Ġê²½ëıĦìĿĺ":9343,"Ġìĥģëĭ´ë":9344,"Ġpyoderma":9345,"ìĿ´ì¦Ī":9346,"ì¼Ħ":9347,"Ġmassage":9348,"Ġë©ĶíĨł":9349,"Ġfh":9350,"Ġê²°ìłķíķ¨":9351,"Ġíķľë²ĪëıĦ":9352,"łģ":9353,"ĠìĸĳìĥģìŀĦ":9354,"Ģì§Ģë°©":9355,"Ġì¡°ìŀĳìĭľ":9356,"ĠìĿ´ë¹¨":9357,"Ġheter":9358,"íĤ¤íĭ´":9359,"Ġreference":9360,"imal":9361,"Ġì¤ĳê°Ħ":9362,"ĠFamotidine":9363,"ëŀĮ":9364,"Ġê°ĦìĭĿëıĦ":9365,"Ġrecumbencyë¡ľ":9366,"ĠíĽĦì§Ģë":9367,"¯¸ëŀĢ":9368,"Ġì¤ĳìŀĦ":9369,"Ġëª¨ëĵł":9370,"ì»¤ë":9371,"ĠëĳĲë¶Ģ":9372,"Ġë¶ĢëŁ¬":9373,"Ġdyst":9374,"ĠëķĮëıĦ":9375,"íķĺìħ¨ê³ł":9376,"ìĵ°":9377,"Ġê¸īìĿ´":9378,"ĠíĪ¬ë":9379,"Ġì¹ĺë£ĮìĹĲ":9380,"Ġìĺ¤ëĬĺëıĦ":9381,"Ġê´Ģì°°ëĲĺëĤĺ":9382,"ìĥģíĥľë¡ľ":9383,"Ġëĭ¥":9384,"ħ¸í":9385,"Ġì£¼ê´Ģ":9386,"ĠìķĪìłķìłģìľ¼ë¡ľ":9387,"Ġdiffuse":9388,"Ġdalteparin":9389,"ĠSK":9390,"ì°¨íĬ¸":9391,"íĺĢìĦľ":9392,"Ġsple":9393,"ìĽĲìĦ±":9394,"ĠìłĢìķĮëŁ¬ì§Ģ":9395,"Ġì§ĢìłĢë¶Ħ":9396,"¶Īë":9397,"Ġpig":9398,"Ġíķ´ëĵľë¦¼":9399,"íĶĦë¡Ŀ":9400,"ĠíıīìĨĮìĻĢ":9401,"Ġëĭ¬ëĿ¼ê³ł":9402,"ĠPM":9403,"acom":9404,"ìķĦë³´":9405,"othyroxine":9406,"Ġffp":9407,"ĠíķĦ":9408,"ëĬĶê²Į":9409,"ìĪĺíĺĪ":9410,"ĠìĽĲìľĦë¶Ģ":9411,"eline":9412,"Ġìļ´ëıĻìĦ±":9413,"Ĳĺì":9414,"Ġì¤ĳìĭ¬":9415,"ocol":9416,"Ġìŀ¡ìķĦë":9417,"Ġea":9418,"ĠíĨµì¦ĿìĿ´":9419,"26":9420,"ĠTL":9421,"Ġëĸ¨ë":9422,"ĠìĽĲìŀ¥ëĭĺê³¼":9423,"ĠëıĮë":9424,"Ġê²Ĳíĭ°ì¡´":9425,"CBC":9426,"Īĺë":9427,"ĠìĸĳìĿĢ":9428,"ĠíĿĳë³Ģ":9429,"ĠCa":9430,"neezing":9431,"ĠëĽ°":9432,"Ġë¶Ģë¶Ħë":9433,"Ġìļ°ì¸¡íĽĦì§Ģ":9434,"ĭľë©´":9435,"Ġì½©":9436,"ĠëıĻë°ĺëĲľ":9437,"Tra":9438,"ëĭ¤ê³łíķĺìĭ¬":9439,"ĠëıĦìĽĢ":9440,"OMMENT":9441,"ìĺ¬":9442,"ĠRe":9443,"ìľłìĦł":9444,"ĠNRC":9445,"Ġíķľë²Īë":9446,"§Īë¹Ħ":9447,"Ġëĭ¦ìķĦì£¼":9448,"íĻľë":9449,"ĠLac":9450,"Ġact":9451,"Ġìĥģë³µë¶Ģ":9452,"ĠMVI":9453,"Ġëĵľëł¸ìĬµëĭĪëĭ¤":9454,"ìĤ¬ê³ł":9455,"ĠID":9456,"ĠíĻķìĿ¸ëĲĺìĹĪìĬµëĭĪëĭ¤":9457,"Ġmydriasis":9458,"íķ´ì¤Į":9459,"tisol":9460,"Ġê³łëł¹":9461,"Ġê¹ĢìĬ¬ê¸°":9462,"§Īëĭ¤":9463,"Ġhcm":9464,"ĠëĤ´ìĽĲëĭ¹ìĭľ":9465,"ĠìĺĨìľ¼ë¡ľ":9466,"Ġcd":9467,"ĠëŃĲ":9468,"ĠìłľìĻ¸íķĺê³ł":9469,"Ġë³¼ë":9470,"ĠëķĮê¹Įì§Ģ":9471,"Ġê´ĳë²ĶìľĦ":9472,"ľë¦¼íĶĦìłĪ":9473,"Ġì´īì§Ħìĥģ":9474,"Ġcapsul":9475,"TH":9476,"Ġì¼Ħ":9477,"¹Ī":9478,"alb":9479,"ĠíķŃì²´ê²ĢìĤ¬":9480,"ĠíĶ¼ë¶Ģë´īíķ©":9481,"ĠìĦľë§¥":9482,"EAD":9483,"Ġclock":9484,"Ġmaterials":9485,"Ġtars":9486,"Ġnacl":9487,"Ġ26":9488,"Ġê±±ìłķëĲĺìĸ´":9489,"uff":9490,"ê²½íĻĶ":9491,"Ġë³ĢíĻĶê°Ģ":9492,"ĠAnterior":9493,"ë°ĢëıĦ":9494,"Ġspleen":9495,"ish":9496,"ocular":9497,"Ġë³ĳë°ľ":9498,"Ġcatheterization":9499,"Ġë¨¹ìĹĪëĭ¤ê³ł":9500,"ĠìĽĲíķĺì§Ģ":9501,"´ìŀĲê³ł":9502,"Ġtobramycin":9503,"ylon":9504,"Ġvitacom":9505,"ĠìĪĺì¶ķê¸°":9506,"ĠìĹĲíĶ¼ìĺ¤íĭ±":9507,"ĠìĹ¼ì¦ĿìĨĮê²¬":9508,"ĠìŀĪìĹĪìĬµëĭĪëĭ¤":9509,"ĠíĽĦëĳĲ":9510,"Ġìľłë°ľíķł":9511,"Ġì§ĦíĸīëĲľ":9512,"Ġtac":9513,"Ġ21":9514,"Ġì°¨ë":9515,"Ġcompared":9516,"Ġë°Ķê¾":9517,"íķĺëįĺ":9518,"Ġì¢Įì¸¡íĽĦì§Ģ":9519,"ë©ľ":9520,"incristine":9521,"Ġìĥģëĭ¹íŀĪ":9522,"Ġì¤ĳìĿ¸":9523,"ê·¼ìľ¡":9524,"Ġ(-),":9525,"ê²°ë":9526,"ytosis":9527,"ìĦ¼íĦ°":9528,"rioc":9529,"ition":9530,"Ġê³łë¦Ħ":9531,"ë¶Ģì¤ĳ":9532,"ĠIMHA":9533,"ìĮ":9534,"ok":9535,"Ġìľ¡íı¬":9536,"ocarcinoma":9537,"ĠìĦ¤ëªħëĵľë¦¬ê³ł":9538,"íģĲìķĦ":9539,"ĠìĥģìķĪê²Ģ":9540,"ëį°":9541,"Ġì´ĪìĿĮíĮĮê²ĢìĤ¬":9542,"íĶĮë£¨":9543,".,":9544,"ìħ¨ìľ¼ëĤĺ":9545,"Ġsymptoms":9546,"ĠNH":9547,"Ġëĵ±ë¶ĢìľĦ":9548,"Ġlactulose":9549,"Ġmp":9550,"ĠëĤ«":9551,"ĠìĿ´ë¡ľ":9552,"Ġë¶Ģì¢ħìĿ´":9553,"Ġê¸īê²©íŀĪ":9554,"ets":9555,"ìĦ¸ê·ł":9556,"Ġì£¼ë³´íĺ¸ìŀĲ":9557,"ĠChem":9558,"Ġkerat":9559,"ĠHalf":9560,"ĠëĦ¤ë·¸":9561,"ë¶ĦìłĪ":9562,"Ġìĭ¬íķ´ì§Ī":9563,"Ġëıħìĭľ":9564,"Ġìłĳì´ī":9565,"Ķë¡ł":9566,"Ġë¨¹ìĿ´ìĭľ":9567,"Ġë°ĺëĵľìĭľ":9568,"ĠíĻ©íĺĦë¯¼":9569,"ħķ":9570,"ĠíĪ¬ìķ½íĽĦ":9571,"Ġconcentration":9572,"kcal":9573,"ĠìĪĺìĪłíķľ":9574,"ĠëĳĲëĭ¬":9575,"Ġíļ¡":9576,"ari":9577,"íĹĺ":9578,"Ġë¬¸ìĿĺíķĺìĭ¬":9579,"ĠHEAD":9580,"ĠìķĮëŁ¬ì§ĢìĦ±":9581,"ĠëĤ´ìĽĲíķľ":9582,"ĠëĤĺìķĦì":9583,"Ġê¸°ì¹¨ì¦Ŀìĥģ":9584,"imus":9585,"ĠìĹĲëĤłëĿ¼íĶĦë¦´":9586,"Ġamount":9587,"ìĭľëĭ¤ê³ł":9588,"ĠíĺĪìķ¡ëıĦë§Ĳ":9589,"ĠìķĪíķĺìĭ¬":9590,"Ġë§ĲìĶĢëĵľëł¸ê³ł":9591,"oxaparin":9592,"¬¼ë¡ľ":9593,"Ġìĸĳì¸¡ìĦ±":9594,"ìĤ°ìĨĮ":9595,"yline":9596,"ĠNECK":9597,"íĺĦì¦Ŀ":9598,"ê°Ģë©´":9599,"ĠìĦŀìĸ´ì":9600,"romycin":9601,"ëĬĶëį°ëıĦ":9602,"ACVIM":9603,"Ġdiagn":9604,"Ġdue":9605,"ĠCH":9606,"íķĺëł¤":9607,"ŀľ":9608,"ŀĲê³ł":9609,"ì´Ŀ":9610,"Ġmaintenous":9611,"Ġê°Ģë§ĮíŀĪ":9612,"lyc":9613,"Ġnsaid":9614,"Ġíķ´ë³´ì":9615,"Ġì§ĵ":9616,"Ġë¹Ħìļ©ë¶Ģëĭ´ìľ¼ë¡ľ":9617,"ìķĦìĿ´":9618,"ĠìĿ´ìłľ":9619,"Ġíķľë²ĪìłķëıĦ":9620,"ìĥĪë¡¬":9621,"Ġevidence":9622,"ĠìĪĺì¤ĢìĹĲìĦľ":9623,"ë°ľìĥĿ":9624,"ì¤ĳëĭ¨":9625,"ĠëĿ":9626,"ĠíĿ¥ë¶Ħìĭľ":9627,"Ġìĭ¬íķł":9628,"angi":9629,"ĠìĥĺíĶĮ":9630,"Face":9631,"Ġë§ĲìĶĢëĵľëł¸ìĬµëĭĪëĭ¤":9632,"ĠìĨĮë³Ģê²ĢìĤ¬":9633,"Ġê´ĢìłĪê°ĢëıĻë²ĶìľĦ":9634,"ìĭ¤ê¸Ī":9635,"ĠìķĦì¹¨ìķ½":9636,",,,":9637,"Ġìĭ¶ëĭ¤ê³ł":9638,"oy":9639,"Ġdull":9640,"Ġìĺ¤ìĭłëĭ¤ê³ł":9641,"ëĲĺìĹĪìĿĮ":9642,"Ĥĺë©Ķì§Ħ":9643,"ĠìŀĺëĿ¼íĥĦ":9644,"ë©ľì¦Ī":9645,"ê°Ģìĭ¤":9646,"¨ëĶĶìħ":9647,"ĠíĮĮíĸīëıĦ":9648,"ĠEars":9649,"íĶ¼ì§Ī":9650,"Ġê·Ģì§Ģê°Ģ":9651,"ning":9652,"Ġíķľë²ĪìĹĲ":9653,"Ġë°ľìĥĿìĭľ":9654,"Ġë©´íļĮìĭľ":9655,"ĠíĻķìĿ¸ëĲĺìĹĪìľ¼ëĤĺ":9656,"ëĴ":9657,"Ġìĸ´ìłľìĹĲ":9658,"ystag":9659,"Ġëį©ìĸ´ë¦¬":9660,"ìĹ¼ìĦ±":9661,"Ġìļ°ìĭ¬ë°©":9662,"Ġvir":9663,"Ġìļ°ì¸¡ê·Ģ":9664,"own":9665,"oem":9666,"emoral":9667,"Ġìĺ¤ìĭľëĿ¼ê³ł":9668,"¨ë¦°":9669,"ķĮë¶Ģë¯¼":9670,"ĠìľĦìĹ¼":9671,"ĠìĤ°ëıĻ":9672,"´ë°":9673,"ĠDX":9674,"ĠìĦ¸íı¬ê²ĢìĤ¬":9675,"ĠìĿ´íĭ":9676,"ì°į":9677,"Ġì¢ħìĸĳìĦ±":9678,"Ġìĭľê°Ħë":9679,"Ġorin":9680,"Ġbiopsy":9681,"ĠìĿ´íĮĮ":9682,"Ġìĭ¬ë°ķìĪĺíļĮ":9683,"Ġê¹ľë":9684,"Ġë²Įë":9685,"ë¥ł":9686,"ê¸īìłģ":9687,"Ġìłľê±°íķĺê³ł":9688,"ĠproBNP":9689,"ĠìĿ¼ì£¼ìĿ¼ê°Ħ":9690,"Ġì§ĢëĤĺ":9691,"Ġë¶Īêµ¬":9692,"ĠëĤłì§ľ":9693,"Ġneoplasm":9694,"ĠìłľìĿ¼":9695,"ĠìĥĪë²½ë¶ĢíĦ°":9696,"ĠíķĺìĸĢ":9697,"ķĪê²Ģ":9698,"Ġradius":9699,"Ħíĥģ":9700,"Ġë´ĲìĦľ":9701,"Ġkm":9702,"Ġconst":9703,"Ġëĭ´ëĤŃëĤ´":9704,"Ġë§Īì§Ģë§īìľ¼ë¡ľ":9705,"Ġë³ĳë³Ģë":9706,"ë¯¸ìļ©íĽĦ":9707,"menace":9708,"Ġneoplastic":9709,"Ġìľłë¦¬ëĦĪë¦¬":9710,"§ë¬¼":9711,"Ġì²´ì¤ĳë¶Ģì¤ĳ":9712,"Ġë°ľê²¬íķĺìĭ¬":9713,"Ġì±Ħì":9714,"ĠìĥĿê²Ģ":9715,"inalysis":9716,"cephal":9717,"Ġíģ´ë¡ľë¥´íĹ¥":9718,"ìŀ¥ìķł":9719,"Ġ23":9720,"ecti":9721,"ĠëĦĺìĸ´ì":9722,"Ġë¶ĢíĨł":9723,"Ġìķ½ìľ¼ë¡ľ":9724,"ìĸ´ì§Ħ":9725,"Ġorinipural":9726,"NL":9727,"ìĿ´ë¹ĦìĿ¸íĽĦ":9728,"íħĲ":9729,"ĠíĺĪêµ¬":9730,"ì§ĳìĹĲ":9731,"ë©į":9732,"Ġì»´í":9733,"ĠìĤ¼ì¶ľë¬¼ìĿ´":9734,"Ġketone":9735,"renocortic":9736,"Ġë¹łì§Ħ":9737,"íĿīë¶Ģë°©ìĤ¬ìĦł":9738,"Ġìļ°ë¦¬":9739,"Ġì£¼ê¸°ìłģìľ¼ë¡ľ":9740,"²ľìŀĲ":9741,"ĠìĿĺë¢°ëĲ¨":9742,"íķĺìħ¨ìľ¼ëĤĺ":9743,"ĠíĦ±ë°ĳ":9744,"Ġmature":9745,"ìĭ¸":9746,"Ġstifle":9747,"intment":9748,"Ġê³µê¸īíķ¨":9749,"ìŀĪìĿĦ":9750,"ĠëĤ´ìĿ¼ê¹Įì§Ģ":9751,"Ġcircling":9752,"Ġìŀ¥ê¸°ê°Ħ":9753,"Ġscrew":9754,"rade":9755,"Ġ48":9756,"į°ëĤĺíķĦ":9757,"İĺ":9758,"ë¹Ħëĩ¨":9759,"Ġtorse":9760,"íĥĳ":9761,"Ġê³łìĹĲì½ĶìĦ±":9762,"Ġì¹´ëĵľ":9763,"Ch":9764,"br":9765,"Ġsac":9766,"ê¸°ë¦½":9767,"ĠëĿ½íĨłë":9768,"ëĩĮ":9769,"ë¶Ħëĵ¤":9770,"ĠíĿ¡ìŀħ":9771,"Ġnostrils":9772,"ë³µë¶Ģì´ĪìĿĮíĮĮ":9773,"ross":9774,"ĠìĿĺë¢°íķ¨":9775,"ĠìĸĳìĥģìĿ´":9776,"Ġë§ĲìĶĢëĵľë¦¬ê³ł":9777,"Ġcaus":9778,"Ġë§Ŀë§ī":9779,"Ġturn":9780,"Ġìī½":9781,"ĠNostrils":9782,"Ġìĭ¬íıĲ":9783,"Ġíķłê²ĥ":9784,"ħķíķĺìĦ¸ìļĶ":9785,"ìĭ¬ìŀ¥ìķ½":9786,"Ġë°Ľì§Ģ":9787,"¹ľ":9788,"ring":9789,"weight":9790,"ĠìŀħìĽĲê¸°ê°Ħ":9791,"Ġë°ĽëĬĶ":9792,"Ġ>>":9793,"ystagmus":9794,"PDS":9795,"Ġìĺ¤ëĭĪíĳ¸ëŀĦ":9796,"Ġ++":9797,"Ġë¶Ģíĺķìłľ":9798,"ectious":9799,"ĠìŀĲìľ¨ê¸īìĭĿ":9800,"Ġdextrose":9801,"Ġclemastine":9802,"betic":9803,"tick":9804,"ĠEyes":9805,"mune":9806,"ved":9807,"Ġnesk":9808,"ĠNesk":9809,"ĠìľłìĿĺìłģ":9810,"ĠíĤ¤ìļ°ìĭ¬":9811,"Ġëª¸ìĿ´":9812,"Ġpoor":9813,"Ġì§Ģì¼ľë³´ê³ł":9814,"75":9815,"ìŀ¬íĻľ":9816,"verse":9817,"Ġwnl":9818,"wer":9819,"Ġê¸°ì¹¨ë°ĺìĤ¬":9820,"ĠìĦ¸ë²Ī":9821,"²´ìĺ¨":9822,"ê²½ëł¥":9823,"ëıĻë¬¼ë³ĳìĽĲìĹĲìĦľ":9824,"BL":9825,"íķ´ì§Īë":9826,"ĠMO":9827,"Ġê±°ë¦¬":9828,"Ġã":9829,"ì°¨ë¡Ģ":9830,"Ġìĭ¬íķ´ìł¸ìĦľ":9831,"ìĽĮìĦľ":9832,"Ġê²½ìļ°ë":9833,"íĮħ":9834,"¸Ķ":9835,"§Īì·¨":9836,"arrow":9837,"Ġile":9838,"Ġê°ĢëĬ¥íķĺë©´":9839,"ì»¤ë²Ħë¦¬":9840,"ëĲľëĭ¤ê³ł":9841,"ĠEch":9842,"ĠìĦ±ìŀ¥":9843,"NO":9844,"ĠìłĪëĭ¨":9845,"Ġë§ĮìĦ±ìłģìĿ¸":9846,"ĠìķĪë³´":9847,"Ġneovascular":9848,"Ġcaval":9849,"lue":9850,"Ġfs":9851,"itation":9852,"ĠìķĦì¹¨ê¹Įì§Ģ":9853,"ĠìĿĺë":9854,"ìĽĲëŀĺ":9855,"Ġê°Ģê¸īìłģ":9856,"ĠíĽĦì§ĢíĮĮíĸī":9857,"Ġëĸ¨ìĸ´ì§Ī":9858,"ĠëĦĺìĸ´":9859,"Ġregular":9860,"ondyl":9861,"ancreatitis":9862,"ai":9863,"Ġëª©ìĹĲ":9864,"Ġë§ŀì¶°":9865,"ĠìłĢìĹĲì½ĶìĦ±":9866,"ĠìłķëŁī":9867,"Ġë°ľìłģìĿĢ":9868,"ĠíĶ¼ë¶Ģì§ĪíĻĺ":9869,"Ġcondition":9870,"ĠìĥĿê°ģëĲ©ëĭĪëĭ¤":9871,"Ġëĭ¤ëĭ":9872,"ĠEENT":9873,"Ġì½Ķë§ī":9874,"ĠìĻĦì":9875,"ĠFH":9876,"ĶëģĶ":9877,"sp":9878,"Ġhand":9879,"Ġdiarrhea":9880,"adi":9881,"Ġìĺ¤ìłĦë¶ĢíĦ°":9882,"quid":9883,"osarcoma":9884,"Ġìľłì¹ĺë":9885,"ĠìĹ°ìĨį":9886,"Ġíıīê°ĢëĲ©ëĭĪëĭ¤":9887,"Ġpoìłľ":9888,"ĠìķħíĻĶëĲł":9889,"Ł¬ìĭ±":9890,"Ġë°ľëĵ±":9891,"Ġì¼ģì¼ģê±°ë¦¬ëĬĶ":9892,"ĠëĳĶë¶Ģ":9893,"dible":9894,"Ġê°ĦìĹ½":9895,"ìłķíĽĪ":9896,"ĠìĦłë":9897,"Ġrecorded":9898,"Ġureteral":9899,"Ġexterna":9900,"ê°ĻìĿ´":9901,"Ġê¸°ìłĢì§ĪíĻĺ":9902,"ê¸°ì´ĪìĿĮíĮĮ":9903,"Ġìĸ´ëł¤ìļ¸":9904,"Ġíĺ¼íĥģ":9905,"ëĭ¨ë":9906,"Ġ+,":9907,"Ġìĭ¬íķ´ì§ĢëĬĶ":9908,"Ġê·¸ëłĩê²Į":9909,"virus":9910,"íļĮìłķëıĦ":9911,"Ġalumin":9912,"ĠìķĦíĬ¸ë¡ľ":9913,"Ġë¯¸ë£¨":9914,"Ġëĳ¥ê·¼":9915,"Ġë³´ê°ķ":9916,"ĠíĪ¬ìķ½ìĿĢ":9917,"Ġìľłëŀĺ":9918,"ĠíļĮìłķëıĦ":9919,"Ġë¨¹ìĹ¬ì£¼":9920,"ìķĦì£¼ìĦ¸ìļĶ":9921,"Ġchlorpheniramine":9922,"renocorticism":9923,"ĠPlasma":9924,"Ġupper":9925,"Ġê°ĦìĭĿë§Į":9926,"Ġtrus":9927,"Ġchlor":9928,"ê¹¥":9929,"íĹĪíĥĪ":9930,"km":9931,"Ġêµ¬ì·¨":9932,"Ġstain":9933,"ĠëĪĦìĽĮìĦľ":9934,"Ġë¶Ģìĸ´ìŀĪ":9935,"AI":9936,"íĪ":9937,"Ġìĭ¬ìĿ¸ìĦ±":9938,"Ġê³łê°ľ":9939,"ĠPU":9940,"¯¸ìļ©":9941,"Ġìĭ¤ìĭľíķĺì§Ģ":9942,"Ġë¨¹ìĿ´ë©´":9943,"Ġë°ľê´Ģ":9944,"ĠìĿ´íĮĮíĤ¤íĭ´":9945,"ĠíĽĦìĹĲëĬĶ":9946,"ìĿ¼ìĹĲ":9947,"elv":9948,"izer":9949,"ĠALB":9950,"Ġduct":9951,"Ġcushing":9952,"Ġresults":9953,"SC":9954,"ê¸°ëĵ¤":9955,"Ġflow":9956,"Ġfirocoxib":9957,"ĠìĥģíĥľìĿ´ë©°":9958,"KI":9959,"ķī":9960,"Ġì£¼ëĬĶ":9961,"Ġë°°ìĹĲìĦľ":9962,"Ġatrophy":9963,"Ġì²´ì¤ĳì¦Ŀê°Ģ":9964,"Ġëª©ë¶ĢìľĦ":9965,"íĨµìĤ¬ê³ł":9966,"Ġivs":9967,"Ġìĭ¤ëį°ëĤĺíķĦ":9968,"ni":9969,"ìŀĪìľ¼ëĤĺ":9970,"Ġì¦ĿëŁīíķ¨":9971,"ĠìĦŀìĸ´":9972,"ĠFFP":9973,"Ġìķ¼ì±Ħ":9974,"ĠRR":9975,"Ġì¹ľêµ¬":9976,"ìĬ¤íĥĢìłľ":9977,"ìŀĪìĸ´":9978,"Ġê±°ë¦¼":9979,"Ġë³´ëĤ´ë":9980,"otal":9981,"Ġëĭ¤ë¦¬ê°Ģ":9982,"ìĿĢê±°":9983,"ĠìķĬëĭ¤ê³ł":9984,"ê·łìłľ":9985,"Ġíķ´ì£¼ìĭ¤":9986,"ìĿ¼ë°ĺìĥģíĥľ":9987,"matophytosis":9988,"Ġë¶Īêµ¬íķĺê³ł":9989,"¦Ļ":9990,"ĠëĿ¼íģĲìķĦ":9991,"ı¼":9992,"Ġwell":9993,"nexamic":9994,"ê°ģë§ī":9995,"ĠíĶ¼íķĺì£¼ìĤ¬":9996,"°ľìĿĮ":9997,"ê±´ê°ķ":9998,"Ġì§Ģìĸ´ë":9999,"ìħĶëıĦ":10000,"Ġgent":10001,"Ġì¹ĺë£Įë°©íĸ¥":10002,"Ġê³Ħìĭł":10003,"ëĲĺìĦľ":10004,"Ġíķĺì§ĢëĬĶ":10005,"ĠìķĦëĭĪëĤĺ":10006,"ating":10007,"An":10008,"Ġê°Ļê³ł":10009,"Ġíķĺë£¨ëĳĲë²Ī":10010,"ĠíĿīë§īê³µê°Ħ":10011,"Ġìĸĳíĺ¸íķ´ì§Ĳ":10012,"ĠíĽĦì§Ģë¥¼":10013,"oplasm":10014,"Ġê°ķìķĦì§Ģì":10015,"Ġê»Į":10016,"iss":10017,"ĠRenal":10018,"Ġê¸°êµ¬":10019,"²ħ":10020,"ĠíĥĪìĪĺêµĲìłķ":10021,"ĠëıĻë°ĺëĲĺìĸ´":10022,"Ġì¦Ŀê°Ģì":10023,"murmur":10024,"ĠíĥĢë³ĳìĽĲ":10025,"ĠìºĲ":10026,"occ":10027,"ĠëĤ´ë¡ľ":10028,"Ġì¶Ķì²ľëĵľëł¸ìľ¼ëĤĺ":10029,"150":10030,"ŀĢìĬ¤":10031,"ìķ½ìľ¼ë¡ľ":10032,"Ġë°ľìĥĿíķĺìĹ¬":10033,"Ġë§Ĳëĭ¨":10034,"ĠìĪĺëł¹":10035,"ëĭ´ì":10036,"ĠìĿ´ëŁ°":10037,"ĠìķĦë¬¼":10038,"Ġìĥģíĥľë³ĢíĻĶ":10039,"ĠíĽĦë¶ĢíĦ°":10040,"ĠìķĦëĭĪëĿ¼ê³ł":10041,"ĠPropofol":10042,"Ġfibrosis":10043,"ĠìĽĲíĻľ":10044,"??":10045,"Ġdrops":10046,"Ġnsf":10047,"Ġì£¼ìłĢì":10048,"Ġê°Ħëŀµ":10049,"Ġqual":10050,"Ġë§Įëĵ¤":10051,"rioception":10052,"ĠìĪĺì¤Ģìľ¼ë¡ľ":10053,"Ġthyroid":10054,"Ġconstant":10055,"ľĺëıĦ":10056,"ĠìĬ¤íĶ¼ë¡ľ":10057,"Ġì²´íĳľë¦¼íĶĦìłĪ":10058,"Ġprolapse":10059,"ĺë¯Ģë¡ľ":10060,"ìĭľíĤ´":10061,"ìĭ¬íķľ":10062,"Ġpentoxyfylline":10063,"ĺëŁ¬ë":10064,"Ġcorrugation":10065,"¹ĦìĬ¤":10066,"Ġê°Ŀ":10067,"Ġìĺ¤ìĹ°":10068,"Ĥľ":10069,"ķ¼ë":10070,"ìĭłë¶ĢìłĦ":10071,"Ġpath":10072,"Ġë±ī":10073,"34":10074,"ìĽĢì":10075,"ĠëĦ£ìĸ´ë":10076,"ìĪĺì²ľìŀĲ":10077,"ì²ľìŀĲ":10078,"Ġì¹¨íĿĺë¦¼":10079,"Ġcervical":10080,"Ġë³´ìĭľê³ł":10081,"ĠìĨĲìľ¼ë¡ľ":10082,"CE":10083,"amox":10084,"Ġë°ľìłģìĿ´":10085,"Ġì´Īì½":10086,"Ġì§Ħëĭ¨ìĿĦ":10087,"ìłĲìķ¡":10088,"¶ĢìłĦ":10089,"ìĿ¼ëķĮ":10090,"Ġbabes":10091,"ĠìķĬìľ¼ìħĶìĦľ":10092,"Ġlymphaden":10093,"Ġsilde":10094,"Ġì£¼ì¹ĺìĿĺì":10095,"ĠìĿ´íķĺë¡ľ":10096,"ĠìłķëıĦê°Ģ":10097,"ĢìĤ¬ë£Į":10098,"Ġì²ĺë°©íķĺìĹ¬":10099,"¦°ëĭ¤ê³ł":10100,"ĠìŀĦíľĺëıĦ":10101,"Ġnode":10102,"Ġtransf":10103,"Ġbromhexine":10104,"ìĬ¤ë¥¼":10105,"Ġrespon":10106,"ĠìķĮëĶĶ":10107,"ĠëĤĺìĻĢìĦľ":10108,"Ġrange":10109,"ĸ¡":10110,"ĠìĦłì²ľ":10111,"ê¿Īì¹ĺ":10112,"Ġë¹Ħìŀ¬ìĥĿìĦ±":10113,"Ġëĵľë¦¬ê³ł":10114,"Ġíķ´ëıĦ":10115,"Ġêµ³":10116,"Ġì·¨ìĨĮ":10117,">>":10118,"Ġì»¨":10119,"tramadol":10120,"Ġê°Īë":10121,"Ġíĺ¸íĿ¡ìĥģíĥľ":10122,"Ġê²°ê³¼ëĬĶ":10123,"ĠëĮĢì²´ë¡ľ":10124,"ê¶Į":10125,"ĠëĬĺìĸ´ëĤ¨":10126,"Ġê°ľíĨµìĦ±":10127,"estasis":10128,"Ġdu":10129,"ĠìµľìĥĪë¡¬":10130,"ĠíĹ¤íĮĮë©ľì¦Ī":10131,"Ġhernia":10132,"Ġìľłì§ĢëĲĺëĬĶ":10133,"ìĬµì§Ħ":10134,"ìį¨":10135,"´ëĵľ":10136,"Ġì£¼ìħ¨ìĿĮ":10137,"Ġvisual":10138,"DER":10139,"Ġê³µìŀ¥":10140,"ĠìķĦíĬ¸ë¡ľíķĢ":10141,"ĠìĿ¼ìĸ´ëĤĺìĦľ":10142,"ĠíĹ¥íĹ¥ê±°ë¦¼":10143,"Ġneovascularization":10144,"etti":10145,"ĠëģĮê³ł":10146,"27":10147,"Ġcage":10148,"ĠëĲĺìĸ´ìŀĪ":10149,"Ġê¸¸ê²Į":10150,"Ġë°ľëĿ¼ì£¼":10151,"ìłģì¶ľìĪł":10152,"Ġê°ĻìķĦìļĶ":10153,"Ġdelayed":10154,"ìĬ¤íħĮ":10155,"Ġpleural":10156,"Ġmarbofloxacin":10157,"vity":10158,"¶ģ":10159,"ĠëĶ¸ê¸°ê°Ģë£¨":10160,"pnea":10161,"ĠëŀĢ":10162,"ĠíĻķë³´":10163,"Ġì§Ģë¦Ħ":10164,"Ġë¶Ģë¶Ħìłģ":10165,"§ĢìķĬìĿĮ":10166,"Ġslightly":10167,"itus":10168,"ĠìĽĢì§ģìĿ´ì§Ģ":10169,"ĸìĹĲ":10170,"Ġpss":10171,"Ġov":10172,"Ġëĵ¤ìĸ´ê°Ĳ":10173,"oxof":10174,"AID":10175,"§Įê°Ħ":10176,"Ġê·ĢìĹĲìĦľ":10177,"ĵľë¡ľ":10178,"Ŀ¼ë§ĪìĿ´ìĭł":10179,"ĠVentilator":10180,"Ġíķ´ë³´ê¸°ë¡ľ":10181,"íķ´ë³´ìŀĦ":10182,"ĠíĿĺë¦¼":10183,"Ġê°Ĳìķķ":10184,"ĠUOP":10185,"ĸµ":10186,"ĠìĹ¼ì¦ĿìĦ¸íı¬":10187,"Ġchemosis":10188,"Ġsyl":10189,"´ëıĻë§¥":10190,"Ġcal":10191,"Ġìŀħì£¼ë³Ģ":10192,"Ġê±°ë¦¬ëĬĶ":10193,"ĠëıĮìķĦëĭ¤ëĭĺ":10194,"Ġì£¼ê¸°ìłģìĿ¸":10195,"ĠìĿ¸íħĮìĬ¤íĭ°ëĤł":10196,")/":10197,"ĠìĹĨìĸ´ë³´ìŀĦ":10198,"Ġë¶Ģì¤ĳ":10199,"Ġìĭłìŀ¥ìĹĲ":10200,"Ġìļ°ìľł":10201,"Ġhypoallergenic":10202,"Ġì£¼ê°ĦìĹĲ":10203,"ĠìŀħìĹĲ":10204,"Ġver":10205,"ĠìłĢìķĮë¶Ģë¯¼":10206,"amethasone":10207,"iliac":10208,"hyp":10209,"ĠíĿĺëŁ¬ë":10210,"ĠìķĬëĬĶëĭ¤ê³ł":10211,"°ı":10212,"ĠìłĢì§Ģë°©":10213,"ĠìĥµìĹĲìĦľ":10214,"ĠíĥĿ":10215,"Ġtarget":10216,"arine":10217,"Ġlevothyroxine":10218,"PW":10219,"Ġwk":10220,"ĠëĿ¼ìļ´ëĶ©":10221,"ĠíĻķìĿ¸íķł":10222,"ĠìķĬìķĺìľ¼ë©°":10223,"ĠìĭľìłĢ":10224,"ĠìĪĺëĬĶ":10225,"Ġê·¼ìľĦ":10226,"CRT":10227,"ĠìĿ´ë¶Ī":10228,"ĠíĶĦìĦ¸ìĿ´":10229,"ĠìĹ¬ìłĦíķ¨":10230,"ìĹĪì§Ģë§Į":10231,"²ĺì¹ĺ":10232,"íķĺíĬ¸":10233,"ìķĺê³ł":10234,"Ġëį°ëł¤ê°Ģìĭ¬":10235,"ĠëĤĺëĪłìĦľ":10236,"Ġì£¼ìłĢìķī":10237,"ìĸ´ìŀĪëĬĶ":10238,"apine":10239,"ª½ìľ¼ë¡ľ":10240,"ĠìĿ¼ìĭľìłģ":10241,"asion":10242,"ëĤ´ë":10243,"ĠìĹ¼ë°ľìĿĮ":10244,"full":10245,"ìļĶë§Ŀ":10246,"Ģìĸ´ë":10247,"ìĸ´ìŀĪìĿĮ":10248,"íļĮë³µ":10249,"Ġëĺĳ":10250,"ĠëıĦì°©":10251,"Ġë³´íĸīíıīê°Ģ":10252,"ĠìĪłìĭĿìľ¼ë¡ľ":10253,"Ħíı¬":10254,"ulf":10255,"vo":10256,"ĠëĲĲ":10257,"íıīìĨĮ":10258,"Ġê·¸ëŁ´":10259,"Ġì§Ħíķľ":10260,"Ġêµ¬íĨłë¡ľ":10261,"Ġmultif":10262,"ET":10263,"Ģë¹Ħ":10264,"Ġì²¨ê°Ģ":10265,"ëĲĺìĹĪìľ¼ë©°":10266,"Ġperitonitis":10267,"ĠìłĢì²´ìĺ¨":10268,"ìĥģìľ¼ë¡ľ":10269,"Ġì§ĳì¤ĳ":10270,"ìŀĲë°ľ":10271,"pw":10272,"¹ë²":10273,"ê°±":10274,"ĠíķłëķĮ":10275,"Ġ(+),":10276,"MM":10277,"80":10278,"ŀĢìľ¼ë¡ľ":10279,"ĠìłķìĥģíĻĶ":10280,"ĵľëĬĶ":10281,"ĠìķĦíı¬íĢł":10282,"ì£¼ë©´":10283,"ëįĶëĭĪ":10284,"pd":10285,"Ġdisc":10286,"Ġging":10287,"ìĨĮìĸĳê°Ĳ":10288,"ĠìĬ¤ì¼Ģì":10289,"ae":10290,"Ġë°Ķê¹¥":10291,"Ġìĭ¬ìŀ¥ìĤ¬ìĥģì¶©ìĺĪë°©":10292,"ĠìĭľìŀĳëĲ¨":10293,"RA":10294,"Ġsneezing":10295,"Ġìĸµ":10296,"ĠKCS":10297,"uls":10298,"Ġìĭ¤ë§Īì§Ħ":10299,"Ġë°ĽìķĦë³´ì":10300,"¦Ń":10301,"ĠHCM":10302,"ĠìµľìĽĲìŀ¥ëĭĺ":10303,"ë¬¼ë¡ľ":10304,"elling":10305,".-":10306,"ĠìĿ´ìłĦë¶ĢíĦ°":10307,"ĠìķĶíı¬":10308,"Ġcephradine":10309,"Ġë¹łë¥´ê²Į":10310,"ĠëĮĢíĩ´ê³¨":10311,"ĠìłĦíķ´ì§Īë":10312,"Ġreduced":10313,"íĬ¼":10314,"Ġvirus":10315,"ĠíĮ¨ëĦĲ":10316,"osph":10317,"¬ìľł":10318,"ëıĦëĬĶ":10319,"íĺķíĥľ":10320,"Ġìĭ¬íķ´ì§Ģê³ł":10321,"Ġìŀ¥ëĤľê°Ĳ":10322,"ëĵ±ìĿĺ":10323,"ĠìĽĶ":10324,"Ġinterstitial":10325,"ĠìľĦì£¼":10326,"cla":10327,"ë°Ľìľ¼":10328,"ê¸°ê´Ģì§Ģ":10329,"Ġstatic":10330,"Ġê·Ģìķ½":10331,"Ġë¦¼íĶĦê³Ħ":10332,"ak":10333,"íĶĮë¡ĿìĤ¬ìĭł":10334,"Ġtrusopt":10335,"Ġcholestasis":10336,"ìłģìļ©":10337,"ĠëĪĪê³±ìĿ´":10338,"Ġìŀ¬ì§ĦìĺĪìłķ":10339,"Ġë³ĦëıĦ":10340,"Ŀ¼ìĿ¸":10341,"Ġë§ĲìĶĢëĵľëł¸ìĿĮ":10342,"Ġê¶Įìľłëĵľëł¸ìľ¼ëĤĺ":10343,"oading":10344,"²©":10345,"Ġdes":10346,"Ġëª»íķĺê²Į":10347,"Ġê·¸ëŀ¬":10348,"Ġlvpw":10349,"oxofemoral":10350,"ì¡°ìłĪ":10351,"Ġoral":10352,"ĠíĶ¼ë¶Ģì¢ħê´´":10353,"ìĭ¬ìŀ¥ìĤ¬ìĥģì¶©":10354,"²Ń":10355,"ìĹ¼ìľ¼ë¡ľ":10356,"Ģë¦¬ëĬĶ":10357,"Ġì¦ĿìĥģëıĦ":10358,"Ġë§İìķĦìĦľ":10359,"Ġë§ĲëĿ¼ìħī":10360,"ĠìĹĨìĿĦìĭľ":10361,"Ġround":10362,"Ġìķ½ìĹĲ":10363,"Ġscale":10364,"ĠíĽĦì§ĢìĿĺ":10365,"Ġê²°ìłķíķł":10366,"ĠíķĺëŁ¬":10367,"ë°Ķë":10368,"Ġanal":10369,"ĠìĪĺì¤ĳ":10370,"ìĭľëĤĺ":10371,"Ġurinalysis":10372,"Ġìĵ°ëŁ¬ì§Ĳ":10373,"¹ë²¨ë¦°":10374,"ithromycin":10375,"íķ´ìķ¼íķ¨":10376,"´íħĮ":10377,"Ġì¡°ë§Įê°Ħ":10378,"ĠìĦ¤ìĤ¬ê°Ģ":10379,"Ġê´Ģë¦¬ëĬĶ":10380,"rolimus":10381,"osinophil":10382,"Ġë¨¹ìĿ´ìĭľëĿ¼ê³ł":10383,"ĠIDEXX":10384,"ins":10385,"abolic":10386,"Ġmgt":10387,"ĠìķĪë©´ë¶Ģ":10388,"Ġpen":10389,"ĠìĤ¬ëĤĺì":10390,"Ġê³łìĹ´":10391,"Ġìĭ¤ë£¨ìĹ£":10392,"ìĺģìĸĳ":10393,"ĠëĮĢíķ´ì":10394,"ĠìłĦë°ĺìłģ":10395,"Ġhist":10396,"ê³¼ìĿĺ":10397,"Ġë¦¬ì»¤ë²Ħë¦¬":10398,"Ġì·Įìŀ¥ìĹ¼ìĹĲ":10399,"Ġê³łëł¤ëĲĺë©°":10400,"odon":10401,"ĠìĨľ":10402,"Ġenlarge":10403,"¶ĦìĿ´":10404,"Ġê³µë³µìĦ±":10405,"acterial":10406,"ĠíĬ¸ë¦¬":10407,"Ġliquid":10408,"ĠíĻķìĿ¸ë":10409,"lux":10410,"Ġred":10411,"ĠíĥĪìĪĺì":10412,"ĠëłĪëĤĺë©Ķì§Ħ":10413,"ĠAmox":10414,"side":10415,"ìĿ¸íķľ":10416,"Ġë¶ĢìľĦìĿĺ":10417,"Ġdistal":10418,"Ġê½¤":10419,"Ġcpe":10420,"Ġìĺ·":10421,"Ġë°ĺìĿĳìĿĢ":10422,"Ġê²ģ":10423,"Ġìķ½ë¬¼ë":10424,"Ġì¦Ŀê°Ģê°Ģ":10425,"ĠìłĦìĿ¼ìĹĲ":10426,"íĻĶëĭ¨ë°±":10427,"Ġíķĺê²Į":10428,"ĠíĮĮìļ°ì¹ĺ":10429,"Ġíģ´ë¡ľë¥´íĹ¥ìĭľëĶĺ":10430,"Ġíķ´ëĭ¬ëĿ¼ê³ł":10431,"ru":10432,"ĠëĮĢíĩ´ëıĻë§¥":10433,"ëĴ·":10434,"ondylosis":10435,"Ġë¨¹ìĿ´ìħ¨":10436,"ĠìĭĿìļķì¢ĭìĿĮ":10437,"ĠëĮĢíķĺìĹ¬":10438,"ì¼Ģìĸ´":10439,"íıĲìĥī":10440,"eros":10441,"Ġíķ¥ê³ł":10442,"ĠìłĦìĭłë°ľìŀĳ":10443,"ëĲľëĭ¤ë©´":10444,"ilateral":10445,"ĠìĦ¸íı¬ì§Ī":10446,"Ġì¡°ë¯¸ëŀĢ":10447,"ĠëıĻë¬¼":10448,"ìĭ¤ëķĮ":10449,"ogenous":10450,"Ġì£¼ë³ĢìĹĲ":10451,"Ġëĵ±ìª½ìĹĲ":10452,"ocytopenia":10453,"ĠìĭľìĽĲ":10454,"ê°Ĵ":10455,"Ġì£¼ìĭł":10456,"Ġìĭ¬íķĺë©´":10457,"Ġëª¸íĨµ":10458,"Ġhydroxide":10459,"ëª°":10460,"Ġë¦¼íĶĦêµ¬":10461,"Ġendo":10462,"Ġê³Ħëĭ¨":10463,"Ġê¸°ì¡´ìķ½":10464,"70":10465,"Ġbutor":10466,"ĠìĦŃìĭĿ":10467,"ĠìĬµìĭĿìºĶ":10468,"Ġë´īì§Ģ":10469,"ĠëĮĢíĩ´ê³¨ë":10470,"łë§Įíķľ":10471,"ĠëģĪ":10472,"Ġì§ģìłĦ":10473,"ĵľë¦¬ê¸°":10474,"ĠíıĲìķ¼ìĿĺ":10475,"ì¹´ëĶĶ":10476,"Ġê·Ģì²´íģ¬":10477,"Ġì¶ĶìĦ¸":10478,"pex":10479,"Ġë§¡ê¸°":10480,"Ġë®":10481,"ĠíĥĲìĥī":10482,"íĶ¼ëıĦ":10483,"Ġìĭ¬ìłķì§Ģ":10484,"Ġëĵľë¦¬ê¸°ë¡ľ":10485,"Ġheadtime":10486,"itial":10487,"ĺìķ¼":10488,"Ġê´Ģì°°ëĲĺëĬĶ":10489,"oracic":10490,"Ġê°ĲëŁīíķ¨":10491,"ĠìĹ¬ë¶ĢëĬĶ":10492,"ĠUSG":10493,"ìĭľì§Ģ":10494,"ĠìŀħìĿ´":10495,"ĠSA":10496,"ĥĦìĥĪ":10497,"Ġë§ĲìĶĢëĵľëł¸ìľ¼ëĤĺ":10498,"Ġì¢ĮìķĪìĿĺ":10499,"¦´ì":10500,"Ġ45":10501,"cef":10502,"otomy":10503,"ħ¸ë°Ķë":10504,"zine":10505,"Ġgu":10506,"Ġì¹¨ìĥĺ":10507,"Ġë³´ìĺĢìľ¼ëĤĺ":10508,"ë¶ĦìĿ´":10509,"Ġstomach":10510,"umber":10511,"ĠìĨĮìĸĳê°ĲìĿ´":10512,"Ġindic":10513,"ĳĲì¦Ŀ":10514,"Ġë³´íĺ¸ìŀĲëĭĺê³¼":10515,"Ġê¹Įì§ĢëĬĶ":10516,"Ġìŀ¥ìķł":10517,"ĠíĿīë³µë¶Ģ":10518,"Ġì¦Ŀê°Ģíķľ":10519,"Ġê³łì§ĢíĺĪì¦Ŀ":10520,"azapine":10521,"ĠìĨĮë³ĢëŁī":10522,"Ġìłķìĥģë²Ķ":10523,"ĠìĥĿê¸°ëĬĶ":10524,"ë°°ì¶Ķ":10525,"ĠëĿ½íĨłë²³":10526,"Ġinpatient":10527,"ë¹ĦëĬĶ":10528,"ĠìłĲìķĪìķ¡":10529,"adrenocorticism":10530,"ĠìŀĶì¡":10531,"Ġê°ľë³ĦíĻĶìŀ¥":10532,"ĠíĿ°ìĥī":10533,"set":10534,"ĠëĤĺë©´":10535,"Ġenlargement":10536,"ê³łê´ĢìłĪ":10537,"Ġê°Īìĥīê·Ģì§Ģ":10538,"ĠëĲĺëĬĶì§Ģ":10539,"ĠAS":10540,"´íĽĦ":10541,"Ġë¨¹ìĸ´ëıĦ":10542,"ìŀĪìĸ´ìĦľ":10543,"Ġìŀłë§Į":10544,"ëĤĺê³ł":10545,"rednisolone":10546,"ocyte":10547,"Ġimmature":10548,"Ġê¸°ë³¸ìłģìĿ¸":10549,"ì¡°ìłľ":10550,"ĠëĶ°ëĭĺ":10551,"(),":10552,"¯¸í":10553,"´ĲìĦľ":10554,"ĠHL":10555,"Ġmalign":10556,"ì§ĢìĹ°":10557,"Ġê°ĳìĥģìĦłìķ½":10558,"Ġblue":10559,"Ġìłķê¸°ìłģìĿ¸":10560,"ĠcPLI":10561,"Ġì¶ĶìłķëĲĺëĬĶ":10562,"ĵ¦":10563,"Ġëĸ¨ìĸ´ì¡Į":10564,"Ġìŀłë³µê³łíĻĺ":10565,"ĠGi":10566,"ëª©ìłģ":10567,"ĠìĭĿìļķê°ĲìĨĮ":10568,"led":10569,"ĠëĳĲê³ł":10570,"Ġë°¥ë¨¹":10571,"Ġë³µìļ©íķĺê³ł":10572,"ĠìĿ¸ëĮĢ":10573,"Ġcavaletti":10574,"ĠìĭĿìļķëĵ±":10575,"ì´Īë":10576,"ìł¸ìŀĪìĿĮ":10577,"Ġtrial":10578,"ĠëĦ¤ìĺ¤ë":10579,"Ġëª¨ë¥´ê²łìĿĮ":10580,"Ġproprioception":10581,"Ġë¹¨ê°ľ":10582,"ĠìĺģìĥģìŀĲë£Į":10583,"ĦłìĥĿëĭĺ":10584,"īģ":10585,"Ġê°Ħíĺ¸":10586,"Ġê¸°íĺ¸ìĦ±":10587,"ë¹ĦíĽĦ":10588,"Ġnystagmus":10589,"ë¬´":10590,"ĠDob":10591,"Ġapex":10592,"ķĦì¹¨":10593,"ĠëĤĺíĥĢëĤľ":10594,"Ġêµ¬ê°ķëĤ´":10595,"Ġë°Ķë¥´ëĬĶ":10596,"96":10597,"Ġì¦Ŀê±°":10598,"Ġok":10599,"íĸĪëĭ¤ê°Ģ":10600,"ĠVI":10601,"ĠíĶĮë£¨":10602,"Ġdoor":10603,"ĠíıĲìĿĮ":10604,"Ġìĭ¬ê°ģíķľ":10605,"Ġrecom":10606,"ĠratioëĬĶ":10607,"Ġë¨¹ìĹĪëĬĶëį°":10608,"Ġê±±ìłķëĲĺì":10609,"Ġoverall":10610,"achment":10611,"´íĶ¼ì½ľ":10612,"Ġìĭ¬ëĤŃìĪĺ":10613,"¡Ń":10614,"Ġëĭ¹ê·¼":10615,"ĠëıĮìķĦëĭ¤ëĭĪ":10616,"ëĨĢ":10617,"ĠìĸĮ":10618,"Ġfoods":10619,"Ġê°ĳê¸°ìłĢ":10620,"Ġëĩ¨ìĬ¤íĭ±":10621,"Ġë¹Ħë¹Ħ":10622,"ĥĪìĿĮ":10623,"ìĭ¶":10624,"Ġsenile":10625,"Ġtranexamic":10626,"Ġcut":10627,"Ŀ¼ëĬĶ":10628,"Ġìĭ¶ìĸ´íķĺìĭ¬":10629,"ĠìłĦìĭŃìŀĲìĿ¸ëĮĢ":10630,"Ġëĭ¤íĸī":10631,"Ġing":10632,"Ġì¦ī":10633,"Ġthese":10634,"Ġtibia":10635,"ĠìķĦë¬´ê²ĥëıĦ":10636,"but":10637,"Ġì´ĪìĹĲ":10638,"£©":10639,"Ģë¶ĢìľĦ":10640,"ìĨĮë¦¬ê°Ģ":10641,"ĠëĬ¦ê²Į":10642,"Ġmast":10643,"Ġcolon":10644,"ĠAmoxicillin":10645,"¬¸ë¶Ģ":10646,"ĠíķŃë¬¸ì£¼ìľĦ":10647,"ĠíĤ¹ë²¨ë¦°":10648,"Ġë¶Īê·ľì¹Ļíķľ":10649,"ķĪê°ģ":10650,"·¨":10651,"ĺìĻĢ":10652,"actate":10653,"Ġquality":10654,"Ġëº":10655,"Ġì¤ĳìľ¼ë¡ľ":10656,"Ġë³µìķķíķŃì§Ħ":10657,"ĠëķĮë§Į":10658,"ĠìķĪëĤ´ëĵľëł¸ê³ł":10659,"ĠìķĬìķĺê³ł":10660,"ink":10661,"ĠëĮĢë¡ľ":10662,"ĠëĤĺíĥĢëĤĺëĬĶ":10663,"ĠìĤ½ê´Ģ":10664,"ĠìļĶê´Ģê²°ìĦĿ":10665,"Ġë¹¨ëĿ¼":10666,"ëĲĺìĸ´ìŀĪ":10667,"Ġcn":10668,"ê°ľìĽĶ":10669,"íķµ":10670,"íķĺëĭ¤ë©´":10671,"ëĲĺìĹĪìĬµëĭĪëĭ¤":10672,"ĠìĿĮìĪĺìļķìĿĢ":10673,"ĠíĶ¼ëĶ©":10674,"Ġê°Ģìĺ¨":10675,"ĢìĿĦ":10676,"Ġë³ĢìĦ±":10677,"Ġë¶ĪìķĪíķ´":10678,"ĨĵìĿĮ":10679,"ĠìķĪëĤ´íķ´ë":10680,"Ġíĺ¸íĿ¡ê³¤ë":10681,"§Ģê±°ëĤĺ":10682,"ĠìĽĲë":10683,"Ġê¸Īë°©":10684,"ater":10685,"Ġë¬»ìĸ´ëĤĺì":10686,"ìĥĪë²½":10687,"Ġë°Ľìľ¼ìĭ¤":10688,"Ġì»¨ëĶĶìħ":10689,"íĺ¸íĿ¡ê¸°ê³Ħ":10690,"ĠëıĻê³µ":10691,"aque":10692,"Ġìŀ¬ë°ľë":10693,"íĺ¸íħĶ":10694,"ĠìŀĺìķĪë":10695,"Ġë²łìĬ¤íĥĢìłľ":10696,"Ġìĸ´ëĸ»":10697,"ìĿĺíķĻ":10698,"Ńī":10699,"ĠíĦ°ë¹Ħë":10700,"íĻĺì":10701,"Ġnylon":10702,"¹ĦíĥĪ":10703,"Ġìĸĳì¹ĺ":10704,"Ġêµ¬ìĦĿ":10705,"ìŀĺë¨¹ìĿĮ":10706,"Ġelevation":10707,"Ġëĵ£ê³ł":10708,"´ëĤ´ë":10709,"Ġê·¸ìłľ":10710,"ĠëĮĢìĭł":10711,"ĠíķĺìķĪê²Ģ":10712,"Ġìŀ¬íĻľì¹ĺë£Įìĭľ":10713,"Ġë¶Ģë¶Ħìłģìľ¼ë¡ľ":10714,"ê²ĢìĤ¬ê²°ê³¼":10715,"gan":10716,"ĠíĬ¹ìĿ´ìĤ¬íķŃìĿĢ":10717,"Ġswelling":10718,"į°ìĬ¤":10719,"ĠíķĺìĿ´íı¬ìķĮëŁ¬ìłľëĭī":10720,"ĠFurosemide":10721,"Ġsim":10722,"ìķ½ê³¼":10723,"ĠìłĦìĿ¼ë":10724,"Ġìŀ¥ìĹ¼ìĹĲ":10725,"íĻľëıĻ":10726,"UT":10727,"ë¶ķ":10728,"Ġcann":10729,"Ġëĭ¹ìŀ¥":10730,"Ġìĭ¬ìŀ¥ê²Ģì§Ħ":10731,"ates":10732,"Ġë¯¸ìĦ¸":10733,"Ġulceration":10734,"Ġìĭ¤ìĭľíķĺê³ł":10735,"ì²ĺì¹ĺë":10736,"Ġtacrolimus":10737,"ĠìĥģíĥľìĿ´ëĤĺ":10738,"Ġìĸ¸ìłľ":10739,"Ġsample":10740,"ling":10741,"ĥĪ":10742,"Ġì²ĺë°©íķ´ëĵľë¦¼":10743,"Ġê¸°ëĮĢ":10744,"Ġë°°ì¶ľ":10745,"Ġmorph":10746,"bi":10747,"Ġíĺ¸íĿ¡ìĿĮ":10748,"ococc":10749,"ytes":10750,"ìĿ¸ìĿ´":10751,"Ġedta":10752,"Ġmala":10753,"ı¬ë":10754,"Ġuter":10755,"ĠìĪ¨ìī¬":10756,"ëªĩ":10757,"Ġë¨¹ìĹĪìĿĦ":10758,"inemia":10759,"Ġê¸´ìŀ¥":10760,"ĠíĺĪê´´":10761,"Ġê¸īìĹ¬ëŁī":10762,"íĬ¸ë¦´":10763,"Ġì¢ħê´´ìĿĺ":10764,"Ġê¸°ëł¥ìłĢ":10765,"Ġëª½":10766,"ìĦ±ìĪł":10767,"Ġvincristine":10768,"ĠëŃĶê°Ģ":10769,"ê°ĲìĨĮì¦Ŀ":10770,"ëłĪë":10771,"Ġê²ĢìĤ¬ìĹĲ":10772,"Ġìľłì§Ģíķĺë©°":10773,"ëĺ":10774,"ophanol":10775,"Ġtlk":10776,"íĶĦë¡ĿìĬ¤":10777,"Ġenter":10778,"ĠìķĪê³ł":10779,"Ġcephazolin":10780,"ĠíĹĪë²ħ":10781,"ĠCPE":10782,"Ġìĭ¬ì´ĪìĿĮíĮĮ":10783,"ĠìĿĳê¸īì²ĺì¹ĺ":10784,"Ġìķ¼ê°ĦìĹĲ":10785,"Ġê²¨ìļ¸":10786,"ĠìķĪíĸĪìĿĮ":10787,"íļĮë¡ľ":10788,"roprus":10789,"Ġcortisol":10790,"Ġloading":10791,"Ġê´ľì°®ëĭ¤ê°Ģ":10792,"Ġë¨¹ìĿ´ë©´ìĦľ":10793,"Ġrh":10794,"Ġfamotid":10795,"Ġfemur":10796,"ĠIN":10797,"°ĺìĤ¬":10798,"Ġìķłê¸°":10799,"Ġì§Ħëĭ¨ë°Ľê³ł":10800,"Ġë°°ìķ¡ê´Ģ":10801,"ĠíĿīë§īê³µê°ĦìĹĲìĦľ":10802,"wo":10803,"Ġìĸĳíĺ¸íķł":10804,"Ġmaintenance":10805,"ĠëĦ¤ë·¸ëĿ¼ìĿ´ìł¸":10806,"ĠìĿ´ë©ĶìĿ¼":10807,"¼ë¥¨íĺĪì¦Ŀ":10808,"íķĺìĭŃëĭĪëĭ¤":10809,"íķĺìħĶìķ¼":10810,"Ġìŀ¥ì°©ì¤ĳ":10811,"ŀ¬ì§Ħ":10812,"íĺĦì¦Ŀê²½ê³¼":10813,"ìĤ¬ìľ¡íĻĺê²½":10814,"Ġpanel":10815,"Ġìĥģíĥľë¥¼":10816,"ĠìĦŀìĸ´ì£¼":10817,"Ġìļ°ìķĪìĿĺ":10818,"Ġíķľìĭľê°Ħ":10819,"dibular":10820,"Patellar":10821,"lob":10822,"¦´ë¡ľ":10823,"Ġless":10824,"Ġì¢Įì¸¡ê·Ģ":10825,"Ġëĵľë¦¬":10826,"low":10827,"Ġíķµê²½íĻĶ":10828,"êµ¬ìłľ":10829,"Ġëĭ¹íĻĶëĭ¨ë°±":10830,"Ġìŀ¬ë°ľìĭľ":10831,"ĠìķĪì¢ĭìķĦìĦľ":10832,"Ġëĺ¥":10833,"ŀħ":10834,"íĻĶíķĻ":10835,"alexin":10836,"ĠíķĺìĭľëĿ¼ê³ł":10837,"Ġê°ĢëĬĶ":10838,"Ġë³Ħëĭ¤ë¥¸":10839,"ft":10840,"Ġíİĺëħ¸ë°Ķë":10841,"Ġfhno":10842,"Ġíķĺìĭłëĭ¤ê³ł":10843,"phrine":10844,"Ġê°ĲìĨĮíķĺìĹ¬":10845,"Ġcompl":10846,"Ġspot":10847,"peration":10848,"ìĽĲíķĺìĭ¬":10849,"ĠëĤ®ê²Į":10850,"Ġê´ľì°®ëĭ¤ê³ł":10851,"Ġì¢ħìĸĳìĿĺ":10852,"ìĭĿìļķìĿĢ":10853,"ĠìĻ¸ê³¼ìłģ":10854,"Ġê²½ê³¼ë³´ê¸°ë¡ľ":10855,"Ġhon":10856,"Ġì¹¨ìĿĦ":10857,"ĺ¤ëĬĶ":10858,"ë©´íļĮ":10859,"Ġë§Įìł¸ì§Ĳ":10860,"Dx":10861,"Ġìŀłë":10862,"ĠìĿ´ìĻĦ":10863,"Ġë¹µë¹µ":10864,"US":10865,"´íĸĪ":10866,"Ġmildly":10867,"ê¹Įì§Ħ":10868,"Ġ34":10869,"íħĮë":10870,"ëĤ´ìĻ¸":10871,"ĠCr":10872,"ĠíĬ¹ìĿ´ë³ĢíĻĶ":10873,"Ġê·¸ìłĢê»ĺ":10874,"¤¬":10875,"Ġacc":10876,"Ġì¶Ķì²ľëĲ©ëĭĪëĭ¤":10877,"ìĤ¼ì¶ľë¬¼":10878,"Ġê¸¸ëĥ¥ìĿ´":10879,"íķŃìķĶ":10880,"Ġë°ķìłķíĽĪ":10881,"Ġforelimb":10882,"ĠìĦľìļ¸ëĮĢ":10883,"ì§Ģë©´ìĦľ":10884,"į°ìĬ¤íĥĢ":10885,"Ġëª©íĳľ":10886,"ĥģìĬ¹":10887,"Ġê°Ħê¸°ëĬ¥":10888,"Ġopen":10889,"TIV":10890,"================":10891,"ìłķëıĦë":10892,"Ġond":10893,"ococcus":10894,"ĠsBP":10895,"ìłĢíķĺì¦Ŀ":10896,"fr":10897,"Ġpalp":10898,"Ġëĵ¤ìľ¼ìħ¨ìĿĮ":10899,"©ĶëĶĺ":10900,"Ġnpo":10901,"ìĨĮë³Ģ":10902,"Ġìĸ´ëĸ»ê²Į":10903,"´ë¶ĢìľĦ":10904,"ophag":10905,"Ġvalve":10906,"íľ":10907,"ëĭ¤ëŁī":10908,"ĠíĶĮ":10909,"ĠëĤĺìĿ´ê°Ģ":10910,"Ġlevel":10911,"Ł¬ì§ĢëĬĶ":10912,"ł¨ë":10913,"ĠëĤ´ìĽĲìĥģëĭ´":10914,"ĠíķŃìĤ°íĻĶ":10915,"ê²ĢìĤ¬ëĬĶ":10916,"ê°Ħì¤ĳ":10917,"Ġì¹ĺë§¤":10918,"ĠíıĲì¶ľíĺĪ":10919,"Ġíķľëĭ¬ëĴ¤":10920,"ê¸°ë©´":10921,"ĠìķĦë¯¸ëħ¸íķĦë¦°":10922,"Ġê°ĸê³ł":10923,"ĠBi":10924,"ĠëĤ´ìķĪê°ģ":10925,"Ġëĭ´ì¦Ļ":10926,"Ġë°©ê¸Ī":10927,"ĠìķĶëª¨ëĭĪìķĦ":10928,"ĠìķĪëĲĺë©´":10929,"iderm":10930,"Ġconj":10931,"ĠìĻĶëĭ¤ê°Ķëĭ¤":10932,"Ġê¸°ì¤Ģìľ¼ë¡ľ":10933,"ĠëĤĺíĥĢëĤ¬":10934,"Ġì¶Ķê°Ģìķ½":10935,"Ġvitreal":10936,"Ġnumber":10937,"ĠMGT":10938,"Ġë¿Į":10939,"Ġìŀ¬ìŀ¥ì°©":10940,"Ġë°©ìļ¸":10941,"Ġclear":10942,"Ġperformed":10943,"ove":10944,"Ġsha":10945,"ĠíĻĺìŀĲëĬĶ":10946,"resis":10947,"ìĽĢì§ģ":10948,"Ġê±±ìłķíķĺìĭ¬":10949,"etc":10950,"¥ĺë":10951,"ëĭĺë":10952,"ë³¼":10953,"ensory":10954,"Ġì§Ģì¼ľë³´ìĭľê³ł":10955,"ocardiography":10956,"Ġìĭ¤ìĭľíķĺê¸°ë¡ľ":10957,"Ġíı¬ëıĦëĭ¹":10958,"Ġtimeiv":10959,"ĠTS":10960,"weeks":10961,"ĠApp":10962,"ì¢ĮìķĪ":10963,"ĠìłĪëĮĢ":10964,"Ġê°ĢìĬ´":10965,"Ġì¹ĺë£Įë¶ĢìľĦ":10966,"Ġìłķì²´":10967,"°ĺìłĲ":10968,"Ġìķ½ëıĦ":10969,"ĠìķĪëĲĺìĸ´":10970,"Ġaudible":10971,"ìĻĢì":10972,"Ġcorona":10973,"ĦĪìĬ¤":10974,"Ġdm":10975,"ì¹´ëĶĶìĺ¤":10976,"Ġì¤ĳìĹ½":10977,"ĠìĹ¼ì¦Ŀìľ¼ë¡ľ":10978,"Ġë³´ìĿ´ê¸°":10979,"ì£¼ê°Ħ":10980,"Ġanis":10981,"ĠëĨĴì§Ģ":10982,"ë¦¼íĶĦìłĪ":10983,"Ġmaxon":10984,"Ģ¸":10985,"íĮĲë":10986,"Ġshock":10987,"¶ģëĮĢ":10988,"Ġaki":10989,"Ġê¹½":10990,"łĲ":10991,"ĠìľłìĹ°ì":10992,"roprusside":10993,"Ġãħģ":10994,"ì¢ħìĿ¼":10995,"Ġdetachment":10996,"Ġìķ½íķĺê²Į":10997,"tinu":10998,"Ġì²´ì¤ĳê´Ģë¦¬":10999,"Ŀ¼ë¯¼":11000,"ł¸ìĿĮ":11001,"¥µ":11002,"Ġtg":11003,"pan":11004,"ĠìķĶíĶ¼ìĭ¤ë¦°":11005,"ĠìķĦíĶĦ":11006,"ì§ĢëĤľë²Ī":11007,"zy":11008,"ĠíĻĺìŀĲìŀħëĭĪëĭ¤":11009,"Ġê¼¬":11010,"ĠìĪĺìĿĺìĤ¬ìŀħëĭĪëĭ¤":11011,"Ġì½Ķê°Ģ":11012,"Ġë¹Ħê³µ":11013,"Ġlymphadenopathy":11014,"Ģì§ĢíĺĦ":11015,"Ġë¹Ħìĥģ":11016,"ĠëĪĪì£¼ë³Ģ":11017,"ostrid":11018,"ë¶Ħë¦¬":11019,"Ġëĵľ":11020,"ear":11021,"Ġíĺ¸íĿ¡ìĪĺëĬĶ":11022,"Ġblock":11023,"oxych":11024,"ĺĢìĿĮ":11025,"ìĥĿìĪł":11026,"Ġìľłì§Ģíķĺê¸°ë¡ľ":11027,"ŀĪëĬĶ":11028,"Ġëĩ¨íĮ©":11029,"íķ´ì£¼ìĭ¤":11030,"Ġë³ĳë³Ģë¶Ģ":11031,"Vë¡ľ":11032,"Ġtvi":11033,"íĻĺê²½ë³ĢíĻĶ":11034,"ĠìłĪë°ĺ":11035,"ĠëłĮ":11036,"Ġdate":11037,"ê±°ëĿ¼ê³ł":11038,"ëĭ´ê´Ģ":11039,"¦¬ë©´":11040,"Ġìĺģìĥģê²ĢìĤ¬ìĥģ":11041,"ĦëŁ":11042,"ĠêµĲíĨµìĤ¬ê³ł":11043,"ĠAbdomen":11044,"Ġëı¼ì§Ģ":11045,"Ġ29":11046,"ĠFS":11047,"par":11048,"Ġeosinophil":11049,"Ġë¨¹ìĿ´ìĭľëĬĶ":11050,"Ġëĭ¨ëĭ¨íķľ":11051,"Ġì§ĢëĤľë²ĪìĹĲ":11052,"Ġrani":11053,"mendation":11054,"Ġmultifocal":11055,"asc":11056,"ĠìĤ¬ë£ĮìĻĢ":11057,"Ġdexamethasone":11058,"ìĨĮíĻĶê¸°ê³Ħ":11059,"Ġë¹Ħìľ¨":11060,"§Ģë©´ìĦľ":11061,"ĠíĶ¼íķĺì¶ľíĺĪ":11062,"ĠìĥĿê°ģëĲĺë©°":11063,"ĠìŀĲë°ľë¡ľ":11064,"ķĢ":11065,"Ġem":11066,"Ġ32":11067,"Ġì§Ħë£Įë¥¼":11068,"ë¶ĪëĬ¥":11069,"Ġ96":11070,"Ġfelv":11071,"ĠìĹ°êµ¬ê°ľ":11072,"ìłľê±°ì":11073,"Ġìľłë£¨":11074,"ìĬ¬ê´ĢìłĪ":11075,"Ġmirtazapine":11076,"įľ":11077,"esis":11078,"ropenem":11079,"ħĶëıĦ":11080,"Ġê±°ì¹ľ":11081,"ump":11082,"ê²°ìłĪ":11083,"Ġglob":11084,"ĠëĬĳê³¨":11085,"Ġìŀħêµ¬":11086,"£¨ìĤ¬ë":11087,"Ġìĭ¬ìŀ¥ì§ĪíĻĺ":11088,"Ġìŀ¡ê³ł":11089,"Ġì»¤ì§Ħ":11090,"Ġpulse":11091,"rown":11092,"oxycholic":11093,"ĺë¦¬":11094,"Ġë§İìķĦì§Ĳ":11095,"Ġneuro":11096,"Ġnec":11097,"íķĺëł¤ê³ł":11098,"by":11099,"ĭ¤ë":11100,"Ġindex":11101,"Ġì¢ĭìķĦì§Ģê³ł":11102,"ĠìłĦìĹĲëıĦ":11103,"ĠíĶ¼ë¶Ģì§Ħë£Į":11104,"Ġrbc":11105,"ìŀ¬ê²Ģ":11106,"Ġëĭ¤ëĭĪëįĺ":11107,"yph":11108,"êµ¬ì¹ĺ":11109,"ĠëĤ´ìĿ¼ë¶ĢíĦ°":11110,"ĠìĨĮíĻĶìłľ":11111,"ìĹĪëĭ¤ê³łíķ¨":11112,"ĠìĿ´íĭĢìĹĲ":11113,"ìŀĲìĦ¸":11114,"ê·¼ê³¨ê²©ê³Ħ":11115,"ĠìĿ´ë²ĪìĹĲëĬĶ":11116,"ĠíķĺìĭŃëĭĪëĭ¤":11117,"ĠRE":11118,"ĠëĨĢì":11119,"ë¹Ħëĩ¨ê¸°ê³Ħ":11120,"Ġìĺ¤ìĹ°ìĦ±":11121,"¼Īë":11122,"ĪëįĶëĭĪ":11123,"Ġê³łëł¤ì¤ĳ":11124,"Ġbenign":11125,"ĻĢì":11126,"Ġcoxofemoral":11127,"ĠìĤ¬ìĿ´ì¦Ī":11128,"AN":11129,"ĠNSAID":11130,"Ġê¹ĬìĿĢ":11131,"ĠìĨĮë¦¬ì§Ģë":11132,"ĠìĺĪë¯¼íķľ":11133,"ĠSAMe":11134,"Ġìľ¤":11135,"Ġì¢ħíķ©íĺĪìķ¡ê²ĢìĤ¬":11136,"Ġëļľëł·íķĺê²Į":11137,"Ġascites":11138,"Ġ33":11139,"Ġëĩ¨ë¹Ħì¤ĳ":11140,"ĠëįĶë":11141,"ì±ħ":11142,"Ġì¹¼ìĬĺ":11143,"ĠìĪĺìĪłìłģìĿ¸":11144,"°ľìłģ":11145,"venia":11146,"Ĥ´ë¡ľ":11147,"ĠFHNO":11148,"Ao":11149,"ëĦ¥":11150,"Ġëĭ¤ìĸĳíķľ":11151,"Ġìĸĳë°°ì¶Ķ":11152,"Ġê°ĢëĬ¥íķł":11153,"Ġë°ĶìĿ´íĬ¸ë¦´":11154,"ĠíĶ¼ë¶ĢìłĪê°ľ":11155,"Ġë¬¼ì²´ê°Ģ":11156,"Ġë³ĢíĻĶë¡ľ":11157,"Ġvari":11158,"tics":11159,"£¨ìĤ¬ë£¨ë":11160,"catheterization":11161,"ë¶Īê°Ģ":11162,"¶Ħëªħ":11163,"Ġì¢ĭìķĦì¡ĮìĿĮ":11164,"ĠíĿĲë":11165,"ì§Ģê±°ëĤĺ":11166,"Ġì§Ħìŀħ":11167,"ensive":11168,"Ġíģ´ë¡ľëŀĮ":11169,"pos":11170,"ĠìķĪëĲĺëĬĶ":11171,"íķ´ìļĶ":11172,"ĠìĥģíĶ¼ìĦ¸íı¬":11173,"repto":11174,"Ġê·¸ëŁ°ì§Ģ":11175,"Ġpup":11176,"ĠTreatment":11177,"ê²°ìłķ":11178,"Ĳëĸ¡":11179,"ì§ķ":11180,"Ŀ¼ë°Ķ":11181,"Ġë¯¸ëģĦëŁ¬":11182,"Ġfur":11183,"ŀ¥ëĭĺ":11184,"ĠìķĪì¢ĭìĿĢ":11185,"Ġvascular":11186,"Ġìłģê²Į":11187,"ĠTVI":11188,"Įë¦¬ë":11189,"ĠìĦ¬ìľł":11190,"Ġì§Ģê¸Īê¹Įì§Ģ":11191,"ê¸ĪìĭĿ":11192,"Ġxal":11193,"Ġì¢ĭìķĦíķ¨":11194,"CN":11195,"Ĭµìłľ":11196,"ìĥģìĿĺ":11197,"Ġinterpre":11198,"Ġdystrophy":11199,"Ġdent":11200,"Ġê±¸ë¡ľ":11201,"ĠKidney":11202,"Ġtro":11203,"ĠLVPW":11204,"Ġê¸īê²©íķľ":11205,"ê°Ħìłĳì¢ħ":11206,"Ġê¿":11207,"ĠíĻķìĹ°":11208,"ĠìĤ¬ì§Ħì²¨ë¶Ģ":11209,"icin":11210,"ĠëĤ´ìĿ¼ëıĦ":11211,"Ġë³´íĺ¸ìŀĲë¶Ħê³¼":11212,"Ġê¸°ë³¸ìłķë¦¬":11213,"ĠTLK":11214,"Ġpelv":11215,"ìķĺëĭ¤ê°Ģ":11216,"Ġëĭ¨ëıħ":11217,"ĠìĤ¼ì¶ľë¬¼ìĿĢ":11218,"ĵ¯ìĿ´":11219,"Ġíı¬íķ¨íķľ":11220,"Ġfibrin":11221,"Ġìŀ¥ë":11222,"Ġinterval":11223,"ĳł":11224,"íĻĺë":11225,"ìĭľìĹĲëĬĶ":11226,"Ġëľ¸":11227,"Ġì¦Ŀê°ĢëĲĺìĸ´":11228,"Ġadenocarcinoma":11229,"Ġgait":11230,"ìĿ´ìª½":11231,"ĠíķľëĳĲë²Ī":11232,"Ġê²½ìļ°ìĹĲëĬĶ":11233,"Ġì¶©ë¶Ħíķľ":11234,"pcv":11235,"Ġìļ°ìĨĮ":11236,"ìĭ¬íĺĪê´Ģê³Ħ":11237,"£¨ìĤ¬ë£¨ë¯¼":11238,"Ġíľ´ì":11239,"Ġìĺ¤ì¤ĮìĿĦ":11240,"echia":11241,"Ġë°Ģë":11242,"Ġspondylosis":11243,"Ġregurg":11244,"ìĽĢì¦Ŀ":11245,"ĠìķĶíı¬ìł¤":11246,"lr":11247,"ĠëĤ´ë³µìķ½ë§Į":11248,"Ġíķ¥ìķĦìĦľ":11249,"ĠIII":11250,"idoc":11251,"Ġê´ľì°®ìĿĢ":11252,"ĠìķĪë¨¹ëĬĶ":11253,"Ġpp":11254,"ìĤ¬ë¯¸":11255,"Ġlarge":11256,"ĠìĿ´ìĺ":11257,"ë²Ħ":11258,"ĠìŀĳìķĦ":11259,"Ġbulging":11260,"Ġcs":11261,"Ġì²ĺë°©ìłĦ":11262,"Ġê³łíĺĪëĭ¹":11263,"ĠëĤĺëĪĦ":11264,"Ĩ¨":11265,"£¨ë°į":11266,"íĻķìĿ¸ëĲ¨":11267,"³ĢëıĦ":11268,"´ëį°":11269,"ìĿ´ëĿ¼ë©´":11270,"ĠìĭľìĹĲëĬĶ":11271,"ĠíıĲìĦ±":11272,"Ġë¶Īëªħ":11273,"ê¸°ìĻĢ":11274,"Ġê¶Įíķ´ë":11275,"ĠAcute":11276,"Ġchx":11277,"Ġê³¼ì¦ĿìĭĿ":11278,"gress":11279,"ë§İìĿ´":11280,"ĠíĨµë³´":11281,"íĶ¼ë¶Ģì":11282,"ĠìŀĲë°ľê¸°ë¦½":11283,"ìĹĪìĸ´ìļĶ":11284,"ĠìķĪëĤ´ì":11285,"Ġintact":11286,"Ġê²©ë¦¬":11287,"Ġend":11288,"¥´ë©´":11289,"Ġgv":11290,"pirin":11291,"Ġë¶Ģê·¼":11292,"Ġìķ½ê°ĦìĹĲ":11293,"ĠìĺĪíĽĦë":11294,"Ġmetabolic":11295,"Ġcholec":11296,"Ġëħ¸ëł¹ê²¬":11297,"ĠAlb":11298,"ĠëĶ±ëĶ±íķľ":11299,"ĠìķĦëĭĲ":11300,"íŀĪê³ł":11301,"Ġê²°ìĦĿìĿ´":11302,"Ġìº£":11303,"ĠìĿĮìĪĺëŁīìĿĢ":11304,"¥´íħĮ":11305,"Ġê³µê¸īìĭľ":11306,"eine":11307,"ê²°ë§īìĹ¼":11308,"ĠìĹ°ëł¹":11309,"ħ¸íĢ¸":11310,"ìłĦì¦Ŀ":11311,"Ġë¶Ħì":11312,"uman":11313,"¹Ħì¡¸":11314,"cimetidine":11315,"Ġëª»íĸĪìĿĮ":11316,"ì½ľë¦¬":11317,"íĶ¼ëıĦê·¸ë":11318,"Ġti":11319,"ìĿ´ëįĺ":11320,"Ġê±°ì¹ł":11321,"Ġweak":11322,"Ħ£":11323,"Ġëĸ¼":11324,"ĭ¸":11325,"vement":11326,"Ġì¦Ŀê°ĢíķĺìĹ¬":11327,"Ġë¶Īë¶Ħëªħ":11328,"Ġìļ°ìĨĮìĤ°":11329,"ĠíĺĢë":11330,"ĠìĹĨì§Ģë§Į":11331,"Ġchang":11332,"Ġíģ¬ì§Ģ":11333,"ĠìĹ´ìĿ´":11334,"ĠìĹ°ìĸ´":11335,"Įë¦¬ë£¨ë":11336,"ĢìĤ¬íķŃ":11337,"Ġtrem":11338,"Ġê³łê°ľë¥¼":11339,"ĠëĪĦìĽĮìŀĪìĿĮ":11340,"ëĤĺì¡¸":11341,"04":11342,"Ġì§Ģê°Ħë":11343,"Ġë¬¼ìĸ´ë³´ì":11344,"ilep":11345,"Ġdiabetic":11346,"ĠìºĲëĭĪ":11347,"pes":11348,"ĠìĪĺìłľ":11349,"ĠMP":11350,"Ġêµ¬íĨłëıĦ":11351,"Ġê°Ħí":11352,"Ġdpo":11353,"ìĬ¤íĥĢë¯¼":11354,"Ġë¨¹ìĹ¬ì£¼ìĦ¸ìļĶ":11355,"´ìľł":11356,"Ġëª»ëľ¨":11357,"ê°ľë¡ľ":11358,"íĺĳ":11359,"Ġì¶Ķìłĳ":11360,"Ġê¸°íĥ":11361,"ĠìłĢëħģê¹Įì§Ģ":11362,"Ġë²Ĺê²¨":11363,"ìĭŃëĭĪëĭ¤":11364,"isual":11365,"Ġì§ĳìĹĲê°ĢìĦľ":11366,"Ġë°ĺëĮĢì":11367,"Ġë¹¨ê°Ľê²Į":11368,"íĶ¼ëıĦê·¸ëłĲ":11369,"oose":11370,"ìĿ´ìĬ¤":11371,"Ġë°ĺìĿĳìĦ±":11372,"Ġëĭ¤ë¦¬ìĹĲ":11373,"ĠíĻķìŀ¥ëĲľ":11374,"luxation":11375,"Ġls":11376,"Ġsmecta":11377,"íĺĦìļ±":11378,"Ġpentox":11379,"ĠëıĻë¬¼ë³ĳìĽĲìĹĲ":11380,"Operation":11381,"Ġë°°ëĨį":11382,"dow":11383,"ë§ĮìĦ±":11384,"Ġtend":11385,"Ġamikacin":11386,"ĠíħĮìĺ¤":11387,"ìĿĺë¡ľ":11388,"Ġìª½ìľ¼ë¡ľ":11389,"aine":11390,"ĠìŀĪê²Į":11391,"ìĿ´ì»µ":11392,"180":11393,"Ġê°ĲìĨĮê°Ģ":11394,"ĠìĿĮìĭĿìĿĦ":11395,"ĠíŀĺìĿĦ":11396,"Ġìĭ¬íķĺì§ĢëĬĶ":11397,"Ġoccur":11398,"Ġë¶Ģì°©":11399,"ìĭľëĶ":11400,"Ġnp":11401,"Ġë¹ĦìĹ¼":11402,"Ġì£¼ë³Ģë":11403,"Ġì²ĺë°©ìĿĢ":11404,"Ġìĭ¬ìŀ¥ìĿ´":11405,"ĠCRE":11406,"Ġíķ¥ì§Ģ":11407,"Ġë¶Īíİ¸íķ´íķ¨":11408,"ìĬ¤ì¼ĢìĿ¼ë§ģ":11409,"Ġmobilization":11410,"Ġì´ĪìŀĲ":11411,"Ġswab":11412,"Īë¦°":11413,"Ġìľµ":11414,"ê°Ģìĥģ":11415,"ĠìĿĳê¸īìĭ¤":11416,"Ġê·¼ë§ī":11417,"Ġëľ¨ê³ł":11418,"Ġactivity":11419,"ĠíĻķìŀ¥ìĿ´":11420,"ĠíĮĮíĸīìĿĢ":11421,"ĠëıĮì¶ľ":11422,"Ġkeratitis":11423,"thal":11424,"Ġvitbc":11425,"ìĹĲì½ĶìĦ±":11426,"Ġëħ¸ì¶ľë":11427,"ĠìĪłë¶ĢìĨĮëıħ":11428,"ĠìķĦëĭĪë©´":11429,"acet":11430,"ĠìĪĺìĭł":11431,"Ġê°Ħë¹ĦëĮĢ":11432,"Ġë£¨ë":11433,"ĺì²Ń":11434,"ìĭľìķĦ":11435,"ìĸ´ì§Ģê³ł":11436,"ĠìķĦë£¨ìĤ¬ë£¨ë¯¼":11437,"ĺ¤ìĭ¬":11438,"íķľëį°":11439,"ĠëĳĲêº¼ìĽĮ":11440,"ìĽĲíĺķ":11441,"Ġë¯¸ìĪĺ":11442,"ëĲĺê±°ëĤĺ":11443,"WO":11444,"Ġìĺħ":11445,"Ġfailure":11446,"Ġê°ĲìŀĲ":11447,"ĠìķĮìķĦë":11448,"ĠëĳĲê°ľ":11449,"ë°ľëª©":11450,"ĠíĻķìĭ¤íŀĪ":11451,"NRF":11452,"Ġdig":11453,"ıĦë¡ľ":11454,"łĪìĿ¸":11455,"Ġum":11456,"Ġëģ¼ê³ł":11457,"ĠëĮĢíĩ´ê³¨ëĳĲ":11458,"Ġvitreous":11459,"ìĬ¨":11460,"ĠEl":11461,"ulin":11462,"ĠInf":11463,"DI":11464,"atan":11465,"Ġcortical":11466,"ëĤĻ":11467,"Ġëĵľë¦´":11468,"Ġregenerative":11469,"ĠíķĺíĬ¸ë§Į":11470,"ĠëĨĴìĿĦ":11471,"ìķłë":11472,"ĠìĭĿìĤ¬ëŁī":11473,"Ġë¹ĦíĥĢë¯¼":11474,"Ġê±¸ë¦°":11475,"Ġëĥīìŀ¥":11476,"ĺ¬ë":11477,"Ġìĺ¤ìĭł":11478,"ĠìĿ¼ìĸ´ëĤĺ":11479,"ĠìĹ¬ëŁ¬ê°Ģì§Ģ":11480,"Ġìĵ°ê³ł":11481,"ĠEOD":11482,"ĠìľłìĹ°ì¦Ŀìĥģ":11483,"ĠìĹĲëĬĶ":11484,"ĠLow":11485,"ì¹¨ì°©":11486,"ĠëĤ´ìĽĲëª©ìłģ":11487,"ë°ľì¹ĺ":11488,"Ġê°Ģë¹ł":11489,"ĠëĮĢìĤ¬":11490,"Ġspp":11491,"ëĵľë¦Ħ":11492,"Ġê³łëł¤ëĲĺëĬĶ":11493,"Ġrami":11494,"Ġì£¼ìĤ¬ìłľ":11495,"Ġë²ĪìĶ©":11496,"ury":11497,"ì½ĶëĤĺì¡¸":11498,"Ġthr":11499,"Ġleukocytosis":11500,"Ġìĭłìŀ¥ìĪĺì¹ĺëĬĶ":11501,"Ġpdh":11502,"Ġtibial":11503,"ĠìľĹ":11504,"ĠìľĦë¡ľ":11505,"ĠíŀĪ":11506,"ê´ĢìĦ±":11507,"ë°©ìļ¸":11508,"íĸĪìĿĦëķĮ":11509,"obal":11510,"Ġì¹ĺê³¼ì¹ĺë£Į":11511,"ê¸ĭ":11512,"íıĲë":11513,"Ġreport":11514,"Ġê²½íĸ¥ìĿ´":11515,"ĠìłĦë¶ģëĮĢ":11516,"Ġê´ľì°®ìķĺëĬĶëį°":11517,"Ġì°¡ê·¸ë":11518,"Ġìĺ¤ëĬĺìķĦì¹¨":11519,"Ġheartworm":11520,"Ġregurgitation":11521,"Ġhepatomegaly":11522,"Ġstim":11523,"Ġë³ĳìĽĲìĹĲìĦľëĬĶ":11524,"ĠìĹ¬íĸī":11525,"ĠìĸĳìĥģìĿ´ëĤĺ":11526,"ĠíĹĲëĸ¡":11527,"Ġìķŀëĭ¤ë¦¬ë¥¼":11528,"Ġê²ĥì²ĺëŁ¼":11529,"Ġëĩ¨ë°°ìĸĳ":11530,"ĠíĺĪê´ĢíĻĶ":11531,"SAP":11532,"ĠìłĢìķĮë¶Ģë¯¼íĺĪì¦Ŀ":11533,".)\"":11534,"Ġfundus":11535,"ĠíĪ¬ëªħ":11536,"ie":11537,"ĠíĬ¹ë°ľìĦ±":11538,"ĠìĥĿê²¨ìĦľ":11539,"íĶĦì¢ħ":11540,"Ġcpa":11541,"ìļ°ìķĪ":11542,"Ġê³µê¸īíķĺëĭ¤":11543,"Ġê¸°ë³¸íĺĪì²Ń":11544,"Ġìĭ¤ì§ĪìĿĺ":11545,"ĠìĥīìĨĮ":11546,"ĠëĭŃë¼Ī":11547,"ĻĦë£Į":11548,"enolol":11549,"ĠíĻķìĿ¸íĽĦ":11550,"ulitis":11551,"Ġcats":11552,"ĠìĤ¬ìłķìľ¼ë¡ľ":11553,"Ġê°Ģì§Ħ":11554,"Ġë¨¹ê³łëĤĺìĦľ":11555,"estinal":11556,"Ġíı¬íĻĶëıĦ":11557,"Ġë°ľê²¬ëĲĺì§Ģ":11558,"Ġê¹Ģì§ĢíĺĦ":11559,"Ġì¢ħíķ©ê²Ģì§Ħ":11560,"ìĿ´í":11561,"Ġë³ĢëıĻ":11562,"Ġê³§":11563,"Ġê¸°íĥĢìĤ¬íķŃ":11564,"ìĿ´ìĿĺ":11565,"ķĮëĬĶ":11566,"ĠìľĦìĹĲ":11567,"Ġíķĺë£¨ì¢ħìĿ¼":11568,"Ġê°ĲìĨĮíķĺê³ł":11569,"ĠìĦ±íĺķ":11570,"ìĿµ":11571,"Ġìĺ¤ìĭľê¸°ë¡ľ":11572,"¥ĺê°Ģ":11573,"KCl":11574,"Ġë§Įì§Ģ":11575,"Ġì§ĦíĸīíķĺëĬĶ":11576,"ĠìĪĺìĪłìĭľ":11577,"ĠìĤ¬ë£ĮëıĦ":11578,"Ġhypert":11579,"Ġìĺ¤íģĲíĶĦë¡ĿìĬ¤":11580,"ĠVisual":11581,"ĠíĦ°ë¹Ħì¡¸":11582,"Ġëĭ´ê´Ģ":11583,"ĠìĻĦë£Įíķ¨":11584,"Ġì¼Ģìĸ´":11585,"Ġinfectious":11586,"Ġê¹ĢíĺĦìļ±":11587,"Ġì¶ķëıĻ":11588,"íĥĢë°©":11589,"Ġpancreatic":11590,"uth":11591,"Ġìłł":11592,"ĠìłĢëħģëķĮ":11593,"ĠíĺĪìķķìķ½":11594,"©Ķíĥĳ":11595,"íĽĦêµ°":11596,"Ġì£¼ìħĶìĦľ":11597,"Ġì°¨íĽĦ":11598,"Ġcall":11599,"Ġì£¼ê°Ħëª¨ëĭĪíĦ°ë§ģ":11600,"mail":11601,"ìłľëıĦ":11602,"Ġëĭ¨ìĿ¼":11603,"ĠcT":11604,"Ġhome":11605,"ĠíĻķìĿ¸ìĿ´":11606,"ĠëĮĢë¹Ħ":11607,"Ġë²łëį°ìĬ¤íĥĢ":11608,"¨ëįĺ":11609,"ĠAKI":11610,"Ġíİ¸ìľ¼ë¡ľ":11611,"tebral":11612,"Ġë¶ģìĸ´":11613,"TIVE":11614,"Ķ¼ë":11615,"Ġê°ĲìĨĮì¦Ŀ":11616,"Ġvd":11617,"ìĭľë©°":11618,"Ġë³µìĪĺê°Ģ":11619,"ĠìĪĺìĪłë¹Ħ":11620,"Ġêµ¬íĨłëĤĺ":11621,"Ġë¨¹ì§ĢëĬĶ":11622,"ĠíĬ¹ìĿ´ì¦Ŀìĥģ":11623,"ĠMed":11624,"Ġë³´ìĬµìłľ":11625,"Ġì²ĺë°©ë°ĽìķĦ":11626,"ìĨĮìĭ¤":11627,"Ġë¶Ģëĭ´ìľ¼ë¡ľ":11628,"Ġë¶ĢíĦ°ëĬĶ":11629,"Ġì±Ħë¡ľ":11630,"Ġmitral":11631,"ĠìĤ°ì±ħíļŁìĪĺ":11632,"Ġotherwise":11633,"ĠìŀĦë":11634,"Ġìĺ¤ëĬĶ":11635,"Ġtherapyfull":11636,"ĠíĶĮëłĪìĿ´íĬ¸":11637,"ìĹħ":11638,"ĠëĤ´ìĽĲíķ´ì£¼ìĦ¸ìļĶ":11639,"ĠíĶ¼ì§Ģì":11640,"Ġê³¨ìĦ±":11641,"ulanic":11642,"ĠNPO":11643,"ĠíĬ¹ìĦ±":11644,"ĠíĶĮëŀ©":11645,"ìĿĺë¢°ë³ĳìĽĲ":11646,"33":11647,"ĠìķĪë©´":11648,"ĠìĤ´ë":11649,"ĠëłĮì¦Ī":11650,"och":11651,"ìĿ´ëħ¸íĢ¸":11652,"ĠìĿ´ìľ":11653,"ķìĬ¤":11654,"°ľìŀĳ":11655,"Ġê²¬ì¹ĺ":11656,"ĠìºĶìĤ¬ë£ĮìĹĲ":11657,"Ġë¸Įë¡¬ìĭł":11658,"Ġtug":11659,"ĠRec":11660,"íĺĪë¡ľ":11661,"ĠíĹ¤íĮĮì¹´ëĶĶìĺ¤":11662,"Ġì²ĺë°©íķ´ë":11663,"Ġì²ĺì¹ĺëĬĶ":11664,"oneph":11665,"ë´īì§Ģ":11666,"ĠíĿ°":11667,"ĠìĹĨëĭ¤":11668,"arch":11669,"íķ´ì£¼ìħĶìĦľ":11670,"Ġë°©ë²ķìľ¼ë¡ľ":11671,"ĠìĤ¶ìĿĢ":11672,"Ġê´Ģë¦¬ë¥¼":11673,"Ġë°ľëª©ê´ĢìłĪ":11674,"ìĥģíĥľë":11675,"ĠëĵľëłĪìĭ±ìĭľ":11676,"ĠëıĻê±°ë¬":11677,"ĠëĤ´ìĽĲíķĺìĭľ":11678,"íķłìĪĺ":11679,"Ġëħ¸ëŀĢê·Ģì§Ģ":11680,"»·":11681,"ĠìĥĪëģ¼":11682,"ĠìĿ´ìĺĪë¦°":11683,"Ġì¦Ŀìĥģê³¼":11684,"ĠìľłìĿĺìłģìľ¼ë¡ľ":11685,"ìĹĨìĸ´":11686,"Ġspironolacton":11687,"Ġê¹Įë§Į":11688,"ĠëŃĲê°Ģ":11689,"ê³¼ìĦ±":11690,"Ġë¶Ħíı¬":11691,"Ġë³´íĺ¸ìłľ":11692,"Ġë¹ĦìľĦ":11693,"Ġê°ĢëĵĿ":11694,"eposit":11695,"ê°ĢëģĶ":11696,"Ġìĥģëĭ´ì":11697,"ĠtimeëĤ´ìĻ¸":11698,"ĲĺìĹĪìĿĮ":11699,"ĠìĥĿê¸°":11700,"ĠDM":11701,"Ġì¡Į":11702,"Ġyou":11703,"Ġì§ĳìĹĲìĦľëıĦ":11704,"Ġfpl":11705,"ĠëĤĺê°Ķ":11706,"íĶĮëŀ©":11707,"Ġabdo":11708,"CRP":11709,"ĠìĽĢì§ģìŀĦìĿ´":11710,"Ġìľłì¹ĺë°ľì¹ĺ":11711,"rim":11712,"so":11713,"ĠíĶ¼íķĺë":11714,"Ġë§¤ëħĦ":11715,"ë¬ĺ":11716,"Ġreco":11717,"Ġì§Ħì°°":11718,"ĪĪ":11719,"Ġê³łê¸°ë":11720,"Ġì¶Ķê°ĢíķĺìĹ¬":11721,"ĠìĿĺìĭĿìĿĢ":11722,"Ġrecommend":11723,"ĠPSS":11724,"ĠìķĪëĲł":11725,"Ġì¼ĢíĨł":11726,"kal":11727,"Ġìº¡ìĬĲìķ½":11728,"Ġdetail":11729,"Ġë³´ìķĺ":11730,"Ġìĥģê¸°":11731,"comment":11732,"Ġê·¸ë£¨ë°į":11733,"ĠìłĲë§īìĥī":11734,"PE":11735,"eeding":11736,"Ġìŀ¬íĻķìĿ¸":11737,"ĠNaCl":11738,"Ġìĺ¥":11739,"ĠìŀĲê¸°":11740,"Ġíģ´ë¦¬":11741,"Ġë¶Ģëª¨":11742,"ĠìĹĨìľ¼ë¯Ģë¡ľ":11743,"ĠëĦ£ìĸ´":11744,"ìĹ´ì":11745,"Ġspinal":11746,"ĠíĥľìķĦ":11747,"Ġantihistamine":11748,"Ġgranul":11749,"AS":11750,"łĪê¸°":11751,"ë©°ì¹ł":11752,"Ġë¶īìĿĢ":11753,"ìĽĲìĿ¸":11754,"ìĭ¬íķ¨":11755,"ĠìĿ¼ëĴ¤":11756,"íĮĲë´īíķ©":11757,"72":11758,"ĵľëł¤":11759,"íŀĪìĬ¤íĥĢë¯¼":11760,"íĿ¥ë¶Ħ":11761,"ĠëĿ½íĪ":11762,"Ġë°Ķê¾¼":11763,"ëį°ë":11764,"ê±°ë¦¬ë©´ìĦľ":11765,"ĠëªħíĻķíŀĪ":11766,"Ġë°Ķê¾¸ê³ł":11767,"ì§Ģê°Ģ":11768,"Ġìĺ¤íĶĮë¡ĿìĤ¬ìĭł":11769,"Ġê°ĢëĬ¥íķĺëĭ¤ê³ł":11770,"Ġê¸°íĿī":11771,"ĠìĨĮë³Ģì":11772,"ĠìĭĿìĿ´ê´Ģë¦¬":11773,"Ġê°ĲìĨĮíķĺìĺĢìľ¼ëĤĺ":11774,"Ġvacu":11775,"ĮíĶĦ":11776,"Ġdem":11777,"íİĺ":11778,"ëª¨ëĭĪíĦ°ë§ģ":11779,"ĠìķĦíĥĪêµ¬":11780,"Ġë¶ķëĮĢì":11781,"ologist":11782,"Ġcytology":11783,"Ġì¹¨ëĮĢìĹĲìĦľ":11784,"ĠìĪĺëł¹ìĺĪìłķ":11785,"Ġ+/":11786,"ĠLVD":11787,"ëĮĢëĬĶ":11788,"ë°Ľê³ł":11789,"200":11790,"ĠìłĦìĭłìłģìĿ¸":11791,"Ġë³µíķ©":11792,"ĠìĬ¤íģ¬ë":11793,"Ġë³´ìĭľ":11794,"ĠìĦľìļ¸":11795,"Ġëªĩëĭ¬":11796,"ĠìķĦëĭĪì§Ģë§Į":11797,"ìĺģìĸĳìłľ":11798,"Ġnebulizer":11799,"66":11800,"ĠìĹ½":11801,"ĠëĨĴê³ł":11802,"ĠìķĦì§ģìĿĢ":11803,"BCS":11804,"ĠìłĢíķĺëĲĺìĸ´":11805,"Ġë³Ģìĥī":11806,"Ġìĸĳìŀ¬":11807,"ĠPost":11808,"Ġê°ĦìĿĢ":11809,"ìľ¼ìĭł":11810,"ìĪĺì¹ĺìĥģìĬ¹":11811,"Tr":11812,"ĠíĬĢìĸ":11813,"ĠëĨĴëĭ¤ê³ł":11814,"ĠìĹ¬ë¶ĢìĹĲ":11815,"ìľĦì¹ĺ":11816,"ĠChemistry":11817,"Ġê³¨ìĪĺ":11818,"Ġmosa":11819,"Ġba":11820,"ìłĦìĭł":11821,"Ġrel":11822,"ìŀĦìĿĦ":11823,"ĠLactate":11824,"Ġìĸ´ë¨¸ëĭĪ":11825,"Ġcutëĭ¹":11826,"Ġvet":11827,"íķ´ì§Ģê³ł":11828,"Ġê°Ħë³´ì¡°ìłľ":11829,"°Ķëª°":11830,"Ġìĸ´ëł¸ìĿĦëķĮ":11831,"°ĽìĿĮ":11832,"Ġê³łì¹":11833,"Ġlipidosis":11834,"ĠíĺĦìłĢ":11835,"Ġaspirin":11836,"Ġëĭ¥íĦ°":11837,"cep":11838,"ues":11839,"Ġìª":11840,"Ġëĭ¨ìĹ´":11841,"Ġtugor":11842,"Ġíķłë":11843,"Ġë§Ĳë¦°":11844,"Ġhas":11845,"tt":11846,"ìĭľë³´ëĭ¤":11847,"ĠëıĮì¶ľë":11848,"ĠíĶĮëŁ¬ìĭ±":11849,"ĠìĻķìĦ±":11850,"Ġê°Ħìĭ¤ì§Ī":11851,"ĠìĽĲìĿ¸ìĿĦ":11852,"Ġìĸ´ëł¤ìļ°ë":11853,"scess":11854,"Ġíģ´ë¡ľíĶ¼ëıĦê·¸ëłĲ":11855,"Ġepiderm":11856,"ì²¨íĮĲ":11857,"Ġë°Ķë²ł":11858,"ĠìłĢëħģìĹĲëĬĶ":11859,"Īëł¨":11860,"Ġë°°ëĩ¨ë¥¼":11861,"ĠìĸĳìĥģìĿĺ":11862,"Ġì»¤ì§ĢëĬĶ":11863,"Ġìĺµìħĺ":11864,"Ġproteinuric":11865,"Ġë¶Ħìľł":11866,"Ġë°°ì§Ģ":11867,"íĤ¤íĬ¸":11868,"Ġëª»íķľ":11869,"ĠíķľëıĻìķĪ":11870,"Ġmenance":11871,"thop":11872,"Ġshunt":11873,"ë¶ĪìķĪ":11874,"Ġì£¼ë§ĲìĹĲ":11875,"Ġwhe":11876,"ĠëıĦìĽĢìĿ´":11877,"Ġìŀ¬ì´¬ìĺģ":11878,"ĠìĿĺë¢°ìĽĲ":11879,"Ġmildíķľ":11880,"ĠIMT":11881,"ë©Ķ":11882,"íĨłëĭĲ":11883,"ìĨĮìĥĿìĪł":11884,"ĠìĽĲìķ¡":11885,"ê¹Įë":11886,"Ġdisorder":11887,"ìłľìłľ":11888,"ĠìŀĪê¸°":11889,"ìĿ´ìļ©":11890,"Ġìĭ¤ìĭľíķľ":11891,"Ġds":11892,"ĠëĤ´ìĹŃ":11893,"Ġìĭ¤ìĭľíķł":11894,"Ġì¶ľíĺĪìĿĢ":11895,"Ġëĭ´ëıĦê³Ħ":11896,"98":11897,"Ġìŀ¡ìĿĮ":11898,"ìķħíĻĶ":11899,"ìĦŀìĿ¸":11900,"ì§Ŀ":11901,"Ġë©´ë":11902,"Ġëª¸ìĹĲ":11903,"Ĭ¹":11904,"utation":11905,"COMMENT":11906,"ĠtimeìĤ¬ìļ©":11907,"Ġê°ĳìŀĳìĬ¤ëŁ°":11908,"Ġíķĺê°ķ":11909,"ĠìķĦìĿ´ëĵ¤":11910,"Ġì§ĦíĸīëĲ¨":11911,"ë¶Ģìĭł":11912,"Ġê¸°ê´Ģíĺĳì°©":11913,"ĠíķĦìĪĺ":11914,"Ġíŀĺëĵł":11915,"Ġìķłë§¤":11916,"Ġíģ´ëĿ¼ë°Ķ":11917,"Ġpagen":11918,"ĠìķĦìĿ´ë¥¼":11919,"ĠvelocityëĬĶ":11920,"Ġê²ī":11921,"ìĦľë§Į":11922,"ĠëĪĦëŁ°":11923,"Ġìĸĳìŀ¬ìĽĲ":11924,"ĠìµľìĨĮíķľ":11925,"ostridium":11926,"Ġevery":11927,"Ġê²°ìĨĲ":11928,"ë¯¸ë":11929,"Ġav":11930,"Ġrest":11931,"Ġì½ĶíĥĢë°©":11932,"Ġê·Ģì§ĢëĬĶ":11933,"Ġserratio":11934,"ĠíķŃì²´":11935,"Ġì²«ëĤł":11936,"ĠìĹĨê±°ëĤĺ":11937,"ĠST":11938,"udate":11939,"Ġsubmit":11940,"Ġì´Īë°ĺ":11941,"ĠìĿ´ê²ĥ":11942,"Pancreatitis":11943,"Ġë¶ĢìľĦë":11944,"ĠìķĪë¨¹ìľ¼ëł¤ê³ł":11945,"Ġimt":11946,"ì»µ":11947,"ĠìľłìĿĺìłģìĿ´ì§Ģ":11948,"ì²ł":11949,"Ġë°ľìĥĿíķ¨":11950,"Ġëĸ¨ìĸ´ì§Ģë©´":11951,"ĠìłĦìĿ¼ë³´ëĭ¤":11952,"face":11953,"Ġbre":11954,"ìĦ¸ì²Ļ":11955,"Pulmonary":11956,"omas":11957,"ë¶Ģë¥¼":11958,"Ġê²°ìĦĿìĿĢ":11959,"ĠëĮĢëıĻë§¥":11960,"Ġshoulder":11961,"íĦ°íİĺë":11962,"Ġcalculus":11963,"íĶĦìĨĶ":11964,"Ġì§Ħì°°ë":11965,"lam":11966,"ĠVD":11967,"ĠìĽĲìĿ¸ìĹĲ":11968,"ìĿ´ëĿ¼ìĦľ":11969,"ĻĶìĿĮ":11970,"íĺ¸ë°ķ":11971,"Ġëĭ¤ìĭľíķľë²Ī":11972,"cerenia":11973,"Ġê²ĢíĮĲë´īíķ©":11974,"ë°Ķëĭ¥":11975,"ĠëĳĶìĦ±":11976,"ĠëĤ´ëĵľë¦¼":11977,"oderate":11978,"ĠìĥģíĥľìŀħëĭĪëĭ¤":11979,"ëĤĺë©´":11980,"ìķķë°ķ":11981,"Ġë¶ĢìľĦê°Ģ":11982,"ĠCefotax":11983,"Ġone":11984,"Ġhisory":11985,"ê°Ģë©´ìĦľ":11986,"Ġrab":11987,"Ġíķľëĭ¬ìłķëıĦ":11988,"Ġê±·ì§Ģ":11989,"ĠíķŃìĤ°íĻĶìłľ":11990,"íĸīëıĻ":11991,"Ġcbcìĥģ":11992,"Ġíĺ¸ìłĦìĿ´":11993,"ĠìĤ¬ìĭĿ":11994,"Ġì²ĺìĿĮìľ¼ë¡ľ":11995,"Ġê³³ìĹĲ":11996,"lood":11997,"Ġíĺ¸ìłĦì¤ĳ":11998,"Ġmelena":11999,"Ġê°ľìĦłì¤ĳ":12000,"íĺĪëĩ¨":12001,"ĠëĤľìĽĲíĺķ":12002,"ĠíĺķíĥľìĿĺ":12003,"ĠìĹŃë¥":12004,"ĠìłĦì²´ìłģìĿ¸":12005,"log":12006,"íĸĪì§Ģë§Į":12007,"Ġê²°ë§īë¶Ģì¢ħ":12008,"Ġì¢ħìĿ´ì»µ":12009,"ìĪĺë¥¼":12010,"ĠíĪ¬ìķ½ì¤ĳ":12011,"ĠëĦ¥ì¹¼ë":12012,"Hyp":12013,"ĠíĻķìĿ¸íķĺê¸°":12014,"ĠMI":12015,"Ġë¯¼ê°Ĳ":12016,"ìĥģê·ł":12017,"ĠìłģìłĪ":12018,"32":12019,"ĠìķĪë¨¹ìľ¼ë©´":12020,"Ġì²ĺì¹ĺë¥¼":12021,"Ġë¡ľìļ°íİ«ìºĶ":12022,"Ġë©ľë":12023,"ë¶ĢëıĻ":12024,"Ġì¢Įìĭ¬ìĭ¤":12025,"Ġìŀĺíķ¨":12026,"ìłĦëıĦ":12027,"Ġíĭ°ë":12028,"Ġê°Ħíĺ¸ìĤ¬":12029,"íĦ°íİĺë¡ł":12030,"alassezia":12031,"Ġë¹¼ë":12032,"ĠHisory":12033,"Ġsupple":12034,"Ġê°ķìķĦì§Ģìļ©":12035,"Ġì§ĢìĤ¬":12036,"ĠìĿ¼ê°Ħ":12037,"Ġbrain":12038,"Ġíķĺê¸°ë¡ľíķ¨":12039,"ëĭ¤ìĿĮì£¼":12040,"£¼ë³Ģ":12041,"ĤŃì¢ħ":12042,"ĠìĭľëŁ½":12043,"Ġìľłë°ľë":12044,"ê²łëĭ¤":12045,"ĠìŀĦìĥģì¦ĿìĥģìĿ´":12046,"ìĸ´ìł¸":12047,"Ġì¹¨ì°©":12048,"Ġintestine":12049,"įìĬ¤":12050,"Ġíĳ¸ë":12051,"inpatient":12052,"Ġë¨¹ìľ¼ëł¤":12053,"Ġ-[":12054,"idental":12055,"Ġìĭ¤íĮ¨":12056,"Ġëªĩë²Ī":12057,"ìłĪë¶Ģ":12058,"êµŃìĹĲìĦľ":12059,"íı¬ë¥´íħĮ":12060,"Ġíķľëĭ¤":12061,"Ġê²½êµ¬ìķ½":12062,"Urin":12063,"Ġë³µìļ©íķĺë©´ìĦľ":12064,"Ġê³ĦìĤ°":12065,"Ġìĭ¬íıĲìĨĮìĥĿìĪł":12066,"ĠìķĪì¶©":12067,"ĠìķĪë¡ľ":12068,"Ġíıīê·ł":12069,"Ġì½Ķëį°":12070,"Ġorig":12071,"Ġì²ĺì¹ĺìĭ¤":12072,"ë§Ľ":12073,"amc":12074,"ĠíķĺíĶĦìĨĶ":12075,"Ġíĺ¸ìłĦëĲĺì§Ģ":12076,"ĠìķĬëĬĶëĭ¤ë©´":12077,"Ġì²Ńì§Ħìĭľ":12078,"łĩê²Į":12079,"ë¹ĪíĺĪ":12080,"ĠíĹĪë²ħì§Ģ":12081,"Ġìķ½ê°Ħì":12082,"Ġê°ľìĦłìĹ¬ë¶Ģ":12083,"ê³¼ë¡ľ":12084,"ermatitis":12085,"Ġë¨¹ìĹ¬ëıĦ":12086,"ĠìĦłìĥĿëĭĺê³¼":12087,"Ġpigmentation":12088,"osed":12089,"app":12090,"ĠìĥģìĬ¹ìĿĢ":12091,"ĠìŀłëıĦ":12092,"arged":12093,"¬¸ìłľ":12094,"ìľĦì¶ķ":12095,"Ġêº¼ë":12096,"ĠìĪĺëł¹ìĺĪìłķìĭľê°Ħ":12097,"Ġbet":12098,"ĠíķĺìĿ´íı¬ìķĮëŁ¬ì§Ģ":12099,"Ġmemb":12100,"Ġìľłë¦¬":12101,"Ġvii":12102,"iciency":12103,"Ġë¨¹ëĬĶëį°":12104,"CPE":12105,"Ġrecommended":12106,"ìĤ°ë":12107,"ĠìĿ´ìĨ¡":12108,"ê°ĳìĥģìĦł":12109,"íĥĪë":12110,"ĠìĿ´ì§Ī":12111,"ĠìľĦìŀ¥ìĹ¼":12112,"Ġëĵ¤ìĸ´ê°Ģ":12113,"ìĦłì§Ħ":12114,"Ġë³´íĺ¸ìŀĲë¶Ħë":12115,"ê·ĢìĦ¸ìłķ":12116,"ê¸ģ":12117,"Ġlig":12118,"Ġë°ĽìķĦì":12119,"Ġì·Įìŀ¥ìĪĺì¹ĺ":12120,"¾¸ë":12121,"íĨ¨":12122,"Ġmeropenem":12123,"ĠíĿĺë¦¬ê³ł":12124,"Ġìĭ¬íĺĪê´Ģ":12125,"ĠDPO":12126,"Ġë°ľìŀĳìĿĢ":12127,"ĠìĥģíĻ©ìĿ´":12128,"Ġì½§ë¬¼ë":12129,"ml":12130,"****":12131,"ĠìĿµìĿ¼ë¶ĢíĦ°":12132,"Ġnd":12133,"ê²ĢìĤ¬ë¥¼":12134,"ĠíķŃë¬¸ì£¼ë³Ģ":12135,"Ġìĭ¬ì²Ńì§Ħ":12136,"entric":12137,"illary":12138,"Ġê°Ģì¡±ë¶Ħëĵ¤":12139,"Ġì²ĺë°©ìĤ¬ë£Į":12140,"ĠìķħíĻĶëĲĺìĸ´":12141,"Ġearly":12142,"Ġëĵľëł¸ìĿĮ":12143,"rod":12144,"Ġnebulization":12145,"ĠëĤ´ìĽĲíķ´ì£¼":12146,"ĠNA":12147,"Ġê°ĢëĬ¥íķĺëĤĺ":12148,"ĠëĨĴìľ¼ëĤĺ":12149,"ĠíĬ¹ìĿ´ìĤ¬íķŃìĹĨìĿĮ":12150,"ëĴ¤":12151,"ì½§ë¬¼":12152,"ĠëĤ´ìĽĲíķĺìĭľê¸°ë¡ľ":12153,"Ġê³łëł¤íķ´":12154,"Ġìĺģíĸ¥ìĿĦ":12155,"ucral":12156,"Ġìľłì§Ģíķ¨":12157,"ì¹ĺìºĶ":12158,"Ġcapsule":12159,"ìĿ¸ì§ĢëĬĶ":12160,"Ġê³µë§ī":12161,"ìľłìŀ¬":12162,"Ħë¶ĢíĦ°":12163,"Ġcommon":12164,"ëĵľëĿ¼ìĿ¸":12165,"Ġíľĺì²Ń":12166,"Ġbladder":12167,"Ġìĺ¤ê¸Ī":12168,"Ġwere":12169,"Ġëħ¸ìŀ¥":12170,"Ġheterogenous":12171,"Ġtremor":12172,"´ìľłì¹ĺ":12173,"Ġ?":12174,"Ġìĺ¤ìħ¨ìĿĮ":12175,"Ġê²½ê³¼ë¥¼":12176,"ĠìĪłìĭĿìĹĲ":12177,"Ġë¨¹ìĹĪê³ł":12178,"Ġëª¨ëŀĺ":12179,"Ġatenolol":12180,"ĠìĤ¬íķŃìĿ´":12181,"Ġsubluxation":12182,"ĠNSF":12183,"opping":12184,"ľëłĽ":12185,"Ġë¿Įëł¤":12186,"ĠìĤ¼ì²¨íĮĲ":12187,"ĠìĤ¬ë©Ķíĥĳ":12188,"ìĽĲìĹĲìĦľ":12189,"Ġíĩ´ìĽĲíķ¨":12190,"ĠíķĺìĸĹê²Į":12191,"yometra":12192,"~~":12193,"Ġì£¼ê´ĢìłĪ":12194,"Ġê°Ħìłĳ":12195,"load":12196,"Ġì¡°ìľłìŀ¬":12197,"Ġìĥµ":12198,"ĠìłĢì¹":12199,"Ġìĸ¸ìłľë":12200,"Ġê¸°ë¦½ë¶ĪëĬ¥":12201,"ìĹł":12202,"Ġì£¼ìŀħ":12203,"ĠìĥĿìĦ±":12204,"Ġì²ĺì¹ĺíķ¨":12205,"£¨ëĦĪìĬ¤":12206,"ê²Ĳ":12207,"ìłĦíĻĶìļĶì²Ń":12208,"ĠëĤĺìĦľëĬĶ":12209,"ãħĩ":12210,"Ġadenoma":12211,"íĥĪìŀ¥":12212,"ĠìľłëıĻìĦ±":12213,"Ġíģ¼":12214,"ĠìłĦíĽĦë¡ľ":12215,"ìĪĺì¤Ģ":12216,"Ġexcision":12217,"ĠíĺĪì¢ħ":12218,"Ġê¸°ëıĦ":12219,"Ġconvenia":12220,"Ġíķ´ë³´ê³ł":12221,"nown":12222,"ëĬĶê±°":12223,"Ġê²ĢìĤ¬ì§Ħíĸī":12224,"Ġë³µë¶Ģì´ĪìĿĮíĮĮìĥģ":12225,"Ġë¬»ìĸ´":12226,"ocytes":12227,"Ġì´Ŀëĭ´ê´Ģ":12228,"ĠìĪĺì¤ĢìĿĺ":12229,"ëĭ¬ëĿ¼":12230,"ĠíĻįì±Ħ":12231,"Ġì¸µ":12232,"ĸ¨":12233,"Ġpart":12234,"orub":12235,"ĠìĪĺì¹ĺë":12236,"ìĬ¤íħĮë¡ľìĿ´ëĵľ":12237,"ĠìĥģìĬ¹ëĲĺìĸ´":12238,"Ġextens":12239,"ĠìĦ¤ëªħëĵľëł¸ìľ¼ë©°":12240,"Ġê³¼ìłķìĹĲìĦľ":12241,"Ġëħ¸ëŀĢë":12242,"Ġíķĺìĭľê¸°ë¡ľ":12243,"84":12244,"Ġnc":12245,"Ġì¦ĿìĥģìĿĺ":12246,"ê²°ìłľ":12247,"Ġë¦¼íĶĦìłĪìĿĺ":12248,"Ġë°ĺëĮĢìª½":12249,"odyl":12250,"ĠëįĶìļ±":12251,"Ġìĭ¬íķľíİ¸":12252,"ĠìķĪì¢ĭëĭ¤ê³ł":12253,"ĠíĺĪëĩ¨ëĬĶ":12254,"ĠíŀĲ":12255,"Ġë°Ľìķĺìľ¼ëĤĺ":12256,"Ġì§ĢìĹ°ëĲ¨":12257,"Ħë§Ī":12258,"ĠìŀĲìĦ¸ë¡ľ":12259,"¦¬ê³łê¸°":12260,"ĠìĿĮìĺģìĿ´":12261,"Ġgastritis":12262,"Ġì£¼ê°ĦìŀħìĽĲ":12263,"metronidazole":12264,"Ġazithromycin":12265,"Ġíİĺëħ¸ë°Ķë¹ĦíĥĪ":12266,"Ġêµ¬ìĹŃì§Ī":12267,"ê´Ģëł¨ë":12268,"ĠìĻľ":12269,"ĠRadi":12270,"ĠëĭŃê³ł":12271,"Ġlvid":12272,"furosemide":12273,"Ġë©ĶíĨłì¹´ë":12274,"rally":12275,"Ġpolyp":12276,"ĠíĬĢìĸ´ëĤ":12277,"Ġê²½ê³¼ìĹĲ":12278,"ĠìĿ´íĭĢìłĦ":12279,"bun":12280,"ĠëĨįìĸĳ":12281,"Ġë¬´ìłķíĺķ":12282,"Ġëħ¹ìĥī":12283,"Ġì²´":12284,"ĠìĿ¼ëĭ¹":12285,"Ġì¢Įìĭł":12286,"let":12287,"ĠHep":12288,"its":12289,"ĠNormal":12290,"ĠëķĮë§Īëĭ¤":12291,"Ġì¹ĺìķĦë":12292,"Ġë¶Īíİ¸íķľ":12293,"Ġê¹ĢìĽĲìŀ¥ëĭĺ":12294,"Ġmost":12295,"ìľłíķ©":12296,"Ġë³´ëĤ´":12297,"Ġë°ĸìľ¼ë¡ľ":12298,"Ġê°Ħì¢ħìĸĳ":12299,"Ġileus":12300,"ŁŃ":12301,"veolar":12302,"Ġartif":12303,"Ġë°Ķë²łìĭľìķĦ":12304,"ëĭĪìĸ´":12305,"Ġëĭµ":12306,"Ġìĭłê²½ê³Ħê²ĢìĤ¬":12307,"Ġëĭ¬ìĹĲ":12308,"Ġê³³ìĹĲìĦľ":12309,"Ġì¤Ħìĸ´ëĵ¤ìĹĪìĿĮ":12310,"Ġmineralization":12311,"íķłë":12312,"ĠìĿ´ìĸ´":12313,"Ġê·¼ìľĦë¶Ģ":12314,"ëĤ´ìĹĲìĦľ":12315,"Ġìĺ¤ë©´":12316,"Ġê°ĢìĬ´ì":12317,"Ġì§ĪíĻĺìĹĲ":12318,"Ġfield":12319,"Ġë°ĶëĢĲ":12320,"diet":12321,"¥ĺì":12322,"ìĬ¤íĥĦ":12323,"ŀĮë":12324,"Ġmyc":12325,"Ġíĩ´ìĽĲì¡°ì¹ĺ":12326,"ĠDR":12327,"ĠëıħìĦ±":12328,"ĠëĮĢíĩ´ëıĻë§¥ìķķ":12329,"Ģì§Ģë§Į":12330,"Ġfamotidin":12331,"Ġì½ĶíĥĢë°©ìĬ¤":12332,"Ġtimesc":12333,"Ġsed":12334,"Ġëª©ìłģ":12335,"ĠëĿĦ":12336,"Ġëĵľëł¸ê³ł":12337,"ĠíĨµì¦ĿìĿĦ":12338,"Ġorgan":12339,"Ġê¸°ê´ĢíĹĪíĥĪ":12340,"Ġarth":12341,"Ġë¸Įë¡ľì½ľë¦¬":12342,"ì¦ĿìĿ´":12343,"ĠíĻľëł¥ìłĢíķĺ":12344,"ĠDdx":12345,"Ġë§Īì·¨ì¢ħë¥ĺ":12346,"Ġíĺ¸ìłĦëĲľ":12347,"ĠíĿ¥ë¶ĦíķĺëĬĶ":12348,"Ġê¹ĢíķĺëĤĺ":12349,"ĠëĨĢëĭ¤ê°Ģ":12350,"ĠíĦ°ë¹Ħëį¤":12351,"bo":12352,"ĠíķĺìĭľëĬĶ":12353,"ìłĦë°ĺ":12354,"Ġë¡ľìĸĦ":12355,"íĮĮëª¨":12356,"Ġë²ĪìłķëıĦ":12357,"Ġê´Ģì°°ëĲľëĭ¤":12358,"Ġê°ĿíĺĪ":12359,"ê´Ģëł¨ëĤ´ìļ©":12360,"ìŀ¥ìķ¡ìĦ±":12361,"ately":12362,"Ġê°ĢìħĶìĦľ":12363,"ê°Ħëŀµ":12364,"icus":12365,"oconazole":12366,"ĠìłłíĨłëĭĲ":12367,"increased":12368,"ĠìŀĪëĭ¤ëĬĶ":12369,"Ġìķ½ë¬¼ìĹĲ":12370,"ê°Īë":12371,"ĠìĦ¸ê·łë°°ìĸĳ":12372,"ĠíħĮë":12373,"mediate":12374,"ģ¼ë":12375,"Ġê°ĦíĺĪì²Ń":12376,"ĠìĿ´íĭĢìłĦë¶ĢíĦ°":12377,"íģ´ë¡ľìĬ¤":12378,"ĠíĮĶê¿Īì¹ĺ":12379,"ĠìĿĺë¯¸":12380,"ĵľë¦½ëĭĪëĭ¤":12381,"ëĤ´ìĹŃ":12382,"Ġclot":12383,"Ġë³Ģê²½íķ¨":12384,"ĠìĥģíĻ©ìĿĢ":12385,"ophosph":12386,"íĳľë":12387,"umbar":12388,"Ŀ¼ìĦľ":12389,"Ġncpe":12390,"Ġì£¼ìĽĮë":12391,"ĠBilateral":12392,"ĠìĦŀìĹ¬ìĦľ":12393,"ergic":12394,"Ġíķĺìĭł":12395,"Ġê³ĦìĨįíķ´ìĦľ":12396,"ĠíĪ¬ìĹ¬ì¤ĳ":12397,"ĠíĿīê´Ģ":12398,"Ġfluids":12399,"Ġcryst":12400,"íİĻ":12401,"ĠëĥĦìĥĪë":12402,"idocaine":12403,"ĠíħĮìĺ¤íķĦë¦°":12404,"¹ĺëıĦ":12405,"ë¶Ģíĥģ":12406,"ĠìĿĮìĭĿìĿĢ":12407,"ĠëĩĮìĪĺëĳĲì¦Ŀ":12408,"Ġì§Ģë£¨":12409,"(+,":12410,"īìĭł":12411,"ĠìĽĲë°ľ":12412,"íĦ°ëĦ·":12413,"íı¬ë¦°":12414,"ĽĢ":12415,"Ĥ¬ìĿĮ":12416,"Ġì¤ĳì¦Ŀ":12417,"ĠìĥģíĻ©ìĹĲ":12418,"ì»¬":12419,"Ġbnp":12420,"Ġcalcium":12421,"dt":12422,"ë³µìĪĺ":12423,"ĠëĤĺíĥĢëĤĺë©´":12424,"Ġë¸Įë¡ľëĵľëĿ¼ìĿ¸":12425,"Ġë¨¹ìĹĪìľ¼ëĤĺ":12426,"ĠEnrofloxacin":12427,"lycemia":12428,"Ġparen":12429,"Ġstime":12430,"tions":12431,"ĠìļĶë°°ìĸĳ":12432,"Ġë§Īì·¨ë":12433,"ĠìĭĿìĿ´ê¸īìĹ¬":12434,"Ġìĥģíĥľìĺ":12435,"chy":12436,"ovec":12437,"Ġì£¼ê´Ģìłģìľ¼ë¡ľ":12438,"cephalus":12439,"Ġhx":12440,"ê°Ģë¥¼":12441,"Ġìī½ê²Į":12442,"ĠíĸĪìľ¼ë©°":12443,"Ġëĭ´ëĤŃë²½":12444,"aintenance":12445,"Ġê°Ħì¢ħê´´":12446,"Ġtem":12447,"Ġëĩ¨ì¹¨":12448,"Ġë§ĲìĶĢíķĺìĭ¬":12449,"ëĴ·ëĭ¤ë¦¬":12450,"Ġol":12451,"Ġ140":12452,"Ġìľłê¸°ë":12453,"ĠìĿ´ë¬¼ìĿĢ":12454,"Ġìĭ¬ìŀ¥ìķ½ìĿĢ":12455,"Ġì»´íĶĮë":12456,"ĠìĦłëĤ©":12457,"Ġì¶ĶìĦĿ":12458,"ĠACVIM":12459,"íķĺëĿ¼ê³ł":12460,"ìķĪêµ¬":12461,"Ġua":12462,"ĠìĹ¬ì¡°":12463,"Ġcalcification":12464,"Ġë°ĽìķĦê°Ģì":12465,"ĠíĿ¬ë§Ŀíķĺìĭ¬":12466,"°¬":12467,"ì¿ł":12468,"ases":12469,"Ġves":12470,"tex":12471,"Ġê´Ģê³Ħë¡ľ":12472,"Ġevent":12473,"Ġclavamox":12474,"ì¼Ģ":12475,"Ġhemol":12476,"Ġë¦¼íĶĦì¢ħ":12477,"ĠMaintenance":12478,"ĠíĮĲë§ī":12479,"Ġì¶ľëłģìŀĦ":12480,"(?)":12481,"ìĥģíĶ¼":12482,"ĠëĤ´ë³µìķ½ìľ¼ë¡ľ":12483,"Ġíķľìķ½":12484,"ocon":12485,"ì¼°":12486,"Ġepilep":12487,"ìķĦëıĦ":12488,"athion":12489,"ĠíıĲëıĻë§¥":12490,"orubicin":12491,"Ġfine":12492,"Ġíķľëĭ¬ìłĦ":12493,"ĠëĤ¨ìĿĮ":12494,"Ġíŀĺëĵľ":12495,"Ġsurgical":12496,"ĠíķŃì§Ħê·łìłľ":12497,"vac":12498,"ĠìłĢíķŃ":12499,"Ġì£¼ë³Ģë¶Ģ":12500,"Ġìłģìļ©ì¤ĳ":12501,"Pal":12502,"hpi":12503,"ĠëĨįíı¬":12504,"Ġduod":12505,"max":12506,"Ġconjunctivitis":12507,"ĠìĪłë¶Ģìĸĳíĺ¸":12508,"ìĦľëĬĶ":12509,"ìĭľëĭ¤ê°Ģ":12510,"Ġëĵ¤ìĸ´ìĦľ":12511,"Ġserosal":12512,"ĠìĤ¬ê³ł":12513,"ĠDox":12514,"Ġapprox":12515,"Ġlesions":12516,"ĠìķĪëĲĺì":12517,"Ġhypoallergy":12518,"ĠìŀĪìĸ´ìļĶ":12519,"ĠìĤ°ìĨĮì²ĺì¹ĺ":12520,"oplasia":12521,"Ġmore":12522,"anc":12523,"ĠíĿīì¶Ķ":12524,"Ġì¤Ģë¹Ħ":12525,"ê²©ë§ī":12526,"hepatic":12527,"Ġointment":12528,"ì¦ĿìĹĲ":12529,"ĠëĤ´ìĽĲíķł":12530,"ĠìĪĺìĪłìĹĲ":12531,"íĺ¸íĿ¡ìĪĺ":12532,"¥´ì§Ģ":12533,"ĠìĿ¸ìĪĺì¹ĺ":12534,"íĬ¸ë¥¨":12535,"istant":12536,"Ġìŀ¥ë¡Ģ":12537,"ìľ¼ë¡ľìĿĺ":12538,"ĠíĻ©íĥľ":12539,"Ġë¶Ħìĸĳë°ĽìĿĢ":12540,"ìĦ¤ëªħ":12541,"Ġì²©":12542,"´ë³´":12543,"Ġê³¨ìłĪë¶Ģ":12544,"¦Īë":12545,"ķĺ":12546,"ê¸¸ë":12547,"ë§ĪìŀĲ":12548,"Ġì¡°ì¹ĺíķ¨":12549,"ĠìļĶìĥĪ":12550,"Ġë¶Īíİ¸íķ´íķĺëĬĶ":12551,"íķľì¹ĺ":12552,"ĠìĹ°ê°Ħìłĳì¢ħ":12553,"les":12554,"ĠìĺĪìłķëĮĢë¡ľ":12555,"Ġì¢ĭìľ¼ëĤĺ":12556,"íĮ»":12557,"Ġphac":12558,"ovecin":12559,"Ġ31":12560,"ivitis":12561,"ĠVII":12562,"ddx":12563,"Ġíĥģ":12564,"Ġë°ľíĺĦë":12565,"ĠëĪĪì£¼ìľĦ":12566,"Ġê°ľìĦłìĸĳìĥģ":12567,"ĠìŀĦìĿĺë¡ľ":12568,"Ġdyspnea":12569,"Ġëĸ¨ë¦¼":12570,"ë³Ģì":12571,"Ġìĵ°ëłĪê¸°":12572,"Ġë°ľëĿ¼ì¤Į":12573,"Ġhematoma":12574,"Ġìĭ¤ë°¥ìłľê±°":12575,"Ġì½Ķëį°ìĿ¸":12576,"78":12577,"ĠíģĲ":12578,"íķĺê¸¸":12579,"ĠìĿ¸íĦ°íİĺë¡ł":12580,"ĠìķĦì¹¨ìłĢëħģ":12581,"ĠìĹ¼ì¦ĿìĹĲ":12582,"ĠíĿĺë¦¬ëĬĶ":12583,"ĠëłĪíį¼":12584,"ĠíĻķìĿ¸ëĲĺë©´":12585,"ë¬´ìĬ¤":12586,"Ġê³łëł¤ìĭľ":12587,"ĠìĬµê´Ģ":12588,"Ġperiodon":12589,"ĠQID":12590,"ref":12591,"Ġë°ĺëł¤ë":12592,"Ġê°ķê¸īíķ¨":12593,"ĠêµŃìĨĮìłģìĿ¸":12594,"Ġmalignant":12595,"pv":12596,"Ġì¤ĳìĿ´ìĹ¼":12597,"Ġê±°ìĥģ":12598,"Ġìĺ¤ìłĦê¹Įì§Ģ":12599,"ë°ĽìĿĮ":12600,"ĠìĹ´ë":12601,"Ġenoxaparin":12602,"Ġíĺķíĥľë¡ľ":12603,"Ġhypoechoic":12604,"ĠìĿ´ìĸ´ìĦľ":12605,"ĠëĤ¬ìĿĮ":12606,"Ġventrally":12607,"Ġì²ĺë°©íķľ":12608,"Ġthoracic":12609,"ĠíĥĢìĽĲìĹĲìĦľ":12610,"¥¸ìŀĲ":12611,"ìľ¼ìħ¨ìĿĮ":12612,"Ġê°Ħëĭ¨íķľ":12613,"Od":12614,"total":12615,"íļĮìĶ©":12616,"ĠíļĮë³µìĥģíĥľ":12617,"íĤģ":12618,"ĠìľĦë²½":12619,"¶©":12620,"ëĮĢíķľ":12621,"ĠêµŃ":12622,"ĠíĦ±ëĵľë¦Ħ":12623,"¸ĶëĿ¼ìĿ´":12624,"Ġlim":12625,"Ġenlarged":12626,"´ìĬ¤ë":12627,"ĠíıĲíĮ¨íĦ´":12628,"Ġë¿Įë¦¬":12629,"Ġdalteparintime":12630,"ĠìĿ´ìľł":12631,"ê¹Įì§ĢëıĦ":12632,"ĠíĻķìĿ¸ëĲĺìĹĪìĿĮ":12633,"ê±°ë¦¬ë©°":12634,"Ġíĺ¸ê¸°":12635,"Ġì²´ìĺ¨ìĿ´":12636,"ê¸°ì¢ħ":12637,"íķ´ì£¼ê³ł":12638,"ĠíĬ¸ë¦´ë¡ľ":12639,"CL":12640,"Ĭê·¸":12641,"ypnea":12642,"ĠíĨłíķĺê³ł":12643,"Ġê²½ìļ°ëıĦ":12644,"ë²ĪìłķëıĦ":12645,"Ġì¶ľíĺĪë°ĺìłĲ":12646,"íĤ¤ëĦ·":12647,"ŀł":12648,"Ġctwo":12649,"íĶĦëĿ¼":12650,"Ġì§ĢëĤ´ëĬĶ":12651,"Ġêµ¬ì§Ħ":12652,"Ġíŀĺëĵ¤ëĭ¤ê³ł":12653,"Ġ+/-":12654,"abdo":12655,"Ġì²ľìĭĿ":12656,"ĠíļŁìĪĺê°Ģ":12657,"Ġpatient":12658,"Ġë°ĺìłķëıĦ":12659,"Ġìĭ¬íķĺì§Ħ":12660,"Ġìĸ´ìłľë°¤":12661,"Ġmucous":12662,"Ġê¸°ìłĢê·Ģ":12663,"Ġêµ¬íĨłíķĺê³ł":12664,"Ġì¤ĦìĿ´ê³ł":12665,"Ġë°ķìĦłì§Ħ":12666,"Ġ***":12667,"uinal":12668,"Ġìĺ¤ìłĦìĹĲëĬĶ":12669,"ĠìĿ¼ë°ĺê±´ìĤ¬ë£Į":12670,"Ġì§Ħì°°ë£Į":12671,"Ġmiosis":12672,"ĠPro":12673,"Ġamoc":12674,"ëĭ¤ë©°":12675,"Ġ99":12676,"ĠìłĦë¶ĢíĦ°ëĬĶ":12677,"Ġíķĺìħ¨ëĭ¤ê³ł":12678,"Ġëĭ¤íĸīíŀĪ":12679,"Ġfoy":12680,"Ġêµ¬íĨłìĻĢ":12681,"ĠNd":12682,"ĠëĨĴìĬµëĭĪëĭ¤":12683,"ĠìłĢìļ©ëŁī":12684,"ìĿĢëĵ¯":12685,"Ġê°ĢëŁīìĿĺ":12686,"Ġê¾¸ì¤Ģíķľ":12687,"Ġì§Ģìĸ´ëĵľë¦¼":12688,"ĠíļĮìĶ©":12689,"ë°ľíĨ±":12690,"aryn":12691,"ĠìĿ¸íķĺìĹ¬":12692,"Ġì£¼ìĤ¬íķ¨":12693,"Ĳľëĭ¤ê³ł":12694,"ê³łìłķ":12695,"Ģë¯¸":12696,"Ġìŀ¬ìĥģëĭ´":12697,"ê¸°ëķĮ":12698,"Ġìŀ¦ìĿĢ":12699,"ĠìĭľìĽĲíķĺê²Į":12700,"ļ´ëį°":12701,"ĠíĻķìĿ¸ëĲĺìĹĪëįĺ":12702,"ë°©ê´ĳìĹ¼":12703,"ĠCephalexin":12704,"Ġivsd":12705,"ĠìĹ°ê²°ë":12706,"Ġì²ĺìĿĮìĹĲ":12707,"rup":12708,"pim":12709,"Ġ108":12710,"Ġê°Ģëł¤ìĽĢì¦Ŀ":12711,"Ġë©´ë´ī":12712,"Ĥ´ìĽĲ":12713,"Ġë¹Ħìĭ¬":12714,"Ġìĭ¬ìŀ¥ìĤ¬ìĥģì¶©ìĿĢ":12715,"ì»¤":12716,"íĻķìŀ¥ìłľ":12717,"der":12718,"uble":12719,"Ġinjury":12720,"Ġìĸ´ëłµëĭ¤ê³ł":12721,"ĠìĻĦì¹ĺ":12722,"íĮĮëĨĢ":12723,"Ġctni":12724,"Ġê³¼ëıĦ":12725,"Ġepidermal":12726,"¦¼ìŀĲ":12727,"Ġë§Īëĭ¹":12728,"ì³":12729,"Ġund":12730,"ĠíķŃíŀĪìĬ¤íĥĢë¯¼":12731,"ipenem":12732,"ire":12733,"ľ¼ë¡ľ":12734,"ĠìķĦë²Ħëĭĺ":12735,"Ġêµ¬ê°ķìĨĮëıħ":12736,"Ġìĺ¬ëĿ¼ìĺ´":12737,"Ġê°Ħëĭ¨íŀĪ":12738,"ĠëĽ°ìĸ´ëĤ´ë":12739,"Ġë¶Īë¦°ìĤ¬ë£Į":12740,"Ġfist":12741,"ì§ĦíĨµìłľ":12742,"kalemia":12743,"bility":12744,"Ġdra":12745,"Ġë§ĪìĿĮ":12746,"ĠìķĦëª©ìĭľìĭ¤ë¦°":12747,"Ġepis":12748,"ĠìķĪíĺĦ":12749,"ĵľëł¸ëĬĶëį°":12750,"Ġë¶Ģìŀ¬ì¤ĳ":12751,"Ġê²ĢìĤ¬íĽĦ":12752,"Ġê²ĥë§Į":12753,"ematous":12754,"ĠìĻ¼ìª½ëĪĪ":12755,"Ġsuspected":12756,"ĠíĻĺìŀĲëĿ¼":12757,"ë¶ķëĮĢ":12758,"ĠìĬ¤íĬ¸ëłĪìĬ¤ë¥¼":12759,"roxil":12760,"ble":12761,"Ġsn":12762,"Ġëª©ìłģìľ¼ë¡ľ":12763,"ĠìĹĨìľ¼ìĭ¬":12764,"ĠìĪĺìķ¡ìĨįëıĦ":12765,"Ġseen":12766,"Ġstop":12767,"Ġê·ĢëıĦ":12768,"other":12769,"olithiasis":12770,"Ġê¸°ëĭ¤ë":12771,"ë¬¸ìłľ":12772,"ê±´ì¡°":12773,"Ġcpv":12774,"ł¸ë":12775,"íĺĶ":12776,"Ġìĥģíĥľìĸĳíĺ¸":12777,"Ġë¶ĢìĬ¤":12778,"ĠëĨĴìķĦìĦľ":12779,"Ġì´Īê¸°ìłĳì¢ħ":12780,"dir":12781,"zyme":12782,"Ġê±´ìĦ±":12783,"Ġpostural":12784,"Ġìĸĳì¹ĺì":12785,"Ġgain":12786,"Ġì£¼ìĭľëĬĶ":12787,"ĠìĹ¼ì¦ĿìĿĢ":12788,"Ġê±´ì¹¨":12789,"ĠIVSd":12790,"ĠíıĲìĦ±ê³łíĺĪìķķ":12791,"ì¤ĳëıħ":12792,"ì§ĢìĤ¬ë£Į":12793,"Ġìŀ¬ì§ĦíķĺìĹ¬":12794,"Ġë°ĺìĹĲ":12795,"ĠìłĦë°ĺìĹĲ":12796,"ution":12797,"ìĺ¤ìħĶìĦľ":12798,"ĠíĸĿ":12799,"ĠíķŃìĥĿìłľëĬĶ":12800,"ìĦ¸ìłķ":12801,"Ġë¬¸ì§Ħìĥģ":12802,"Ġêµ¬íĨłë¬¼":12803,"Ġpor":12804,"ĠLiver":12805,"ì§ĢìķĬìĿĮ":12806,"Ġëĳĺëĭ¤":12807,"Ġë³Ģíķ¨":12808,"Ġì¹ĺë£Įì¤ĳ":12809,"ĠëĨĴìľ¼ë©°":12810,"Ġê³¼ìŀ¥ëĭĺ":12811,"Ġë°°ì¶ľë":12812,"±ìłķë¦¬":12813,"Ġìĺ¤ìĭľ":12814,"ìĹĪëĬĶì§Ģ":12815,"ĠìĿ´ë¦¬":12816,"ĠíĮĮíĸīìĿ´":12817,"ĠìĤ°íĻĶ":12818,"Ġorigin":12819,"ìķĦì§ģ":12820,"ĠìĿĺìĭ¬ìĨĮê²¬":12821,"ë§¤ê°ľ":12822,"Ġmovement":12823,"ĠëģĪìłģ":12824,"ĠíıĲê³łíĺĪìķķ":12825,"Ġì»¤ì§Ģê³ł":12826,"CKD":12827,"ĠìŀĪëĬĶê²ĥ":12828,"Ġì¢ħìĸĳìĿ´":12829,"irub":12830,"Ĩĵê³ł":12831,"Ġë¹ĦìľĦê´Ģ":12832,"Ġì»µ":12833,"ë¶ĢìľĦìĹĲ":12834,"Ġparvo":12835,"bic":12836,"Ġì°¸ì¹ĺìºĶ":12837,"Ġìĭ«ìĸ´íķ´ìĦľ":12838,"eakage":12839,"Ġnitroprusside":12840,"ê°ĲìĪĺìĦ±":12841,"ĶĶìķĦ":12842,"ĠìķĦì¹¨ìĿĢ":12843,"ĠìĺĪìķ½ìŀ¡":12844,"ĺ¤ê³ł":12845,"Ġdoc":12846,"ìĺĩ":12847,"ê¸Ģ":12848,"efec":12849,"Ġíĺ¸ìĤ°":12850,"Ġsimple":12851,"Ġmtc":12852,"ĠDO":12853,"ĠìĿ¸ê·¼":12854,"Ġê°ķíķĺê²Į":12855,"ĠëĦ¤ìĺ¤ëį¤":12856,"ĸĪìĿĮ":12857,"ë°ľìłģ":12858,"Ġëª¨ëĭĪíĦ°ë§ģìĿ´":12859,"Ġëį°ëł¤ê°Ģì":12860,"Ġê¸°ê´Ģì":12861,"aphy":12862,"Ġê°ĲìķĪíķĺìĹ¬":12863,"ĠëĳĶìĦ±ë¶Ħë¦¬":12864,"Ġìķ½ë¬¼ìĿĢ":12865,"ĠìĺĪìķ½íķ¨":12866,"Ġdeposit":12867,"íķĺê¸°ëĬĶ":12868,"Ġlay":12869,"ĠìĦ±ìĥģ":12870,"Ġextraction":12871,"Ġthrombocytopenia":12872,"Ġì£¼ìłĢ":12873,"Ġê·¸ëĤł":12874,"ĠíļĮë³µëĲ¨":12875,"ĠíĿ¬ìĦĿìķ¡":12876,"ĠìĹ¬ì¡°ìĿĢ":12877,"enro":12878,"Ġê´Ģë":12879,"íĴĢ":12880,"Ġinfiltra":12881,"¹¡":12882,"ìĭĿìĤ¬":12883,"ĠMicro":12884,"ĠìķĪìķ½ìĿĦ":12885,"ollic":12886,"ĠíĶĦë¡ľíķĺíĬ¸":12887,"Ġë¶ĪëªħíĻķ":12888,"Otitis":12889,"Ġë°ĺê·¸ë¦ĩ":12890,"Ġìĭ¬íķ´ì¡Į":12891,"ĠëĦ¤ë¸ĶëĿ¼ìĿ´":12892,"ĠëĿ½íĪ´ë¡ľ":12893,"Ġì²ĺë°©íķĺìĺĢìľ¼ë©°":12894,"Ġalveolar":12895,"Ġì§Ħë£Įìĭ¤ìĹĲìĦľ":12896,"ĠíĶĦë£¨ëĦĪìĬ¤":12897,"°ĽìķĦë":12898,"ucralfate":12899,"Ġketo":12900,"ì§ĪëĤ´":12901,"ìĭľíĤ¤ê³ł":12902,"urrent":12903,"tocol":12904,"ĠìĥģìĬ¹íķ¨":12905,"Ġprom":12906,"ĠíĤ¤íĬ¼":12907,"Ġìª½ìĹĲ":12908,"Ġpyel":12909,"īìŀ¥":12910,"Ġíĩ´ìĽĲíķĺìĹ¬":12911,"ĺ¤ë©´":12912,"Ġhopping":12913,"ŀĲê·¹":12914,"Ġë³´ë©´":12915,"Ġì¢ģìķĦ":12916,"ìłĦì²ĺëŁ¼":12917,"ĭ°":12918,"ĠFe":12919,"ĠìºĲëĭĮ":12920,"Ġë°ĺë³µìłģìľ¼ë¡ľ":12921,"Ġmembrane":12922,"Ġíİ¸ìķĪ":12923,"Ġìŀĳê²Į":12924,"ì§Ħì°":12925,"Įë¦¬ë£¨ë¹Ī":12926,"aring":12927,"Ġstrepto":12928,"ĠëĬĺë¦¬":12929,"Ġinvol":12930,"Ġìĥģì²":12931,"Ġê¸°ìĸµ":12932,"Ġìĭ¤ìĭľíķĺìĺĢìľ¼ë©°":12933,"Ġë¯¸ìļ©íķĺê³ł":12934,"ìłĪëĵ¤":12935,"§İ":12936,"Ġëĭ¿":12937,"ìĭľë©´ìĦľ":12938,"ĠìķĪìķ½ìłĲìķĪ":12939,"ĠìĤ°ìĨĮë°©":12940,"Ġëĭ¤ëĭĪëĬĶ":12941,"ìłĲìķ¡ì¢ħ":12942,"ì§Ģê¸°":12943,"Ġleakage":12944,"ë¬¸ë¶Ģ":12945,"Ġë°ľìĥĿíķĺëĬĶ":12946,"ìĥµìĹĲìĦľ":12947,"Ġë³´ìĺĢëįĺ":12948,"Ġmic":12949,"ëĭĪëĭ¤ì¡¸":12950,"Ġì²ĺë°©ëĲľ":12951,"Ġindoors":12952,"ëª©ìĬ¤":12953,"Ġcardiomegaly":12954,"ĠìĿ´ì°¨ìłģìĿ¸":12955,"Ġì°¬":12956,"44":12957,"ë»":12958,"ĠKg":12959,"ĠìĿ¼ë°ĺìłģìľ¼ë¡ľ":12960,"Ģìĸ´ì£¼":12961,"Stime":12962,"Ġcatheter":12963,"Ġbra":12964,"idine":12965,"Ġ110":12966,"ison":12967,"ĠìĿ¼ì°į":12968,"Ł¬ìļ´":12969,"Ġuw":12970,"Ġìŀ¬ë°ľíķł":12971,"Ġurethral":12972,"ìĦ±ìĪĻ":12973,"Ġinitial":12974,"Ġë¬¼ëł¤ê³ł":12975,"Ġíĺ¸ìłĦëĲĺìĸ´":12976,"ĠíĺĦì¦ĿìĿĺ":12977,"ë°ľë¡ľ":12978,"tibular":12979,"Ġì¤ĳê°ĦìĹĲëĿ¼ëıĦ":12980,"Ġiii":12981,"ĠìķĪíĺĦìĪĺ":12982,"ĠíļĮë¡ľ":12983,"íħĮìĬ¤íĬ¸":12984,"IOP":12985,"Ġfb":12986,"ëĲĺìĸ´ìĦľ":12987,"ê¹Įë´Ĳ":12988,"Ġìķ½ê°ĦìĶ©":12989,"°±":12990,"Ġì¹¼ë¦¬":12991,"gestion":12992,"ool":12993,"Ġë¶ĢìľĦìĹĲìĦľ":12994,"ĠìķĦìĿ´ë¡ľ":12995,"Ġcolitis":12996,"ê°Ħí":12997,"Ġë³´íĺ¸ìŀĲëĭĺìĿĢ":12998,"Ġgastroenteritis":12999,"feeding":13000,"ccìĶ©":13001,"Ġë§ĲìĹĲ":13002,"ormation":13003,"ŀĺë¡ľ":13004,"Ġíķĺìħ¨ê³ł":13005,"Ġë®¤":13006,"ĠëĲĺëıĦë¡Ŀ":13007,"¸µ":13008,"ìĿ´ìĹĲ":13009,"ìľ¼ìĭľê³ł":13010,"íĺķê´ĳìĹ¼ìĥī":13011,"³ĳëł¥":13012,"Ġë°ĽìķĦë¨¹ëĬĶ":13013,"Ġìļ°ëł¤ë":13014,"ĵľë°´ìĬ¤ë":13015,"ĭłë":13016,"ìłľìĬ¤":13017,"ì°Į":13018,"Ġamputation":13019,"ĠChronic":13020,"ĠìĿ¸ìłĳ":13021,"rt":13022,"ĠEcho":13023,"BI":13024,"ĠìłĦê¹Įì§ĢëĬĶ":13025,"Ġê¹Ģíĥľ":13026,"ìĻķ":13027,"ìĻ¸ìĦł":13028,"Ġdermatophytosis":13029,"ĠíĬ¹ìłķ":13030,"Ġ95":13031,"vid":13032,"ĠíĿ¥":13033,"ĠíķľëĳĲ":13034,"Ġíĺ¸ìłĦìĹĨìľ¼ë©´":13035,"ëĵľëłĪìĭ±":13036,"ĵ¨":13037,"ìĥīìĨĮ":13038,"Ġë²¤":13039,"³´ìĭ¤":13040,"Ġê·ĢëģĿ":13041,"ĠìŀĪìľ¼ìħĶìĦľ":13042,"Ġë©Īì¶":13043,"ĠìĿ´íĭĢë":13044,"ura":13045,"Ġê¸°ë¦Ħ":13046,"ìķĦëŀĺ":13047,"ĠíıīìĨĮìĹĲëĬĶ":13048,"ĠíĺĳìĨĮíĻĶ":13049,"65":13050,"íĨ±ìłķë¦¬":13051,"ĠíļĮìĿĮ":13052,"ħ¨ëĬĶëį°":13053,"ì¡±":13054,"Ġê³¼ìĭĿ":13055,"Ġincidental":13056,"ĠìĬ¤íĥĢíĤ¤ëĦ·":13057,"insignificant":13058,"thalm":13059,"ĠCTWO":13060,"ĠìķĬìķĺëĭ¤ê³ł":13061,"Ġcholecystitis":13062,"tre":13063,"Ġì§ĦíĸīëĲĺìĸ´":13064,"Ġspecific":13065,"ê´Ģì°°ë":13066,"Ġì°¾ìľ¼ëŁ¬":13067,"īìŀ¥íŀĪ":13068,"ĲĲ":13069,"ĠìĿ´ë§Ī":13070,"ëĲĺìĹĪê³ł":13071,"Ġìļ°ìĭł":13072,"ê¸°ì¤Ģ":13073,"Ġëĵ¤ìĸ´ê°Ħ":13074,"Ġmix":13075,"Ġë¬¼ê³ł":13076,"ĠíĬ¹ìĿ´ìĨĮê²¬ìĹĨìĿĮ":13077,"Ġë¿Įìĺĩ":13078,"·°":13079,"Ġë³´íĺ¸ìĨĮ":13080,"Ġíķľê°ľ":13081,"ĠPOìłľ":13082,"Ġë¶ĢíĨłíĮĮëĨĢ":13083,"onal":13084,"Ġì¡°ê°ģ":13085,"ì¡°ê¸Ī":13086,"ĠëĨįìĿ´":13087,"ĠìĤ¬ë§Ŀê°ĢëĬ¥ìĦ±":13088,"Ġìŀ¬ì§ĦìĿ¼":13089,"ĠìķĪì¢ĭìķĦì§Ĳ":13090,"Ġêµ¬ë¶Ħ":13091,"Ġìĭłê²½ì¦ĿìĥģìĿĢ":13092,"Ġìĺ¬ëĿ¼ìĺ¤":13093,"Ġmargins":13094,"onephritis":13095,"ĠíĻķìĿ¸ëĲĺìĹĪê³ł":13096,"ectrolytes":13097,"Ħľë¶ĢíĦ°":13098,"Ġdrh":13099,"Ġëħ¼":13100,"ë§ĪëĶľ":13101,"íĶĮëŁ¬":13102,"eterin":13103,"ĠìłĢíķĺëĲľ":13104,"99":13105,"Ġgeneralized":13106,"Ġê²ĥìĿ¼":13107,"ĠëªĩëħĦ":13108,"ogram":13109,"Act":13110,"Drh":13111,"Vmt":13112,"af":13113,"Ġvmt":13114,"ĠìĿĮìĪĺëĬĶ":13115,"td":13116,"Ġì£¼ìĤ¬ë§ŀ":13117,"Ġì§ĢìĿ¸":13118,"ĠíĺĪìķ¡ê²ĢìĤ¬ëĬĶ":13119,"obacter":13120,"Defec":13121,"ĠìĤ¬ì§Ģë":13122,"ĠìłĢëĬĶ":13123,"¬¸ìĤ¬íķŃ":13124,"ĠNCPE":13125,"´ìŀĲ":13126,"ìŀ¬ì±Ħ":13127,"ĠìķĮìķ½ìľ¼ë¡ľ":13128,"31":13129,"mi":13130,"Ġë§ĮìĦ±ì·Įìŀ¥ìĹ¼":13131,"ĠìŀĲê·¹ìĹĲ":13132,"Ġì°¾ìķĦ":13133,"ìĭľëĶĺì":13134,"Ġì¯¤ìĹĲ":13135,"ĠëĤ´ë¶ĢìĹĲ":13136,"Ġì¡°ê¸ĪëįĶ":13137,"ĠìŀĲë°ľìĭĿìļķìĿĢ":13138,"ĠìĿ¼ì£¼ìĿ¼ìłķëıĦ":13139,"Ġìĸµì§Ģë¡ľ":13140,"ND":13141,"ĵ±ìĿĺ":13142,"Ġì¤ĦìĹ¬ìĦľ":13143,"Ġê²½êµ¬ìłľë¡ľ":13144,"nI":13145,"¸ë¦°":13146,"ĠëĨĢê³ł":13147,"Ġê±·ê¸°":13148,"Ġì¦īìĭľ":13149,"Ġì§Ļ":13150,"Ġë¨¹ê¸´":13151,"Ġê°ľìĭľ":13152,"etron":13153,"ĠìŀĲê·¹ìĭľ":13154,"logic":13155,"ìŀĪìľ¼ë©´":13156,"Ġnodules":13157,"íģ´ë¡ľìĬ¤íı¬ë¦°":13158,"eart":13159,"ĠìĥģìĬ¹ìľ¼ë¡ľ":13160,"Ġê¸ģì§Ģ":13161,"Ġë¹łì§Ģê³ł":13162,"Ġë¡ľìļ°íĮ»":13163,"Ġìĩ¼íĮĮ":13164,"grade":13165,"Ġfdt":13166,"Ġabscess":13167,"severe":13168,"conj":13169,"ëıĦê°Ģ":13170,"Ġì¡°ìĺģìłľ":13171,"Ġstitch":13172,"ìĤ¬ì§Ħì²¨ë¶Ģ":13173,"íķĺìĭľëĿ¼":13174,"íĨłë¥¼":13175,"Ġëĭ¤ìĿĮë²ĪìĹĲ":13176,"02":13177,"ĠìĹĨëĭ¤ê°Ģ":13178,"Ġë©ĺ":13179,"ĠEd":13180,"ìĭĿìļķë¶Ģì§Ħ":13181,"Ġmethocarbamole":13182,"crip":13183,"Ġfa":13184,"Ġìĸ´ìłľê¹Įì§ĢëĬĶ":13185,"ìĸ´ë¨¹":13186,"ĠíĿ¥ë¶Ħíķĺë©´":13187,"thoprim":13188,"Ġëį®":13189,"ĠëĨĴìĿ´":13190,"ĠëĲĺìĹĪëĭ¤ê³ł":13191,"Ġë¶Īê·łì§Ī":13192,"ised":13193,"Ġë¨¹ìĹ¬ìķ¼":13194,"¬¸ë":13195,"Ġcentral":13196,"Ġì¤ĳìĿ´ëĤĺ":13197,"Ġpot":13198,"Ġì§Ģìĭľíķ¨":13199,"ĠíĬ¸ë¦¬ë°į":13200,"°ĸìĹĲ":13201,"íķľëĭ¤":13202,"ĠìĥģíĻ©ìĹĲìĦľ":13203,"PIC":13204,"enteric":13205,"ìĭ¤ì¡°":13206,"Ġíļ¡ê²©ë§ī":13207,"ìĿ¸íĬ¸":13208,"Ġtrunk":13209,"Ġêµīìŀ¥íŀĪ":13210,"Ġë°©ê´ĳìĹ¼ìĹĲ":13211,"ĠìłĦìĽĲ":13212,"ĠíĤģ":13213,"«ìĨĶ":13214,"ĺìĭľ":13215,"ê°Ħì¦Ŀ":13216,"ĠìĿ´ë¬¼ìĿ´":13217,"ĠëģĿëĤĺê³ł":13218,"ĠChl":13219,"Ġì±Ħì·¨":13220,"íħĲíĬ¸":13221,"Ġìĺ¤ë¥´":13222,"ĠíĮĮìĹ´ë":13223,"ĠDobu":13224,"istent":13225,"ĠíĹĪëĭĪìķĦ":13226,"ìľ¼ë¡ľë¶ĢíĦ°":13227,"Ġspur":13228,"ìĹ°ëĿ½":13229,"Ġofloxacine":13230,"Ġê°ĦìĭĿìľ¼ë¡ľ":13231,"Ġê°ĲìĹ¼ìĹĲ":13232,"Ġë³´ê°ķìłĳì¢ħ":13233,"alking":13234,"Ġìŀħìĭ¤":13235,"ê±°íĴĪ":13236,"ĠìĤ¬ë£ĮëŁī":13237,"ĠìķĦëĵľ":13238,"ĠëĤĺìķĦì§Ħ":13239,"Ġdeform":13240,"AO":13241,"lip":13242,"ĠDI":13243,"Ġê¼¬ë":13244,"Ġsynechia":13245,"hepagen":13246,"ditional":13247,"nar":13248,"Ġìı":13249,"Ġìĭ¤ìĻ¸":13250,"omatous":13251,"kinase":13252,"otensive":13253,"dling":13254,"ëĵ±ìª½":13255,"Ġsplen":13256,"Ġì²©ëª¨":13257,"ìļ°ê³ł":13258,"Ġì²ĺì¹ĺìĹĲ":13259,"Ġê³łëł¤ëĲĺìĸ´":13260,"function":13261,"Ġê´Ģëł¨ìĦ±":13262,"ĠìĥģíĻ©ìĿ´ëĿ¼":13263,"Ġíı¬íķ¨íķĺìĹ¬":13264,"Ġê³µë³µìĹĲ":13265,"Ġì¢ĭìķĦì¡Įëĭ¤ê³ł":13266,"Ġëĭ¤ë¥¸ë³ĳìĽĲìĹĲìĦľ":13267,"DV":13268,"imethoprim":13269,"Ġsurface":13270,"ìŀĪëĭ¤ê³ł":13271,"ĠComments":13272,"Ġtyp":13273,"Ġë°ĺìłĲ":13274,"ĠìĨĮë³ĢìĿ´":13275,"Ġì§ĢëĤľë²Īê³¼":13276,"ìĿ´ìħĶìĦľ":13277,"ĠìĿ´ìĭĿ":13278,"ĠëĤ´ë³µìķ½ìĹĲ":13279,"Ġë¶Īíİ¸ê°Ĳ":13280,"95":13281,"Ġë°ľë³ĳ":13282,"ë°°ìª½":13283,"Ġë¶Ģìĸ´ìŀĪìĿĮ":13284,"Ġinflammatory":13285,"Ġë¬¸ìłľëĲĺëĬĶ":13286,"ìłĦí":13287,"enton":13288,"Ġìľłë¬¸ë¶Ģ":13289,"piration":13290,"ĠìķĪëĤ´ëĵľë¦¬ê³ł":13291,"ĠìŀĲìĦ¸íķľ":13292,"íĹĪëĭĪìķĦ":13293,"itive":13294,"Ġìĭ¬íĸĪìĿĮ":13295,"Ġclostridium":13296,"Ġketoconazole":13297,"CH":13298,"¶Ģë¡ľ":13299,"Ġê³¨ë":13300,"Ġê³µê°Ħ":13301,"ĠëĪĪìĥģíĥľ":13302,"ĠìĹĨìĹĪìĬµëĭĪëĭ¤":13303,"ĥĿê²Ģ":13304,"Ġë¹Ħì¶ľíĺĪ":13305,"Ġsylimarin":13306,"ĠëĥĦ":13307,"ility":13308,"ìĹ°ìļ°":13309,"Ġë°¥ê·¸ë¦ĩ":13310,"Ġìļķ":13311,"ĠìĿ¼ìľ¼íĤ¬":13312,"ĠëĮĢíķ´ìĦľëıĦ":13313,"Ġìľłë£¨ì¦Ŀ":13314,"lamation":13315,"ĠìĿ´íĺķìĦ±":13316,"ĠíĶĮëĿ¼":13317,"íķĺê²łëĭ¤ê³ł":13318,"ĠìķĪëħķíķĺìĦ¸ìļĶ":13319,"ĠìĦ¤ìĤ¬ì¦Ŀìĥģ":13320,"ê³¨ìĿ´":13321,"imentary":13322,"Ġëįľë":13323,"Ġamy":13324,"¹Ħì½":13325,"Ġhac":13326,"anning":13327,"ĠìŀħìĿĦ":13328,"Ġtransfusion":13329,"ĠìĺĪíĽĦê°Ģ":13330,"ì§ĢìĹŃ":13331,"ì¹¼ëĿ¼":13332,"Ġê°ĢëĬ¥ìĦ±ìĿĦ":13333,"ept":13334,"ĠìķħíĻĶëĲ¨":13335,"ëķĮë¬¸":13336,"Ġslowly":13337,"ornipural":13338,"aropitant":13339,"íĦ±":13340,"Ġhco":13341,"Ġë³´íĺ¸ìŀĲëĬĶ":13342,"ĠìĿ´ëĤĺ":13343,"ĠìłĦíĻĶë":13344,"Ŀ¼ë¥¼":13345,"Ġë³´ìĺĢ":13346,"Ġdocp":13347,"ĠìĤ¬ìĤ¬ë¯¸":13348,"Ġìĺ¤ëĬĺê¹Įì§Ģ":13349,"Ġíİ¸ìĿ´ëĿ¼":13350,"ĠíĺĦì¦Ŀê´Ģëł¨":13351,"ĠvitBC":13352,"Ġbutophanol":13353,"Ġgentamycin":13354,"dle":13355,"į©":13356,"Ġê°Ģëŀĺ":13357,"Ġê°Ķëĭ¤":13358,"Ġìĥģì²ĺë¶ĢìľĦ":13359,"Ġì§ĢìĤ¬ìłľ":13360,"mis":13361,"íķľê²ĥ":13362,"ĠTG":13363,"tras":13364,"ĠëĦ¤ë·¸ëĿ¼ìĿ´ìłĢ":13365,"Ġcobal":13366,"ĠìķĪíĨµ":13367,"ulus":13368,"ctomy":13369,"íĹī":13370,"Ġë³µìļ©ì¤ĳìĿ¸":13371,"ĠìĥĿê°ģíķĺìĭ¬":13372,"ophosphamide":13373,"Ġë°ĺëł¤ëıĻë¬¼":13374,"ì©Ŀ":13375,"ĠëĨĶë":13376,"Ġìŀ¬ëĤ´ìĽĲíķĺìĹ¬":13377,"Ġnitro":13378,"Ĥ´ìĹĲ":13379,"UTD":13380,"TA":13381,"Ġë°°ëĩ¨ìĭľ":13382,"Ġ)\"":13383,"Ġì¶©íĺĪìĿ´":13384,"ĠëĮĢìĨĮë¶ĢëıĻ":13385,"ëĿ½íĨ¤":13386,"Ġê°ĢìĿĦ":13387,"Ġì°Į":13388,"ìĶ¬":13389,"ìĸ´ì§ĢëĬĶ":13390,"ĠLef":13391,"Ġthrust":13392,"ê°ĢëıĦ":13393,"Ġeosinophilic":13394,"©´ë":13395,"´ìĺ¤ë":13396,"ĠìĪĺíıī":13397,"ĠëıĻìĥĿ":13398,"ĠìĿ¼ë¶Ģë":13399,"Ġê²½ìļ°ìĹĲ":13400,"Ġëĭ¨íĺ¸ë°ķ":13401,"Ġë¬´ë£Į":13402,"yphema":13403,"Ġìŀ¥ì°©íķ¨":13404,"ĠìĨĮìĭ¤ëĲĺìĸ´":13405,"Ġuwtm":13406,"ĠíĿīê³¨":13407,"Ġë³µë°°":13408,"rowth":13409,"ĠíħĮìĬ¤íĬ¸":13410,"Ġstimulation":13411,"ĠìľĦíķĺìĹ¬":13412,"Ġenzyme":13413,"íĪ¬ìĬ¤":13414,"08":13415,"ìĿ´ìłĦìĹĲ":13416,"Ġìĭľëł¥ìĿ´":13417,"íķ´ë³´ìĭľê³ł":13418,"Ġì²łìłĢíŀĪ":13419,"Ġvariant":13420,"Ġepiscl":13421,"Ġì¦Ŀìĥģê°ľìĦł":13422,"ocytic":13423,"ĠëĲĺìĹĪìĬµëĭĪëĭ¤":13424,"Ġfpv":13425,"ìŀ¥ìĹĲ":13426,"ĠCtime":13427,"ĠAU":13428,"ĠìĥĿê°ģëĲĺìĸ´":13429,"ê¶Įìľł":13430,"ĠíĬĢìĸ´ëĤĺì":13431,"ĠìķĦëŀ«":13432,"Ħ¸ì²Ļ":13433,"Ġxcm":13434,"ĨįëıĦ":13435,"Ġìŀĺì§ĢëĥĦ":13436,"íĺĪìłĦ":13437,"ĠíĹī":13438,"Ġê³łëł¤ëĲĺëĤĺ":13439,"CROS":13440,"Ġelevated":13441,"vial":13442,"Ġë¯¸ë¯¸":13443,"ĠêµŃìĨĮë§Īì·¨":13444,"ê°ĦíĹĲ":13445,"ĠìĪĺì°":13446,"ically":13447,"íĮľ":13448,"ë³´ëĬĶ":13449,"ĠcTnI":13450,"ìĿ¸ëĭ¤ê³ł":13451,"ĠìŀĪëĭ¤ê³łíķ¨":13452,"Ġê²ĢìĿ´ê²½ìĥģ":13453,"ìĸ´ëľ¯":13454,"PCR":13455,"ë§ĲëĿ¼":13456,"ĠìĦ¤íĥķ":13457,"Ġcrystal":13458,"corbic":13459,"¼íĦ°":13460,"erated":13461,"Ġherpes":13462,"ĠìĨĮìĪĺìĿĺ":13463,"ìŀĲë¦¬":13464,"Ĩįìĸĳ":13465,"Ġì§ĢëĤĺìĦľ":13466,"athiop":13467,"ĠìŃī":13468,"ê³¼ëĬĶ":13469,"ìŀĲìĦ¸ë":13470,"ĠìĤ¬ìłķìĥģ":13471,"Ġë°ľíĨ±ìłķë¦¬":13472,"Ġíĺ¸íĿ¡ìłķì§Ģ":13473,"ĠìĦ¤ìĤ¬ë¡ľ":13474,"ĠìĿ¸íĦ°ëĦ·":13475,"ìĦ¸íĭ¸":13476,"Ġíıīê°Ģë¥¼":13477,"Ġdifferen":13478,"ĠìĹ°ëĿ½ëĵľë¦¬ê¸°ë¡ľ":13479,"ĠíĺĪê²Ģì":13480,"Ġê±°íĴĪíĨł":13481,"ĠíĦ°ëĬĶ":13482,"ĠìĻĢë¥ĺê°Ģ":13483,"ĠìĪĺíı¬":13484,"ĠëķĮë¬¸ìĿ¼":13485,"Ġcarb":13486,"ìĪĺê°Ģ":13487,"§ĪìĿ´ëĵľ":13488,"ì²Ļê³¨":13489,"Ġinguinal":13490,"ë¨¹ìĿĮ":13491,"ĠíĽĦì½Ķ":13492,"íķĺìŀĲê³ł":13493,"ĠìĪĺë©´ì":13494,"COPIC":13495,"Ġì¡°ê¸Īë§Į":13496,"ë¨":13497,"Ġë¹ĦëĭĲ":13498,"Ġê±±ìłķìĿ´":13499,"CROSCOPIC":13500,"Ġë¨¹ìĸ´ìķ¼":13501,"ê³¼ìłķ":13502,"ĠIf":13503,"ìĭľëıĦ":13504,"Ġëĭ¨ìľĦë¡ľ":13505,"ê³³ìĹĲ":13506,"íķŃë¬¸":13507,"Ġë¹ĪíĺĪìĿ´":13508,"Ġë¹Ħìŀ¥ì¢ħê´´":13509,"Ġë¦¬ë§ĪëĶľ":13510,"ullary":13511,"inter":13512,"ĠìĤ¬ëŀĮë":13513,"¦¬ëŁ¬":13514,"ĠìĦ¤ìĤ¬ìķ½":13515,"ĠìĿ´ìĻ¸ìĹĲëĬĶ":13516,"ĠìłĪìłľíķĺìĹ¬":13517,"Ġê°Ģìĭ¤":13518,"Ġbile":13519,"íĤ¤ëĬĶ":13520,"initis":13521,"Ġlab":13522,"Ġìŀ¬ê³ł":13523,"ĠìĿ´ë¬¼ìĦŃì·¨":13524,"Ġì´ĪìŀĲì²´":13525,"Ġë³´ë¦Ħ":13526,"Ġíģ´ëĿ¼ë°Ķëª©ìĬ¤":13527,"Ġìļ°ëł¤":13528,"ĠëĳĲë²Īì§¸":13529,"Ġinduced":13530,"rong":13531,"íĺĪë³ĳ":13532,"ĠEdema":13533,"ëĮ":13534,"ĠíĻķìĿ¸íķĺìĹ¬":13535,"ĠëĴ¤ìª½ìľ¼ë¡ľ":13536,"Ġstool":13537,"ĠìĹ°ê¸°":13538,"Ġë³´ì¡´":13539,"ĠìĿĺìĭ¬ëĲĺë©°":13540,"Ġê¶Įíķ´ëĵľë¦¼":13541,"ĠíĤģíĤģ":13542,"glu":13543,"lin":13544,"ìĦ¸ì§Ģ":13545,"ĠìĦ¸ë°":13546,"Ġzenton":13547,"¬´ë¦¬":13548,"Ġëª°":13549,"ĠìĪĺì»·":13550,"Ġê·ĢíĦ¸":13551,"Ġê±´ìĤ¬ë£ĮëĬĶ":13552,"ĠìķĦíĮĮíķĺê³ł":13553,"Ġê°ģì§ĪìĿ´":13554,"ìŀ¬íĻľì¹ĺë£Į":13555,"ìĪĺëĬĶ":13556,"ĠIsoflurane":13557,"Ġê³Ħìħ¨ìĿĮ":13558,"Ġì¢ħê´´ë":13559,"Ġacetylcysteine":13560,"Īĺë¶Ħ":13561,"ĠíĬ¸ë¦´ë¡ľìĬ¤íĥĦ":13562,"ĢìĤ¬ìĥģê·ł":13563,"Ġcardiogenic":13564,"ands":13565,"Ġê´Ģì°°ëĲĺê³ł":13566,"GA":13567,"ìĦ±ìĿĺ":13568,"ê²½êµ¬ìłľ":13569,"Ġì§ĦíĸīëĲĺëĬĶ":13570,"Ġcount":13571,"Ġcytoplasm":13572,"´íĿĺ":13573,"Ġartifact":13574,"Ġgro":13575,"ĠPrednisolone":13576,"Ġì¢ĭìķĦìĦľ":13577,"ìĭ¤ìĹĲ":13578,"ĠíĪ¬ìĹ¬íķĺê³ł":13579,"Ġëĭ¤ë¦¬ëĬĶ":13580,"Ġmyel":13581,"íĮ¨ëĦĲ":13582,"Ġëĭ¤ë¥´ê²Į":13583,"stable":13584,"Ġíĩ´ìĽĲíĽĦ":13585,"ĠìĥģìĬ¹ìĿ´":13586,"´ë°ľë":13587,"íķŃì²´ê°Ģ":13588,"ansetron":13589,"fore":13590,"íķį":13591,"°ì¹":13592,"Ġê°ķê¸īìĭľ":13593,"Ġë°ĸìĹĲìĦľ":13594,"ìĹĪìĹĪìĿĮ":13595,"Ġê°ĲìĹ¼ì¦Ŀ":13596,"íĤ¹":13597,"ëĦ¤ë":13598,"Ġê°ľìĦłëĲĺìĹĪìĿĮ":13599,
[...]
