#version: 0.2 - Trained by `huggingface/tokenizers`
Ġ ì
Ġ ë
ì Ŀ
Ġ í
Ġ ê
í ķ
ì Ĺ
t i
ì ł
Ġ -
ë ĭ
ĺ ì
m e
ê ³
´ ì
Ģ ì
Ġì ŀ
ti me
Ġì ķ
Ĥ ¬
Ġë °
ĥ ģ
Ġ time
ìĿ Į
ë Ĭ
¼ ë
ì Ħ
ì ķ
ê °
ì §
ìĿ ´
Ġì ł
ìĹ Ĳ
o n
ì ĭ
Ġì ĭ
¡ ľ
ê³ ł
Ġí ķ
Ġì Ŀ
° ë
ê ²
ì ŀ
ëĬ Ķ
Ġê °
i n
Ģ ë
ĺ ë
Ġ m
ì ľ
ì ļ
ľ ë
Ħ ë
í ĺ
Ġ p
Ġë ³
ê ¸
Ġì Ĺ
Ġê ²
ì ĥģ
Ġ c
ëĭ ¤
Ľ Ĳ
t h
ĸ ĳ
Ġ b
Ġ s
i d
´ ë
Ġë Ĥ
k g
Ġ :
Ĩ Į
Ġì §
Ġì ĺ
Ľ Ħ
ìľ ¼ë
a l
Ī ë
ìĿ Ģ
ı Ħ
Ġm on
¸ ë
Ġí Ļ
Ġí ĺ
íĺ ¸
ì Ĥ¬
¶ Ģ
¦ Ŀ
íķ ĺ
Ġê ¸
ê° Ģ
ì§ Ģ
ìł ķ
Ġì ĸĳ
Ġmon th
£ Į
Ī ìĿĮ
ëĭ Ī
Ġì Ī
r e
Ġ d
í Ļ
ĠìĹ Ĩ
£ ¼
¦ ¬
Ġ f
Ġë ĭ
° ì
Ġë §
ìķ ½
Ġê ³
Ġ g
Ġì ²
Ģì Ĥ¬
ë °
o r
µ ¬
ìĦ ľ
Ġ a
ìĭ ľ
í ĥ
¨ ¹
ì Ī
¤ ĳ
íķ ¨
e r
Ġ t
Ġì ľ
Ġì ĥģ
¢ ħ
ì Ĭ
íķ ľ
ë ıĦ
e n
ìľ¼ë ¡ľ
¤ ë
ìł ľ
Ġ (
Ġb id
ìĦ ±
ìŀ ¥
ê¸ °
ìĿ ¸
ìĿ ĺ
Ġìĭ Ŀ
ìł ģ
ìĿ Ħ
Ħ í
ĠíĻ ķ
ì ĸ
Ġ kg
a r
Ġë ¶
Ġìĸĳ íĺ¸
ìĹ ¬
Ħ ì
ê ´
´ í
¹ ĺ
Ġí ĽĦ
ë ³
ìļ ķ
ìĿ ¼
Ġì Ħ
Ĥ ĺ
ł ë
ļ Į
Ġ o
Ġìł ķ
í Ħ
ì ĽĲ
¸ ¡
íĻ Ķ
Ġê ·
° ©
íķ ĺì
r o
Ġë ¨¹
Ġ h
Ġì ĨĮ
Ġë ª
´ì ĽĲ
Ġì ļ
Ġë° ı
ê³ ¼
Ġìŀ Ī
§ Ģ
ì ²
ëĭĪ ëĭ¤
r a
Ġìł Ħ
Ġê ´
í Ĩ
Ġìĭ ¬
Ġìķ Ĭ
ĵ ľë
ĠìĪ ĺì
Ġ n
Ġê µ¬
Ġ 1
ìł Ħ
ìŀ Ĳ
Ġ l
Ġìķ ½
ĩ ¨
ìĭ Ŀ
Ġìĺ ¤
Ħ ľ
Ġë ¹
ìĹĲ ìĦľ
ĠìĭĿ ìļķ
Ġìŀ ¬
o l
ì ĨĮ
íĥ ľ
ł ¥
ë §
in e
Ġì Ĥ¬
Ġì ¢
Ġë³ ´
Ī ìłķ
ë ¶
ı Ļ
Ġ P
Ġì ¶
Ġì ¦Ŀ
Ġì ¤ĳ
Ŀ ¼
ì§ Ħ
Ġ e
ì ¦Ŀ
i s
Ġë° °ë
ĸ ī
i l
i c
ë Ĳ
ìĿ ´ì
Ġìľ ł
ëĭ¤ ê³ł
a m
Ġê² ĢìĤ¬
¬ ¼
ìĿ ¸ë
Į Į
ìĦ ł
íĨ ł
Ġë° ľ
Ġí Ķ
Ł ī
ĠìĹĨ ìĿĮ
ĥ Ŀ
ê ±
ĭ ¬
íĦ °
Ġp o
ìļ ©
í ĽĦ
u r
a n
ìĿ¸ë Ĳ
a t
ì ĺ
Ĩ į
ĠíĻķ ìĿ¸ëĲ
Ġì ¹
ê² ĢìĤ¬
´ì Ħľ
ê° Ħ
¸ í
Ġì £¼
© ´
ì ¢ħ
ìĹ ¼
ĸ ´
ti on
Ġíķ ¨
Ġìķ Ī
Ġì Ļ
a s
Ġ 2
ë ¡ľ
ë £Į
a y
Ġíĺ Ī
³ Ģ
ë ¶Ģ
Ġëĭ ¤
ê ·
Ġìŀ Ĳ
a c
Ġê° Ħ
Ġê² ĥ
ìļ Ķ
ĠëĤ ´ìĽĲ
Ġê² ½
Ġë ĵ
Ġìķ Īë
Ġêµ¬ íĨł
ì ¶
i t
Ġ 0
ìķ Ħ
¡ °
ìĪ ĺ
¦ ¼
ìĿ´ ë
ê¸ °ë
Ġí ı
´ë ³
Ĥ ´
Ġì¶ Ķ
ê² ¬
e c
e s
Ġ C
Ġ O
Ġìĭ ľ
ĺì ¹ĺ
íĺ Ī
ì £¼
Ġë° ©
© °
ĺë °©
ì ¸¡
¹ ¨
Į Ģ
¥ ¼
Ŀ ¡
Ġìĺ Īìłķ
ìĹ ĪìĿĮ
ì ĸĳ
o d
Ġê ±
Ī ł
Ġë³ µ
Ġ in
Ġìŀ ĪìĿĮ
ê µ¬
Ġì§ Ħí
Ġìŀ ĺ
u s
Ġíķ ĺì
Ġ 3
Ġí ļĮ
ê² Į
ì Ļ
p h
¨ ë
ĺë £Į
ëĭ ¨
ê² ½
Ġê° Ĳ
Ġì¦Ŀ ìĥģ
in g
Ġì ´
íķ Ń
Ħë £Į
ł ¤
íķ ´
Ġ i
ķ Į
Ġì Ĭ
Ġê° Ģ
u l
íĺ¸ ìŀĲ
ëĬ ¥
Ġ re
ì ¹
ë Łī
Ġì§Ħí ĸī
Ġí Ĭ
Ġìĭ ł
Ġì² ĺë°©
Ġíĺ ¸í
Ġìŀ ħ
e m
Ġìĥģ íĥľ
Ġ T
ĠìĿ ¼
ìĭ ¬
² Ī
ľë ł¥
Ġ A
Ġìłķ ìĥģ
Ġì ĽĲ
Ģë ¦¬
íķĺ ìĹ¬
Ġì Ĥ
í Ķ
Ġíĺ¸í Ŀ¡
ĠìĪĺì Īł
Ġë ¬
í ļĮ
ë° ľ
ìĸ ´
ª ½
´ë³ µ
ìĹ Ī
íķ ĺë
´ë³µ ìķ½
¬ ë
Ġì ¢ħ
Ġ v
ĠìĿ ´í
Ģì ľ
µ ëĭĪëĭ¤
i a
Ġ r
ĠìĿ ´ì
¶Ģ íĦ°
Ġë¹ Ħ
Ġ /
Ġê¸ °ì
Ġë³´ íĺ¸ìŀĲ
Ġ N
ìķ Ī
ĠíĬ ¹
ĠíĶ ¼ë
ìķ ¡
ê¸ ī
ìĬ ¤
ìł Ī
Ġ me
Ġ S
ĠëĤ ´ë³µìķ½
ĳ ìĽĲ
ĠíĻ ľëł¥
Ġê¸ ī
Ġì °
Ġë§ İ
Ġí Ŀ
ì ĥĿ
ı Ħë
´ì ŀ
Ġc e
£ ¨
Ġë°°ë ĩ¨
ìļ °
ì ħ
Ġê² °
í ĮĮ
Ġì§ Ģì
a tion
§ ģ
ĠíĻķ ìĿ¸
) ,
o s
Ī ¬
Ġì ¡°
Ħ ìļĶ
Ġê°Ģ ëĬ¥
ĵľë ¦¼
íķ ´ì
§ Į
Ġì¢ Į
Ġë Ĵ
ìľ¼ë Ĥĺ
Ġ B
ê¸°ë ¡ľ
Ĩ µ
ĠìĪ ĺ
Ġíķ Ń
© ëĭĪëĭ¤
í Ĭ
l e
Ġë ıĻ
Ġë į
ìĬ µëĭĪëĭ¤
ti d
ìĤ¬ ìĦł
ĠìĿ ´ë
íķĺ ê³ł
ĠìķĬ ìĿĮ
e d
Ġs id
¯ ¸
Ġíķ ĦìļĶ
ëĭ ĺ
ĠìĿ ´
¨ ëĭĪ
Ġíķ ĺë
Ġëĵ ±
m a
ìłģ ìĿ¸
Ġd ay
ë¶ Ħ
ĳ ì¢ħ
Ġê° ľ
Ġ th
ģ ¬
Ġìłķ ëıĦ
Ġ w
ê² Ģ
Ġë Ī
Ġí Ī¬
Ġë³ Ģ
Ġìŀħ ìĽĲ
Ġìļ Ķ
ĺì §Ģ
ë ¬
Ġëĭ ¤ë
ì§ Ģë
ë Ĥ
Ġë°°ë ³Ģ
ì ª½
ë³ Ģ
°ì ¸¡
o p
Ġ R
ì Ķ
¤ ìĤ¬
Ġê´ Ģì
Ġíķ ĺ
Ł ¬
ê ¹
Ġ I
Ġì¹ ĺë£Į
Ĳ ¨
ìĪ ĺì
ê´ Ģ
ê³ Ħ
Ġìľł ì§Ģ
en t
am o
ķ ¡
Ġì ĸ´
Ġê³ ł
ĠëĤ ´
ĪìĿĮ íĮĮ
ĠìĹ Ĳ
íķ ł
Ġìķ Ħ
í ı
Ġì² ´ì
Ġê´Ģì °
ĠìĿ´í ĽĦ
Į ë
ì °
Ġì¢ ĭ
Ġìł Ħë
ëĭ ´
í ĸ
ĭ ľ
ê¸ Ī
ê± °
ŀ Ī
Ġìļ °ì¸¡
Ġê¸ Ī
Ġë§İ ìĿ´
o od
s t
ìŀ ¬
ë į
Ġí ĩ
u n
Ġi v
ĠëĴ ¤
Ġa n
e t
Ġf amo
Ġë ĮĢ
Ġë Ħ
c h
ìĭ ł
ì ¤ĳ
Ġê°ĢëĬ¥ ìĦ±
ë ¦¬
Ġë°© ìĤ¬ìĦł
ĠìĤ¬ ë£Į
ĠìĻ ¸
e y
Ġê° Ļ
Ġt x
v e
Ġ H
ê° ľ
Ġ al
ĠìĿ Į
Ġí ĥ
ê± °ë
ëĬ ĺ
ĥ ī
Ġìŀ¬ ì§Ħ
Ġr x
ĺì ĸ´
Ġì¶Ķ ê°Ģ
ĠìĬ ¤
Ġí Ĩµ
Ġìĭ¬ ìŀ¥
Ġíĩ ´ìĽĲ
Ġì¢Į ì¸¡
íĦ °ë
Ĩ ¡
Ġëª ¨ëĭĪ
Ġìĭ ¤
Ġì§Ģì Ĩį
¥ ¸
Ĳ ë
ĠìĦ ¤ìĤ¬
ë ¬¼
ìĭ ¤
Ģì §
Ġë° Ľ
ìŀ ĳ
c c
ìłģ ìľ¼ë¡ľ
ìķ ķ
ĠëĤ ĺì
Ġëª »
ê° Ĳ
Ġì ĸ
Ġê³ µ
a p
Ġë§ Ī
Ġìľ Ħ
ì¶ ©
ìĸ ´ì
Ġ F
ë ²
ti s
ìľ ¼
¡ Ŀ
íĦ°ë §ģ
ĠìĹĨ ìĹĪìĿĮ
o x
Ġìŀ¬ ê²Ģ
Į ì§Ģ
ł ¨
½ Ķ
l u
Ġê¸ °
ĠíĶ¼ë ¶Ģ
Ĳ ĺ
e l
o m
Ġ 4
ĠíĺĪ ìķ¡
ë ¥¼
Ġì ĥĿ
ĠìĤ °ì
ĠíĬ¹ ìĿ´ì
İ ¸
ł Ī
ë§ Į
Ġê¸ °ë
Ġë ķĮ
Ġ D
Ġ +
Ġíĺ Ħ
Ġë¶ Ģì
ª ħ
Ġì§ Ģë
£ ¼ë
Ġëª¨ëĭĪ íĦ°ë§ģ
Ģìľ Ħ
Ġê°Ĳ ìĨĮ
Ġìĺ¤ ëĬĺ
¦ °
Ġë Ķ
ĵ ľ
Ġê³ łë
° ĺ
ê² ĥ
Ġì µ
Ġb y
ê° ķ
Ġìĭł ìŀ¥
me n
µ Ĳ
ĠìĿ ¸
d ay
ì² ´
Ġìŀ ¥
Ġê¸°ì ¹¨
Ġê· Ģ
Ġì£¼ ìĤ¬
ĠíĿ ī
Ġìł ľ
ì§ ģ
ì ¹ĺ
ìĺ ¤
Ġ u
Ġmon ey
ĠëĪ Ī
r on
ìĦ ¸
Ġê° Ģë
p i
ê· ¼
Ġê´Ģì° °ë
a z
ìĥģ íĥľ
Ġê¸Ī ìĿ¼
Ġìķ½ ê°Ħ
Ġìł ģ
Ġíķ ľ
ìŀ Ħ
e p
Ġê¸ī ìĹ¬
Ġ M
d s
ì§ Ī
ŀ Ĳ
Ġëį Ķ
´ìŀ Ħ
ìĤ¬ íķŃ
ĠìłĦ íĻĶ
Ġs t
ĠíĪ¬ ìķ½
ê³ ¨
Ġì² ĺì¹ĺ
ĠìĪĺì ķ¡
¹ Ħ
íķĺ ê²Į
ĵ ¤
u t
ëĭ ¹
Ġìĸ´ ìłľ
ëĬĶ ëį
Ġë¬ ¸
ĠìĿ´ì ĥģ
ê´ Ģë¦¬
Ġíķĺì ĭ¬
ê´ ĳ
Ġìł Ĳ
íķĺì ĭ¬
o c
íķ ´ìĦľ
Ġìµ ľ
y p
Ġì° ¨
ĠíĺĦ ìŀ¬
Ġí ĮĮ
Ġs c
ħ ģ
a ti
ëĬĶëį °
Ġë° Ķ
Ġì§ Ģ
Ġê· ¸ë
ĳ Ĳ
Ġíı Ĳ
íķ ©
Ģë ħģ
ë ª
ì ·
Ġì ¤
Ġìĥģ ëĭ´
Ġìķ Ħì
Ġê´ Ģë¦¬
Ġa m
Ġo f
ê° Ģë
Ġì´ ĪìĿĮíĮĮ
Ġì§ ĳ
ìĪ ĺì¹ĺ
Ġan d
o g
Ģì §Ģ
Ġc h
Ġìĸĳ ì¸¡
ĺ ¨
Ģë ¶
Ġ 5
Ġë§ Ĳ
Ġt ra
g e
on e
Ġ- >
il d
i g
¥ ĺ
³ ´
ĠìŀĲ ë°ľ
ê »
ìł Ģ
ìĻ Ħë£Į
ê¹ Įì§Ģ
§ Ĳ
ìľ¼ë ©°
ĺì ŀĲ
Ġ en
ĠìĿ ¼ë
Ġìĭ¤ ìĭľ
Ġíķĺë £¨
Ġê³µ ê¸ī
ĠìĹ ¬
ì¦Ŀ ìĥģ
Ġë ħ
ê² ©
Ġíĺ ¸
ë° ©
© ´ìĦľ
Ġ k
Ġíı ī
ĠP O
or m
u c
ĠìŀĪ ëĬĶ
ìĸ ´ìĦľ
Ġë ©
ı ħ
ìŀ ħ
Ŀ ½
ĠìĨĮ ê²¬
men t
ìĿ ĳ
§ Ī
ti n
k in
³ ĳìĽĲ
Ġp k
ŀ ĺ
Ķ ìĦľ
y e
ĠíĶ ¼
Ġëĭ¤ ìĭľ
Ġë ¯¸
ìĭ ľë
ìĬ ¹
Ġê ¹
ëĭ¤ ê°Ģ
ì· ¨
Ġìĺ Ī
Ġí Į
íĬ ¸ë
. "
ìĹĲ ëĬĶ
ë§ ī
ĺë ¢
Ġf or
tid ine
ĠìĿ ĺì
ë³ µ
i m
ì ĥī
Ġme t
Ġë Ĩ
ł ¸
Ġë ¬¼
ìĹ Ĩ
Ġc r
Ķ Ķ
ħ Į
Ģì§ Ħ
ëĲ ¨
Ġë Į
Ġìĸĳ ìĥģ
ë Ĥ´
Ġ: :
Ŀ¼ ê³ł
Ġë³ ´ìŀĦ
¤ë ªħ
ĠìķĪë Ĥ´
Ġ U
Ġë°© ê´ĳ
Ġì »
ĠíĻķìĿ¸ëĲ ¨
Ġëĭ¤ ìĿĮ
íķĺ ëĬĶ
Ġìł Ģëħģ
Ġ L
Ġp ds
e a
ļ ©
í Į
day s
´ë Ĥ
Ġìł ĳì¢ħ
ìł ĳì¢ħ
Ġí ĸ
t er
Ġë§ ¤
u m
d i
Ġ E
Ġìĺ¤ ìłĦ
Ġo d
Ģë ł¨
ĠìĦ ¤ëªħ
ì ´
ìł ľë
Ġíķ ľë
ê° Ģì
ĠìĿ ĺë¢
ë ıĦë
Ġ tid
íĻ ĺ
ìĶ ©
ë¬ ¸
ìĦ Ŀ
ê´ ´
y st
Ġì¡° ê¸Ī
ĠìĹ °
ĠìĿ´ ìłĦ
Ġ [
Ġê²½ ìļ°
ëĭ ¬
ìĺ ģ
Ġë³ ĳìĽĲ
ë³ ´
Ġë Ĭ
Ġo s
is t
ë ł¥
ìĹ °
Ġê°Ħ ìĭĿ
b c
a b
ĠíĻ ĺìŀĲ
Ġth e
Ġì²´ì ¤ĳ
Ġìĥģ ìĬ¹
Ġce ph
Ġh yp
º Ķ
Ġë³ ´ì
Ġp h
ì Ĩ¡
ĠíĻķìĿ¸ëĲ ĺì§Ģ
ìĻ Ģ
Ġë ĸ
ĠìĹ ¼
ĠT x
íķĺì §Ģ
Ġì £¼ë
Ġ ra
ĠíĨµ ì¦Ŀ
ë ıħ
ìľ ł
ĠìķĦì ¹¨
Ġë¶ Ħ
í ĭ
Ġf ood
í ŀĪ
Ġë Ĳ
§ ī
ĭ ľë
Ġc c
ìħ ĺ
ë² ķ
¼ë ¡ľ
Ġë ¡ľ
± ħ
Ġê²° ê³¼
ĠíĺĪìķ¡ ê²ĢìĤ¬
ì¹ ĺë£Į
az ol
id e
Ġë° ¥
Ġê µĲ
ĠI V
Ġí İ¸
Ġì¦Ŀ ê°Ģ
Ġê± °
Ģë¶ Ħ
Ġë¨¹ ìĿĮ
at e
ê´Ģë¦¬ ìĤ¬íķŃ
Ġìĸ ´ë
ìł Ħë
íı ¬
Ġê ¶
Ġìķ Ħë
Ģë ¡ľ
ĵľë ł¸
ĠëĤ ĺ
Ĥ¬ íķŃ
Ġìĺ ¤ë
Ġìĺ¤ íĽĦ
Ġ <
Īë °©
Ġê· ¸
Ġëĵ ¤
Ġê³ Ħì
ì ¼
ì ½Ķ
Ġì§ Ħ
i on
Ġë°ľ ìłģ
ĠìĿĺì ĭ¬
ìľ Ħ
ĠìĿ¼ ì£¼
ĠíĻķìĿ¸ëĲ ©ëĭĪëĭ¤
Ġn r
ur ine
Ġë³µ ìļ©
Ġì²´ì ĺ¨
íĸ Ī
íĶ ¼
re s
I D
Ġë° ĺ
ĠëĶ °ë
Ġ ,
ìł ¸
Ġê²ĥ ìľ¼ë¡ľ
p l
y l
Ġëĭ ¹
Ġê° ķ
Ġê³łë ł¤
Ġt o
u ro
ì Ľ
Ħë ¡ľ
ĠíĺĪ ìķķ
Ġëª ¨ë
Ġp l
ì° ¨
ìŀ Ī
Į ìŀ¥
ë° ķ
Ġì§ Ħë£Į
Ġê´ Ģëł¨
or y
ĨĮ ê²¬
Ġë§Ĳ ìĶ
Ġë ²
Ġìłľ ê±°
Ġë¶ Ħë
Ħ ±
ê· ł
ìķ ĺ
Ġë³´íĺ¸ìŀĲ ë¶Ħ
Ġnr f
ec es
Ġì ĥ
o us
ìĿ´ë Ĥĺ
ìľ¼ë ©´
Ķ ë
ìĨ¡ ìĻĦë£Į
Ġ )
Ġm ild
Ġë ´
ħ ¨
ĠëĨ Ĵ
Ġìĸĳíĺ¸ íķ¨
Ġ Ċ
ëĲ ĺ
Ġìł Ģ
Ġê¸°ë ł¥
ë ¥ĺ
ti c
Ġí ģ¬
Ġë° °
¨¹ ìĿĮ
ĠìĤ°ì ±ħ
ê² °
ĵ ±
Ġë³ ĳ
Ġs kin
Ġìļ °
´í ģ¬
Ġë¶ Ī
c t
ì§ Ģì
Ġv it
o b
Ġd e
ê° ģ
íķĺì ĺ
Ġp ro
íĬ ¸
íĺ ķ
ĠëĤ ´ì
Ġê° ģ
ĠìĹ¼ ì¦Ŀ
Ġê³Ħì Ĩį
íĻ ķ
Ġìµľ ê·¼
ìĭĿ ìļķ
į ĺ
ë ĮĢ
Ġn o
ye ar
Ġfamo tidine
ul ar
Ĥ¬ ë£Į
Ġìĭľ ìŀĳ
i p
Ġë¨¹ ê³ł
t e
ŀ Ģ
Ŀ ¼ë
łë ¶Ģ
Ġe x
Ġê²½ ë
ĠíĬ¹ìĿ´ì ĨĮê²¬
ĠìĿ¼ì£¼ ìĿ¼
d o
Ġë§ Į
ĠN R
Ġê· Ģì
ĠíķŃ ìĥĿ
es s
Ġíĥ Ī
ĠìłĦë ¶ĢíĦ°
ĠìĹ °ë
c e
Ġì ·
Ġìĭł ê²½
Ġí Ĺ
d x
i th
Ġëĸ ¨
í ĸī
Ġ *
ìĸ ´ë
ìĹĲ ëıĦ
= =
Ġì¢ħ ê´´
ìĦ± íĻĶ
ĭ ł
Ġëħ ¸ë
Ġë¶Ģì ¢ħ
Ġë ĩ¨
ur g
ıĦë ¡Ŀ
ì§ Ĳ
ìĿ ¼ë
Ġê° Ģì
ĠìłĦë °ĺ
orm al
ĠìĨĮ íĻĶ
Ġìŀ ĺë
ì °©
ĠNR F
re n
ìķ Ħì
Ħ ¸
d ol
Ġ 7
Ġëĭ¤ë ¥¸
ĠëĤ ¨
ĠR x
o w
ĠíĽĦ ì§Ģ
Ġìķ Īìłķ
ìĭ ±
Ġc l
ë§ Ī
Ġì¶Ķ ì²
ĠC R
lu id
t c
ì Ĥ
ma dol
ĠíķŃìĥĿ ìłľ
¦¬ ê³ł
ì ¢
Ġn e
ĠíĪ¬ ìĹ¬
´í ĸī
ħ ĶìĦľ
Ġë¨¹ ìĿ´ì
Ġ 6
Ġë ıĦ
Ġf uro
ĠìĨĮ ëŁī
ĠìķĪ ìķ½
ë ĩ¨
i me
n e
il l
u re
Ġê°ľ ìĦł
ĠíĶ¼ë ¶
Ġì¶ ľ
ĠìĨĮ ëıħ
Ġí ģ
ê» ĺ
ĠìĿ ĺ
ìĿ´ ê³ł
ac t
Ġë¹ Ī
Ħí ŀĪ
ĠëĮĢ íķľ
Ġë³µ ë¶Ģ
íĥ Ģ
Ġë§ĲìĶ Ģë
ĠìĭĿ ìĤ¬
Ġì¤ĳ ìĦ±íĻĶ
Ġì´ Ī
¹ Ħë
i al
Ġe tc
i tis
Ġp in
¨ë ĶĶ
Ġì¹ ĺì
Ġê´Ģì°°ë Ĳ
Ġì¤ĳ ëĭ¨
Ġë³ ¸
ì² ĺì¹ĺ
ìĥģ ì¶©
y s
Ġê¸ī ìĭĿ
Ġê± ´ì
Ġíķľë ²Ī
ĠìĦ ¸
ĠíĬ¹ìĿ´ì Ĥ¬íķŃ
Ġëª ©
Ġì¤ Ħ
ĠìĬ ¬
ìĹ Ń
Ġ year
ĠO D
Ġíķ ´ì
íķĺ ê¸°ë¡ľ
ë¶ Ģì
ì² Ń
Ġì· Įìŀ¥
Ġëĭ ¨
ĠìĭĿ ìĿ´
ĠìłĦ ìĹĲ
Ġë ĵľë
Ġtra madol
ĠO S
y c
Ġë³Ģ íĻĶ
ar y
¯ ¼
¨ëĶĶ ìħĺ
Ġa c
ë ıĻ
Ġì§ĳ ìĹĲìĦľ
Ġm m
as s
ĭ ¤
C C
íĥ Ī
y m
Ġìľ łë
Ġë°ľ ìĥĿ
Ġì¢ Ģ
ì ¡
ķ Ħ
Ġê±° ìĿĺ
Ġ is
íĥ Ģë
ê°ľ ê³¨
a x
ĠëĤ´ ìĿ¼
Ġce f
íĥ ľë
ec k
ĠëĤĺì ĺ
Ġë¹ Ħë
ê¸ °ì
Ġê³ ¨
´ë ĵľë¦¼
Ġë¶ ĢìľĦ
Ġë ģ
ìħ ¨
ĠíĮ Ĳ
Ġíĺ¸íĿ¡ ìĪĺ
Ġìĺ Īë°©
Ġë§Ī ì·¨
ĠìĪĺì ¹ĺ
o t
íĶ Ħ
a ge
ĠìĤ°ì ĨĮ
ĠìĻ Ħë£Į
¬ ìĺģ
Ġc on
Ġìķ½ ë¬¼
Ġì² ´íģ¬
Ģìľ ¼ë
Ġìķ Ħí
ľ ì°
ŀ ĳ
t ra
Ġ G
ľì° ®
ëıĦë ¡ľ
ĠìĿĺë¢ °ë
ì¶ Ķ
ëĲ ľ
a in
Ġd dx
ĠìķĪë Ĥ
ê¸° ê³Ħ
l ox
ìĦ¸ ìļĶ
Ġìŀ ĳ
Ġpin k
Ġë³ ´íĸī
Ġê· ¼
ìĦ łë
Ġê° Ħë
Ġê´ ľì°®
Ġ urine
ìĸĳ ê°Ĳ
ĠìĿ µ
Ġì ½Ķ
ìĤ¬ ë£Į
§ Ģë
ea d
Ġìĺ ģ
Ġê¶ Į
ĠìĹ° ê³ł
Ġs u
ë³ ĳ
Ġë§¤ ìļ°
Ł¬ ì§Ģ
ĠìķĬ ìĬµëĭĪëĭ¤
ìķ ¼
¬ ´
ê±°ë Ĥĺ
Ġì ¸¡
Ġë ĺ
Ġa t
ĠìĪ ł
Ġê³ Ħí
ë°© ë²ķ
ĠìĭĿìļķ ìĥģíĥľ
Ġë°ĺ ìĿĳ
Ġìķ ŀ
ë° ĺ
Ġìĥ Īë
ë¶Ģ íĦ°
í ģ
Ġìķ ħ
ì¢ħ ë¥ĺ
Ġìłģ ìļ©
r il
Ġw ith
Ġì¢ĭ ìĿĮ
ìĻ ¸
Ĥ ¤
al l
Ġë ²Ī
ìľ ¡
Ġì§Ħ ëĭ¨
Ġì» ¨ëĶĶìħĺ
ĺì Ħľ
ë¬ ¼ë
ê´Ģ ìłĪ
ë¶ Ģë
Ġì¸¡ ìłķ
ë ĵ±
ĠìĦ ¸í
íķĺì ĭľ
ëĲ ĺìĸ´
Ġëį °ë
Ħí Ĺ
ë° Ľ
ŀ ĺë
ì ¡°
o f
ê ¶
1 0
íķĺë ©°
ìķ Ħë
ëĭ¤ ë¦¬
m ur
c re
ł Īë
ĠìĤ ¼
ro p
ĠìĿµ ìĿ¼
Ġê³ ¼
ìĪ ĺë
Ġë³´íĺ¸ìŀĲ ëĭĺ
ìķĦ ìĦľ
Ġ or
Ġì§Ģë Ĥ
Ġê²° ìłķ
it or
Ġê°ľ ìĦłë
Ġ .
ìĪ ł
Ġë ¶Ģ
Ġf luid
Ġíĸ Ī
ì¶ ľë
ĠíĮĲ ëĭ¨
ëª ¨
Ġc re
Ġë¶ Ģë¶Ħ
ĠìĨĮ ìĸĳê°Ĳ
ĠìĭĿìĤ¬ ì¢ħë¥ĺ
Ġê¸īìĭĿ ë°©ë²ķ
ļ ķ
ĥģ íĥľ
ìĪĺì ļķ
Ġd x
ı ¬
Ġceph a
ļ į
ĠìĪ łë¶Ģ
ë ²Ī
´ë ıĻ
íĺ¸ í
v er
Ġíģ¬ ê¸°
íĻ ©
ĠìķĦ ì§ģ
itor ing
ł ¤ë
Ġc or
ìĿ´ì §Ģ
do or
ìŀ¥ ëĭĺ
Ġb un
Ġíĺ Īë
í İ¸
Ġìł Ī
Ġëĸ¨ ìĸ´ì
ĠìĿ ĳ
ĠìľĦ íķ´
íķ´ì £¼
Ġìŀ Ħ
ìł Ĳ
Ġp an
Ġë ¶ĢíĦ°
) "
Ġh pi
ì ¤
ì¶ ľ
ìľ¼ ìĭ¬
Ġíı ¬
íķ´ì §Ī
Ġë³¸ ìĽĲ
¯ ¸ë
o ma
Ġìŀ ł
Ġh r
Ġì ¼
ĠìĬ¬ ê°ľê³¨
Ġì¹ ¨
ĠìĦ¤ëªħ ë
Ġn ormal
ĠìĤ¬ ìļ©
Ġ V
ìłĢ íķĺ
Ġë° ±
Ġì ¹ĺ
ist ory
Ġíķĺ ê³ł
urg or
i et
Ġì ºĶ
ı Į
Ġëĺ Ĳ
h r
ķ ¼
° ĺì
íĺ¸í Ŀ¡
ĠëĶ°ë Ŀ¼
íĨ µ
ig n
ĠëĦ ¥
ìĹĪ ìľ¼ëĤĺ
ĠëĮ Ģì
er al
Ġt urgor
ìłķ ëıĦ
Ġ1 0
yst em
ê µĲ
Ġìķ Į
Ġê°Ĳ ëŁī
íĸ ¥
i z
Ġê°ģ ë§ī
Ġin door
v i
Ġë¹Ħ ìļ©
Ī ĺì
ìł ĦíŀĪ
Ġìĭľ ê°Ħ
Ġìĥģ íĥľë
ĠìĿĺ íķľ
Ġê´Ģì°°ë Ĳ¨
¥ ´
D S
Ġê³Ħí ļį
ur mur
ë° °ë
ĠìĿĮ ìĪĺìļķ
³´ ëĭ¤
Ġê°Ħ ê²©
Ġê±´ì Ĥ¬ë£Į
ĠìĽĲ ìĿ¸
ë³ Ħ
ĠíĿī ë¶Ģ
Ľ Ħë
ª ¨
Ġmon itoring
ì§Ģ ëĬĶ
r al
ì¹ ´í
Ġë³Ģ ê²½
ëĭ¤ ë
Ġì´ ¬ìĺģ
Ġm urmur
° ľ
en s
d e
ë§ Ŀ
azol e
³ ĳ
Ġê´ Ģ
Ġì ½
ìĺ Īìłķ
Ġì¶ ©
łĪ ìĭ±
ĠìĹĨ ìĿ´
ĠíĶ¼ íķĺì
tin g
Ĳ ľ
Ġê´Ģì° °
as e
ģ Ķ
ë¬¸ ìĹĲ
s em
ìĪĺì Īł
" *
ê³ µ
os is
ĠìĨĮ ë³Ģ
Ġê° ĳ
ë° ±
¦ Ħ
Ġíķ ł
ĠìĻ¸ ìĿ´
ìĬ ¤ë
ĠìĿ¼ ëĭ¨
Ġìĭ¬ íķľ
Ĥ ł
ĠìĺĪ ìķ½
ìĿ´ë ©°
sem ide
ĠíļĮ ë³µ
¦¼ íĶĦ
Ġh g
ĺë ©´
Ġê³ Ħ
g en
Ġê²° ìĦĿ
ĠìĦ ł
ĠB ID
ìĿ´ ëĬĶ
res s
in ation
³ĳìĽĲ ìĹĲìĦľ
Ħì ²
Ġìĭ¬ ë°ķ
Ġl e
Ġm ass
ì§Ģë §Į
Ġìĭłìŀ¥ ìĪĺì¹ĺ
it y
Ġë ĳĲ
Ġë¹Ī íĺĪ
ĠëĮĢ íķ´
Ġp im
Ġíıī ìĨĮ
lox ac
B C
Ġìķ Įë
ĠH g
Ġfor days
Ġìľł ìĤ¬
ig h
Ġc om
Ġë§ ŀ
Ġëĭ¤ë ¦¬
ìĹĨ ìĿĮ
© Ķ
í ħĮ
ic al
¯ Ģë¡ľ
Ġa b
ì¶ľë ¬¼
Ġì ¡
Ġë°ľ ìŀĳ
( -
Ġìķħ íĻĶ
ĠìŀĲë°ľ ìĭĿìļķ
ĠìŀĪ ìĹĪìĿĮ
Ġc bc
ìĤ °
ī íķ©
¼ ìª½
Ġë¨¹ ëĬĶ
Ġs p
Ġme d
ĠìĿĳ ê¸ī
Ġu d
Ġìĭ¬ íķ´ì
Ġt r
ì² ĺë°©
Ġë§ĲìĶĢë ĵľë¦¼
íķĺë ©´
² ½
ì¢ ĭ
ĠëĤ ®
ìĬ ·
Īë ¦¬
Ħì ¦Ŀ
ĺë ©°
ch eck
ĠìłĦ íķ´ì§Ī
" [
Ġë° ľë
ĠìĿ´ë ¬¼
íķ ´ë³
Ġê¸ ģ
a th
Ġë Ĩį
Īĺì ķ¡
ĠíĺĪ ëĭ¹
ìķĺ ìĿĮ
Ġì¢ħ ìĸĳ
ìŀħ ëĭĪëĭ¤
Ġex am
Ġì Ĩį
ĠíĬ¹ ìĿ´
± Ħ
ĠíĻķìĿ¸ëĲ ĺìĸ´
Ġë¬¸ ìłľ
E N
Ġê²½ë ¯¸
Ġc at
ĠíĮĮ íĸī
ab le
Ġíĺ ķ
Ġë¹Ħ ìĬ·
Ġì·Įìŀ¥ ìĹ¼
ìĤ¬ ìĥģì¶©
en d
Ļ Ģ
ĠìłĦë°ĺ ìłģìĿ¸
ĠìĥĿ ê°ģ
ĠìŀĪ ìĸ´
Ġíķľ ëĭ¬
ë¶ ĢìľĦ
Ġre s
Ġìłķìĥģ ë³Ģ
Ġëĭ¤ë Łī
Ġê²½ ê³¼
ĠìĦ ŀ
ĠìĪ ĺë
ĠìĹ¬ ë¶Ģ
Ġ &
Ġê°Ħ ìĪĺì¹ĺ
íķ ©ëĭĪëĭ¤
Ġìĥģ íĻ©
Ġen ro
Ġëĵ ¯
¡ Į
Ġì¦Ŀ ëŁī
ĠëıĻ ìĿ¼
´ë ¡ľ
Ġf eces
P H
í Ŀ
°ë §ī
Ġëª¨ë ĳĲ
ë ¹Ħ
ĠìĤ¼ ì¶ľë¬¼
ĠìķĪë ¨¹
o ph
al e
Ġre check
ë ¨¹
Ġí Ĩ
Ġo u
Ġê°Ģë ģĶ
ª ¨ëĭĪ
ĠëĦ £
Ġë°ľ ìĨ¡ìĻĦë£Į
ĠìĿ¸ íķľ
ê µ
Ĳĺ ëĬĶ
l a
Ĥ Ń
ħĮ íĦ°
íĶ ¼ë
ystem ic
ëĲ ©ëĭĪëĭ¤
ĠëĤĺ íĥĢë
Ġíıī ê°Ģ
ĠìĬ¤ ì¼
Ġìĭ¬ íķ¨
ĠìĿ¼ë °ĺì
ī ì§Ħ
Ġìļ ´ëıĻ
ĠìŀĲ ì£¼
Ġë¯¸ ìļ©
Ġì¶ľ íĺĪ
c a
ĺì ĸ
Ġh ead
c m
Ġì½ §
Īë įĺ
ar di
in t
Ķ ĺ
Ġal l
í ģ¬
Ġì° ¸
2 0
Ġ q
ìĥģ ëĭ´
í ĳ
íķĺì ĭľë
C V
Ġë ĳ
" <
Ġ3 8
ìĿ´ë ĵľ
´í ļĮ
Ġíķ´ì £¼
Ĩ Ĳ
ìļ ´
Ġ x
Ġcr p
į °
Ġì¢ħ íķ©
Ġì² Ń
ĺì ¹
í İ
¶ Ģì
´ìŀ ¥
Ġê²ĢìĤ¬ ìĥģ
Ġíĺ¸ ìłĦ
ĠìŀĪ ëĭ¤ê³ł
ĦíĹ Ĳ
ìĽ Į
Ġë° ¤
Ġin f
Ġìľ Ħì
Ĳ ĺìĸ´
ì ĥ
¦ ½
ìľ ¨
ro l
Ġs e
Ġ K
Ġì§ Ī
ìĭľ ê³ł
Ġhyp er
c ular
Ġê°Ļ ìĿ´
Ġì¡° ì§ģ
íĺ Ħ
ĠíĶ¼íķĺì Īĺìķ¡
Ġëĵľë łĪìĭ±
ĠìĦ ±
ĠìĻ Ħ
ê² ł
v al
Ġë¬ ´ë
ë ĵľë
u b
ĠìĻ ¼ìª½
ê¶ ģ
íķĺë ©´ìĦľ
ac e
Ġì¢ĭ ìķĦ
ĠíĮĮ ëª¨
Ġ on
íĨ łë
ron id
íķĺìĺ Ģìľ¼ë
Ġd is
Ġëĭ Ń
- >
Ġìĭ¬ìŀ¥ ìĤ¬ìĥģì¶©
Ķ ©
Ġìľł ìĦł
ìĿ Ħë
ĠëĴ ·
ìĿ ĺì
ìĹĪ ëĭ¤ê³ł
Ġë¹ Ħí
Ġë¯¸ ìķ½
ìħ ĶìĦľ
ĠìŀĪ ìľ¼ëĤĺ
ym ph
ŀ ¥
ë ħ
ĠF ood
ĠíĥĪ êµ¬
ti ve
Ġb l
ĠëĦ¥ ì¹
³ µ
er ap
¦¼íĶĦ ìłĪ
ĠìŀĦ ìĥģ
ľë ıĦ
Ġc m
ĵ ¯
Ġê° ĦíĹĲ
ro m
ìľ ¤
Ġìŀ¬ ë°ľ
¥¸ ìª½
¤ë ŀĢ
ê¸°ë ¡Ŀ
Ġê² Ģ
Ġday s
Ġê°Ļ ìĿĮ
ĠìĭĿìļķ ìĿĢ
Ġs h
ĺ ìĿĮ
ĠS C
ĠìķĦ ëĭ
loxac in
Ġë łĪë
ĠìĹ¬ ìłĦíŀĪ
Ġìļ ©
Ġìĭ¬ë°ķ ìĪĺ
Ġê² °ë§ī
Ġì§ĳ ìĹĲ
ec tion
ł ¹
Ġìŀ¥ ì°©
n al
ļ Ķ
ìŀ ĪìĿĮ
Ġìĭ ¤ë
ec t
ronid azole
ĠìļĶ ëıĦ
ĺì ľ
Ġì£¼ë ³Ģ
§ Ħ
ĠìķĬ ê³ł
°© ìĤ¬ìĦł
ë Ĥĺ
Ġì¹ ´í
ë³´ íĺ¸ìŀĲ
ĠëĤ ´ë
Ġë ¯¸ë
Ġin j
ëĲĺ ëĬĶ
i f
ì ºĶ
êµ¬ íĨł
l ine
ĠM M
Ļ ķ
ren ia
° °
Ġa d
Ġs ign
íĺ¸ ìĨĮ
Ġ ;
Ġë³ĳ ë³Ģ
ĠìĹĨ ëĬĶ
igh t
Ġh ep
Ġí ŀĺë
Ġë© ´íļĮ
Ġì§Ģì ¼
em ia
Ġì¶Ķì² ľ
Ġc ime
Ģ ìĿĮ
Ġra y
Ġíķĺ ëĬĶ
Ġê´Ģì°°ëĲ ĺì§Ģ
ĠêµĲ ìłķ
Ġud ca
íĸ ĪìĿĮ
Ġì§Ħí Ĩµ
Ġë ıĮ
Ġë¹Ħ ìŀ¥
ĠìĿ¼ë °ĺ
Ġa s
ati ve
Ġê°Ħë ª¨ëĭĪ
ìĨĮ ê²¬
ìĥĿ ëĭĺ
Ġì§ ģ
Ġb il
Ġê¸°ì Ļķ
ł¤ ê³ł
U R
íķĺë Ĥĺ
Ġp m
ĠëĤ´ ê³¼
´ì ļ©
Ġì¶Ķì² ľë
Ġv ac
ìĹ ½
Ġ >
ì´ Ī
ĠìķĦ ìĿ´
Ġìĸ´ ìłľë
íķ ´ë
ĠìķĪ ì¢ĭ
Ġo p
d uc
Ġë¬ ¼ë
Ġì¤ Ģ
Ġp c
ĠëĤ´ì ļ©
Ġê°Ħëª¨ëĭĪ íĦ°
c l
Ġì Ľ
íĺ Īë
ŀ Į
p p
ĠìĥĪë ²½
i r
ĠìĤ¬ ë
ĠìĤ¬ ìĿ´
ìĹ ´
ĠëĦ Īë
R E
Ġì§Ģì¼ ľë
ra y
¼ë Ŀ¼
í ĩ
íĬ¸ë łĪ
Ġìŀĺë ¨¹ìĿĮ
at eral
e re
r ine
Ġì¡° ìłľ
Ġë¬¸ ì§Ħ
i b
Ġë¶ Īë
ë ŀĺ
ê°Ģ ëĬ¥
Ġì½§ ë¬¼
Ġm od
ë¶ Ģì§Ħ
Ĭ ¤
íķĺì ħĶìĦľ
ati tis
Ġê± ´
s e
y d
ĠìłĢ íķĺ
ë° °
Ġë°ľ ìĤ¬
Ġ2 0
Ġê° Ī
ĠìĨĮíĻĶ ê¸°
ê ¼
ĠìĹ°ë Ŀ½
³ ¸
ì ±Ħ
Ġê ¼
Ġíı ¬ë
ĠíķĦìļĶ íķ¨
ëĤ ´ìŀ¥
Ġë° °ì
ĠìĿĮ ìĭĿ
ìķ Ķ
P I
ti tis
¾ ¸
Ġê¶Į ìľł
Ġmet ro
ĠìĿĺë¢ °
Ġfuro semide
ĠëĺĲ ëĬĶ
¬ë Ŀ¼
Ġ j
ê· ¹
íĭ °ë
ì´ ĪìĿĮíĮĮ
Ġê²½ë¯¸ íķľ
es t
Ġì§ĢìĨį ìłģìľ¼ë¡ľ
Ġìĭ¬ìŀ¥ ìķ½
Ľ Ħë¡ľ
ëĤ ´ìĽĲ
Į Ģë¡ľ
Ġë³ĳìĽĲ ìĹĲìĦľ
¦¬ ëĬĶ
Ġp re
ë¶Ģë °©ìĤ¬ìĦł
ìŀĪ ëĬĶ
ìłĦ íĻĶ
Ġì¦Ŀìĥģ ìĿĢ
in d
ĠëĦĪë ¬´
ì² ĺ
ĠíĶ¼ë¶ Ģë
Ġcre a
Ġê°Ĳ ìĹ¼
Ġë° ĺë
ìĹĪ ê³ł
ĠìĬ¤ íĬ¸ëłĪ
ĠìķĬ ìķĦ
ĠìŀĲ ê¶ģ
u g
Ġìĺ¤ë ¥¸ìª½
Ġë Ŀ¼
Ġíķ ¥
ĠíĻķ ìŀ¥
an t
n ess
ĠìĻ¸ìĿ´ ìĹ¼
Ġì¶Ķ íĽĦ
Ġìĸ´ë ł¤
´ ĪìĿĮíĮĮ
(- )
ê° Ħë
Ġth erap
ĠìŀĲ ìľ¨
ĠìĽĲ ëĤ´
íĮ Ĳ
Ġëį°ë ł¤
ĠìĽĲ íķĺìĭ¬
as t
Ġí ļ
Ġê³łë ł¤ë
Ġëª ¨
Ġê´Ģ ìłĪ
Ġmet ronidazole
´ëĤ Ń
ĠP DS
Ġen al
== ==
Ġre nal
Ġë© Ķ
Ġi m
íĻ ľ
ìłĦ ìĹĲ
Ġê²½ë ł¨
Ġce renia
Ġê´ ĳ
Ġì º
ĠìĹĨ ìĸ´
¹ ł
ê¸° ëĬĶ
ìĭ ¤ë
Ġê³ł ì§Ģ
el l
Ġëĭ¤ìĿĮ ì£¼
ĠìĦ¤ëªħë ĵľë¦¼
Ġìłķìĥģ ëĩ¨
Ġë¹Ħ íķ´
ĠìłĦ ìĭł
íı ī
Ġê¸°ìĻķ ëł¥
Ġh istory
¸ë ¶Ģ
o re
Ġíģ °
C A
os t
er v
ĠëĤ ĺë
Ġê¸°ëł¥ ìłĢíķĺ
¦ ´
as ed
Ġìĥģ ëĭ
ĠìĦ ľ
ĠìĺĪë°© ìłĳì¢ħ
ê³ ¤ëŀĢ
ìŀħ ìĽĲ
Ġíĺ Ħì¦Ŀ
ëª ©
Ġê· Ģì§Ģ
ĠìŀĦìĥģ ì¦Ŀìĥģ
Ġê¸° íĥĢ
ĠìĭĿìļķ ë¶Ģì§Ħ
Ġìľłë ıĻ
Ġ 9
Ġê·Ģ ê°Ģ
l as
³ ´ì
ĠëķĮ ë¬¸ìĹĲ
¯ ¤
ıĦë §Ĳ
ê¹ Į
Ġê± °ë
in al
Ĳë ¦°
ĠìłĦ ì§Ģ
ĠëĪ Īë
ìĿĦë ķĮ
Ļ ¸
ë§ ¥
íķĺì ħ¨
Ġë¨¹ ìĿ´ê³ł
ħ Ķ
ĠìķĪìłķ ìłģ
ĠëĤ´ìĽĲ íķĺìĹ¬
ĠëĦ¥ì¹ ¼ëĿ¼
ĠìĪĺ íĺĪ
Ġc an
Ħ¸ ìłķ
Ġëĭ ´ëĤŃ
íħĮ ë¡ľ
Ġë³ ´ë
Ġíĺ ¹
Ġëĭ¤ ìĨĮ
Ġst age
Ġê µ
ª ©
Ġë°Ķ ë¡ľ
ì²´ ê°Ģ
ar t
Ġê°Ļ ëĭ¤ê³ł
¦¬ ë
Ġë³µ ë¶Ģì
ĠìĽĲ ëŀĺ
Ġë Ĳĺ
ĠëĮ Ģë
¥ ë¶Ħ
Ġp ain
ëĭ¤ë ©´
ĠìĺĪ íĽĦ
Ġìĥģíĥľë ¡ľ
ìĿ´ë Ŀ¼
Ġs pi
Ġì² ĺìĿĮ
ì²´ ê²ĢìĤ¬
Ġ "
Ġìľł ì§Ģë
Ĭ µëĭĪëĭ¤
§Ģë §Į
¡° ìłľ
Ġë°ľ ê²¬
ĠìĹĨ ê³ł
ar b
ĠìłĲ ìķĪ
ìĬ µ
Ġí İ
ìĺ¤ ìłĦ
ê² Ģì§Ħ
Ġh ct
am ine
Ġì¦Ŀìĥģ ìĿ´
ĠìŀĪ ìĬµëĭĪëĭ¤
Ī łë
Ġìļ° ìĦł
ĺë Ĥĺ
an d
Ġg ra
ĠìķĦí ĮĮ
ĠìķĪë Ĳ¨
ìĹĪ ìĬµëĭĪëĭ¤
Ġq id
U N
ĠíĺĪë ĩ¨
§ Īë
ĠìĿ´ìłĦ ê³¼
Ġ 8
Ġí Ĥ¤
Ġc a
ati c
ê²° ìĦĿ
ê· ¸ë
l y
ì ¹¨
o int
Ġíķĺì §Ģ
o me
un c
ĠìķĪëĤ ´ëĵľë¦¼
Ħì ĸĳ
ê¸ ¸
Ġë³´ ìĿ´ì§Ģ
Ġê· Ģë
ë³ ĳìĽĲ
Ġíķ¨ ê»ĺ
un d
Ġp at
į Ķ
í Ĺ
íħĮë¡ľ ìĿ´ëĵľ
Ġê¹ Įì§Ģ
Ġì² ľ
ĠìļĶ ì²Ń
Ġcr i
Ġd iet
ìĺ¤ íĽĦ
ĠëĴ· ëĭ¤ë¦¬
Ģì ĥī
Ġì§Ģë ĥ
Ġl ow
( +
ł¥ ìĦ±
Ġíĺ¸ ìłĦë
Ġë³µ ìĪĺ
Ġl ymph
Ġì§ĢëĤ ľ
ì £¼ë
Ġê³Ħ ìĭ¬
Ġìĭłê²½ ì¦Ŀìĥģ
Ġp er
Ġë¹Ħë ĩ¨
Ġë³´ ìĹ¬
¥ ´ë
Ġì´Ī ì§Ħ
Ħ Ŀ
ì¢ħ ìĸĳ
ĠìĤ¬ íķŃ
ìĹ Ķ
Ġl t
ì¹´í ħĮíĦ°
ĠìľłëıĻ ìĭĿ
ĭ Ģ
ĠìĦ¸í ĮĮ
y t
ĠíĻķìĿ¸ëĲ ĺ
em a
ĥĿ ì¶©
r i
Ġìŀ ¡
r y
¤ ìĸĳ
o th
Ġì´ īì§Ħ
Ġë ¦¼íĶĦìłĪ
ti l
Ġëª ĩ
ĠCR I
Ġm in
íķ Ļ
Ġíĸ ĪìĿĮ
Ġ ill
Ġë´ īíķ©
ĠëıĻ ìķĪ
Ġë³µ ê°ķ
Ġì¸¡ìłķ ëĲ©ëĭĪëĭ¤
ìķ Īë
¤ Ģ
Ġg i
ĠíĿ ¥ë¶Ħ
Ġë ĵľë¦¼
en ic
ill in
ĠìŀĪ ìĿĦ
ĠìĹĲ ì½Ķ
¡ ìĬ
Ġê·Ģì Ħ¸ìłķ
Ġêµ¬ ê°ķ
Ġí ĽĦë
ĠìĬ¤íĬ¸ëłĪ ìĬ¤
Ġê·¸ë Ł
Ġì£¼ ì¹ĺ
ĠìŀĪ ìĸ´ìĦľ
Ġìĺģ ìĥģ
Ġëª» íķ¨
ne al
Ġìļ© ëŁī
ì§Ģë §ī
Ġr t
en a
Ġì² ĺì¹
¡ìĬ Ĳ
ĵ¤ ìĸ´
al c
Ġë¨¹ ìĹ¬
ĠìĤ¬ ë§Ŀ
¬ë ¦¬
ľë ł
a d
Ġ ur
Ġìķ½ ìĿĦ
łĪ ìĿ´
Ġê¸°ë ³¸
ķ ½
ĠíĨ ł
ox y
Ġë§Į ìĦ±
ĺë Ł
Ġê±´ ê°ķ
ìĬ Ĳë¦°
ĠíĻ į
Ġëħ¸ë ł¥ìĦ±
ĠF eces
Ġíı¬ íķ¨
ĭ Ŀ
ìŀĲ ë£Į
Ġë¯¸ìķ½ íķľ
ëħ Ħ
Ġw bc
ĠëıĻ ê±°
i ver
b id
ê¸ ´
Ġe ar
Ġhyp ere
ĠíĬ ¸ë
í Ĵ
¨ ¸
ìĹĪ ìľ¼ë©°
¡ ´
ĠìĹ ¬ë
ve re
Ġíķĺì ĺ
ĠìĦ¸ ê·ł
ê¼ ½
ê²° ê³¼
´í ĳ
Ġê¸° ê´
ĭľ ê³ł
Ġtherap y
ar in
ë°°ë ĩ¨
Ġu p
ĠU rine
ĠìĬ¤ íħĮë¡ľìĿ´ëĵľ
Ġíĥ Īë
í Ĥ¤
Ġìľł ì§Ģì
Ġêµ¬ ì¶©
ì ¦
ê· Ģ
ìł Īë
ĠìĿĺë¢°ë ³ĳìĽĲ
f il
ĠìŀĪ ê³ł
Ġill ness
Ġpl an
Ĳë Ŀ¼
Ġí Ħ¸
ĠU D
Ġc t
ĠëıĻ ê±°ë
Ġb ut
Ġo ut
íĶ Ħë
Ġë§Ī ì§Ģë§ī
ìłĦë ¶ĢíĦ°
l l
ĠA L
ĠëĤ¨ ìķĦ
ìĹĲ ì½Ķ
m ia
Ġìķ ¼
Ġì¢ħ ëĮĢ
Ġs us
ĠìĿĮ ìĦ±
ron ic
ĠìķĪ êµ¬
ĠìĿ¼ë ¶Ģ
ĠíķŃ ìķĶ
Ġê² Ģì§Ħ
Ġë ¦¬
ë°ĺ ìĿĳ
od y
ĠëĤ´ìĽĲ ìĭľ
° Ķ
´ë ıĦ
¸ Į
c ination
ìĿ´ì ĥģ
ic illin
ĠíĨµ íĻĶ
Ġë¹ ł
at ed
Ġë¶ ķ
Ġì ĵ
c y
ĠìĹ°ë ³Ģ
Ġcor neal
ĠëĤĺìĺ ´
ob end
C T
Ġd one
ëĭ¤ê³ł íķ¨
ìĦ ¸í
Ģë ıĦ
Ġìķ łë
ë Ī
ĠìĿ´ìłĦ ìĹĲ
ìĸĳ ìĿ´
obend an
o v
ĠíĶ¼ë¶ Ģì
Ġì» ¤
Ġì¢Į ìķĪ
í Ĥ
ë¬¼ë ³ĳìĽĲ
P L
Ġë¨¹ ì§Ģ
Ġê± ¸
¸ Įë
ĠìŀĪ ìľ¼ë©°
ë° ľë
Ġë¹Ħ êµĲ
an e
Ġam p
± ìłķ
Ġs ild
Ġì ĨĲ
Ġë§¤ ìĿ¼
Ġa re
Ġìĺ¤ëĬĺ ìĿĢ
a h
ê» ĺìĦľ
od e
Ģì §ģ
íĭ ±
Ġë² ł
Ģ ìĿ¼ë
1 1
Ġëĭ¤ ìĪĺ
ìĸ´ ìłľ
Ġpc v
´ ëĭ¹
ĠC C
Ġëĵ± ìĿĺ
ĠêµĲ ì²´
ĺ ¤
ìĪĺë Łī
Ġme n
¦Ŀ ìĥģ
ĠìľĦ ìŀ¥
¶ ĢìľĦ
Ġë°ľ ì¹ĺ
Ġì§Ģ ê¸Ī
ĠìķĪë ¨¹ìĿĮ
EN T
ĠíĿī ë¶Ģë°©ìĤ¬ìĦł
Ģì Ħľ
h e
ĢìĿ¼ë §ģ
ìĸĳ íĺ¸
ĠìĨĮ ë¦¬
ëĭ¤ ëĬĶ
Ġpan cre
or ph
ëĭ ¥
íĺĪ ì¦Ŀ
ĠíĺĪìķķ time
Ġë¹Ħí ĽĦ
ĠìķĦì¹¨ ìĹĲ
op las
Ġì¶© íĺĪ
ìļ ¸
Ġs ur
Ġre c
Ġë¶Ī íİ¸
¶ Ħ
ìŀĲ ê¸°
Ġt ub
ì¢ Į
ĵľëł¸ ìĬµëĭĪëĭ¤
Ġa g
ĠíķĦìļĶ íķł
Ġê·¼ ìľ¡
ĠíĻ Ķ
Ġb ar
Ģìľ ¼ë¡ľ
ì¹ ĺì
Ġd og
Ġenro f
Ġì¡°ì§ģ ê²ĢìĤ¬
Ġì ±
Ġre f
u p
Ġì£¼ì¹ĺ ìĿĺ
erv ous
ê±°ë ¦¼
Ġë³µë¶Ģì ´ĪìĿĮíĮĮ
Ġc ardi
m on
ìĹ¬ ë¶Ģ
Ġc o
Ġìŀ¬ ì±Ħ
Ĭ ´ì
Ġë°© ë²ķ
O P
Ġal one
íķ´ì ķ¼
w orm
ĠìĦ¸í ı¬
ĠB UN
Ġìĭ¬ íķĺê²Į
íı Ĳ
ĠíĥĪ ìĪĺ
Ķ ìľĦ
¡ ł
Ġì¤Ħ ìĸ´ë
ìĽ Ģ
E D
m in
Ġ3 0
A C
ĺëŁ ¼
ĠìĿ´ë ²Ī
ĠìĨį ëıĦë¡ľ
t al
er ate
ic ation
ìķ¡ ìĦ±
ĠìĿ´ë ĩ¨
ys ical
ìĸ ´ë³
ê¸°ë ıĦ
Ġ ]
er t
Ġë°Ľ ìľ¼
b il
ĠìĬ µ
ìħ¨ ìĿĮ
Ġs il
ìĺ¤íĽĦ ê´Ģë¦¬ìĤ¬íķŃ
ģ ¼
ĠìĤ¬ ìĥģì¶©
ìł ĳ
Ġìĺ¤íĽĦ ê´Ģë¦¬ìĤ¬íķŃ
Ġe ch
ol l
ĠP L
Ń ìĨĮ
Ġì¡°ê¸Ī ìĶ©
Ġê°Ĳ ë³Ħ
ena fil
Ġìļ° ìķĪ
ĠìĤ¬ ì§Ħ
a urine
³ ´í
Ġê¹ Ģì
ĩ Į
ë¬ ¸ë
íĥĪ êµ¬
Ġse vere
Ġê²ĥ ìĿĢ
ê²¬ ë³ĳ
ĠìĥĿ ìĭĿ
ìĹĪ ëĬĶëį°
Ġë°©ê´ĳ ìĹ¼
r is
Ġpim obendan
Ġal b
ľë ²Ī
ĠìĿ´í ĽĦë¡ľ
Ġê°ĳ ìŀĲê¸°
Ġìĭłê²½ ê³Ħ
Ġb e
Ġíĺ¸íĿ¡ ê³¤ëŀĢ
yl line
Ġc alc
Ġì¶Ķ ìłķ
er y
Ġê²½ êµ¬
Ĳĺ ê³ł
ĠìĪĺì Īłë
id n
p le
Ġn s
A R
ìłķ ìĥģ
ĠíĶ Ħ
H PI
us ion
ĠëĤĺìĺ ¤
¿ ł
idn ey
Ġíĺ ¼
Ģ ê³ł
Ġ X
Ġ1 5
Ġe d
ĠëĪĪ ê¼½
ì »
Ľ Į
Ġëĵ¤ ìĸ´
Ġê± ±ìłķ
´ìŀ Ī
ê¸ī ìĹ¬
Ġne g
ë ¹
ĠìĪĺìĪł ìłģ
íķĺ ëĭ¤ê³ł
ê°Ĳ ìĨĮ
Ġìł Ģì
n a
Ġpim o
Ġë¶ Ħìĸĳ
Ġë° ķ
íķĺìĭľ ëĬĶ
íķĺ ê¸°
ĠíĹ ¥
ĠìĿ¸ ìĬĲë¦°
í ĥģ
ĠR t
ro x
Ġë ıĦë§Ĳ
ale x
Ġp r
Ġêµ¬ íĨłë
ìł¸ ìĦľ
t en
Ŀ¼ë ıĦ
ĠCR P
ìĸĳ ìĥģ
ë² ½
ĠL t
ëĲ ł
ĠìĿ´ëĩ¨ ìłľ
Ġìķ ķ
as is
ĠíĶ¼ë¶Ģë ³ĳ
Ġp res
Ġê¸Ī ìĭĿ
Ĥ ·
ĠìĬ¤ì¼ ĢìĿ¼ë§ģ
ĠUD CA
ë ĵ¤
R I
Ġë¨¹ ìĿĢ
Ġì§Ģ ìĹŃ
ì¡ °ë
ar g
ap ril
ê² ¨
Ġf l
ar act
Ġíķ ©ëĭĪëĭ¤
Ġì£¼ìĤ¬ ê¸°ë¡ľ
Ġìķ Ķ
ĠìĿ´ì ļ©
ĠìķĦë ŀĺ
ĠíĮĲëĭ¨ ëĲ¨
ìĭľ ê°Ħ
Ġìľ ¼ë¡ľ
ĠìĹĨ ìľ¼ëĤĺ
ĺë ıĦ
³´í Ĥ·
Ġë°Ķ ë
ìĬ¤ë ¡ľ
Ġbl ood
ĠìķĪ ìķķ
os e
ĠD D
ur al
Ġì§Ī íĻĺ
Ġtub e
Ġj oint
ra m
ê°Ģì Ĭ´ì
Ġë ¨
Ġë°° ìłľ
s s
ìĺ¤ìłĦ ê´Ģë¦¬ìĤ¬íķŃ
Ġëª ¸
iz ation
Ĩ Ķ
ĠìĿ´í ĭĢ
ìķ ħ
ĠíķŃ ì²´ê°Ģ
Ġë³´ ê³ł
Ġê¸°ê´ Ģì§Ģ
ëĭ ¬ë
Ġin t
¸ë ¡ľ
3 0
Ġê°ķ ê¸ī
ìĹĨ ìĿ´
Ġë°Ķ ê
ĠëĨĴ ìĿĮ
Ġsild enafil
ë³Ħ íķľ
ìľ¼ë ¯Ģë¡ľ
Ġìĺ¤ìłĦ ê´Ģë¦¬ìĤ¬íķŃ
Ġvit al
ê± ´
Ģì ĬµëĭĪëĭ¤
ĠìķĬ ëĬĶ
Ġs ystemic
op ath
ĠíĻľëł¥ ìĿĢ
Ġê´ĳ ê²¬ë³ĳ
ĠìĦł ìĥĿëĭĺ
Ġìĸ´ìłľë ¶ĢíĦ°
Ġpan ting
ë¬¸ë ĤŃ
ì² ľ
Ġ1 2
p o
Ġê°ľ ìĿ¸
e e
Ġch ronic
Ġf at
ĠìĽĲ ìŀ¥ëĭĺ
n ea
ra c
° °ë
Ġëį°ë ¦¬ê³ł
Ġë°± ëĤ´ìŀ¥
Ġìłķ íĻķ
me r
ĠìĽ Ģì§ģ
ıĻ ìķĪ
pi ra
Ġì¢ħ ë£Į
Ħë ĵľ
Ġìĸĳíĺ¸ íķľ
Ġë°¥ ìĿĦ
Ġìľ ¡
´ëĤ ´ìļ©
íĻĺ ê²½
Ġ =
ĵľë ³´íĤ·
ĠëıĻê±° ê²¬
Ġc v
Ġì¹ĺì ĦĿ
al f
M ED
Ġsu p
Ġpro p
ìŀ ¡
ĠìļĶ êµ¬
Ġëħ ¸
z le
u x
cre ased
Ġë ļ
Ġìĥģëĭ ´ëĤ´ìļ©
Ġë¶ķ ëĮĢ
ĠìĿĮ ìĪĺëŁī
Į Ģì
ĺìľ ¼ë
Ġ ul
Ġsus p
Ġmod erate
ĵľëł¸ ìľ¼ëĤĺ
ë°ľ ìĨ¡ìĻĦë£Į
ĠìķĮë Ł¬ì§Ģ
vi ron
ĠíĥĪë ª¨
ĠìĻ ¸ë¶Ģ
íķĺì ĭ¤
Ġcat aract
viron ment
u e
íĺĪ ìķķ
Ġêµ¬íĨł ëĬĶ
Ġst able
ug h
ĠI n
Ġch em
ĠëĤ ľ
ent s
Ġph i
íķ´ë³ ´
ë° Ķ
Ġpl t
Ġëª ħ
Ġë°Ķ ìĿ´
ĠíķŃ ë¬¸
Ġì£¼ë ¡ľ
Ġëª© ìļķ
ê° Ļ
íĺ Ģ
Ġa pp
ĠìĪĺìķ¡ ì²ĺì¹ĺ
Ġë°©ìĤ¬ìĦł ìĥģ
Ġì¡°ìłľ ìķ½
Ġm g
Ġê°Ģë £¨
Ġìŀĳ ëħĦ
íĨ ±
Ġëĵ± ìª½
íĮ ¡
ĠëĤ ł
Ġb p
Ġë¶Ħë °°
Ġê³¼ ìłķ
of ol
a g
ì¤ Į
Ġì§ĦíĨµ ìłľ
Ġle f
T R
ĠìķĪëĤ ´ë
ìĭľ ëĬĶ
az zle
Ġìĭł ì²´ê²ĢìĤ¬
Ġg en
Ġe ent
ì ½
ti v
ĠìĿ¼ë°ĺì Ĥ¬ë£Į
Ġíĥ Ģì
ĠíĶ¼ íķĺ
Ġíķĺë Ĥĺ
° íĮ¡
ĠíĬ¹ ë³Ħíķľ
ê³ł ê¸°
°ľ ìĨ¡ìĻĦë£Į
Ġìº ¡ìĬĲ
Ġë³´ì ĺ
Ġc k
D iet
Ġìĺ¤ ìĭ¬
ìĸ ´ëĤ
Ġê³¨ ìłĪ
s ul
Ġê°ĢëĬ¥ìĦ± ìĿ´
ìĭľë ©´
ra n
ê°ĢìĬ´ì Ĥ´
S UR
Ġì¢Į ìĭ¬
worm ing
ë ¯¸
Ġb g
Ġce ll
Ġë§ ĲëĿ¼
Ġ W
Ġs uc
ê³ ¼ë
Ġde x
ê²ĢìĤ¬ ìĥģ
ëĬĶ ì§Ģ
Ġpres ent
íĺĪ ê´Ģ
ĠíĽĦ ìĹĲ
Ġìķłë ĵľë³´íĤ·
Ġìľł ìĿĺ
íķ ´ëĵľë¦¼
ĠìĨĮ ìŀ¥
Ġìŀĳ ìĿĢ
Ġë³´ì ¡°ìłľ
Ġì¹´í Ĩ¡
Ġëĳ Ĳë
Ġcr t
r h
Ġíķĺ ê¸°ë¡ľ
ĠìķĪ ê³¼
Ġë§ Īë
Ġk idney
ìłľë ¡ľ
ĠíķŃ ë¬¸ëĤŃ
Ġì°¨ íĬ¸ë
Ġë¨¹ ìĹĪìĿĮ
Ġìĸĳ ìª½
ë¬¼ë ³ĳìĽĲìĹĲìĦľ
Ġë¶ Ģë
ë§ Īë
ì§ Ħë£Į
ĠëĬ Ĳ
Ġê¸° ê´Ģ
Ġíķĺì ħĶìĦľ
Ġìķ ¡
íķĺìĺĢìľ¼ë Ĥĺ
c s
íıī ê°Ģ
Ġ3 9
Ġê³ł ê´ĢìłĪ
Ġh em
ĠìĬ ¬ë
ĠíĶ¼ë¶Ģ ìĹ¼
R x
Ġê²ĥ ìĿ´
Ġê¸°ì ¡´
Ġa z
ĠëıĦ íı¬
d om
Ġìŀ¬ì±Ħ ê¸°
Ġpo st
val u
ĠC BC
Ġì¤ĳ ëĵ±
Ġì ¿ł
Ġch ol
£ ¨ë
ĠëĶ°ë ¡ľ
Ġl ux
Ġìĭ¬íķ´ì §Ĳ
Ġíķĺì ħ¨
ìĸ´ì ļĶ
ìľ łë
Ġcom ment
ìĦ ¤ìĤ¬
Ġb w
ĠìķĦëĭ Īë
as cular
1 2
Ġì´ Ŀ
Ġbil ateral
M S
ĠìĭĿìļķ ìĿ´
ëĭ Į
ic am
íĳ ¼
Ġìł Ħì
ì§ Ħí
" -
um or
ìłľ íķľ
Ġceph alex
ĠìĦ ¸ë
Ġì°¨íĬ¸ë °ľìĨ¡ìĻĦë£Į
Ġenal april
Ġí Ĵ
ìķ ĺìľ¼ë
ìĿ´ì Ħ±
ĠëĤĺíĥĢë Ĥ
Ġìķ½ ì²ĺë°©
ĠìłĢëħģ ìĹĲ
Ġì§Ģë °©
ìł Ģëħģ
Ġe y
Ġgra de
íĴ Ī
G I
un g
ĠíĻ ©
ĠB AR
Ġëģ Ŀ
Ġe valu
ĺ ģ
j unc
Ġ us
Ġë¶Ħë ³Ģ
Ļ Ķ
Ġm s
Ġì²ĺë°© ë°Ľ
ê°Ģë ĵľ
ì² Ļ
og enic
Ġëª¨ ìĬµ
ê°Ħ ìĹĲ
ĠëĤĺì Ħľ
ìłĦë ³´ëĭ¤
Ġë ĩĮ
Ġb ody
K D
Ġì¹ĺì ķĦ
t ory
Ġì§ĢìĹŃ ë³ĳìĽĲ
Ġê°Ļ ìĿĢ
ëĲ ĺì§Ģ
Ġì²ĺë°© ìĭĿ
ìķĦì ¡Į
o os
ĠìĻ¸ ê³¼
Ġíĺķ íĥľ
Ġë Ĳ¨
Ġìķ½ ìĿĢ
Ġìŀ ĩ
Ġë°Ľ ìĿĮ
b er
ron ch
as al
ìĹ Īëįĺ
Ġë¹Ī íĺ¸íĿ¡
Ġìĸĳ ìķĪ
ìĿ´ë Ŀ¼ê³ł
Ġì¶Ķê°Ģ ìłĳì¢ħ
Ġê°Ī ìĥī
ìĿ¸ ì§Ģ
ol ic
Ġìľ Ħë
ìĪĺì ¢ħ
¹Ħë ¬¼
om y
pira tory
Ġê ¹¨
Ġck d
Ł¬ ìĬ¤
ì§ ĳ
ìĿ Ģë
Ġg l
Ġ z
Ġì¡ °ì
ĠëłĪë Ĥł
ì¤ Ģ
Ĳ ĺì§Ģ
íĥ Ģì
í Ģ
ĠìĿĮ ìĪĺ
°ì ¹ł
ra ne
Ġ: -
Ġê³ °íĮ¡
Ġìĥģíĥľ ëĬĶ
Ġê°ĦíĹĲ ìłģìľ¼ë¡ľ
ê²ł ëĭ¤ê³ł
Ġì§Ģ ìĹ°
ìļ °ì¸¡
ķ ħ
Ġê¸°ì ĥĿì¶©
ê¹ Ģ
1 8
ĠìĿ ¸í
Ġìĭ ľëıĦ
ĠìłĦíĻĶ ìĻĦë£Į
Ġì¹¨ ìľ¤
ìĺ Īë°©
í Ī¬
Ġíķĺ ìĹ¬
ĠìĿ¼ ìĪĺ
Ġk it
ĠëĭŃ ê°ĢìĬ´ìĤ´
ĵľë ¦¬
Ġí Ħ
ì² ´ì
ĠíĿī ìĪĺ
e ase
ĠC T
ot ax
¡ ±
ìĿ´ ê²½
Ġíķ ´ìĦľ
ê°Ģë Ŀ½
Ġ1 8
¹ ĺë£Į
Ġê² ¬
Ġcef a
Īë ıĦ
ar c
ĠìĪł íĽĦ
ì ¸
Ġtr u
Ġin creased
¥ ´ì
Ħëĵľ ê¸°
n ormal
íķĺìĺĢìľ¼ë ©°
Ġìłķ ëıĦë¡ľ
ĠëĶ Ķ
dom inal
ol e
TR U
ë Ĩį
Ĵ ¤
Ġì§ĢìĨį ìłģìĿ¸
Ġìł Ģë
Ġ #
Ġre g
ĠìłĦë°ĺ ìłģìľ¼ë¡ľ
C R
Ġenrof loxacin
Ġìķķ ë°ķ
íĶ Įë
tin al
ë¶Ģì ¢ħ
Ġë°ĺë ³µ
Ġp e
ìĹĲ ê²Į
er ation
Ġëªħ íĻķ
Ġëĸ¨ìĸ´ì §Ĳ
Ġìŀħ ìĸĳ
Ġì¤ĳëĵ± ëıĦ
1 5
ì¹´í Ĩ¡
ĠB G
ĠìĹĨ ìĿĦ
ess ment
Ġëĭ ´ëĭ¹
am m
Ġal t
ĠëĮĢì ¦Ŀ
Ħì ĽĮ
Ġë°ĶìĿ´ íĥĪ
Ġspi ron
Ġs urg
N A
ĠìĨĮ ìĭ¤
Ġì§Ħíĸī íķ¨
ë§Ī ì·¨
Ġê± ·
ìĬ¤ íģ¬
ìĭľë Ŀ¼ê³ł
ĠìĿ¸ íķ´
°ĺ ìĿĳ
ľëł ·
Ġìĥģ ìĿĺ
íĸĪ ìľ¼ëĤĺ
, ,
ĠìĤ¬ë ŀĮ
ìĥģ ìĦł
ìĭľë ıĦë¡Ŀ
Ġì¢ĭ ì§Ģ
Ġpancre atitis
Ġì¿ł ìĭ±
ë³Ģ íĻĶ
ĠíĺĪë ³Ģ
i v
e ight
ress ing
Ġê³ł ìĸĳìĿ´
ìĦ¸í ı¬
ĠDD x
V AC
Ġìĥģ ì²ĺ
Ġì° ½
E ENT
Ġcime tidine
Ġt aurine
Ġë´ Ħ
Ġt umor
Ġíĺ¸ ìĨĮ
Ġexam ination
¡ ¤
ĠìĬ¬ë Ł¬ì§Ģ
Ġëļ ľëł·
ĠìĹĨ ìľ¼ë©´
Ġcef azol
ìłľ ê±°
yc in
Ġ3 7
Ġë¨¹ìĿ´ì ĭ¬
ĠìłĦíĻĶ ìĥģëĭ´
: -
Ġìĭ ľëł¥
ìĺ ¤ë
¥ ¸ë
ìł Ħì
ëĭĪ ìķĦ
ë ķĮ
Ġìĭ¤ìĭľ íķ¨
ë ģ
ŀĳ ìļ©
ĠëĮĢ íĩ
ĠìĿ´ì Ļ¸
Ġí ľ
Ġe h
êµ Ń
Ġìĭ ¶
ĠìŀĲ ê·¹
Ġê¸ ¸
ë³ ´ì
Ġìĭ¬ìŀ¥ ì´ĪìĿĮíĮĮ
Ġìĸĳ ìĦ±
Ġin ter
Ġal p
Ġevalu ation
Ġë³´ ìĿ´ëĬĶ
ìľ¡ íĻĺê²½
ê²ĥ ìľ¼ë¡ľ
Ġag ents
Ġs y
ì§Ī íĻĺ
ol og
ar ge
ĠíĶ Ħë
Ŀ½ ìĤ¬
i or
´ īíķ©
ĠS ID
am in
ê°ĢëĬ¥ ìĦ±
ĠìļĶêµ¬ ìĤ¬íķŃ
s c
Ġìŀ¥ ìĹ¼
Ġê°Ģë ł¤
ìĹĲìĦľ ëĬĶ
ro ph
Ġê²Ģ ìĿ´ê²½
Ġc yst
ĠíĻ ľë
ìĺ¤ ëĬĺ
ĠìĪ ¨
Ġn a
ë ¹Ħë
¤ë ¡ľ
Ġë¶Ģì ĭł
Ġl ip
íı Ń
íķŃ ëª©
ĠìķĦë ª©
ĠìķĬ ìľ¼ëĤĺ
1 4
¶ ķ
Ġt est
Ġed ema
ĠìĨĮíĻĶ ê¸°ê³Ħ
Ġë ľ
łë ķĮ
ĠìķĬ ìķĺìĿĮ
Ġëħ¸ë ŀ
ìĹ° ê³ł
ĠìĪ łë
Ġì§Ģ ê°Ħ
ìĸ´ì £¼
Ġhypere mia
C S
Ħì ĥ
Ġcalc ul
Ġs er
ê±°ë ¦¬ëĬĶ
ĠìłĦ íĺĢ
Ġb ac
ĠìĦ Ń
Ġb oos
ĠìĿ´ë ıĦ
ĠìķĦ ëĭĺ
ol act
ê´ Ģì
Ġëĭ¹ ìĭľ
ĠìĹĨ ìĸ´ìĦľ
ìĿ´ë ©´
Ġë¬¸ì§Ħ ìĤ¬íķŃ
§Ģ ëĬĶ
ê° Ī
Ġ1 4
łë¶Ģ ìłĦ
¬ ĺ
Ġíķĺë£¨ ìĹĲ
ê²© ê³Ħ
Ł ìĪĺ
Ġê³łëł¤ë Ĳ¨
Ġm al
ĠìļĶëıĦ ì¹´íħĮíĦ°
ĠíıĲ ìķ¼
Ġìł ĳ
Ġê°ľìĦłë Ĳ¨
ê± ´ì
ĠB P
Ġprop ofol
Ġl a
ĠE n
Ġph en
§ Ģì
Ġê°Ģë£¨ ìķ½
Ġìĺ¤ìłĦ ìĹĲ
Ġpl as
Ġë¨¹ ìŀĦ
ì Ĩ
Ġìł Ħì²
ĠìĺĪìłķ ìŀħëĭĪëĭ¤
un t
ĠìĿĺì ĭĿ
íĺĪ ëĭ¹
Ġê¸īìĹ¬ ìŀĲ
ĠD x
Ġìĭ¤ ì§Ī
ĠíĪ¬ìķ½ ìŀĲ
Ġíķľë²Ī ìĶ©
Ġê²ĥ ìĿĦ
Ġë°Ľ ìķĦë
Ġê°ķ ìłľ
Ġìķ ł
Ġìµľê·¼ ìĹĲ
ì¶ ķ
Ġì ¯¤
íķ´ì£¼ ìĦ¸ìļĶ
PH I
Ġìķ½ ë¨¹
Īë §ģ
ĠëĶ ±
Ġëģ Ĭ
ë° °ì
E H
Ġh alf
íĻ ĺìŀĲ
ì¼ ģ
ľë ¸Į
íķĺì ĭł
ë ©
Ġre p
ĠíıĲ ìĪĺì¢ħ
ac h
Ġph os
Ġì¶Ķê°Ģ ìłģìĿ¸
ĥ Ħìĥ
ĠëĲ ľ
ĠìķĬ ìĿĢ
Ġì°¸ ê³ł
Ġì²ĺë°© íķ¨
ra tion
ë² ĶìľĦ
os p
ĠíĺĦìŀ¬ ëĬĶ
rop ine
ĠìķĪë Ŀ½ìĤ¬
ĠC KD
Ģì ĸ
Ġíķ ´ë
Ġê·Ģì ²
Ġìĭľìŀĳ íķ¨
Ġë¶Ħë ¹Ħë¬¼
Ġê³ł êµ¬
of lu
Ġíļ ¨
íĺĪ êµ¬
3 8
ĠëıĻ ë°ĺ
ĵ ł
¤ìĤ¬ ìĿ´
oflu rane
ëĪ Ī
duc tion
ĠëĮĢ íķ´ìĦľ
T I
Ġë°¤ ìĹĲ
ı Ī
Ĥ ©
ĠëĬ Ĳë
íĻķ ìĿ¸
Ġì¼ Ģ
Ġs ec
op id
Ġh w
Ġë¬¸ ìĿĺ
Ġë°ľ íĨ±
Ġê· Ģì§
Ġë§ĲìĶ Ģ
er ative
¡° ì§ģ
ìĽĲ ìŀ¥ëĭĺ
ĠìĦŀ ìĸ´ìĦľ
Ġë¶Ģì ŀĳìļ©
oph ylline
ĠíĻĶ ìŀ¥
p e
¬ ¼ë
ĠíĶ Įë
ëĭ¬ë Ŀ¼ê³ł
Ġg ab
et er
Ġne oplas
ĠìĨĮ ìĭ¤ë
Ġë ©´
ĭľë ıĦë¡Ŀ
ent er
Ġìŀ¬ íĻľ
³ Ĳ
Ġt ap
ain ten
ĠìķĦëŀĺ íķŃëª©
Ġì§Ģëĥ ĪìĿĮ
ĠìĿĺë¢°ë §Į
íĭ°ë Ķĺ
d d
Ġì¡° ìłĪ
ł¤ ìĦľ
ĠíĻķìĿ¸ëĲ ĺë©°
ê° ľë
ind ing
Ġì¶Ķ ê°Ģë
Ġíĺ¹ ìĿĢ
íķĺìĭľë ıĦë¡Ŀ
ĠíĻĺìŀĲ ë¡ľ
2 4
Ġì´Īì§Ħ ìĿ¼
ĠíķĦìļĶ íķľ
Ġê°ģ ì§Ī
Ġac id
Ġëª¨ëĭĪ íĦ°
ĠëĮĢë ³Ģ
Ġspiron olact
Ġt p
Ġb ronch
Ġí ĸī
ê´ Ģëł¨
ê²½ ë
E R
Ġê° ľë
Ġg lu
ëª ¸
Ġê³¼ìłķ ê³¼
íĦ ´
°°ë ĩ¨
Ġìµľ ìĨĮ
Ġê¼ ¬ë¦¬
u d
Ġë³ĳ ëł¥
ĠìŀĪ ìľ¼
íģ Ĳ
re l
Ġíģ¬ ê²Į
Ĳ ł
ë³´ ëĭ¤
Ġë¡ľ ìĸ
Ġì°¸ ì¡°
ĥ ¥
Ġneg ative
Ġo b
Ġat ropine
Ġd ressing
ì§Ģ ê³ł
Ġì¼ ģ
ul e
ê²½ë ł¨
ĠìĤ¬ë£Į ë¥¼
ì¹¨ ìľ¤
ĠìĪĺë ıĦ
an g
Ġi op
Ġë¹ łë
Ġê° Ģì§Ģ
ìļ °ë
Ġìľ ĦíĹ
ê³¨ ê²©ê³Ħ
Ġì¤Ģ íķľ
ê¹Įì§Ģ ëĬĶ
H S
ĠìĤ¬ë£Į ëĬĶ
íĶ¼ë ¶Ģ
ŀ ĺì
ĠìłĦ íĻĺ
Ġp ul
Ġí ŀĺ
en ce
ĠìĿ´ ìłĦë³´ëĭ¤
íĿ ī
Ġíĺ¸íĿ¡ ê¸°
Ġd ep
Ġêµ¬ ì¡°ë
Ġë ¸Įë
ìĨĮ íĮĲ
Ġê°ĳ ìĥģìĦł
ê³ ±
¬ ¸
ĠìĹĨ ëĭ¤ê³ł
ĠìĬ¤ì¼ Īë§ģ
Ġplas ma
Ġì²ĺì¹ ĺë
k ing
ĠH istory
Ġg ood
Ġìĭ¬ íķĺì§Ģ
. )
ë§ ¤
ì§ ¸
ķ Ĭ
Ġb cs
Ġìĸ ¸
ĠëĲ ł
Ġìµ ľë
ëĲĺ ê³ł
Ġf inding
ĠìĿ¼ë°ĺì ĥģíĥľ
ĠíĻ ĺ
ĠíĶ Ħë¡ľ
Ġmen ace
ìĿ¸ íĽĦ
ĠëĪ ĦìĽĮ
Ġìļ´ëıĻ ìłľíķľ
Ġìĺ ¬
ìľĦ íķ´
¸ë ĵľ
ti o
ul l
ìŀ¡ ìĿĮ
ov ascular
Ġì± Ļ
ĠìķĦëª© ìĭľ
ĠI M
Ġìķ½ê°Ħ ìĿĺ
Ġíŀĺë ĵ¤ìĸ´
Ġëħ¸ë ŀĢ
ĠìłĦ ìĿ´
Ġë°°ì ĸĳ
¼ Ī
Ġë¬ ´
Ġì§ĢëĤ ľë²Ī
ĠíĮ ¨
ìĭľë Ķĺ
Ġë¶Īë Łī
Ġìĺ¤ ëĬ
íĺĪ ìķ¡
ìľ¼ë ł¤ê³ł
Ġìķŀ ëĭ¤ë¦¬
Ġcl opid
ìĪ ľ
is m
´íĳ ¸
Ġd ry
ë¶ Ħë
Ġì¼ģ ì¼ģ
Ġê±´ê°ķ ê²Ģì§Ħ
Ġin c
Ġul c
or d
Ġë¬¸ ìŀĲ
Ġh yd
Ġë° ¤ìĤ¬ìĿ´
ĠíĿ ¬
ĠìĨĮ íıŃ
ĠìłĪ ìłľ
íĬ¸ë ¡¤
Ĳ ëĭĮ
Ġì¢ĭìķĦ ì§Ĳ
Ġc ol
Ġì½Ķ ë¡ľ
Ġm ax
ĭľ ê²½
ĠìĤ ´ì
ĠìĪłë ¶Ģì
ì¢Į ì¸¡
Ġceph azol
ĠìķĪëĤ´ íķ¨
Ġì§Ħ ìłķ
Ġpo d
ìħ ī
Ġde ep
t o
Ġk et
ĠP CV
Ġd er
ĠìĽĲ ì¹ĺ
r x
Ġëħ ¹
ĵľëł¸ ê³ł
Ġ ),
Ġsy n
Ġëį°ëł¤ ìĺ¤
Ġë Ľ
Ġmm c
i um
³ Ģë
Ġal ert
ĵľëł¸ ìĿĮ
Ġcef otax
¨¹ ê³ł
ĠìłĲ ë§ī
le x
E A
ê¸°ë ¥¼
Ġë§Ī ëĭ¤
Ġë¬ ½
Ġíķĺì ķħ
Ġì§ §
¹Ħ ìĿ¸íĽĦ
Ġìĺ Ĩ
ĠìľłìĦł ì¢ħìĸĳ
Ġl ung
Ġd ia
¤ Į
ì§ Ħë
Ġíĺ ¸ë
ê¸° ê°Ħ
ĠìĬ¤ ìĬ¤ë¡ľ
Ġê°Ħê²© ìľ¼ë¡ľ
an ol
er ing
Ġd azzle
f f
Ġíı Ĳë
Ġë³ĳìĽĲ ìĹĲ
Ġê°Ģë Łī
a me
² ¤
Ġë³µ ìķ½
Ġê³łêµ¬ ë§Ī
Ġìĥģíĥľ ìŀĦ
ëį ©
¶ ľ
Ġìłķ ê¸°
Ġf lu
Ġí Ħ±
ĠìļĶ ê´Ģ
Ġê¹ Ģ
G EN
Ġì² Ļ
an ce
q u
og rel
íĺĪê´Ģ ê³Ħ
ĵľë ¦¬ê³ł
ĠI OP
ĠìĤ¬ ìľ¡íĻĺê²½
Ġë°Ľ ê³ł
Ġíķ ´ë³
c al
Ġìĺ ¬ëĿ¼
ìĤ° ê·ł
Ġk cl
opath y
Ġê´Ģëł¨ íķĺìĹ¬
o id
ë° ĺë
ë Ħ
Ġê°ķ ìķĦ
Ġì Ķ
ĠíĺĪ ìĨĮíĮĲ
Ġì´ĪìĿĮíĮĮ ìĥģ
Ġì¶Ķ ê°Ģì
ì² ĺëŁ¼
ol d
ì£¼ ìĦ¸ìļĶ
íİ «
ĠëĶĶ ìĬ¤íģ¬
ĠìĿ¸ ê³Ħ
1 3
ĠìķĦì £¼
V D
Ġê¶ ¤ìĸĳ
ìĿĺì Ĥ¬íķŃ
¡ ¬
ĠëĬĲë ģ¼
e z
ĠìĨį ëıĦ
ê° ĳ
ê¸°ë¡ľ íķ¨
ĠëĪĪë ¬¼
Ġhep atic
f eces
Ġì¶ľ íĺĪë
th er
ê° Ķ
ë³µ ë¶Ģ
¤ ìĿĮ
Ġcalcul i
as ia
´ìŀ ¬
ìĿ´ íĽĦ
Ġë§ Ľ
C l
Ġs d
ĠìĹ ī
ìĬ ¬
+ +
ëĲ ĺë©°
Ġhyp o
Ĭ ¸
§ Ŀ
h ing
Ġì ª½
ĠìĭĿ ëıĦ
ìķ Įë
Ġì²Ń ì§Ħ
Ġë©´ ìĹŃ
ìķĦ ì§Ĳ
ıĻ ë¬¼
Ġvac cination
or ax
Ġc ys
Ġìķŀ ìľ¼ë¡ľ
Ġê ¾¸
Ġê³ ¼ë
Ġ2 4
ĠìľĦ íķľ
u al
Ġì§Ħë£Į íĽĦ
Ġw eight
¦ ĩ
us cular
ë Ķ
Ġe ye
ĠíĺĪ ê´Ģ
Ġíĺ¸í ħĶ
Ġì ĥī
Ġs al
íĩ ´ìĽĲ
f ate
Ġp y
Ġl act
íĽĦ ì§Ģ
ê¶ ¤ìĸĳ
Ġë¨¹ ìĺ
im b
Ġë§ ¥
Ġì¶Ķì²ľë ĵľë¦¼
ìĪĺì Ħ±
ĠíĹ Ī
Ġëĵ¤ ìľ¼ìĭ¬
ĠíĻĺ ê²½
ìĺ Ī
Ġsup pl
mon ary
¦ Ī
ëĲ ĺë©´
Ġë Ń
Ġì§Ģì¼ľë ³´
ë¶ Ī
Ġíķĺë Ŀ½
ê² ¨ë
Ġint es
ĠP E
b l
º Ħ
ĠëĦ ¤ë
Ġsuc ral
ë§ Īë¦¬
Ġìŀ¬ ëĤ´ìĽĲ
Ġê¾¸ ì¤Ģ
Ġìļ °ë
Ġê³µ ë³µ
Ġamp icillin
Ġì§Ģë ıĦ
§Ģ ê³ł
ro id
ĠS kin
³ ¼ë
Ħ ¬
Ġìĵ °ë
ìĹ ¼ë
´ Ĳ
Ġìĭ «
ĠìķĬ ìĿĦ
ĠìĥĿê°ģ ëĲ¨
ĠíĺĪ ì²Ń
h ead
Ġm ri
ì§Ħí ĸī
ìķ ł
2 5
Į Ģë
o ut
ĠìĿ´ìļ© íķĺìĹ¬
ĠëĬ ĺ
¹Ħë ıĪ
Ġë¶Īíİ¸ íķ´
ym arin
ĠìĹ¬ë Ł¬
ĠìĻĦ íĻĶ
Ġíļ¨ ê³¼
Ġdis ease
° Ľ
RE S
Ġm ainten
ĠëĪĪ ê³±
ĠëĬ ĺë
ëį ĺ
ĠëĤĺì ķĦ
ì¡ Į
Ġëĩ¨ ëŁī
Ġë¯¸ë §Į
´ ī
lox icam
ĠëĤ´ìĽĲ íķ¨
Ġìĸĳíĺ¸ íķĺìĹ¬
ĠìłĦ ìĿ¼
ìĿ´ ê°Ģ
Ġë°Ľ ìķĦ
ec tive
Ġclopid ogrel
Ġìĭ łë¶ĢìłĦ
Ġp ar
Ġd oxy
ĠìĿ¼ ìĭľ
er ve
ĠìľĦì ¹ĺ
Ġê²ĢìĤ¬ ê²°ê³¼
ĠëĶ°ë ¥¸
ĠíĨ łë
ĠìĦ¸ ìłķ
Ġìĭ¤ë ¦¬
ti al
ì§Ģë ©´
Ġíĸī ëıĻ
Ġë§ĲëĿ¼ ìĦ¸
ĠìĨĮëŁī ìĿĺ
ĠëĤ´ìĽĲ íķĺìĭ¬
ĠíĻĶìŀ¥ ìĭ¤
ĠìĻ¸ìĿ´ ëıĦ
ĠO U
ĠëıĻê±°ë ¬ĺ
it al
Ġêµ¬íĨłë ¥¼
ĠìĥĪë²½ ìĹĲ
ĠëıĻìĿ¼ íķĺê²Į
s i
ĠìĨĮ ìĹ¼
ê¸°ì ¦Ŀìĥģ
S ystemic
ĠìĹĨ ìľ¼ë©°
Ġë© °ì¹ł
Ġìķ ī
Ġfinding s
ê³ ³
ì§Ħ ëĭ¨
Ħì º
Ġh e
ëĤ Į
Ġìľł ìĤ°ê·ł
ĠíĮĮëª¨ íĭ°ëĶĺ
¸ë Ŀ¼
Ġìŀĩ ëª¸
Ġìŀ ĺì
ìĹ¼ ìĥī
Ġde f
ëĬĶ ê²ĥ
ķ Ī
Ġìĺ¤ ìħĶìĦľ
Ġ y
ê² Ģì
ê¸°ì ¹¨
ĺ ´
h s
ìĻ¸ ê³¼
ìĥĿ ìĭĿ
Ġêµ¬ì¡°ë ¬¼
Ġ ro
lu d
Ġì´Ī ê¸°
Ġsd ma
h yd
Ġi ris
Ġíķĺë ©´ìĦľ
ìĹ¬ ìĦľ
Ġê¸°ì¹¨ ìĿĢ
Ġê´Ģì°°ë Ĳĺ
ĵ ¤ë
ìĤ¬ ì§Ģ
Ġt el
ĵ ¬
íķľ ëĭ¤ê³ł
Ġìĺ¤ ìĭ¤
Ŀ¼ë ²
Ġì²ľ ìŀĲ
Ġspironolact one
ĠìĥĿìĭĿ ê¸°
ìĿ´ ê¸°
Ġë³ Ģì
Ġê²° ìłĪ
Ġech ogenic
Ġë³ ´ëĤ
ĠìŀħìĽĲ ì¹ĺë£Į
ĠëĪĪ ìĿĦ
ĠC E
ĠC l
ì£¼ë ³Ģ
g t
Ġinj ection
Ġëĭ¤ ëĭĪ
Ġme loxicam
all y
ª ¬
ìľ Ħë
ĠíĺĪ ê²Ģ
ĠìĨĲ ìĥģ
Ġu re
S kin
Ġc pl
íĬ ¹
ran ial
Ġê²½ ëł¥
ĠìłĢëħģ ë¶ĢíĦ°
ì µ
ot emia
Ġlux ation
Ġëĭ¨ ë°±
íĮ ¨
ĠëıĮ ìķĦ
y roid
ìĿ´ì ĸ
ĠìķĦ ëĭĪ
ĠW BC
Ġa st
te in
¶Ģ ìłĦíĻĶ
íķĺ ëĭ¤ê°Ģ
Ġíı¬ë ¹ĦëıĪ
Ġcefazol in
ĠìŀĲ ìĦ¸
Ġv hs
Ġë³µ ë§ī
ĠH W
ĠìĹ Ń
Ġê·Ģì² ŃìĨĮ
Ġs m
Ġë ĥĦìĥ
Ġë¬ »
ĠëıĮ ìķĦì
¥´ë ª¬
Ġì Ĩ¡
o ic
ì¸ µ
Ħë Ħ¬
ìķĦì £¼
ħ¨ ìĿĮ
r uc
tin e
Ġë³´íĺ¸ìŀĲë¶Ħ ìĿ´
½ ë§Į
Ġì½Ķë¡ľ ëĤĺ
Ġs ol
¶ Ħë
Ġë³Ģ ìĿ´
ĠíĹ ¤
Ģë¶ Ģë¶Ħ
Ġ( -
ĠìķĪ íķ¨
² ł
ĠìĦ¤ìĤ¬ ëĬĶ
Ġë°± ìĭł
ê¸Ī ìĿ¼
Ġì Ĥ´
iver ing
ĠìĬ¬ ê´ĢìłĪ
s ec
ic k
us t
ĠH CT
ĠìĦŃ ì·¨
e tic
m at
ë§Īë ¦°
ë³ Ģë
Ġê³µê¸ī ì¤ĳ
ĠíĨµ íķ´
yc l
ĠìłĪ ê°ľ
ut e
Ġìľłì§Ģì Ĩį
ĠìĥĿ ë¦¬
ìĭ¬ ìŀ¥
Ġìłľ ìĻ¸
Ģìľ¼ë Ĥĺ
Ġì¹´í ħĮíĦ°
ëĤ ĺì
Ġm uc
ë° ¥
Ġa r
ĠìĿ´íĽĦ ìĹĲ
ĥ Ħ
í ĽĦë
ìĭł ëĭ¤ê³ł
Ġas s
íĶ¼ë Ķ©
Ġt or
¸ë ¦¬
Ġìŀ¬ì§Ħ ìĭľ
Ġë³´ë ¥ĺ
ĺì Ĥ¬
Ġê²°ë§ī ìĹ¼
t ens
Ġtap ering
Ġíķ ¸ëĵľ
ë ¥
ĠìĽĲìĿ¸ ìľ¼ë¡ľ
ìĤ¬ ì§Ħ
ëĬ Ĳ
Ġì¡ ´ìŀ¬
Ġë°¥ ìĿĢ
ìĭľ íĬ¸ë¡¤
ìķ Į
junc tiv
Ġê·¼ ê³¨ê²©ê³Ħ
Ġìĭł ìļ°
Ġf e
ĠìłķëıĦ ëĬĶ
sul in
Ġê°Ģëł¤ ìĽĮ
Ħìº ĲëĭĮ
ed ing
ëĤ ł
ur ia
Ġme th
r ic
ĠCR T
Ġn od
ëĨį ì¦Ŀ
1 6
us hing
Ġìł Īë
Ġìĺ¤ë ©Ķ
vi ous
Ġìĭ¬ ìŀ¡ìĿĮ
Ġra tio
Ġê²ĢìĤ¬ ëĬĶ
Ġíķ ´
Ġ it
Ġë°©ê´ĳ ê²°ìĦĿ
Ġì£¼ ìĭ¬
ĠëĬĲ ëĤĮ
+ )
el id
ar s
ĠëıĻ ë¬¼ë³ĳìĽĲ
ł ´
Ġêµ¬ì¶© ìłľ
ĠìŀĪ ìľ¼ë¯Ģë¡ľ
o und
µ ìłľ
ĠëĤ´ì ĭľê²½
Ġíĺ Ħì²
Ġìĭ« ìĸ´
i k
Ġëĸ¨ ìĸ´
Ġëĭ ¬
an ge
ĠìĿĺë¢°ë ³ĳìĽĲìĹĲìĦľ
ĠëĤ´ì ¸¡
íĺ¸ ìłľ
Ġ4 0
ĠV HS
Ġsuppl y
Ġê³°íĮ¡ ìĿ´
Ġë¶Ģ íĥģ
Ġíĺ¸íĿ¡ ê¸°ê³Ħ
¹ ĺì
Ġì ī
z ole
ti f
ĠìķĶ íĶ¼
Ġsu b
j ective
Ġt able
°Ķ ëĭ¥
ĠìķĬ ìľ¼ìĭ¬
ip ural
on d
ĠìĦ Ŀ
¦½ ëĭĪëĭ¤
ĠìľĦë Ĥ´
Ġë§ Īë¦¬
ĠìĿĮ ìĺģ
Ġe l
Ġì§Ģê¸Ī ìĿĢ
ŀ ¬
ĠíıĲ ì¹¨ìľ¤
Ġë³ ¼
Ġë§İ ìĿĮ
Ġìĥģíĥľ ìĹĲ
Ġë¹ĦìĬ· íķľ
ĠíıĲ ìĥī
Ġê³ ³
Ġsil ymarin
ĠìľĦìŀ¥ ê´Ģ
Ġë³Ģ ìĿĦ
ĠíĺĪìķ¡ê²ĢìĤ¬ ìĥģ
p ra
ap en
Ġcefotax ime
´ì ľ
ê± °ì
Ġn ervous
íķĺìĭľ ê³ł
Ġë§ ¡
Ĩ ĵ
tra tion
Ġres piratory
ĠB CS
i ent
ĠìĪĺì ¤Ģ
Ġí ĳ
įĶ ëĭĪ
ĠìĹ¼ ìĥī
ĠM RI
ti b
oc yt
ĠëĲ ĺì§Ģ
Ġëĭ¤ë¦¬ ë¥¼
Ġíĸ ¥
Ġê°Ģì§Ģ ê³ł
re d
Ġìĭ¤ë¦¬ ë§Īë¦°
Ġë°Ľ ìĿĢ
Ġë³ Ģë
Ġê¸°ë ¦½
or s
ĠíĤ¤ ìļ°
ĠìĻ Ķ
Ġsh ivering
ĠëĮ Ģë¶Ģë¶Ħ
ìĹĪ ìĿĦ
Ġê± ¸ë
D M
ĠìĭĿ ìĿ´ìĦ±
ìĸ´ì §Ĳ
Ġcardi ac
Ġv i
ê²½ ìļ°
Ġìĸ´ëł¤ ìĽĢ
ì§Ģë ıĦ
Ġë°ľ ê°ĢëĿ½
N ervous
ĠëĨĴ ìĿĢ
ì¹ ĺë
Ġp ale
íĬ ľë¸Į
ìķĺìľ¼ë Ĥĺ
Ġì¢Įìĭ¬ ë°©
ĠìĻ¸ ì¸¡
ter ior
Ġì °©
Ġì´īì§Ħ ìĭľ
ìĦ ¸ë
ê· ¼ë
c om
ĠN S
ĠëĦ¥ ìĬ¤
ëĭ ´ëıĦ
ìĦ ľëıĦ
f en
ĠìĥĪë ¡ľ
Ġd i
Ġra m
Ġ* *
ĠëıĻ ë°ĺë
ĠìłĲ ìķ¡
ë°°ë ³Ģ
Ġë³´ ìĿ´ê³ł
Ġì¼ ĦëĦ¬
P O
ĠìĿĮìĭĿ ë¬¼
¦ °ë
A M
£¨ ìħĺ
ì´ ¬ìĺģ
Ĥ ´ìļ©
Ġìµľë ĮĢ
Ġìľł ë°ľ
ĠìĨĮê²¬ ìĿĢ
n ode
íĥĢì ºĦ
Ġê°ĢëĬ¥ìĦ± ëıĦ
Ġcephazol ine
Ġd ox
am ide
íĺĪìķ¡ ê²ĢìĤ¬
ĠëĤĺì ĻĶ
ĠíĿ ĺë
c or
Ġê³ł ìĹĲì½Ķ
RE P
ac cination
ed rop
ĠìĹī ëį©
ĠìłķíĻķ íķľ
Ġìķ½ ìļķ
ëĭ Ĳ
ĭľë Ŀ¼ê³ł
Ġê¼ Ń
ĠíĺĦì² ĺì¹ĺ
Ġê²ĢìĤ¬ ë¥¼
Ġsal ine
Ġìĭ¬ íĺĪê´Ģê³Ħ
Ġì§ģ ìłĳ
Ġa h
Ġë³´ ìĿ¸
ĠìĿ¼ ìĸ´ëĤ
ê¸° ëĬ¥
Ġë§ ī
íķ´ë³ ´ì
Ġg gt
ĠìķĪ ê²Ģ
ati n
Ġì§ ¸
r in
Ħ ł
³ ´ìŀĦ
ìľł ì§Ģ
v d
er g
Ġì§Ħíĸī íķĺê¸°ë¡ľ
ļ °ë
Ġë¡ľìĸ ĦìºĲëĭĮ
Ġab dominal
n o
e f
Ġì¶Ķê°Ģ ê²ĢìĤ¬
Ġë³¸ìĽĲ ìĹĲìĦľ
ë¶ Ģë¶Ħ
en cy
Ġd ob
ĠT P
íķĺìĺ ĢìĬµëĭĪëĭ¤
Ġìĺ µ
íĥ ķ
´ Ī
Ġë§¥ ìĭľíĬ¸ë¡¤
ìĭľ ê¸°ë¡ľ
Ġëį ľ
Ġìĭ Ń
ĠìĿ Ģ
Ġulc er
Ġìĺ¤ ì¤Į
Ġup c
Ġh a
ĠU S
Ġaz otemia
ì¦ ĺ
Ġìĺģ ìĸĳ
Ġëħ¸ëŀ Ģìĥī
ë¯¸ ìļ©
í Ľ
í ļ
íĻ ľëł¥
Ġëĭ¹ ìĿ¼
Ġíĥ Ģë
Ġê°ģë§ī ê¶¤ìĸĳ
ëĤ ´ë³µìķ½
a il
Ġê°ĲìĨĮ íķ¨
arg in
Ġëĭ¤ëŁī ìĿĺ
% ,
pl asia
ì£¼ íĺ¸ìĨĮ
la re
ìĥĿìĭĿ ê¸°ê³Ħ
Ġf rom
ŀ Ħ
ìĹ °ë
ĠìĹ ´
s id
Ġêµ¬ ìłľ
Ġê°ĦìĭĿ ìĿĢ
ic ro
lud ge
Ĳ ©ëĭĪëĭ¤
ê° Ģì§Ģ
apen tin
ë¶Ħ ê°Ħ
gen cy
ĠëĮĢì ĨĮ
ĠìłĦì² ´
Ħ¸ ìļĶ
Ġë´ Ĳ
ell ar
el y
Ġê±°ë ¶Ģ
Ġ1 3
ĠìĽĲ íķ¨
Ġê¾¸ì¤Ģ íŀĪ
Ġì¢ĭ ìĿĢ
ìµ ľ
Ġp d
Ġê¸°ë ¡Ŀ
um b
ĠíĻ ĺë
Ġf x
p m
Ġê±° íĴĪ
Ġë° ĸ
Ġë¨ ¼
y te
uc le
ìĿ Ģì
íĻķ ìŀ¥
° ķ
Ġì° ¾
Ġíĺ¸íĿ¡ ìĿ´
ra ph
íĹ ¥
I n
Ġìĺģ íĸ¥
ê°Ģì Ħľ
ĠíĨµì¦Ŀ ë°ĺìĿĳ
mer gency
ìħ¨ ëĭ¤ê³ł
Ġê¸° ìļ´
ĠP h
ê³µ ê¸ī
ìķ Ħí
Ġì Ķ©
Ġp al
Ġë©Ķ íĥĢìºĦ
ĠìĿ´ë ¹ĦìĿ¸íĽĦ
Ġê· ĵ
Ġno t
Ġs ludge
oll ow
ĠN o
ĠìķĪë ¶ĢìłĦíĻĶ
orph anol
Ġch ange
ìķ½ ìĿĢ
ĠìłĢ íķĺë
Ġì² «
ĠíĮ ¨ë
it e
duc ation
T x
ane ous
Ġëĭ¹ ëĩ¨
Ġo me
Ġìķ¼ ê°Ħ
Ġsucral fate
Ġê°ľìĦłë Ĳĺ
Ġinf ection
Ġíģ ´ë¡ľ
¶ Ģë
Ġê·¸ë ĮĢë¡ľ
on o
Ġëĵ¤ ê³ł
ĠíĨµì¦Ŀ íĺ¸ìĨĮ
Ł °
ĠT h
ĠëĨį ìĦ±
ĺ Īìłķ
ĠìĬ¬ê°ľê³¨ íĥĪêµ¬
ĠìºĶ ìĤ¬ë£Į
°ë į°
Ġra di
ĠëĮĢíĩ ´
ĠëĤĺì ģ
ê²½ ê³¼
Ġmed ication
Ġin tra
Ġíĺ¸ë ¥´ëª¬
Ġg ast
Ġë°© íĸ¥
Ġl ens
ĠC P
Ġê¶Į ìľłë
Ġê²ĢìĤ¬ ìŀĲë£Į
Ġd ec
Ġê¶ Įìŀ¥
Ġref lex
ê· ľ
(- ),
og raph
ì Ĩį
¼ êµ
ĠìĤ´ì §Ŀ
ê ¾¸
oc arb
Ġíķĺì §Ģë§Į
c at
ì¶ķ ëĨįì¦Ŀ
Ġc ycl
ì² ´íģ¬
Ġë¨¹ ìľ¼ë©´
ëĭ Īë
ĠìłĲ ìłĲ
Ġkg time
ĠíĬ¸ë Ŀ¼ë
Ħí ĽĦ
Ġm id
ìĿ¼ë ¶ĢíĦ°
Ġê°Ħ ëĭ´ëıĦ
Ġëĭ¹ ë¶Ħê°Ħ
Ġë°ľë Ŀ¼
ĠV accination
§ ¥
Ġë³Ģ ìĿĢ
Ġdep ress
Ġmet ac
Ġíķ¸ëĵľ íĶ¼ëĶ©
Ġb i
yst olic
Ġpl r
Ķ Įë
ea k
ì º
Ġd il
Ġíŀĺë ĵ¤
Ġpro tein
Ġì¤ĳìĦ±íĻĶ ìĪĺìĪł
t ure
ê·¸ë ¦ĩ
oc k
í ħ
ĠìķĪë Ĳ
ĠìķĦëĭ Į
Ġpr n
) :
ĠëĦ¥ìĬ¤ ê°Ģëĵľ
hr ë¡ľ
Ġì ¸
ì¢ħ ê´´
ee k
Ġë°ľë °Ķëĭ¥
ìĭľ ìĹĲ
Ġë¹ ¨
ĠB W
Ġëª» íķĺê³ł
3 6
Ġì§ Īë
Ġhr ë¡ľ
Ġm argin
Ġì¢ĭ ìķĦì¡Į
Ġì²ĺì¹ ĺì
ìĪĺì ķ¡
Ġí Ľ
ĠìĭĿìļķ ìłĢíķĺ
Ġëĭ ´ì
ĠíĽĦ ìĹ½
Ġìŀł ìĿĦ
ĠìĬµ ìĭĿ
l an
ch arge
ìĦł ìĥĿëĭĺ
Ġë ĲĺëĬĶ
Ġf i
Ġê° Ħì
Ġan emia
Ġm an
it rol
Ġê¸ī ìĦ±
Ġcon t
ìħī ìħĺ
íķĺë ıĦë¡Ŀ
Ġpo ds
Ġíķľë ²
is e
Ġs l
h ep
ļ°ë ¦°
Ġm at
ìĭł ê²½
Ġë¡ľ ìļ°
DM A
íķ ĦìļĶ
Ġë ¿
Ġíķľ ëĭ¤ê³ł
Ġsm all
Ġìĸĳíĺ¸ íķ©ëĭĪëĭ¤
Ġë¬¼ ìĿĦ
íķ ľë
Ġm is
Īìłķ ëıĦ
Ġê°Ĳ ìĪĺìĦ±
ĠëĦ£ ìĸ´ì£¼
Ġì§ĢìĨį ìĭľ
ë¶Ģ ìłĦ
ìĹ¼ ìĹĲ
ĠëłĪë ³¼ë
ĠìķĪ ê²ĢìĤ¬
Ġl v
ĠìĥĿ ê¹Ģ
¯ ¼ë
Ġë² ½
Ġë¹Ħ ê°ķ
Ġf na
ĠìĿĺìĭ¬ ëĲĺëĬĶ
ĠìĨĮëŁī ìĶ©
¡ Ģ
íĶ¼ ìĬ¤
Ġen vironment
ĠìĹĲ ìĦľ
Ġê·¸ëŁ °
ĠìĿ¼ë°ĺ ìłģìĿ¸
Ġìĸĳíĺ¸ íķĺëĤĺ
íķ łëķĮ
ë ĵľë¦¼
ĠìĻĦ ìłĦíŀĪ
Ġgab apentin
Ġì£¼ ê¸°
ĠìĹ Ķ
Ġìľł ìĹ°
ê°Ħ ìĭĿ
Ġíļ ŁìĪĺ
íĬ¸ë ¡ľ
ê º
S T
Ġëħ¸ë ł¹
Ġì°½ ìĥģ
íĶ¼ ì¦Ŀ
ĠìľłìĿĺ ìłģìĿ¸
§Ģë ©´
´ë ¦¬
ĠëıĻê±°ë ıĻë¬¼
´ìŀ ĪìĿĮ
ĠíıĲë ł´
ë¦¬ ìħīìħĺ
íĭ ´
o til
ĠìĺĪìłķ ìŀĦ
Ġíĺ¼ íķ©
pra zole
0 0
Ġc p
Ġhep at
Ġm ul
Ĥ ĺì
Ġw all
ìĤ °ì
ĳ Ĳë
N S
Ġë¹Ħëĩ¨ ê¸°
. (
ocarb am
Ġì¹ĺ ê³¼
ĠíĹ¥ ìĭľëĶĺ
ĠìķĬ ìľ¼
ĠíĶ¼ ê°Ģ
į ¼
íĺĪ ì²Ń
ĠìłĢëħģ ìķ½
ut aneous
ëĤ´ ê³¼
ìĿ´ë ¥¼
Ġì§Ģì¼ľë ³´ì
Ġì§ĢìĨį ëĲ¨
©Ķ ì§Ħ
ìĺģ ìĥģ
+ ,
ìĪĺë ıĦ
Ġle ve
Ġë³´íĺ¸ìŀĲ ê°Ģ
Ġam ox
íĽ Ī
Ġsurg ery
ĠíĨµ ìĽĲ
Ġë°ľ ìłķ
Ġìŀ¥ ê¸°
ĠN a
ì¼ ľ
ĠìļĶ ìĿ¸
Ġì§Ħíĸī ì¤ĳ
Ĩ ł
Ġíĥ ľ
Ġë°°ì ª½
Ġì§ĢìĹŃë³ĳìĽĲ ìĹĲìĦľ
ĠìĤ¬ ì§Ģ
ìĺĪë°© ìłĳì¢ħ
ŀ µ
ª¨ íģ
¬ ´ì
ì§ Ģì§Ģ
Ġreg ion
íķĻ ìłģ
ĠEn vironment
íķ´ì §Ĳ
Ġê°ķ ì§ģ
ĠëĪĪ ìĿ´
oc al
Ġthe ophylline
art ar
Ġìĺ¤ë©Ķ ê°Ģ
° ¨
ĠëĤĺë ¨¸
ħ ¸ë
Ġn asal
ĠìĦ± ê²©
ë ĵ¯
Ġ3 6
Ġac et
Ġt artar
1 7
ĠìĽĢì§ģ ìŀĦ
Ģì ĸ´
ìľ Ħì
ĠíĻľë ıĻ
Ġê¸°ì¹¨ ìĿĦ
Ġcephalex in
Ġhe art
Ġph ysical
) .
Ġë ł¹
ĠìĿ´ì ĨĮ
ril ost
Ġí Ŀ¡
Ġìĸ ¼êµ
Ġon ce
) -
íķĺìĺ ĢìĿĮ
Ġp ent
ap se
ĠìłķëıĦ ìĿĺ
ĳ ì°©
Ġì£¼ ê°Ħ
Ġvit amin
ì§Ģë ¥¼
ì¦ Ī
ìļ °ì
yc line
ĠëıĻ ë¬¼ë³ĳìĽĲìĹĲìĦľ
Ġê°ķìłľ ê¸īìĹ¬
Ġíĺ¸íĿ¡ ìĸĳìĥģ
Ġis oflurane
Ġde worming
ĠPL R
ĠF luid
ch e
Ġintes tinal
Ġì£¼ ê³ł
Ġìŀ Ķ
ë¹Ħë ĮĢ
´ì Ĥ¬
íķĺìĭľë Ŀ¼ê³ł
Ġìĥģ ìķħ
ĺë ¡ľ
Ġk cal
íĺ ¹
§Īë ıĮ
s is
Ġmm vd
Ġl iver
Ġì¹ĺì £¼
Ġì§Ģë Ĥ´
Ġtime bid
Ġê°ĦíĹĲ ìłģìĿ¸
ro w
ĺì Ħ±
ra d
ìłģ ìĿ´ì§Ģ
ĠíĬ¹ íŀĪ
ĭł ëĭ¤ê³ł
Ġo ther
G T
ê²ĢìĤ¬ ìŀĲë£Į
ĠìķĪìłķ íĻĶ
ĠìĿĳê¸ī ëĤ´ìĽĲ
ëĤ łë
Ġpul monary
ê´ Ģë
ëĤ ľ
ìĿ´ë ¯Ģë¡ľ
ë³ĳ ëł¥
ĠìłĲ ìĭ¬
ìľ¼ë ©´ìĦľ
Ġìĺ Īë
Ġìľ¡ ìķĪ
ter n
Ġe ducation
Ġs k
de worming
il e
ì¹ ´ë
ìĬ¤ íĳ¼
ĠíĶ¼ë¶Ģë³ĳ ë³Ģ
Ġbut orphanol
O N
ĠíķĦìļĶ íķ©ëĭĪëĭ¤
ĭľ ëĬĶ
ĠAL T
ĠìļĶ ì¦ĺ
am ber
ec h
hyd ration
ĠìĪł ìłĦ
ar d
ħ ¸
Ġìĸĳíĺ¸ íķĺë©°
íĿ ¬
i asis
ª¨íģ ¬ëĿ¼
ì£¼ ìĤ¬
ê³¨ ìłĪ
Ġë¸Įë ¡¬
ë°ľ ìĦ±
ĠëĴ¤ ìĹĲ
ê´ĳ ìĹ¼ìĥī
osp or
Ġìľłì§Ģì ¤ĳ
ìĿ´ì ĭ¬
Ġì§Ħíĸī íķĺì§Ģ
ì¹ĺì ķĦ
ĠìĨĮíĻĶ ê¸°ì¦Ŀìĥģ
ip ril
ĠíĸĪ ìľ¼ëĤĺ
ìĺ ¨
Ġe p
Ħì ¤ĳ
Ġë¨¼ ìłĢ
ĠëłĪë³¼ë £¨ìħĺ
ĠëĿ¼ ëĭĪ
ì§ Īë
ë¹Ħ ìķ½
Ġf el
Ġì¡°ì ĺģ
ĠêµĲ ìĥģ
ce ph
ì² ´ë
u ma
Ġto tal
ìĭĿ ìĬ¤
Ġëģ ¼
ĠíĮĮ ìĹ´
Ġlact ate
ĠíĬ¸ëĿ¼ë §ĪëıĮ
Ġìĥģíĥľ ê°Ģ
ê¸°ì ĥĿì¶©
ĠëĨį íĶ¼ì¦Ŀ
ĠëĲ ĺìĸ´
íķľ ì§Ģ
ĠìŀĪ ìľ¼ë©´
Ġíģ ¬ë
ĠìķĪë¨¹ ê³ł
ĠìĦ¸ê·ł ìĦ±
Ġíİ¸ ìŀĦ
Ġëª¨ë ¥´ì
Ġch amber
Ġbac k
Ġê± °ì
ĠëĥĦìĥ Ī
ĠëĳĲë ²Ī
ë³ ĦíŀĪ
a gen
Ġì° į
ĠC h
ĠëĬ ĺìĸ
ĠìłĲ ì°¨
ĠìŀĲ ê¾¸
Ġëª» ë
Ġê°Ģ ìł¸
Ġl ac
ĠMM VD
ìĿ´ë ŀĳ
Ġmax itrol
Ġìķħ ìĦ±
enter itis
rac k
l imb
yc ycline
Ġíķ µ
Ġof loxacin
Ġa us
ìĭł ìŀ¥
ìķĦ ìłľ
Ġê³łì§Ģ íķ¨
Ġì· ¨
¥´ ê³ł
r itis
ĠìķĦí Ķ
rilost ane
Ń ëĭĪëĭ¤
ìłĦíĻĶ ìĥģëĭ´
íĭ °ì
ĠA b
ĵ¤ ìĿ´
Ġë³´ ìĿ´ë©°
ĠìķĬ ìľ¼ë©´
ì° ¬
Ġ= >
íķĺ ê±°ëĤĺ
n s
Ġê¸°ì ´Ī
íĸĪ ëĭ¤ê³ł
Ġë°Ķê ¿
Ġlef t
Ġìłķìĥģ ë°°ëĩ¨
¥¸ë ³Ģ
ìĹĲ ë§Į
Ġëĵ¯ íķ¨
ati ent
Ġì§Ħíĸī íķł
¶Ģì ¡°ì§ģ
Ġìłķ ëıĦë
Ġgl and
¯¼ë °ĺìĿĳ
©Ķ ìĿ¼
r r
Ġêµ ŃìĨĮ
Ġìĭľê°Ħ ìĿ´
ĠS DMA
³´ íĺ¸ìłľ
3 9
ê² ¼
ĠT ID
Ġ1 6
A H
Ġn ucle
do men
Ġm o
Ġsu bc
Ġíı¬ë Ł¬ìĬ¤
´ë ķĮ
Ġìĺ¤ë ŀĺ
Ġìĺ¤ íģĲ
Ġì¦Ŀ ê°Ģë
ì ³Ĳ
Ġf lare
Ġmetac am
Ġìĸ´ë ¨¸
íģ ¬ë
Ġì£¼ íĺ¸ìĨĮ
ìª½ ìľ¼ë¡ľ
ĵľëł¸ ìľ¼ë©°
¤ë ©´
² ĺë°©
Ġìĸ´ìłľ ëĬĶ
Ġn on
Ġê¸°ì¹¨ ìĿ´
ª ¨ë
at or
ĠíķĦìļĶ ìĭľ
íĸĪ ê³ł
ro ugh
i ve
Ġë³´íĺ¸ìŀĲë¶Ħ ê»ĺìĦľ
Ġd v
ìłĪ ê°ľ
ĠìĿĺìĭ¬ ëĲ¨
ĠìĦ ľë
tis s
ĠìĹ°ë ¶Ģì¡°ì§ģ
Ġspi ro
re e
ĠP H
ł ĩ
Ġp ap
ee th
Ġs ystem
Ġdis charge
Ġìĭ¤ë Ĥ´
ĠP R
ĠìĹ °ì
Ġìłĳ ê·¼
ĠPL T
Ġê³łëł¤ íķĺìĹ¬
ìĿĮ ìĭĿ
Ġê·Ģë ¥¼
ĠìŀĲ ë°ľë
ĠìĺĪë ¯¼
íĤ ¨
Ł ½
Ġì¤ĳ ê°ĦìĹĲ
Ġass essment
Ġëĵ¤ ìľ¼
Ġf ib
íķĺìĺ Ģ
re ased
ĠìŀĲê¶ģ ì¶ķëĨįì¦Ŀ
Ġmet o
Ģì§ Ī
Ġam yl
ĠìķĦë ª¨íģ¬ëĿ¼
ĠìĤ¬ë Ŀ¼
Ġcor nea
Ġë¨ ¸ë¦¬
ĠëĽ °ì
ĠíĬ¹ ë³ĦíŀĪ
ĠëĪĪë ¬¼ë
(+ ),
Ġíİ ľ
ì¹ Ļ
´ì £¼
ħ ëĭĪëĭ¤
ìķ½ ë¥ĺ
ĠíĥĢì ļ°ë¦°
ĠPO DS
Ġê´ľì°® ìĿĮ
Ġ tiss
Ġth is
ìķ Īìłķ
ĠíĤ¤ íĬ¸
es th
ĠìķĦìĿ´ ê°Ģ
Ġê·¸ë ķĮ
Ġëħ¸ ì¶ľ
Ġde hydration
ĠìļĶ ë§Ŀ
Ġìĸ´ë ĸ
íĺ ľ
¥´ ëĬĶ
Ġì¶Ķê°Ģë ¡ľ
ëıĦë ¡Ŀ
or rh
Ġê°ĢëĬ¥ìĦ± ìĿĢ
Ġìĺ¤íĽĦ ìĹĲ
V I
ì² ĺì¹
e w
Ġìĭ ¸
ĠìĪĺìĪł ìĿĦ
Ġl ateral
ĠíķĦìļĶ ìĦ±
ê± ¸
on is
Ġê³¼ë ¯¼ë°ĺìĿĳ
Ġíķĺ ìĿ´
ìĥ Ī
Ġì§Ģì ĸ
ĠìłĢ íĺĪëĭ¹
Ġboos ter
Ġìĺ ¨
l op
Ġmeth ocarbam
ĠD V
ct o
me t
ĠíĹ¥ íĹ¥
Ġpo si
Ġì§Ģì ĭľ
Ġìĭ¬ íķ´
Ġlef otil
yp e
Ġo ver
ìĭ¤ ìĭľ
Ġë³´ ê¸°ë¡ľ
Ġëħ¹ ëĤ´ìŀ¥
op ic
ìķ ĺì
ìħ Ķ
Ġëĩ¨ ê²ĢìĤ¬
Ġ J
ĠF NA
ĠìłĦ ëĭ¬
en ia
ì ĩ
¨ë ĵľë
Ġì£¼ ìĿĺìĤ¬íķŃ
ł ëĬĶ
Ġê²°ê³¼ ìĹĲ
ë§Ī ìķ½ë¥ĺ
Ġv is
Ġë§İ ìĿĢ
Ġneoplas ia
Ġf em
ìłķ ë§Īìķ½ë¥ĺ
Ġth ick
ìłľë ¥¼
ìĬ¬ ê°ľê³¨
ìĥģ ìĬ¹
ìĤ¬ ìĿ´
ĠìŀħìĽĲ íķĺìĹ¬
ìĿĮ ë¶Ģ
ë°°ì ĸĳ
Ķ ľ
Ġíķĺë ©´
Ġìĥģ ë¹Ħìķ½
ĠìĤ¬ìļ© ê¸°ë¡Ŀ
Ġp ol
ìĿ¸ë ĮĢ
Ġì² ´íĳ
íĬ¸ë Ŀ¼
ĠìķĪìłķ ìłģìĿ¸
Ġcephalex ine
© ķ
Ġë¬´ë ¥¸ë³Ģ
ĠëĿ¼ ìĭĿìĬ¤
ĠíķŃ ê²½ëł¨
O S
ĠìķĬ ìķĦìĦľ
ys is
Ġë§Ī ìĤ¬ì§Ģ
ìłģ ì¶ľ
Ģìľ¼ë ©°
Ġê³ł ìłķ
Ġbid ë¡ľ
ĠìĿ´ íķĺ
ĠìķĮë Ł¬
re at
Ġê°Ģë Ŀ¼
Ġì£¼ ìĿĺ
am p
Ġìĸ´ ëĬĲ
Ġëĭ¤ìĪĺ ìĿĺ
Ġam l
´ Ħ
s ol
4 5
Ġs ystolic
Ġì¶ľíĺĪë Łī
Ġë°©ìĤ¬ìĦł ê²ĢìĤ¬
Ġth rough
Ġg b
¦ İ
Ġì§ Ħëĵľê¸°
Ġí ħĮ
ez ia
Ġë§¤ ëĭ¬
íķĺ ëĭ¤
Ġíĺķ ìĦ±
al y
ìłľ ëĬĶ
íİ ľ
ĠìĹĶ ë¡ľ
íķĺìĺ Ģê³ł
Ġíĸ¥ íĽĦ
Ġìŀ¬íĻľ ì¹ĺë£Į
ĠíĿ¬ ìĦĿ
Ġë łĪìĿ´
ĠëĮĢìĨĮ ë³Ģ
ì¦Ŀ ìľ¼ë¡ľ
ĠìĤ ½
Ġë¹ ¨ë
ĠìķĬ ìķĺ
Ġ5 0
p re
ĠëĤ´ìĽĲ íķĺìħĶìĦľ
Ġê°Ģ ìłķ
íĢ ´
ìĨĮ ë¦¬
Ġì±Ļ ê²¨ë
ê¸° ìĹĲ
íĳ ľ
ë°© ìĤ¬ìĦł
Ġê·¸ë ĥ¥
ĠëĦ¤ë ·
Ġram ipril
Ġb en
op erative
ĠìĽĲ íķĺìĭľëĬĶ
T T
Ġë¶Ħë ¦¬
ì£¼ ìĭ¬
ë ĮĢë¡ľ
ĠíĻķìĿ¸ëĲ ĺëĤĺ
Ġì²´ì¤ĳ ê°ĲìĨĮ
ìłķ ë§¥
Ġ1 1
l amm
Ġíŀĺ ìĿ´
Ġs ono
ul t
Ġìļ° ìĭ¬
³ Ģì
n ipural
or al
ìļ© ëŁī
\ '
Ġê¹ Į
rack le
ĠíĺĪìķ¡ ìĦ±
Ġëĭ ¦
el la
Ġë¹Ħëĩ¨ ìĥĿìĭĿê¸°ê³Ħ
ĠìĿ¼ì£¼ ìĿ¼ë
ĠëĲĺ ìĹĪìĿĮ
arc in
ìľ¼ë Ł¬
Ġê²° ìŀ¥
ë°± ìĭł
íĮ ©
ren al
Ġê³Ħí Ĩµ
ì£¼ ìľĦ
ĠìľĦíĹ ĺìĦ±
¤ë ¶ĢíĦ°
ro me
ĠëĤĺíĥĢëĤ ¨
Ġd et
ĠìŀĲ ë
Ġpat tern
ìĸ ´ìŀĪ
ìķ ī
ĠíĨµ íķľ
Ġê·¸ëŁ ¬ë
ĠIn j
Ĥ ĺë
Ġs ound
u me
Ġì»¨ëĶĶìħĺ ìĿĢ
Ġco ugh
ĠìĿ´ìĥģ ìĿĢ
Ġr ight
Ġí ħ
Ġë¶Ī ê·ł
Ġsc ore
Ġê¸ģ ëĬĶ
ol us
ĠìĪĺìĪłë ªħ
Ĩł íĶ¼
ĠìĬ ¤ë
Ġd l
i o
£ ½
ĠìĻ¸ ìĥģ
ob arb
Ġê¸ģ ìĿĮ
Ġë ıħ
ìĿ´ íĬ¸
ome tra
ģ Ŀ
Ġê°ľ êµ¬
Ġë´ ī
ĠìĿ´ìĨĮ íĭ±
Ġë°©ê´ĳ ëĤ´
łë ¦°
ĠíĺĦìŀ¬ ë³ĳëł¥
ìª½ ìĹĲ
Ġìĭ ľë
íĪ¬ ìķ½
esth etic
Ġì§Ģëĥ Ħ
ëĭ¤ ëĭĪ
ĠíĶ¼ ì§Ī
ê· ¸
Ġlymph oma
ĠíĻ© ëĭ¬
ìĿ´ ëıĦ
ĠS p
ê°Ĳ ìĹ¼
loxac ine
ne um
íĽĦ ìĹĲ
Ġpre d
ìķĦì ¹¨
Ġë°ľ íĺĦ
Ħë ¦¬
Ġpc r
ĠëĬ Ķ
ĠPh ysical
ter ial
êµĲ ìłķ
§ī ìĹ¼
Ġê°ĦíĹĲ ìłģ
Ġë§Ľ ìŀĪëĬĶ
Ġz onis
Ġìľł íķ©
Ġt eeth
s a
ĠëĤ Ń
ĠìĦ¸ ì²Ļ
íĸĪ ìĿĦ
ath eter
an yl
Ġë³µ ìķķ
Ġë¶Ģì ĸ
ìļ© ê¸°
Ġê°Ģì ŀ¥
¤ Ħ
ë° ı
ë¶Ģë ¯¼
Ġë¡ľìļ° íİ«
ĠëĤĺìģ ĺì§Ģ
ì´Ī ì§Ħ
Ġë³´íĺ¸ìŀĲëĭĺ ìĿ´
men ess
ë° ĺìĤ¬
an esthetic
Ġëĵ± ìĿĢ
ìĥĿ ìĦ±
n is
Ġtiss ue
b ul
´ìľ ¼ë¡ľ
Ġê³ĦíĨµ ìłģ
Ġn eck
Ġë°ľ ìĨ¡
ë ĮĢì
© Ķë
Ġë°Ķ ëĭ¥
ìĥ Īë
Ġome prazole
Ġt rilostane
Ġë°Ķê ¾¸
amm ary
¨¹ ëĬĶ
Ġëĭ´ëĭ¹ ìŀĲ
cl usion
ķ Ħì
ĠìĿ´ë ıĻ
Ġcycl ospor
Ġë°¥ ëıĦ
Ġì²Ń êµ¬
Ġìłģ ê·¹
ìĿ´ì §Ģì
ëĤ ´ì
TI ON
) (
Ġs pl
N P
Ġê³ł ê¸°
Ġch eck
Ĳ ê³ł
ĠA ss
ĠëĤ¨ìķĦ ìŀĪìĿĮ
ĠëĤ´ë ¶Ģ
ĠíĿ Ķë
ì¹ ¸
O M
¶ Ī
ë§ ģ
Ġìĸ ¼ë
ĠìļĶ ì¶Ķ
obarb ital
łë §Į
c on
b ral
¦°ë ¹Ħ
ĺìĸ ´ìŀĪ
Ġrec umb
tens ion
ĺ Ī
Ġm pl
Ġcom p
Ġì£¼ ìľĦ
ĠíĻį ìļ©ê¸°
Ġì¦Ŀìĥģ ìľ¼ë¡ľ
ķĮ ë
ĠëĤľ ìĨĮ
ĠëĤ´ìĽĲ íķ´ìĦľ
ĠìķĬ ìľ¼ë©°
ê²ł ìĬµëĭĪëĭ¤
Ġìĭ¬ íĻĶ
ent anyl
Ġë° ĺì
ĠíĹ¤ íĮĮ
Ġë ¦¼íĶĦ
Ġd rop
Ġm ar
Ġì¶© ë¶
¢ħ ê´´
Ġíķ´ì ķ¼
ĨĲ ìĥģ
Ġë¶Ħë³Ģ ê²ĢìĤ¬
Ġl as
rad ine
ent al
Ġcys titis
ĠëĤ¨ ìĿĢ
ĠíĦ¸ ìĿ´
Ġsu g
Ġë¹ĦìĬ· íķ¨
Ġf r
u fen
ent ral
ĠC re
Ġcell s
Ģì§ Ģë
¦°ë¹Ħ ìķĦ
Ġsp o
íı ¬ë
Ġch l
ìłĦì Ĩ¡
ë¹Ħ ìļ©
Ġur in
ma titis
ëĭ¤ ëĭĺ
Ġëĵ ¤ë
Ġ ====
ĠìĿ¼ì£¼ìĿ¼ ìĹĲ
ĠìĦ¸ë łĪ
ĠìĺĪ ìĥģ
end ing
ŀĳ ìĿ´
ĠëĤĺíĥĢë Ĥĺ
Ġê°Ģì Ĭ¤
ĠM PL
f or
íĥ Ŀ
P C
Ġd ors
Ħë ıĦ
Ġa p
Ģë ¦°
Ġê³łë ¯¼
ìĤ¬ ë
ĠìĪłë¶Ģì ĥģíĥľ
ome g
e ph
Ġin sulin
Ġë¬´ë ¦İ
junctiv a
Ġì£¼ë §Ĳ
Ġìĵ °
Ġë³µ ì´Ī
Ġíıī ê°Ģë
ĠìĨĮë³Ģ ìĿĦ
1 9
Ġë§ŀ ì¶
ëĭĪ ê¹Į
ĠìŀĲ ê³ł
of t
ĠìĦ¤ìĤ¬ ë¥¼
Ġre ac
Ġë³´ ìĿ´ëĤĺ
Ġë³ Ħ
íı ´
Ġê°Ĳë³Ħ ì§Ħëĭ¨
ect rol
t x
ìļ ´ëıĻ
Ġn g
ol one
ĠìŀĪìĿĮ ìĿĦ
Ġë²ł ìķĦìłľ
ĠìłĢë ²Ī
Ġs iz
Ġdv m
Ġê°Ħ íĺ¹
Ġê´ĢìłĪ ìĹ¼
ĺë įĺ
ĠíĿī ê°ķ
Ġìłľ íķľ
Ġfe eding
ķĮ ë¬¸ìĹĲ
Ġac ute
Ġhypere ch
ì¶© íĺĪ
Ŀ¼ë² łë¦°
Ġì°© ìļ©
ĠëĦ ¤
Ġê·¸ë ¦°ë¹ĦìķĦ
Ġê°ķìķĦ ì§Ģ
me d
ëĵľë ¦½ëĭĪëĭ¤
Ġhyper plasia
am ycin
Ġacet yl
n p
Ġë°°ìłľ íķł
Ġë ı
íķĺìħ¨ ìĿĮ
ìĸ´ë ıĦ
Ġb rom
he x
ĠëĨį ëıĦ
Ġìĸ ĺ
um in
Ġìĺ¬ íķ´
ê¸ Īë
Ġê²½ ê³¼ë
ìĸĳ ì¸¡
Ġìŀ¬ ê²Ģì
ì¤ĳ êµ¬
Ġê°ĢëĿ¼ ìķī
ass ezia
ê· Ģì§Ģ
ĠìĹĨ ìĬµëĭĪëĭ¤
ul d
Ġdog s
íĬ¹ ìĿ´ì
Ġë¬¼ ìĿĢ
Ġc oll
roph y
Ġv ar
íĥ Ħ
ĠDV M
Ġme di
Ġíķ ©
ĠAss essment
ip ine
ìĿ ĺë¢
ĠPO D
ĺì ŀ
ì² ĺë
Ġpre vious
Ł ¬ë
ëĭĺ ìĿ´
ëĤ ¨
ëĤ ĺìĦľ
if ic
ĠëĮĢì¦Ŀ ì²ĺì¹ĺ
Ġëĭ¹ ë¶Ģ
ĠA l
Ġìł ľë
Ġë³´ ìĿ¼
Ġs me
omeg aly
ì¦Ŀ ê°Ģ
Ġë¶Ħìĸĳ ë°Ľ
ìłľë ¶ĢíĦ°
Ġíĩ´ìĽĲ ìĭľ
ĠëĶ ¸
Ġë°± íĺĪêµ¬
Ġì¤Ħìĸ´ë ĵ¤
Ġë³´íĸī ìĥģíĥľ
A b
Ġì¤Ħ ìĹĪìĿĮ
ë³´íĺ¸ìŀĲ ë¶Ħ
Ľ ħ
Ġ(- )
Ġìĭ¬ ë¹ĦëĮĢ
Ġì§ ĸ
ĠìŀĪ ìĹĪìľ¼ëĤĺ
Ġre r
4 0
ê» Į
ĠíĽĦë Ŀ¼ë²łë¦°
Ġì²ĺì¹ĺë Ĥ´ìļ©
Ġê¸īìĹ¬ íķ¨
Ġê· ¼ë
ĺìĸ ´ìĦľ
Ġíķĺì ĸ
ĠíĹ Īë¦¬
ĺìľ ¼ë¡ľ
Ġìĸĳíĺ¸ íķĺê²Į
ìĭ¤ ê²ĥ
ħ Ħ
Ġê° Ķ
it ant
ĠìĿ¸ ê³µ
Ġab normal
ĠìķĮ ìķ½
Ġthrough out
ìŀĲ ìĿ¸ëĮĢ
c yst
íĸ¥ ìłķë§Īìķ½ë¥ĺ
Ġb olus
or t
ë ł
Ġc rackle
od ipine
Ġë³ ´í
ĠìĦ¤ëªħ íķ¨
Ġíĥ Ģ
Ġíķ´ì£¼ ìĦ¸ìļĶ
Ġca ud
Ġëĵ± ìĹĲ
Ġud a
Ġë¶ Ļ
os s
ith iasis
ĠìĽĲ íķĺìħĶìĦľ
arcin oma
ra ct
Ġì ĩ
Ġêµ¬ì¡°ë¬¼ ìĹĲìĦľ
Ġëĭ¤ë ħ
Ġë¶Ī ê°Ģ
Ġëĵ± ìĿĦ
êº ¼
ĠìĽĲìĿ¸ ìĿĢ
Ġan terior
Ġsp ec
Ľħ ì°¬
Ġìĸ´ìłľë ³´ëĭ¤
ĠëĪĪë¬¼ë Łī
ĵľë Ł¬
Ġdec reased
Ġrecumb ency
í ŀ
ĠìĻĦ ìłĦ
ĠëĪ Ħ
ĠìĨĮìĹ¼ ìłľ
Ġíķ¥ ìĿĮ
Ġ10 0
íĺ Ħë
Ġ2 5
ì´ īì§Ħ
ìĿ¸ë į°
Ġë³µìļ© ì¤ĳ
íĶĦë łĪìĿ´
Ġla meness
¥ ¨
ut ure
bl em
Ġey elid
ĠíĿ Ķ
ist ry
ĠëĤ® ìĿĮ
Ġë¹Ħìļ© ë¶Ģ
ì¶ľ íĺĪ
Ġìłķ íĺķ
ëĲ ĺëĤĺ
ìĸ µìłľ
Ġíķĺ íĬ¸
ĠìľłëıĻìĭĿ ìĹĲ
íĻĶ ëıĦ
ĠC at
ĠìĬ¤ íĳ¼
ê°Ļ ìĿĢ
Ġìľłì§Ģë Ĳĺê³ł
ĠìŀĪìľ¼ ëĭĪ
ĠAL P
ĠëĭŃ ê³łê¸°
R R
ì£¼ ìĹ°
ĠëĲ ©ëĭĪëĭ¤
i x
ìĹ °ì
´ì ķ½
ĠíķŃì²´ê°Ģ ê²ĢìĤ¬
ì¡ ´
Ġë°©ê´ĳ ë²½
êµ¬ ë¦¬
ìĽĲ íķĺìĭľëĬĶ
. >
Ħë ¦°
Ġin days
ĠìĻ¸ ìĹĲ
Ġíĺķ ê´ĳìĹ¼ìĥī
Ġê°ĲëŁī íķĺìĹ¬
Ġapp e
Ġphen obarbital
ĠP lan
az ep
ti m
ìĿ´ì§Ģì ŀ¥
Ġì§ Ħë
Ĳ ĺë©´
Ġê·¼ ì²ĺ
ĠëķĮ ëĬĶ
Ġë³´ ëĭ¤
ĠìľĦ íķ´ìĦľ
íĨµ íĻĶ
§ ¤
Ġê² °ì
ìĺ ´
Ġë´ ¤
Ġref er
Ġë¹łë ¥¸
ê ¹¨
ĠìĿ´ì Ĥ¬
ĠëĨĴ ìķĦ
Ġê²½ë¯¸ íķĺê²Į
Ġì¤ĳ ìļĶ
Ġëĭ¨ë°± ëĩ¨
d ye
Ġì¶©ë¶ ĦíŀĪ
ì§ Ħì
(+ )
ì² µ
íĥĢë ¯¼
Ġí ĭ
Ġê² ¨ëĵľë
Ġì ±Ħ
ìĿ Ģìĥī
Ġë§ ĳ
ĠL V
Ġo c
í ŀĺ
Ġì¡ °ë
Ġìł ĸ
Ġë³µ íĨµ
ĠìĹīëį© ìĿ´
¨ íĮĲ
Ġê²½êµ¬ ìłľ
Ġê°ĢëĬ¥ íķľ
Ġëĳ Ķ
ĠíķŃê²½ëł¨ ìłľ
Ġcl a
Ġê·¼ìľ¡ ëŁī
Ġë³ĢíĻĶ ëĬĶ
unc tion
Ġí Ĥ
íķ´ë³´ ê¸°ë¡ľ
ro sis
Ġìķŀ ë°ľ
³ Ģìľ¼ë¡ľ
ìŀ ĺ
ĠëĤĺë¨¸ ì§Ģ
en til
ĠìķĦí ĨłíĶ¼
Ġìłķìĥģ ìľ¼ë¡ľ
c r
Ġíķĺì ĭľ
Ġê°Ģì ¡±
Ġë¹Ħë ĮĢ
erg y
ì ±
ìĥ ´íĳ¸
Ġe cto
ĠëĤĺì Ľħì°¬
Ġë³µë§ī ìĹ¼
ĠìĭĿìļķ ëıĦ
³´ ê³ł
ĠìĻ ¸ë
Ġê¸° ëĬ¥
ĠìĥĿ ê¸´
ê°Ģë £¨
£¼ë ¡ľ
ĸĳ ìĦ±
Ġë§ĲëĿ¼ìĦ¸ ì¹ĺìķĦ
Ġì¤ĳ ìĹĲ
l er
Ġì§Ħëĭ¨ ë°Ľ
Ġìľłë ¬´
ĠìķĦíĮĮ íķ¨
Ġtor semide
Ġë¹ ¼
Ġê´Ģì°°ëĲ ĺìĸ´
ĠìĿ´ìĥģ ìĨĮê²¬
Ġc PL
ĠëĬĲëģ¼ ìĭ¬
´ë ¶Ģ
Ġë°°ë ³Ģë
Ġd ys
Ġëĸ¨ìĸ´ì §Ħ
O D
reat ment
Ġs rr
ĠìĽĲëĤ´ ìĹĲìĦľ
Ġë¹ĦêµĲ ìłģ
ĠìķĦì¹¨ ë¶ĢíĦ°
į ¨
ĠG B
Ġë¨¹ ìĿĦ
ê°Ģ ëĬĶ
Ġì¸ Ħë
Ġìłĳì¢ħ ìĿĢ
ì°¨ ìłĳì¢ħ
ìµľ ê·¼
Ġposi tive
ê¸Ī ëĭĪ
ì§Ģë Ĥ
Ġì§ģ ê²½
Ġì¤Ħìĸ´ë ĵ¬
Ġê¹ Ĭ
Ġfl ushing
Ġìĥģíĥľ ìĹĲìĦľ
ĠìļĶì²Ń ìľ¼ë¡ľ
Ġëĸ łëĬĶ
° Ģë¦°
ĠC ardi
Ġê°Ļ ìķĦ
ìĿĺì Ĥ¬
ĠìļĶ ê²ĢìĤ¬
Ġê²½ ì¶Ķ
Ġêµ¬ ì¡°
Ġìŀ¬ íıīê°Ģ
ĠN G
ì²ĺë°© ìĭĿ
ĠíķŃ êµ¬íĨł
Ġëªĩ ìĿ¼
ìł Ģì
ëģ Ĺ
Ġe ff
Ġê°ĦìĭĿ ìĿĦ
Ġ id
Ġìłķìĥģ ë²ĶìľĦ
ĠëıĻ ìĿĺ
ìĨĮ íĻĶ
ĠíķĺìĿ´ íı¬
Ġper i
ĠìĹ ´ì
ìĿĺì ĭ¬
ĠíĶ¼ë¶Ģ ê°Ģ
Ġê°Ħ ì§Ī
Ġëĵ± ìĿ´
olog y
Ġë¬¸ìłľ ê°Ģ
Ġo to
Ġë°ĽìķĦë ¨¹ìĿĮ
Ġì¹ĺì£¼ ìĹ¼
cc i
er f
ì¤ Ħ
Ġìĸ´ë ł¸
ª »
ì Ĥ´
Ī ĺ
Ġê²¬ ê°ĳ
ĠìµľëĮĢ íķľ
¡ °ë
Ġê´Ģ ìłĪë
Ġíķĺì ĭ¤
Ġn erve
Ġêµ¬ ê·ł
es ion
ĠF I
Ġechogenic ity
Ġê°ĢëģĶ ìĶ©
Ġ ~
ıĻ ë¬¼ë³ĳìĽĲ
Ġst er
ì· Įìŀ¥
Ġìłķ ì£¼ìĹ°
¬´ì ¹ĺë£Į
ĺìĸ ´ì
Ġì¹ĺë£Į ë¥¼
ê¸° ê°Ģ
Ġdox ycycline
ro st
o uld
Ġboos ting
ĠíĸĪ ëĭ¤ê³ł
nis olone
ĠìŀĪëĬĶ ì§Ģ
ĠêµĲ ìľ¡
entil ator
ĠA m
Ġìŀ Īëįĺ
ìĹ¼ ì¦Ŀ
Ġì°¨ ìłĳì¢ħ
ĠíĻķ ìĭ¤
Ġpent oxy
neum on
êµĲ ì²´
Ġìľł ì¹ĺ
Ġì§ĢëĤľ ì£¼
Ġe v
Ġiv dd
S I
Ġê°Ģ ê¹Į
D D
ĠëķĮ ë¬¸
Ġíķ´ë³ ´
Ġìĭ¤ ìĭł
Ġey edrop
Ġë³Ģì ĥģíĥľ
ìĻ Ħ
Ġê·ĵ ë°Ķ
ĠìĿ´íĽĦ ìĹĲëıĦ
Ġë³´ ëĬĶ
ĠìĦ¸ëłĪ ëĭĪìķĦ
íĦ ¸
ê¹ Ķ
H E
Ġb and
ìķĮë Ł¬ì§Ģ
Ġd ose
íĺ ľë
ĠëĪĪ ìĹĲ
us c
Ġê¸ī ê²©
Ģì§Ī íĻĺ
ve itis
ê² Ķ
Ġíĺ¸ ì¤ĳêµ¬
ìĦ ľë
Ġì¹ ´ë
I M
íķĺìĭľë ©´
ĠìĭĿìļķ ìĹĨìĿĮ
ĠìĿ´ë ²¤
Ġmainten ence
ĠìŀĲ ëıĻ
Ġaml odipine
Ġë¹ĦêµĲ ìĭľ
Ġsug ar
Ġê·Ģ ëĬĶ
B D
e in
Ġc yt
ĠìĺĪìłķ ìĿ´ë©°
Ġê°Ħëĭ´ëıĦ ê³Ħ
ĵľë łĪìĭ±
ĠìĤ Ń
íķĺë Ł¬
Ġë¦¬ ì²µ
ĠëĤ´ë ł¤
íĮ¨ íĦ´
ĠE ar
ĠíĽĦ ìĹĲëıĦ
Ġíıī ìĥģ
Ġê´Ģëł¨ ëĲľ
ect omy
mat ure
į ¤
x x
ìĿ´ìĸ ´í
Ġë² ĶìľĦ
ĠìĻ¸ ìļ©
Ġêµ¬ ëĤ´
íĶ Į
ëĭ¨ ë°±
Ġëª» ë¨¹
íķ Ħë¦°
ĠìĹ° ìŀ¥
Ġh er
ĠëĤ¨ìķĦ ìŀĪ
ĠR es
Ġì¶Ķê°Ģì ²ĺë°©
Ġë³´ì ķĦ
ell ow
Ġëª¨ë ĤŃ
Ġê¸°ì ¤Ģ
Ġì¹ĺ ìĿĢ
re g
ê°Ħë §ī
ìĸ´ë³ ´
Ġ1 7
op itant
Ġhyperech oic
r us
Ġì¢ħê´´ ëĬĶ
ľëł ģ
ĠíıīìĨĮ ìĹĲ
ì¹ ´
ìĹĲ ìĦľëıĦ
Ġëĸ¨ìĸ´ ìł¸
Ġs uture
Ħ ¤
Ġlas er
ĺë ¶ĢíĦ°
Ġìĸ¼êµ ´
Ġinf lamm
Ġìĺģìĥģ ê²ĢìĤ¬
Ġíķĺë ©°
ĠìĤ¬ìĿ´ ìĹĲ
ëĭ¤ë ¥¸
ŀ ©
Ġpat ellar
íĸĪ ìľ¼ë©°
ë° Ģ
Ġìķ¡ ì²´
e le
Ġl ist
ê³¼ ìŀ¥ëĭĺ
oc lop
ĠìĻ¸ë¶Ģ ê¸°ìĥĿì¶©
ìŀ¬ ì§Ħ
Ġê·¸ë ¦¬ê³ł
íĺĦ ìŀ¬
ëĭ¤ ìĿĮ
Ġë°° ìķ¡
Ġv ol
b d
ĠV it
Ġë² Ķ
Ġì²Ļ ì¶Ķ
ĠI I
ŀĺë ıĦ
¦¬ ê¸°ë¡ľ
Ġê´ ´ìĤ¬
Ġë¶Ī ìķĪ
Ġë¶Ħë ¬´ì¹ĺë£Į
Ġë¹Ħëĩ¨ ê¸°ê³Ħ
Ġf old
ĠíĦ °
Ġs oft
Ġë°Ľ ìľ¼ìĭ¬
Ġra te
ĠìĦ ¤
ĠìĻ¸ ìĿĮë¶Ģ
Ġê·¸ëŁ¬ë Ĥĺ
ìĿ´ ìĹ¼
ect ed
Ġ ery
Ĭ ¤ë
Ġë ĥī
Ġë³ ĢìľĦ
Ġê°Ģ íĶ¼
ëª ¨ëĭĪ
ë§Ī ëĭ¤
Ġíĺ¹ ìĭľ
Ġê¹¨ ëģĹ
Ġmethocarbam ol
Ĥ ´ì
Ġì¹ ¸
ê°Ģì ĭ¬
Ġìļ ¸
ìķĺì ĬµëĭĪëĭ¤
į °ë
Ġinf il
Ġíı¬ë ıĦë
ã ħ
Ġm ay
Ġì¤ĳëĭ¨ íķ¨
ĠK Cl
Ġcaud al
ĠE y
de x
ê¸ī ìĭĿ
ëĤ Ń
ìĿ´ë Ł¬ìĬ¤
s y
¶Ħë ¹Ħ
ĠìĨĮìĸĳê°Ĳ ìĿĢ
Ġìĵ°ë Ł¬
Ġ==== ==
Ġë Ŀ½
ĠëĤ´ìĽĲ íķĺìĭ¤
¨ë ¡Ģ
Ġvi ew
ĠìĪĺìĪł íĽĦ
Ġphen o
t m
ìĿ¼ ì£¼
Ġíĺ¸ìłĦë Ĳ¨
ĠH PI
Ġc ranial
d rome
Ġê²½ íĸ¥
¹ ĺë
íĥľë ¡ľ
Ġíķ ´ëĭ¹
ĠëĤĺíĥĢë Ĥł
Ġm uscular
ĠìĿ ¸ë
Ġë°°ë³Ģ ìĿĢ
Ġìŀ¥ ê°Ħë§ī
Ġíķĺìĺ ĢìĬµëĭĪëĭ¤
ĵľë¦¬ ê¸°ë¡ľ
ĠU PC
Ġac th
ide xx
ĠìĿ´ë Ĥ´
Ġì¤ĳ ì§Ģ
! !
Ġp le
ĠìĤ °
Ġê°Ħë ³´íĺ¸ìłľ
Ġì¡°ì ¹ĺ
ìł Ģë
Ġm icro
Ġh igh
Ġì´ Īë
ìĭĿ ìĿ´
Ġìķ½ë¨¹ ê³ł
p atient
íĹ Ī
¹ Ħí
Ġì¢ħ ê´
ĠN E
Ġê·Ģì§ Ħëĵľê¸°
Ġë§ŀ ì¶Ķ
ĠL ymph
Ġì§Ģë°© ì¢ħ
Ġ1 20
ì²´ì ĺ¨
ë°°ë ¡ľ
ëĶ ±
ĠìķĮ ê³ł
Ġt ype
6 0
Ġpro blem
íĸ Īëįĺ
Ġê¹Ģì ĨĶ
¹ Ħì
ëĤłë Ŀ¼
´ì ĭ¤
Ġì¶Ķê°Ģ íķ¨
Ġsubc utaneous
ìłĦ ì§Ģ
ĠìĹĨ ìĸ´ì
Ġì¦Ŀê°Ģ íķ¨
Ġoc ufen
Ġëĭ¨ ëĭ¨
ĠìĿ´ë²¤ íĬ¸
Ġì£¼ ì¦Ŀìĥģ
Ġìĺ¤ë ¦¬
Ġìĭłì²´ê²ĢìĤ¬ ìĥģ
Ġzonis amide
íķĺ ìĹĲ
ib le
Ġê°Ļ ìĬµëĭĪëĭ¤
Ġê´Ģë¦¬ ì¤ĳ
Ġêµ¬ ë§¤
Ġre tic
Ġbp time
ĠìľĦ ìķ¡ìĦ±
ł Į
ìķĪ ê²Ģ
ĠíĶĦ ìĦ¸
ĠR ER
Ġëĩ¨ ì¹´íħĮíĦ°
ĠìĻ ĢìĦľ
ĠíĿī ë°©
ì½Ķ ë
re ct
2 3
Ġê¸°ëł¥ ìĿ´
Ġthick en
ĠëĦ ĵ
ëĪ Īë
Ġp u
ĠìĿĺ íķ´
Ġê°Ī ìķĦìĦľ
ĠíķŃìķĶ ì¹ĺë£Į
ĠëĶ± ì§Ģ
Ġíĺ Ģ
ìľ¼ë ł¤
ia tion
Ġne ut
Ġdef ec
Ġìĥģ íĶ¼
Ġmin ìľ¼ë¡ľ
min ìľ¼ë¡ľ
ìĹ° ìłķ
Ġd ist
Ġë ¼Ī
Ġëª¨ë ¥´
ĠìĪ ľ
Ġë¬¼ë ¦¬
Ġu veitis
łĪë ©Ķì§Ħ
ĠíĥĪ ìŀ¥
ìĿ Ģì§Ģ
ì¢ħ ëĮĢ
ĠìĭŃ ìĿ´ì§Ģìŀ¥
Ġê¸īìĹ¬ ì¤ĳ
Ġì§Ģì¼ľë³´ ê¸°ë¡ľ
ĠíĨµìĽĲ ì¹ĺë£Į
Ĭ ¸ëĿ¼
Ġamox icillin
ìĭ¤ ìĹĲìĦľ
íķĺì§Ģ ëĬĶ
ĠìĿ¸í ĶĮë
Ġì²´ì¤ĳ ìĿ´
íĬ¹ìĿ´ì Ĥ¬íķŃ
ľë ¦¬
Ġë°°ëĩ¨ ëŁī
ìĨ ľ
ram ide
Ġê³Ħíļį ìŀĦ
ime r
ĠìĿ¼ ìłķ
Ġu b
om i
ĠíĸĪ ëĬĶëį°
ĳ ìĬ¤ë
ĠO b
ĠìķĮë ł¤ë
ìĿ¸ ê³Ħ
íĺķ ìĦ±
==== ====
¡Į ìĿĮ
ë°© ê´ĳ
ĠA n
¶ Ģë¶Ħ
ĠìĿ´íĽĦ ìĹĲëĬĶ
Ġê°ľìĿ¸ ìĤ¬ë£Į
ĠìłĢ ìĹĲì½Ķ
Ġtra uma
Ġëª¸ ìĿĦ
ĠíĮ¨ë ĵľ
Ġin duction
if f
Ġë³´í Ĩµ
íģ¬ ë¡ľ
³ ¼
Ġíĺ¼ ìŀĲ
íĳ ¸ë
Ķë Ŀ¼ëıĦ
Ġë³´íĺ¸ìŀĲëĭĺ ê»ĺ
Ġìĭ¬ íķĺê³ł
Ġë§Į ìł¸
Ġy ellow
es k
e ren
ìķĪ ìķ½
Ġì£¼ìĤ¬ ê¸°
ìķĺ ëĬĶëį°
ìº ¡ìĬĲ
Ġê³¨ ìłĪë
t a
ĭ ŃëĭĪëĭ¤
Ġìłľ ê±°ì
Ġë§ŀ ê³ł
ë³´ ëĭ¤ëĬĶ
ê³ ¡
¡°ë Ķľ
ì§Ģë ¡ľ
Ġtime po
Ġì¶ ķ
Ġd imer
ĠíĽĦë °©
ĠìĿ¸íĶĮë £¨
ê·ľ ì¹Ļ
Ġê·¸ë łĩ
Ġëļľëł· íķľ
Ġì§Ħë£Į ìłĦ
Ġ enteritis
Ġëĭ¨ ê³Ħ
ĠìľĦ ìķ¡
Ġì¶ ľëłģ
íķĺìĭľ ê¸°ë¡ľ
Ġê·Ģì ĽĲ
Ġ6 0
Ġb t
´í Ķ
Ġë¶Ī ê°ĢëĬ¥
ĠíĻľë °ľ
ìļ ¸ë
Ġl esion
et am
Ġê±´ì ¡°
ĠìĪĺìĪł ìĿĢ
Ġëª¨ë¥´ì ĭ¬
Ġë¨¹ ìĿ´
ĠëĤ´ë ¶Ħë¹Ħ
ĠìĹ¼ì¦Ŀ ìĪĺì¹ĺ
Ġm r
n it
Ġë¨¹ìĿ´ì §Ģ
ost ril
e th
ì£¼ ìĭľê³ł
Ġë§ Įë
ĠêµĲìłķ ìĪł
ìłģ ìĿ´
Ġë¹ł ì§Ĳ
íŀ Īë
Ġì¢ħê´´ ê°Ģ
ĠëĬ ¦
Ġì² ł
ĠëĮĢíķ´ìĦľ ëĬĶ
Ġë ½
ìķ ŀ
Ġìŀ¬ ê²ĢìĤ¬
íķĺì §Ģë§Į
ëķĮ ë¬¸ìĹĲ
Ġê²¨ëĵľë ŀĳìĿ´
Ġc g
ĠìĹĲ ëĤłëĿ¼
Ġìľłì§Ģë Ĳ¨
ìĿ´ë ¬¼
ĠBP time
ìķĦí ĮĮ
íķĺë ¡ľ
ract ure
Ġk er
¤ Ģìľ¼ë¡ľ
er c
ĠíĻį ìĹ°ìłķ
íķ Ģ
Ġê¸° ìłĪ
ĠìŀĪ ëĭ¤
Ġhalf sol
ĠE ye
íĻķ ìĿ¸ëĲ
Ġê²½ ë¶Ģ
Ġë¶Ī ê·ľì¹Ļ
ì§Ģì Ĩį
ë ´ī
ìĥī ì¦Ŀ
ì§Ħë£Į ìłĦ
Ġì¦Ŀìĥģ ìĿĦ
ĠìĪĺì ĸĳìĦ±
ĠíķŃ ìĥģ
ĠíıĲ ìĩ
ra te
íĮ ½ë§Į
Ġêµ¬íĨł íķ¨
Ġíı¬ íĶ¼
ĠíĬ¹ìĿ´ ìłģìĿ¸
Ġb ul
Ġì¢ĭ ìĿĦ
ĠìĥĿ íĻľ
Ġtra ns
Ġìĥ ´íĳ¸
łë ¶Ħ
ĠP CR
Ġê°Ģì Ĭ
Ġìĸ´ ê¸ĪëĭĪ
Ġf entanyl
Ġìķ½ ìļ©
Ġìķ½ ë§Į
Ġb le
Ġìľłì§ĢìĨį ëıĦë¡ľ
Ġìĺ¤ ìĭľë©´
Ġnucle ar
Ġê·¸ ìĻ¸
Ġìŀĺë ¨¹ê³ł
neumon ia
Ġê°Ĳ ê¸°
ĠU B
ostril s
Ġìŀĺì §Ģë
oclop ramide
Ġëĭ¤ìĿĮ ìĹĲ
ĠìĹĨ ìĹĪìľ¼ëĤĺ
ì¢ħ ë£Į
ĠìĥĿ ê²¼
Ġlip ase
ĠìŀĪ ì§Ģë§Į
Ġe s
Ġo he
Ġë³´ìĺ ĢìĿĮ
ìĭľë įĺ
Ġëĵ¤ ìĸ´ì
©ķ íĥĢ
Ġc ap
ħĶ ìķ¼
Ġê°Ģì Ħľ
A L
Ġres ult
Ġì ĨĶ
Ġser um
ë ĳĲ
Ġo x
c op
Ġf ollow
Ġra n
Ġìĸĳíĺ¸ íķĺê³ł
ĠëĤĺìĺ¤ ëĬĶ
Ġìĸĳìĥģ ìľ¼ë¡ľ
er ial
up ture
on azole
ĠIV DD
ĠíĶ¼ë¶Ģ ëĬĶ
Ġë³ĳ ë¦¬
ĠìłĦë Ĥł
Ġê·ĵë°Ķ íĢ´
Ġë§Īì·¨ ìłĦ
Ġë³µê°ķ ëĤ´
Ġl ob
di mer
Ġë°ľìĥĿ íķľ
ĠìķĦí ı¬
Ġìĭ¶ ìĸ´
ĠëĪ Ħë
ĠìĺĨ êµ¬ë¦¬
ì¡ °ì
m uscular
Ġë¶Ģë¶Ħ ìĹĲ
ĠìĥĪë °Ģë¦°
ìĨĮ ëıħ
Ġì§Ģ íĺĪ
íķĺì Ħ¸ìļĶ
Ġsyn drome
Ġë°°ë ¡ľ
Ġì§Īë ³ĳ
¨ ë¶Ģ
u k
ìľĦë ¶Ģ
ĠëĮĢì ŀ¥
ĠìŀĪ ëĭ¤ê°Ģ
ëĭ ´ìľ¼ë¡ľ
Ġë¨¹ ìĿ¼
ĠëĤ´ë³µìķ½ ìĿĢ
ĠëĤĺìĺ ¤ë©´
ìŀ ĺë
ìķĺìľ¼ë ©°
Ġê°Ĳ ìĤ¬
Ġco cci
íĨµ ì¦Ŀ
Ġsc ler
ĠìĤ°ì±ħ ìĭľ
ĠíķĺíĬ¸ ê°Ģëĵľ
íĮĮ íĸī
ĠíĺĦì¦Ŀ ê²½ê³¼
Ġê¸°ì´Ī ìłĳì¢ħ
ì° ½
Ġsiz e
ê· Ģì
Ġìłģ ìĿĢ
Ġì Ĩ
ĠíĻ ĺìŀ
ĠìķħíĻĶ ìĭľ
ĨĮ ëıħ
ìĿĢë į°
íķĺê¸°ë¡ľ íķ¨
¶ľ íĺĪ
ĠìĪł ìĭĿ
Ġë°°ë³Ģë °°ëĩ¨
c ime
Ġëĭ¤ìĿĮ ë²Ī
Ġor nipural
ê³ł ë
Ġê²ĥ ëıĦ
ì¤ĳ ìĹĲ
Ġery th
Ġa u
íķ´ë ıĦ
ì» ¨ëĶĶìħĺ
ìķĺ ëĭ¤ê³ł
ìĹĶ ìŀĲ
ìĹĨ ê³ł
B P
Ġë¶ Ģìľ
ĠìľłìĤ¬ íķĺê²Į
d og
¹Ħ ìļ©
ĠëĤĺì ĺ¨
ĠM R
iz ure
* *
Ġíĺ Ħë
Ġêµ¬ëĤ´ ìĹ¼
ìĿ¼ì£¼ ìĿ¼
ìłķ ì²´
ê¹ Ĳ
Ġhem orrh
ë ©´
Ġbronch itis
Ġê² Į
ĠìĿ´ë ¯¸
ĠìĻ¸ ì¶ľ
ĠìĦľ íĺľë
íĸĪ ëĬĶëį°
ëĭ Ŀ
ì²´ì ¤ĳ
Ġëľ ¨
ìĿ´ìĸ´í Ĭ¸
ĠìĿ´í Ĭ¸ëĿ¼
Ġm ammary
ìĤ ¼
ĠíĨłë ¸Įë
C P
Ġd iff
ti val
Ġìĭ¬ìŀ¥ ë³ĳ
ìĹŃ ì§Ī
atheter ization
Ġ un
Ġl ik
I U
ĠìĬ¤ íĶĦëłĪìĿ´
Ġpap ule
Ġn one
íĺ ¸ë
ìĿ´ì ĭł
íķĺë £¨
ĠìĤŃ ëª¨
ĠìĹ¬ ìłĦ
ĠìľĦì £¼ë¡ľ
Ġê²ĢìĤ¬ ìĻĢ
Ġì²Ń ìĥīì¦Ŀ
Ġì¹´íĨ¡ ë°ľìĨ¡ìĻĦë£Į
ĵľë ¦´
Ġhyper tension
Ġê¸°ê´Ģì§Ģ ìĹ¼
ì§Ģì ķĦ
ĠìĤ¬ëŀĮ ìĿĮìĭĿ
ì ī
ĠëĺĲ íķľ
reg ular
Ġp ending
Ġìĩ ¼
ic ial
Ġìĺģìĸĳ ìłľ
duc ed
Ġëĭ´ëĭ¹ ìĿĺ
o ad
p t
ìĭľ ê¸°
ĠëĬĺ ìĹĪìĿĮ
ł µ
ìľ Ħë¡ľ
Ġe pi
Ġi i
Ġacetyl cyst
ĠìĪĺ ìĿĺìĤ¬
ìĪĺì Īłë
ĠìŀĲ ëĬĶ
Ġë¯¸ ìĨĮ
ì§Ģì ķĬ
Ġìĸ¸ ê¸ī
olog ic
Ġs w
ìĨ Ŀ
che al
Ġìĺ ¬ë
atin ine
ëĭ¹ ìĭľ
í Ĥ´
Ġhyp oth
Ġìĭ¬ ë¶ĢìłĦ
ìĬ¤ íĭ±
ì¹´íĨ¡ ë°ľìĨ¡ìĻĦë£Į
ĠìĨĮ ë³
Ġcl ind
Ġpat ella
ìĨĮ ìĹ¼
Ġíķĺìħ¨ ìĿĮ
Ġfi el
ĠìŀĲë°ľë °°ëĩ¨
ìĥģ ìĹĲìĦľ
r ug
ĠìĤ ¶
¼ ìĬ
ìĬ¤ íĬ¸
ì¡° ì§ģ
ĠìĹŃ ë¥ĺ
Ġs ame
Ġh ind
ĠL A
Ġr upture
Ġìĸĳíĺ¸ íĸĪìĿĮ
Ġë§Į ì§Ģë©´
ĠA M
Ġê°ľêµ¬ íĺ¸íĿ¡
ìķ½ ìĿĦ
ĠìłĲ ìķ¡ìĦ±
S A
ĳĲë ²Ī
erc ise
ìĿ´ ìĹĪìĿĮ
Ġìŀ Īë
Ġt ach
ĠìĨĮ ë³Ģë
us e
ê°Ģì ĭľ
Ġì¦Ŀ ìĦ¸
Ġê´Ģì ĭ¬
ëĵľë ł¤
ĠìĿ´ë²Ī ì£¼
ĠìĦ¤ëªħë ĵľëł¸ìĬµëĭĪëĭ¤
Ġìĥģ ë¶Ģ
§Ģì ķĬ
ì¢ĭ ìĿĮ
Ļ ĢìĦľ
ë ĮĢë
Ġrec ord
Ġê²°ë§ī ì¶©íĺĪ
Ġsh ould
Ġë³´ ìĿ´
ìĭ Ń
Ġíģ¬ë łĪë©Ķì§Ħ
Ġpro b
ĠìŀĪ ëĬĶëį°
ĠìĪĺì¹ĺ ëĬĶ
ruc t
omi ting
êµ °ëį°
ĠíĿ ĳ
Ġë¨¹ìĿ´ì ĭľê³ł
Ġmat erial
Ġìłľê±° íķ¨
Ġë©´ìĹŃ ìĸµìłľ
ëį Ķ
T M
Ġw ax
pl er
Ġëľ ¯
Ġìĭ¬ íķ´ìĦľ
Ġëĭ¤ëħ Ģì
Ġë ıĦë
Ġmm f
ì¶Ķ ê°Ģ
ĠìĦŀ ìĹ¬
³Ģ íĻĶ
Ġìŀ ¦
Ġë³¸ìĽĲ ìľ¼ë¡ľ
Ġìĸ¼ë §Ī
Ġdepress ed
en al
Ġë¶ ī
Ġëª ¸ë
Ġ- "
Ġêµ¬íĨł ì¦Ŀìĥģ
ĠíĸĪ ìĬµëĭĪëĭ¤
Ġì¤ĳëĵ±ëıĦ ìĿĺ
Ġeyedrop s
ĠíĻķìĿ¸ íķĺê³ł
ë ŀĢ
ìĭľ ìŀĳ
¤ĳ ìĹĲ
Ġë¿ Įë
ĠìĪĺì ¶ķ
ìĿ¸ ìĦ±
ĠìķĦì ĺĪ
ĠìĹĲì½Ķ ìĦ±
op pler
Ġìµľ ì¢ħ
ĠìķĦì ¡°ëĶľ
Ġê¶Įìľłë ĵľë¦¼
ìĸ´ë³ ´ìŀĦ
Ġì¤Ģ íķ´
Ġíı¬ëıĦë §īìĹ¼
ĠíĬ¹ìĿ´ ìłģìĿ´ì§Ģ
ut amine
ľ ł
ĠìķĪì¢ĭ ìķĦ
Ġvol ume
Ġcr ust
íļ ŁìĪĺ
ĠìĬµ ì§Ħ
Ġì¼Ģ ìĿ´ì§Ģ
ĠíķĦìļĶ íķĺëĭ¤ê³ł
ĠE X
Ġi bd
Ģ ëĭ¤ê³ł
Ķë ĶĶ
ĠëıĻìĿ¼ íķľ
amo tidine
Ġam in
ĠëĳĲë ĵľëŁ¬
Ġìŀĺë ¨¹
ì½Ķë ¦°
ì£¼ ìĭ¤
Ġsil y
ĠíĶĦë łĪë
ectrol yte
ì ¯¤
Ġì¤ĳ ëıħ
íĭ °
Ġëį°ëł¤ìĺ¤ ìĭ¬
junc tival
Ġfel ine
ìķ Ļ
im ary
ĠëıĻë°ĺ íķľ
Ġscler osis
Ġìķł ê²¬
an s
ĠíķŃêµ¬íĨł ìłľ
Ġë¹ Ħì
Ġê·Ģì ¹ĺë£Į
Ġë° ĢëıĦ
ĠN asal
ëıĦ íı¬
Ġob jective
Ġdors al
Ġë§ĳ ìĿĢ
ëĲ ĺì
ĠíĥĢë ³ĳìĽĲìĹĲìĦľ
Ġê³ ¤ëŀĢ
g th
Ġam c
ĠíĶ¼ë¶Ģ ìĹĲ
Ġd o
Ġëĭ¤ ëĭĺ
Ĩį ìĦ±
ĠëĪĪê¼½ ìĿ´
ìŀĳ ìĬ¤ë
di b
p ro
Ġë¬¼ ì§Ī
ıĻ ë§¥
Ġíķł ìĿ¸
Ġi r
Ġë°ĺìĿĳ ìĿ´
Ġappe ti
ê¸° ê³ł
Ġì¢ Ģë
Ġcom ple
(+ +)
Ġ1 9
ìķ ĺëįĺ
Ġì¹ ¨ë
Ġure ter
íķĺìĭł ëĭ¤ê³ł
ĠìłĦ ê³¼
p ing
Ġê »
Ġpat ch
¦ ´ëķĮ
íĺ¸íĿ¡ ê¸°
yroid ism
I N
en i
¸Į ë¡ľ
ĠíķŃ ì§Ħ
st e
ê¸° ê´Ģ
Ġíİ ĺë
Ġe od
Ġìľłì§ĢìĨį ëıĦ
Ġë¨¹ ìĿ´ëĬĶ
Ġlymph node
ì½ ľ
f old
d l
Ġë³´íĺ¸ìŀĲë¶Ħ ê»ĺ
ĠìĬ¤ë ©ķíĥĢ
Ġder matitis
rac etam
ê³ł ê³Ħ
Ġë¬¸ ìłľë¡ľ
Ġë¯¸ìķ½ íķĺê²Į
Ġc ar
² Ħ
Ġë łĪ
Ġê·¸ë ıĻìķĪ
ĠìĿ´ì ķ¼
Ġê³ł íĺĪìķķ
´ìŀ ħëĭĪëĭ¤
Ġdex a
Ġsuc tion
di tion
Ġan ti
ĠìĹ ĳìĬ¤ë
Ġê· ¹
ıĻ ë¬¼ë³ĳìĽĲìĹĲìĦľ
Ġì°½ ë°±
ê°Ĳ ëŁī
ìĹĨ ìľ¼ë©´
¥´ ê²Į
g n
ìĻ ¼ìª½
Ġëĭ ¬ë
Ġsup erf
ëĭ¤ íķ¨
CA L
Ġmod e
ĠíıĲ íı¬
Ġë¨¹ ìĿ¸
th el
Ġì¹ĺë£Į ë°ĺìĿĳ
ĠìĹ İ
Ġë¹Ħìļ© ìĿĢ
ë§¥ ìĬ¤
ĠëłĪìĿ´ ìł¸
Ġcl ient
Ġëĭ¤ ìĿ´ìĸ´íĬ¸
ĠìĿ¸íĶĮë£¨ ìĹĶìŀĲ
ĠìĭĿìļķ ì´īì§Ħ
ĠëĤ´ ìĹĲìĦľ
ĠSp O
m un
ox ic
® ¨
ĠJ oint
ĠìĨĮ ê³łê¸°
ac ity
Ġë°ľìĥĿ íķł
ĠìĨĮê²¬ ìĿ´
ĠìĿ´ì ĸ
k p
ëģ Ļ
ĠìĿ´ìłĦ ê²ĢìĤ¬
3 7
Ħ Ĳ
ĠO HE
Ġì§Ģê°Ħ ìĹ¼
ë§Ī ê²Ķ
ĠëĴ·ëĭ¤ë¦¬ ë¥¼
Ġíģ¬ê¸° ìĿĺ
Ġê´Ģì°°ëĲ ĺë©°
ĠìĿĺë¢ °ì
Ġë¶Ģë Ķ
Ġenrof loxacine
Ġëĭ¤ë §Į
Ĳ ĺë©°
Ġë°°ëĩ¨ ëĬĶ
Ģì§Ħ ê²½
ĠìĿĺìĭ¬ ëĲĺìĸ´
ĠD og
Ġì²ĺì¹ĺì ĭľ
Ġl oss
sc opic
ĠRes piratory
ĠOb jective
Ġad en
Ġë°ĸ ìĹĲ
ĠìĨĶ ì½Ķë¦°
t ed
ê±°ë ¦¬ê³ł
ĠìŀĲ ë£Į
Ġm ir
Ġech o
on g
ĠëĤ Ļ
ĺë §Į
ĠF L
Ġen v
ì¢ħ íķ©
ĠìķĪëĤ´ íķ´ëĵľë¦¼
ê³³ ëĭĪ
Ġë Ĥ¬
c ent
te eth
Ġì¢Ģë įĶ
Ġv ë¡ľ
ĠìĹĨ ìĹĪê³ł
ĠìĦľíĺľë ¶Ģ
Ġurin ary
ì·Įìŀ¥ ìĹ¼
Ġë ¥¼
arc oma
Ġst ren
Ġì§ĢëĤ´ ê³ł
Ġì£¼ìĤ¬ ì²ĺì¹ĺ
³ ´ë
I NA
Ġìŀł ê¹Ĳ
Ġcardi ovascular
ĺë Łī
Ġsign s
Ġë¶ Ģë¶
Ġhyd ro
ĠN erve
ë Ŀ¼
Ġf ree
ĠìĨĮëıħ ìķ½
ti racetam
e x
ĠíĮ ½ë§Į
Ġë³´ìĹ¬ ìĦľ
£¼ë ©´
Ġê¸īìĹ¬ ìĭľ
ìłķ ì§Ģ
ìľ¼ ëĭĪ
azep ril
Ġìĸ ķ
ëĭ¤ ëĩ¨
ìĨĮ ëŁī
Ġê³łëł¤ íķł
Ġìŀ ¤ìĿĮ
íķ´ìķ¼ íķł
Ġf ore
ëıĦ ìĿĺ
Ġìĸĳìĥģ ìĿĢ
Ġpro l
ìĦ ¼
Ġme l
Ġë¶Īê·ł íĺķ
Ġex ercise
Ġë³´ ëĭĪ
ìĿ´ ìĹĪìľ¼ëĤĺ
ê²ĥ ëıĦ
ĠìķĦíĮĮ íķĺëĬĶ
Ġë§Ī ìĿ´
Ġchol ang
Ġhypo all
ì¹ ľ
ĠLymph node
ìĭľ íĤ¤
ĠíĮ¨ íĦ´
ĠëĮ ģ
( #
ĠíĦ °ë
ëĬĶ ëĭ¤ê³ł
Ġìłģ ì¶ľ
ment ation
ĠCardi ovascular
ĠëĦ£ ê³ł
Ġit ra
Ġop acity
Ġìŀ¬ê²Ģì ĭľ
oc ele
Ġm it
Ġcont rol
Ġëģ Ļ
Ġë¹ĪíĺĪ ìĪĺì¹ĺ
ĠìĤ°ìĨĮ ê³µê¸ī
Ġmal assezia
ë¨¹ ê³ł
Ġê²Ģ ìĿĢìĥī
if ication
µ ìĹĲìĦľ
Ġbil at
Ġíĳ ľ
Y SI
ĠìĿ´ ìĹĲ
op rost
Ġë°ľë ª©
Ŀ¼ë ©´
ĠìĿ´ë ıĦë
ĠìłĦë ¦½
Ġë¬´ë ¦¬
ic h
Ġì²´íĳ ľ
ĠìĹ¬ ìŀĲ
Ġì¢ ģ
Ģìĸ ´ì
Ġëĭ¤ë ¥¸ë
Ġt dx
ìĨĮ íĺĪì¦Ŀ
ĠìĤ°ì±ħ ìĿĢ
Ġket amine
ê°ľ ìĦł
Ġìµľê·¼ ìĹĲëĬĶ
Ġì±Ļê²¨ë ĵľë¦¼
ĠìºĶ ìĹĲ
Ġm y
íĻĶ ìŀ¥
Ġì¢ħ ì¢ħ
í į¼
ìł ¸ë
Ł¬ ìĽĮ
ĠEX AM
Ġì¦Ŀìĥģ ë°ľ
C O
Ġp i
Ġìłģê·¹ ìłģìĿ¸
Ġì°¨ ìĿ´
Ġ idexx
o res
ĠëĲ ĺë©´
z ep
ìķ¼ ê°Ħ
Ġë¶Ī ìķĪìłķ
YSI CAL
ĠEXAM INA
Ġe mergency
Ġì² łë¶Ħ
ĠìłķíĻķ íŀĪ
ĠEXAMINA TION
Ġìłķìĥģ ìłģìľ¼ë¡ľ
ĠìŀĲë°ľ ìĿĮ
Ġhepat opathy
ë ĶĶ
ìļ ±
Ġë§ Ĳë
Ġê¹ Ģì§Ħê²½
Ġìŀħ ëł¥
Ġê¸ĪìĿ¼ ìĿĢ
Ġst t
Ġíĺ¸íĿ¡ ìĿĢ
Ġìľ¡ ìķĦì
ìĿĮ ìĺģ
ĠìŀĪ ìĹĪëĭ¤ê³ł
rom b
ì²ľ íŀĪ
ĠíıĲ ë¶Ģì¢ħ
Ġë³µë¶Ģ íĮ½ë§Į
4 2
gen erative
Ġstren gth
S S
le v
ĠìĦł íĥĿ
1 20
L t
ê³ł íĺĪìķķ
ë³´ ê³ł
ê°Ģ ê³ł
ĠëĬĺìĸ ´ëĤ
³ Ħ
ì ĵ
ìĥģ íĻ©
ĺë ©´ìĦľ
ĵľë ¦°
Ġë©Ķ ìĿ¼
Ġìŀ Ħí
ĠëĶ Ľ
az ine
Ġë¶Ģë¶Ħ ìĿĢ
ĠëĨĴ ê²Į
¯¸ë ħ¸
ĺ ¤ë
Ġcoll apse
Ġmet oclopramide
¨ë ²ł
ĠíĶĦë¡ľ íı¬
² ľ
ti ple
Ġë¨¹ ëįĺ
og en
ĠìĭĿìļķ ìĸĳíĺ¸
ëł ¬
Ġë² łë
Ġir regular
ĠG GT
ë Ŀ¼ëıĦ
Ġë´ ¤ìĿĮ
Ġíĺ¸ìłĦë Ĳĺ
ìĿ´ì §Ģë§Į
CV IM
² ³
ĠìĤ¬ë£Į ë¡ľ
v im
Ġë¶ĢìľĦ ìĹĲ
Ġë¬¸ ìłľë
ĠìķĬ ê²Į
ĠíĶ¼ë ª¨
Ġre m
ĠìķĦëĭĪë Ŀ¼
Ġìĸĳ ìĿ´
í Ĥ¬
ëĭ ī
ķ Ħë
ĠìļĶ ëıĦë
Ġë°Ķë Ģ
Ġë°° ê°Ģ
Ġëª» íķĺìĭ¬
íĽĦë ¶ĢíĦ°
Ġf ip
Ġë° ĳ
ĠìķĬ ëıĦë¡Ŀ
Ġê±´ìĤ¬ë£Į ìĹĲ
ĠëģĻ ëģĻ
T E
Ħ ľëıĦ
ìĦ Ń
ĠìľłìĤ¬ íķ¨
íĨ ¤
opath ic
Ġd ìºĶ
ĠìŀĪ ìĹĪëįĺ
ĠìĽĲ íĺķ
Ġíķĺìĺ Ģìľ¼ëĤĺ
ļ Ŀ
ĠìĿ´ë ł¥
i es
Ġ3 5
Ġëĵ± ìľ¼ë¡ľ
ĠëĶ± ëĶ±
b ody
ĠìķĪ ìª½
íĭ°ë ®¨
Ġë ¸Įë¡ľ
ë°ľ ìŀĳ
ìĽ Ķ
íĿ ĺë
v it
ol ar
Ġë¬¼ ì²´ë
ë³ ´ë
Ġëĭ¹ ë¶Ģë
íķĺ ëĬĶëį°
Ġì£¼ë ©´
RI S
er ma
Ġcla v
ĠìĭĿ íĽĦ
Ġì±Ļ ê²¨
ĠìĿ´ ê°ľ
ĠíĻ Ķë
ram ine
ëıĦë §Ĳ
s ti
Ġëĭ¨ ìķ½
Ġê°ĢëĬ¥ìĦ± ìĹĲ
ë² ł
Ġë¬¼ë ıĦ
Ġê³¼ ìĿ¼
íģ ´ë¡ľ
i osis
ëĪĪë ¬¼
Ġì²ľ ì²ľíŀĪ
ra in
Ġdob u
s oflurane
Ġt bil
ĠìĪĺìĪłë ¶ĢìľĦ
Ġì¶ľ ìĤ°
¬´ ê²Į
Ġpy ometra
zep am
ĠìķĪì¢ĭ ìĿĮ
ĠíĶĦë¡ľíı¬ íı´
ĠëĴ ¤ë¡ľ
Ġíķĺ ëĬĶëį°
Ġì§ģ ìŀ¥
ĠA ST
í ŀĮ
Ġê°ľë ³µ
ĠìŀħìĽĲ ì²ĺì¹ĺ
íİ ĺë
ìĥ ĺ
/ /
ĠCl ient
Ġa o
ĠD azzle
ĠG I
ĠëıĻ ìĺģìĥģ
ĠëĲ ĺì
Ġê°ľìĦłë Ĳľ
Ġì¢ħ ë¥ĺ
nit ol
Ġhemorrh age
Ġal kp
Ġìłģ ìĿ´
ĠëĮĢì ²
u res
Ġs am
Ġê²Ģ ìĿĢ
ĠìŀħìĽĲ ìŀ¥
ĠF uro
Ġë³´ ëĭ¤ëĬĶ
¯¸ ê²½
ĠìĨĮê²¬ ìĦľ
Ġê²ĢìĤ¬ ìĭľ
ê±°ë ¦¬
ìł ¤
ĠíĻķìĿ¸ëĲ ľ
Ġband age
ul ation
Ġbid days
Ġì¹ĺìĿĢ ìĹ¼
Ġíģ¬ê¸° ê°Ģ
Ġ tib
Ġen l
ĠìłĦ ìĹ½
as tration
Ġê°Ħ ëĭ¨
ìĤ°ì ±ħ
d ìºĶ
Ġo ste
Ġmet ast
Ġêµ¬íĨł ê°Ģ
Ġcre atinine
a id
ì£¼ ê³ł
¸ëĿ¼ ìĿ´
Ġê·¸ë ŀĺëıĦ
Ġê´Ģì°°ëĲĺ ìĹĪìĬµëĭĪëĭ¤
Ġë© į
Ġc ode
oc i
oprost ol
ĠìĦĿ ìħ
at ory
er m
Ġcl in
Ġìĭ¬ ì´Ī
ĠíĿĶ ìłģ
ìĹĪ ëĭ¤
ìĿ´ë Ŀ¼ëıĦ
Ġìľłì§Ģ íķĺê³ł
Ġìŀĺë Ŀ¼
ŀ Ģì
Ġth orax
sa a
Ġë¹ Īë
ocyt osis
Ġvit re
Ġê º
Ġíıīê°Ģ ìĹĲìĦľ
Ġëĭ¤ìĿĮ ëĤł
ĠI BD
Ġì» ¨ë²ł
ĠìĤ½ ìŀħ
Ġë¶Ģì ¡±
ĠìłĲ ìłģ
į ĶëĿ¼ëıĦ
íĥ Ĳ
ê²© ëıĻ
ìŀĪ ê³ł
Ġìĺ¤ëĬ ĺë¶ĢíĦ°
Ġê·Ģì ĥģíĥľ
Ġë¬´ë ¥¸
ĠìĨ¡ ê³³ëĭĪ
íķĺìħ¨ ìĬµëĭĪëĭ¤
ĠìĤ¬ë£Į ë§Į
´ ¤
al ing
Ġìī ¬
Ġìłķ ë¦¬
G C
Ġì£¼ ìĭĿ
Ġha ve
la uc
cop e
pe bral
Ġì¦Ŀ ìĭĿ
Ġíıīìĥģ ìĭľ
ìĿ´ë ©´ìĦľ
ĠëĤĺë ¹ł
Ġam o
Ġê´ľì°® ìķĦ
ĠëĤĻ ìĥģ
Ġê ½
Ħ Ī
ĠíĿĶë ĵ¤ë
Ġìĸ´ë łµ
ìķĮë Ł¬
ĠìĹĨ ìĹĪëĭ¤ê³ł
f uro
Ġb one
CT H
Ġ ic
Ġëĭ ¨ë
Ġac vim
ĠëĤ® ìĿĢ
íĭ°ë ²ł
Ġë¨¹ìĿ´ì ĭ¤
Ġë¬½ ìĿĢ
Ĥ ´ë
ĠìłĦì ¹¨
ĠD is
Ġìĭľ ìłĲ
ĠìĪĺìĪł ê¸°ë¡Ŀ
Ġë³´ì ķ
Ġë¹Ħí ĭĢ
ĠS RR
íĺ ĳì°©
ë²Ī ì§¸
Ġìĭ«ìĸ´ íķ¨
¡ ¸
Ġn v
§Īë £¨
r id
azol am
ĠíĶ¼ë¶Ģì ĥģíĥľ
w eek
íķĺì §Ħ
Ġì§ĳìĹĲìĦľ ëĬĶ
Ġìłķ ë°Ģ
ĠìĺĪ ìłĦ
Ġs ym
Ġë³´ ìłķ
íģ¬ ê¸°
Ġprotein uria
ĠíĽ ¼ë¡ľ
Ġw h
Ġë¨¹ìĺ ĢìĿĮ
Ġser ra
lauc oma
ĠìłĦì ¯¤
Ġben azepril
ìļĶ ì²Ń
ĸĳ íĺ¸
Ġpr imary
ħ¨ ëĭ¤ê³ł
ĠëĶ¸ ê¸°
Ġíķľ ìª½
Ġì¦Ŀìĥģë°ľ íĺĦ
Ġëĭ¤ ë°ľìĦ±
Ġì¡° ê¸Īë
Ġë³ĳë³Ģ ìĿĢ
Ġi f
Ġì¤ĳëĭ¨ íķĺê³ł
Ġíĥ Ĳ
Ġë§İ ìķĦ
ĠëĨ Ģë
íķ´ë³ ¼
Ġtime sid
c bc
Ġê³µ ê¸°
ress ure
op enia
Ġìĺµ íĭ°ë®¨
Ġì²ł ìłĢ
ĠëĨ ĵ
Ġne bul
Ġi u
Ġle v
ĠíĶ¼íķĺìĪĺìķ¡ time
Ġê¸° ê°Ħ
Ġsid ë¡ľ
ì§ĳ ìĹĲìĦľ
Ġappeti te
Ġìķ½ ìĿ´
ë³ĳ ì¦Ŀ
ĠìĹ¼ì¦Ŀ ìĿ´
Ġ til
ĠìĤ¬ìļ© íķĺìĹ¬
Ġto b
Ġì¶© ë¶Ħ
² ¨íĮĲ
Ĥ ¨
íķ ľë²Ī
íĶ Ħì
ĠëĤĺìķĦ ì§Ĳ
Ġìĸ´ ê¹¨
Ġì§§ ê²Į
Ġìł ĦíĽĦ
ĠM en
ĠìŀĪ ìĹĪê³ł
ter na
o u
ì§ ľ
ĠS ystemic
ª¨ëĭĪ íĦ°ë§ģ
Ġë¨¹ ìľ¼ëł¤ê³ł
ìĭ łë
ĠíĿ¬ ë§Ŀ
Ġë³´ ìĿ´ë©´
Ġëĭ¨ ìĪľ
ĠìłĪ íıĲ
Ġë°°ëĩ¨ ê³¤ëŀĢ
om ment
Ġê±°ë¶Ģ ê°Ĳ
ame th
Ġê°Ĳ ìķĪ
ro c
Ġìĸ´ëĸ ¤
Ġíķĺì ĭľë
ĠìĹ¬ë ¦Ħ
Ġspl enic
men d
Ġcpl i
Ġìĺģ ìĹŃ
Ġse izure
ë¹ Ī
Ġë¶Ģ ëĭ´
ĠìľłìĤ¬ íķľ
ĠìĨĮë¦¬ ê°Ģ
¡ł íĬ¸ëĿ¼
ĠìľĦì ¶ķ
an cre
ìĿ´ì ĻĢ
Ġê°ľ ê»Į
ķĮë Ł¬ì§Ģ
ê° Ħì
ĠëĶ °
i pi
Ġê² Ĳ
Ġì¤ĳ ìĿ´ë©°
em as
ĠìĹ¬ë Ł¬ë
Ġë³ Ħë¡ľ
ĠìĺĪ ìłĦìĹĲ
ĠìĹ° ê²°
íģ ¼
ĠB T
2 1
Ġíĩ´ìĽĲ ìĺĪìłķ
Ġad d
ĠëĤ´ê³¼ ìłģ
ĠìĤ´ ìĿ´
ĠìĿ¼ìĭľ ìłģìĿ¸
Ġ15 0
ĠìĪĺë Ĥ©
Ġleve tiracetam
Ġìĸ´ëĬĲ ìłķëıĦ
ĠìķĦë ¯¸ëħ¸
íĥĢ êµ¬
Ġìĸ´ìłľ ìĻĢ
Ġì²´ì¤ĳ ë¶Ģ
Ġìĭľ íĸī
Ġw eek
C on
°ľ ì¹ĺ
Ġmar opitant
Ġëĸ¨ìĸ´ì §ĢëĬĶ
f at
Ġê³¨ ë°ĺ
ì¦Ŀìĥģ ìĿĢ
ìļ ´ë
Ġê°Ģìł¸ ìĺ¤
ì Ń
ìħ¨ ê³ł
ific ant
Ġì£¼ë ³Ģìľ¼ë¡ľ
Ġinflamm ation
Ġvhs ëĬĶ
Ġìĸĳíĺ¸ íķĺë©´
ac k
ĠìĿ´ì °¨
y tic
Ĥ °
Ġg as
Ġab domen
Ġê´ľì°® ìķĺìĿĮ
ĠëĤ® ìĹĲ
íĤ ¤ë
ìĦ± ìľ¼ë¡ľ
am ic
Ġë°ľ ìĹ´
B NP
Ġíĺ¸íĿ¡ ë§Īì·¨
Ħì² Ń
ĠìĨĮìĭ¤ë Ĳ¨
ĽĲ ìŀ¥ëĭĺ
ì¸¡ ìłķ
Ġì´ ī
Ġì¹¨ ì¹ĺë£Į
ĠVHS ëĬĶ
Ġì»¨ë²ł ëĭĪìķĦ
Ġp ah
ì¤ĳ ìĦ±íĻĶ
Ġhw p
or tic
Ġê³ł ìĸĳ
ĠìłĲìķ¡ ë³Ģ
ĠìĹ°ëĿ½ ëĵľë
Ġì²´ì¤ĳ ìĿĢ
Ġë¹Ħ ìłķìĥģ
Ġê° ĸ
K P
íģ ¬ë¦¬
Ġë¹¨ë ¦¬
Ġd z
Ġmedi al
³´ëĭ¤ ëĬĶ
ĠëĦ¤ë· ¸ëĿ¼ìĿ´
ĠíĻĺìŀĲ ìĥģíĥľ
Ġìĭłìŀ¥ ê²°ìĦĿ
ĠìķĦ ìĿ´ë
gen ic
ceph a
íķŃ ìĥĿ
³´ íĺ¸ìŀĲ
Ġê·Ģ ìĹĲ
Ġìĸ´ë ¦´
ĠìĭĿìļķì´īì§Ħ ìłľ
Ġf racture
© ´ì
Ġì£¼ ìĦ¸ìļĶ
Ġë²ł ìķĦíĮĮ
ĠìłĦ ê¹Įì§Ģ
ë° į
ĠìĥĿ ê¸¸
Ġp ressure
ìĭ¤ë ¦°
in c
Ĳ ĺëĤĺ
íĭ°ë²ł ìĿ´íĬ¸
Ġê² ©
Ġê°Ħ ìĿ´
ìķĪ ê³¼
ĠìĥģíĻ© ìľ¼ë¡ľ
Ġì¶Ķì²ľë Ĳ¨
ê³ Ħë¡ľ
Ġë² Ĺ
Ġp eak
Ġê²ĢìĤ¬ ìĹĲìĦľ
ĠíĻľëıĻ ìĦ±
Ġë°¤ ìĥĪ
Ġglu c
Ġìµľ ê·¼ë
Ġìĥģíĥľë Ŀ¼
Ġl i
ĠëĤ´ ê°ķ
Ġë°°ëĩ¨ ìĥģíĥľ
ë§ Ĳ
Ġsuperf icial
Ġì§ĢìĨį ëĲł
ipi ent
ê²ĥ ìĿĢ
ĠìłĪ ìĭĿ
ĠëĤ ĳ
°ì Ĭ¤
Ġdil ation
t ro
ph ar
ĠìĦŀ ìĿ¸
Ġì¢ĭ ê³ł
ìĭł ì²´ê²ĢìĤ¬
b p
Ġthicken ed
Ġê³ł íĻĺ
c ap
Ġëª¸ë ¬´ê²Į
C M
Ġo cular
ìĹĪ ëĭ¤ê°Ģ
Ġë³Ģ ìĹ°
Ġth at
Ġëª¨ëĤŃ ì¶©
ĠìķĪ íķĺê³ł
ĠìĻ Ģ
Ġíģ¬ê¸° ëĬĶ
ìļĶ ì¶Ķ
/ -
ì ĨĲìĥģ
Ġíĩ´ìĽĲ ê¸°ë¡Ŀ
ruct os
ĠP D
Ġf saa
¡łíĬ¸ëĿ¼ ìĿ¸
Ġc le
Ġcys tic
d L
ĠìļĶ ëŁī
¼ë ¥¨
Ġëĵ¤ ìĹĪìĿĮ
E n
ĠíĻľëł¥ ìĸĳíĺ¸
íķ´ì£¼ ìĭ¬
ĠêµĲ ë°°
Ġin s
Ġeryth ema
Ġcon junctival
ĠíĮ¨ ì¹ĺ
Ġë³ĳë¦¬ íķĻìłģ
Ġë³´ì ¡°
Ġë² Į
íĺķ ìłľ
ë³ ´ìŀĦ
ĠìķĮëŁ¬ ì§Ģì
Ġê²ĥ ìĹĲ
2 8
S K
Ġëª¨ë ¦Ħ
Ġìĸ´ëł¤ ìĽĮ
Ġì¶Ķê°Ģ ìłģìľ¼ë¡ľ
Ġclind amycin
´ë Ŀ¼
Ġê´Ģëł¨ íķ´ìĦľ
¹Ħí Ĭ¸
ĠìłĦë¦½ ìĦł
ĠìĻ¸ ìĹĲëĬĶ
ĠìĹ¬ëŁ¬ë ²Ī
Ġê°Ļ ìķĦìĦľ
f luid
Ġsme ar
ê¸° ìłĢ
Ġbrom hex
Ġìŀ¥ ìķ¡ìĦ±
ĠìłĢë ¥ĺ
Ab normal
ĠìĹ ¼ë
ìĻ ĢìĦľ
c o
Ġp H
ĠíĹĪ íĶ¼ìĬ¤
íĥĢêµ¬ ëĭĪ
Ġn ph
en em
² ¼
Ġì§ Ħì
Ġì¤ĳ íĻĺìŀĲ
ĠíĮĮ ìķħ
ĠíĻĺìŀĲ ìĿĺ
h a
a it
ĠìĦľ ìĦľ
ograph ic
Ġìķī ìķĦ
ĠìķĦíı¬ íĢ
Ġê°ĳ ìŀĳìĬ¤ë
ìķ½ ê°Ħ
Ġì¤ Į
g ing
ĠìĦ± íĸ¥
íĳ¸ë ŀĦ
ìĦł íĻĶ
ĠT he
ĠMen ace
ìķĪë Ĥ´
Ġë¬ ´ì
ìħ¨ ëĬĶëį°
ìĶ ¨
Ġë¶ĢìľĦ ëĬĶ
Ġë¶Ģíĥģ ëĵľë¦½ëĭĪëĭ¤
Ġë¬¸ìłľ ëĬĶ
Ġê²°ì °°
ĠìĹĨ ìĸ´ì§Ĳ
Ġê²½ ê³¨
ĠìĪĺìĪł ìłĦ
ĠíĻķìĿ¸ íķ¨
ê²¨ ìĦľ
Ġì§ĢìĨį ìłģ
ëĤ ĳ
Ġë³¸ìĽĲ ìĹĲ
ê±´ì Ĥ¬ë£Į
p er
ìĸ´ ìłľë¶ĢíĦ°
Ġo cc
Ġë¶ĢëĶ ª
¶ Ķ
ëĭĪ íĳ¸ëŀĦ
íĩ´ìĽĲ ê¸°ë¡Ŀ
ĠìĹ°ëĿ½ ì£¼
Ġê°ľë ³Ħ
ĠìľĦíĹ ĺ
ĠíĸĪ ìĹĪìĿĮ
ìł ł
ĠìĤ¬ëĿ¼ ì§Ĳ
Ġa x
ê² °ë§ī
Ġme s
Ġë½ ĳ
roph il
Ġìĸ´ëł¸ ìĿĦ
p ds
ĠC eph
Ġì¦Ŀìĥģ ìĹĲ
ĠìĹ Ħì²Ń
Ġle uk
íĭ Ģ
Ġì§§ ìĿĢ
ructos amine
Ġì £½
íĺľ ê²½
Ġì½§ë¬¼ ìĿ´
Ġë²Ķ ë°±
ĠíĺĪ ìłĦ
ĠìĨĮë³Ģ ìĿĢ
Ġë©´ìĹŃìĸµìłľ ìłľ
Ġe lev
Ġê°ĢëĬ¥ íķ¨
Ħ ·
ëĭ¨ ê³Ħ
ĠëĤ´ì Ļ
´íĶ ¼
Ġë§Īë ¥¸
ĠCR EA
ĠíĺĦë ¯¸ê²½
ìĹ¼ë ³ĳ
at us
Ġinfil tration
Ġtil t
ĠP AH
Ġê°ľ íĨµ
ĠìķĦëĭĪ ê³ł
ê³¡ ìĦł
ĠC on
ĠìĿ´ íĺľê²½
ëıĻ ë¬¼ë³ĳìĽĲ
Ġìĸķ ìĿĢ
ĠëĲĺ ê³ł
Ġê¹Ģì Ħ±
ĵ Ŀ
ì° ¸
Ġì°¨ ëıĦ
ĠëĮĢì¦Ŀ ì¹ĺë£Į
Ġeff usion
ë³´íĺ¸ìŀĲ ëĭĺ
ê°Ķ ëĭ¤
Ġo titis
as m
ê³ ¨ë
ĠíĥĪë Ŀ½
íĤ ¤ë¡ľ
t aurine
ìĭłê²½ ê³Ħ
Ġth an
ìĿ¼ë °ĺì
? )
ì¹ ĺìľ
íĶ Ħë¡ľ
Ġìĭ¬íķ´ì §Ģë©´
Ġ( +)
Ġë¶ Ģì§Ħ
Ġprob np
Ġìļ©ëŁī ìľ¼ë¡ľ
D og
P D
íı¬ íĻĶëıĦ
ĠëĤĺ ìĿ´
v en
ë ¼Ī
ìłķ íĺķ
íĸĪ ìĬµëĭĪëĭ¤
Ġm l
Ġsc re
x ia
Ġë³Ģë ¹Ħ
st ruc
Ġë§Ĳ ê³ł
Ġinc ipient
¼ìĬ ĺ
Ġsu pp
ĠìĻ¸ìļ© ìłľ
íķ´ë³´ ê³ł
ìĿĢë ³Ģ
Ġì¸Ħë ¥´
íĥĢ ëĭĲ
Ġê±¸ ìĸ´
į ëĭĪëĭ¤
ph ysical
ĠëĬ ĳ
ĠìķĬ ìķĺìľ¼ëĤĺ
Ġë§ ¤ë
Ġíķĺ ê¸°
+ ),
Ġne ph
Ġë¨¹ ìĿ´ê¸°
íķ ĳ
ļ °
Ġê´Ģì°°ëĲ ©ëĭĪëĭ¤
ĠìĨįëıĦ ëĬĶ
N V
íķľ íħĮ
Ġì¹ ľ
eni ramine
O L
ĠìĿ´í ĽĦë
ĠëĤĺìĺ¤ ê³ł
ì§ Ħì²
ìłķ ëł¬
Ġë¶Ģì¢ħ ìĿĢ
ìĪĺìĪł ê¸°ë¡Ŀ
Ġtp r
ĠT R
Ġsid e
ond ary
ro ma
ĠìĿ´ìĥģ ìĹĨìĿĮ
Ġì¹¨ë ĮĢ
ĠìĹ°ê³ł ëıĦíı¬
Ġíĥľ ìĦłíĻĶ
Ġc ir
Ġìĺ ´
Ġíķĺì ĭľëıĦë¡Ŀ
Ġdefec ation
Ġin v
ĠëģĬ ê³ł
i opathic
ĠìŀĪ ì§Ģ
ì½Ķ íĶĦ
Ġëħ¸ëł¹ ìĦ±
Ġì§ĢìĨį ëĲĺìĸ´
¦¬ë ©´ìĦľ
Ġl ine
Ġë°© ë¬¸
ìłķ ëıĦë¡ľ
ĵ¯ íķ¨
ĠTP R
ĠìĤ°ìĨĮ íı¬íĻĶëıĦ
ĠìĿ´ì ²¨íĮĲ
Ġê¸°ì ¡
§ Ģì§Ģ
Ġê¶ ģ
ª¨ë ²¤
ĠìĦĿ íļĮ
Ġê± ´ë
ĠìĿ´ë £¨
ox ap
ª¨ë²¤ ëĭ¨
Ŀ¡ ì°©
Ġíķ´ë §Īë£¨
Ġë°Ķëĭ¥ ìĹĲ
Ġíķĺìĺ Ģìľ¼ë©°
ìĭľ ê¸¸
Ġê°ĲìĤ¬ íķ©ëĭĪëĭ¤
Ġê³¼ ê±°
Ġë§ Ŀ
il i
Ġhep agen
ĠìķĮ ë§Īê²Ķ
Ġê¸°ìļ´ ìĿ´
ë ©ĶìĿ¼
OM M
oc ardi
5 0
Ġì¤Ģ íķ´ìĦľ
Ġus g
Ġìĺ¤íģĲ íİľ
or nea
ĠìĤ °ë
Ġb est
Ġëĵ¤ ìĿĮ
Ġmen tal
Ġher n
Ġê¸° ìłĢ
m it
´ īì§Ħ
ģ Ħë
Ġìľł ì°©
Ġë¹Ħë ªħ
ê°Ģë Łī
ĠFI P
Ġëª» íķĺëĬĶ
ĠìŀĦ ìĭł
Ġì²łë¶Ħ ìłľ
Ġíĩ ´ìĭ¤
Ġu g
Ġìĸ´ë¨¸ ëĭĺ
Ġa f
ĠëĨ Ģ
Ġmis oprostol
ë§ ŀ
ĠAl ert
ro und
Ġë¨¹ìĿ´ì ħ¨ìĿĮ
ĠìĿ¼ì£¼ìĿ¼ë Ĵ¤
ĠìĹ´ì ĥģ
Ġëĳ ¥
Ġíĺ¸íħĶ ë§ģ
Ġv el
ìĬ¤ íĶ¼ìĬ¤
PH YSICAL
Ġad renal
ĠíĻĶë ĨįìĦ±
P re
Ġíĺ ĳì°©
Ġs ti
Ġë© Ī
ĠíĨł íķ¨
Ġë¶ ĵ
ĠëĽ°ì ĸ
ar k
I V
íķŃìĥĿ ìłľ
ĠëĤĳ ëĤĳ
Ġë°°ë ³Ģì
Ġê¸ī íķĺê²Į
ĠìķĮ ë¶Ģë¯¼
Ġster oid
Ġìĥģ ëĭ¹
ĠíĮ Ķ
Ġdob utamine
iz ed
is ory
Ġê³¨ ìłķëł¬
£¨ ìĨĿ
b rox
ĠìĪł ì¤ĳ
Ġë¨¹ ìĸ´ìĦľ
ĭľë ¡ľ
Ġê±¸ ìĿĮ
Ġflu ores
Ġl ìĶ©
ĠíĨłë¸Įë Ŀ¼
Ġê³ Ħë
Ġìµľ ê³ł
Ġdi rect
Ġìŀł ë³µ
² Ħë
ìķĪë Ĳ¨
Ġw as
/ .
ĠíĮĮ ë³´
ê± ¸ë¡ľ
Ġì§Ħíĸī íķĺê³ł
ìĸ´ë ¦¬
ê³ Ħí
Ġê°ĲìĹ¼ ìĦ±
Ġd tm
Ġex c
Ġê°ľìĦłë Ĳĺì§Ģ
brox ol
Ġmin eral
Ġì¼ģì¼ģ ê±°ë¦¼
Ġe q
ëĤ ĺë
Ġìłģ íĺĪêµ¬
Ġë¶Īë ¦°
ĠPH I
Ġì£¼ ì¦Ŀìľ¼ë¡ľ
Ġê²ĢìĤ¬ ê°Ģ
Ġtramadol e
ol ol
Ġ2 8
al t
Ġg laucoma
ĠìĿĳ ê³łê³Ħ
Ġë° ´ë
ê³ Ħë
ê³ł ìĸĳìĿ´
Ġëª»ë ľ
ĠëĦ£ ìĸ´ì
ĠíĶ¼ë¶Ģì ķ½
ìĪ Ļ
Ġt t
Ġë¹Ħë £¨
hep atitis
Ġsym pt
Ġd oppler
Ġì¢ħíķ© ë°±ìĭł
Ġbac terial
und us
íģ¬ë¦¬ ëĭĿ
ĠíĻľëł¥ ëıĦ
Ī ¬ë
ore xia
Ġíķĺìĺ ĢìĿĮ
ad en
os it
ĠE q
Ġhind limb
ìľ¼ë¡ľ ëĬĶ
ĠëĲľ ëĭ¤ê³ł
ec al
ĠíĻķìĿ¸ëĲĺ ëĬĶ
Ġë¬¼ë¦¬ ì¹ĺë£Į
ax ia
Ġëĭ ´ëıĦ
ĠìłĦíĻĶ ë¡ľ
Ġcon junctiva
ord er
ĠS TT
Ġë³´ì §Ģ
ĠíĶĦë ¡łíĬ¸ëĿ¼ìĿ¸
Ġì¹ĺë£Į ëĬĶ
ì§Ħì² ¨ë¶Ģ
Ġë³ĳìĽĲ ìľ¼ë¡ľ
Ġì² ĺëŁ¼
Ġble phar
ĠìĶ ¹
Ġê²½ ìĹĲ
Ġê´ľì°® ìķĦì§Ĳ
Ġê´ĢìłĪë ĤŃ
§ Īë¦¬
ic i
ĠíĶ¼ë ª¨ë²¤ëĭ¨
Ġb ab
ĠíĻķìĿ¸ ìĭľ
ë Ĩ
Ġìĭłìŀ¥ ìĿĺ
ĠìķĦë ¬´
Ġíĺ ĳ
Ġë¨¹ ê¸°
ĠìĤ¬ íĥĢêµ¬ëĭĪ
Ġê¶Į ê³ł
Ġë¹ĦêµĲ íķĺìĹ¬
Ġhem at
Ġëĭ¤ ìĸĳ
Ġìĸĺ ê¸°
ìķ Īë°©
ķ Īë
ëĤ´ ìĿ¼
Ġcon s
ĠíĻķ ì§Ħ
Ġê¸Ī ìĿ¼ë¶ĢíĦ°
ĠAL KP
ĠìĿ´ìĥģ ìľ¼ë¡ľ
Ġm usc
Ġs ep
ĸ Ī
ìĺ¤ë ¥¸ìª½
Ġíħ Ķë
Ġìĭľ íĤ¤
Ġê±· ëĬĶ
ĠìĿ¼ ìľ¼
¼ë ¦¬
ë³ ¸
´íĸī ìĦ±
rol ithiasis
Ġë¹ ĪëıĦ
Ġdia zepam
Ģ ëĬĶëį°
³µ ë¶Ģ
Ġcl emas
Ġì²ĺë°©ë°Ľ ìĿĢ
Ġë³ĳ íĸī
U G
ĠìĹĳìĬ¤ë łĪìĿ´
Ġì¡° ìłķ
ĠëĦ ĺ
ìī ¬
Ġê¶ģ ê¸Ī
ĠA CTH
ìĬ¤ ì¼
Ġìĸ´ë ¦´ëķĮ
ĠBAR H
Ġë°Ķë¡ľ ë°ķ
ĠëıĦ ì¤ĳ
³´ì ¡°ìłľ
Ġë°Ľ ìķĺìĿĮ
ìĻ Ģë
io hepatitis
ĠìĹ¼ì¦Ŀ ìĦ±
Ġìľł ëıĦ
4 8
ê³ł íĻĺ
ĠìłķëıĦ ìĹĲ
ĠíĮĲëĭ¨ ëĲĺë©°
Ġê²½ ê³Ħ
ë ¯¼
ĠëĤĺ ê°Ĳ
ĠëªħíĻķ íķľ
ì´ ī
ĠíĹ Ľ
Ġad v
o tic
ĠíıĲìĩ Ħë
Ġë¹ĦìĬ· íķĺê²Į
Ġìĥ Ī
Ġcyclospor in
Ġlik ely
Ġmir t
íĿī ë¶Ģ
Ġ @
Ġëª¨ ìĸĳ
íĨ ¡
Ġíı¬ ëıĦ
Ġc astration
Ġìłķíĺķ ìĻ¸ê³¼
ë° ĳ
Ġë¬¼ ìĹĲ
ĳ ¥
Ġìĥģ ìĹĲìĦľ
ìķĪ ìĹĲ
if it
Ġsympt om
Ġin d
ì¹ ©
Ġë§Į ìķ½
§Ī ìĿ´ìĭł
ĠìĽĲìĿ¸ ìĿ´
Ġbronch ial
c ranial
Ġë³´íĺ¸ìŀĲëĭĺ ê»ĺìĦľ
ê°Ħë ıĻìķĪ
Ġbar h
Ġì§Ģì ĭľë
Ġthe o
ìĿ ¼ë¡ľ
ìļĶ ë²ķ
Ġgen eral
Ġë§ĲëĿ¼ìĦ¸ ì§ĢìķĦ
yl azine
ĠìŀħìĽĲ ê´Ģë¦¬
Ġëĭ¨ ìľĦ
re m
ĠíĴ Ģë
ĠëĬĲ ê»
q ue
Ī Ħ
£¼ ìĤ¬
Ġíķĺë £¨ë
Ġt oxic
Ġë¯¸ë ¦¬
Ġìłľê±°ì Īł
íĸĪ ìĹĪìĿĮ
ìłĦì ¤ĳ
Ġnod ule
íĪ¬ ìĹ¬
Ġt reatment
it es
ĠëĤĺì ¤ĳìĹĲ
Ġreac tion
h ist
Ġcan ine
Ġê·Ģë ıĦë§Ĳ
ĠìķĪë¨¹ ìĸ´ìĦľ
Ġd r
Ġë´īíķ© ìĤ¬
Ġdepress ion
ĠíĬ¸ë £¨ìĨĿ
Ġê·¸ë ŀ
ì¡°ì ¹ĺ
ê ¿
ĺìĸ ´ìŀĪìĿĮ
Ġ8 0
Ġíķĺì ĭľê³ł
ìĿ´ìĸ ´ìĦľ
Ġê°ģ ê°ģ
ì¹ĺìľ ¤
Ġë°Ľ ìķĺ
Ġíķľ ê·¸ë¦ĩ
Ġare a
ĠìŀĪë ıĦë¡Ŀ
Ġìĥģ ì²ĺë
ìĺ Īë
ĠëĤ¨ ìŀĲ
Ġìĭ¬íķ´ì §Ħ
Ġpred nisolone
ĠìĭĿ íĥĲ
Ġë³´ìĿ¸ ëĭ¤ê³ł
Ġclin ical
Ġt c
ëĭ Ń
orph eniramine
ì¦Ŀ ìĭĿ
ĠìłĦíĻĶ íĨµíĻĶ
op y
os in
Ġê¸°ëł¥ ìĿĢ
Ġit rac
ìķ½ ë¬¼
¸ Ķë
ŀ ĪìĿĮ
Ġmul tiple
Ġìĭ¬ ê°ģ
ĠìĦĿìħ ĺëŁī
Ġsyn cope
Ġmid azolam
H A
Ġì²ĺë°© íķĺê³ł
Ġì¶© íĺĪë
Ġh s
Ġì§ĦíĨµ ìĨĮìĹ¼
íĻ į
ro f
Ġíĺ¸ ìĬ¤íĶ¼ìĬ¤
Ġmusc le
R t
ìĥģíĥľ ëĬĶ
´ë Ĥĺ
ĠìĪĺì ĭľë¡ľ
Ġì²´ì¤ĳë¶Ģ íķĺ
ĠTh orax
ĠìłĦíĻĶ ëĵľë
ë ŀĳ
ìĻ Ķ
y gen
ac in
ĠìķĪ ìĹ°ê³ł
ress ion
ê²ł ìĿĮ
osp asm
j ection
ĠB L
ĠíĺĦìŀ¬ ê¹Įì§Ģ
3 5
ĠíıīìĨĮ ë³´ëĭ¤
Ġìķ½ìļ© ìĥ´íĳ¸
Ġì¢ħ ê²©ëıĻ
E mergency
i op
ê´Ģì °°
Ġë¹¼ ê³ł
ĠìĿ´ëıĦë Ĥ´
Ġêµ¬ ìŀħ
ĠìĬ¤ íģ¬ë¦¬ëĭĿ
ĠëĶ°ëĿ¼ ìĦľ
Ġíİ «
Ġê¸Ī ì§Ģ
ĠC V
Ġv entral
ĠìĦłìĥĿëĭĺ ê»ĺ
ĠìķĪ ìĹĲ
Ġì²´ì¤ĳ ê°ĲëŁī
ìĤ¬ ìĭł
ar rh
Ġid iopathic
Ġì¹¨ íĿĺë
ĠìłĦ ìĹ¼ë³ĳ
ìĸ´ë³ ¼
ĠìĹ´ ê°Ĳ
Ġs ë¡ľ
Ġsurg ifit
Ġì¶Ķìłķ ëĲ¨
h istory
ĠìĦ± ë¶Ħ
ë¶ Īë
íĶ ¼ë¡ľ
į ê²Į
ĠìķĦ ìĿ´ì
Ġcef radine
tiv ity
Ġsol cor
Ġcefazol ine
Ġë¨¹ ìĹĪ
² ´íģ¬
Ġg c
ĠìĤ¬ë£Į ìĹĲ
Ġê°Ħ ì§Ģë
ì· ¨ë
Ġë¶Ģ ìłķë§¥
¢ħ ìĸĳ
Ġv al
Ġëĵ £
³´ ê¸°ë¡ľ
ĠíĻĺê²½ ë³ĢíĻĶ
ì§Ħ íĥķ
ìĪĺìĪłë ªħ
Ġíķ© ë³ĳì¦Ŀ
ĠìĨ¡ ì¹ĺìľ¤
íļ ¨
Ġê°ľìĦłëĲĺ ìĹĪìľ¼ëĤĺ
Ġfl ap
ĠíĮĲëĭ¨ ëĲĺìĸ´
is ion
Ġn it
ëıĻ ìķĪ
ĠëĤĺìĺ¤ ì§Ģ
os a
Ġgluc ose
Ŀ¼ë² ¡
ìĦ± ìĿ´
ĠíħĶë ¹ĦíĬ¸
Ġchem istry
Ġacetylcyst ein
Ġ2 2
ĠAM C
Ġv omiting
Ġenal a
Ġm arb
Ġbest ase
at ous
ĠìĪĺ ìłķì²´
Ġê³°íĮ¡ ìĿ´ìĦ±
Ġê¸ ¸ë
Ŀ¡ì°© ìłľ
ĠA D
ë ´īíķ©
Ġs bp
Ġex tra
ĠìĨĮ ìĪĺ
ĠíĻľëł¥ ìĿ´
Ġê°ĲìĨĮ íķľ
Ġë³µë¶Ģì ´īì§Ħ
ram ycin
In duction
Ġë³µ ë²½
ĠëªħíĻķ íķĺì§Ģ
Ġ+ ++
ĠëĤ´ìĽĲ íķĺìĭľëıĦë¡Ŀ
Ġìļ°ì¸¡ ìĿĢ
ĠM et
Ġê°ľìĦłë Ĳĺìĸ´
ĠC ef
ĠìłĪë ļĿ
ĠëĽ°ì ĸ´
Ġì±Ħ íĺĪ
En v
ah ìĹĲìĦľ
Ġì Į
ĵľ ìĭľ
Ġìĥī ê¹Ķ
ĠL N
ĠPR N
íķł ê²ĥ
ê¸° ê²¬
Ġëĭ¤ìĿĮ ëĭ¬
ĠìĿ¸ê³µ ëĪĪë¬¼
ech oic
Ġde gen
ĠíĨµì¦Ŀ ìĿĢ
Ġíģ ´ë
ĠN e
Ġë³´íĸī ìĭľ
êµ¬ ì¶©
ĠìĪ¨ ìĿĦ
Ġst atus
Ġìłľë ĮĢë¡ľ
ìĸ´ë³ ´ì
ĠìŀĪ ìĹĪëĬĶëį°
Ġbar king
Ġì į¨
Ġìĭľ ìĹĲ
ĠìĿ´ìķ¼ ê¸°
ĠíĻĺìŀ Ĳë
Ġë¹ µ
ĠìŀĲ ìĦ¸ë
Ġìĭ¬ ìĿĮ
ĠìķĪëĤ ĺì
£¨ ìĤ¬
Ġíİ¸ ìĿ´ëĤĺ
Ġ9 0
Ġë¹Ħë §Į
Ġìĸ´ëł¤ ìļ´
Ġì¡° ìŀĳ
Ġë¶Ħ ìłĪ
k i
Ġë³ ´ìŀħëĭĪëĭ¤
ĠìĹĨ ìĹĪìľ¼ë©°
ĠìŀĦìĥģì¦Ŀìĥģ ìĿĢ
Ġíķľëĭ¬ ìĹĲ
ĠCre a
ĠíĺĪ ìŀ¥
Ġìŀ¥ ëĤľ
ìĦ ¤
ìŀĲ ê¶ģ
ĠS t
Ġth romb
In tra
E X
Ġob struc
Ġhep atitis
ĠíĻĺë Ĥ©
ìĿ´ íĭĢ
Ġac up
Ġv entilator
Ġì²ĺë°© ìķ½
ë°© íĸ¥
ĠìŀĲë°ľìĿĮ ìĪĺìļķ
ĠëıĦë§Ĳ ìĥģ
¹ĺì ĺ¨
Ġì ³Ĳ
ìĻ¸ ìĿ´ìĹ¼
°ì ĨĮ
ĠëĤ´ì Ļ¸
ce in
êµ °
Ġneut rophil
Ġë¶Ģì ŀ¬
rox icam
Ġthe re
ëĭ´ ëĭ¹
Ġman nitol
Ġë§ĪìĿ´ íģ¬ë¡ľ
ë³ ´íĸī
ĠíĻį ìĹŃ
Ġnod ular
Ġì¼ĦëĦ¬ ì½ĶíĶĦ
Ġìŀł ìłķ
ìĤ° íĻĶ
ac l
ì²´ ëĬĶ
Ġìŀ¬ ìĥĿìĦ±
ĠìķĪë ©
Ġì°¨ íĬ¸
f ollow
Ġë¯¸ë ģĦë
ìĿ´ íķĺ
Ġìľłë ¦¬ë
Ġëĭ¹ë¶Ģë ĵľë¦¼
Ġam broxol
unt ure
ĠëĦ¥ì¹ ´ëĿ¼
Ġí ĽĦë¡ľ
Ġat axia
Ġìĭľ ìĪł
Ġë³´íĸī ìĿĢ
íķ´ì£¼ ìĭľê³ł
Ġê·¼ìľ¡ ì¸µ
Ġtherap ic
Ġë°´ë ĶĶ
g es
ĠìłĢ íĺĪìķķ
ìĸ´ì ķ¼
Ġë¶ĪëŁī íķł
Ġë³´íĺ¸ìŀĲ ìĹĲê²Į
ë° ¤
Ġìŀ¥ ëĤ´
ë Ŀ½
ëª ¨ë
on ic
Ġë¨¹ ëĭ¤ê°Ģ
ĠìĹ¬ ìŃ
Ġsolcor in
ìĪĺë ¡ľ
of loxacin
ĠìĹĨ ëĭ¤ë©´
Ġpre anesthetic
¦ ī
ĠìĭĿ ìłĦ
ħ¸ë ŀĳ
pre vious
´ ê·¼
´ì Ĭ¤
Ġë¹ĦíĽĦ ê°Ģ
Ġê¸°ê´Ģ íĬľë¸Į
ĠìĨĮëıħ ìĨľ
ĠëĤĺ ëĬĶ
ĠìĿ´íĽĦë ¶ĢíĦ°
Ġpar tial
ìĤ¬ ìļ©
ë¥ ´í
ĠìĭĿ ìĿ´ì
ê´ Ģì§Ģ
Ġë² Ħë
Ł½ ê²Į
ìĹĨ ìĹĪìĿĮ
Ġì£¼ ì§Ģ
ë³´ì ¡°ìłľ
ĠìĤ¬ ê³¼
Ġë§Īë ¹Ħ
Ġëĭ¤ëĭĪ ìĭľëįĺ
Ġmis o
ê°Ħ ê²©
Ġìľ¡ìķĦì ¡°ì§ģ
m ild
Ġê· ł
Ġë¶Ģë¶Ħ ìĿ´
ĠëĪĪë¬¼ ìĿ´
ëª¨ëĭĪ ìķĦ
ĠìĪłìłĦ ê²ĢìĤ¬
íĮĮ ìĹ´
ìħĶ ìķ¼
Ġë³´ ê¸°
Ġ/ /
ĠìļĶ íķ¨
ĠëĤĺ ê³ł
Ġìĭ¬ íķĺìĹ¬
ĠìĿ¼ìĭľ ìłģìľ¼ë¡ľ
ìĭ¤ ì§Ī
erap y
Ġure th
ŀ įëĭĪëĭ¤
Ġìł Ħí
Ġaf ter
i ment
° ¤
ìĪł ì¤ĳ
Ġìķ¡ íĭ°ë²łìĿ´íĬ¸
Ġt ur
ĠìķĬ ì§Ģë§Į
Ġìŀ¬ ìĪĺìĪł
ëĦ ¤
íķł ì§Ģ
ĠDD X
Ġper it
Ġê² ¨
ì¦Ŀ ìĦ¸
Ġìĭ¤ ë°¥
Ġha ir
m an
t ation
ìŀ¥ ì°©
ĠíĻķìĿ¸ëĲĺ ê³ł
ĠìłĦ ìķĪë°©
Ġê´Ģë¦¬ ê°Ģ
ĠìĪĺë ¡ľ
ëĵ¤ ìĿ´
¼ ì§Ģ
Ġë°ľë ģĿ
Ġê°Ħ ìĿĺ
Ġëĭ¤ë ĩ¨
eren ce
Ġë³µìķ½ ì§ĢëıĦ
ĭľ ê¸°ë¡ľ
ĠìķĮë ł¤
ĠìļĶì²Ń íķĺìĭ¬
ë¹ Ħì¤ĳ
ìł Ħì²
ĠìŀħìĽĲ ì¤ĳ
ìĺĪë ¦¼
ĠìŀĲ ëĭ¤ê°Ģ
ĠìŀĪ ìĹĪ
ë³µ ìļ©
ìłķìĥģ ë³Ģ
ìłľë §Į
ĠìĿ´ìłĦê²ĢìĤ¬ ìĻĢ
Ġì²ĺìĿĮ ìĹĲëĬĶ
Ġpancre as
Ġì§ ľ
¡ł íĥĪ
Ġp a
ì§Ħí Ĩµ
Ġì¢ĭ ìķĺìĿĮ
ĠíĪ¬ìĹ¬ íķ¨
ìĬ ´
Ġhyd rox
ìľ¼ ìħĶìĦľ
ĠëĳĲ ê»ĺ
Ġë¨¹ëĬĶ ìķ½
Ġíİľ íĥĢëĭĲ
Ġsec ondary
Ġë¸Įë Ŀ¼ë²¡
junctiv itis
tif le
Ġì¤ ¬
ĠìķĪë ³´ìŀĦ
Ġì§Ī ìĨĮíĺĪì¦Ŀ
ĥ¥ ìĿ´
Ġìłķ ë§¥
ĠìĪĺì¹ĺ ê°Ģ
ard ia
Ġê°Ħ ê·ł
ĠA H
ë¬ ´ë
Ġíķ Ģ
ëĲĺ ìĹĪìľ¼ëĤĺ
Ġì§ģ íĽĦ
w k
es e
Ġintra operative
Ġf unction
el ay
ic e
Ġtra cheal
ĠìĤ°ì ¦Ŀ
m t
Ġì¤ĳ ìķĻ
Ġgra n
Ġë²Ī ì§¸
íĬ¸ë¡ľ ë°ĺ
Ġì¹ĺë£Į ì¢ħë£Į
Ġíĩ ´íĸīìĦ±
Ġë ¦¼
ĠìĦĿíļĮ íĻĶ
Ġì¹ĺë£Į ê°Ģ
ĠëĴ¤ ìª½
Ġgab a
Ġìĺ¤ë ŀĺë
Ġê°ľìĦłë ĲĺëĬĶ
ĠT C
ĠìĹ° êµ¬
íķ Ħ
Į ê³ł
ìŀ ł
ĠA c
ĠíĬ ľë¸Į
Ġì° ¡
ĠìĶ Į
ìĺĪ ìĿ¸
Ġsl ow
' s
ĠëĤ´ìļ© ë¬¼
Pre anesthetic
¹Ħë ĮĢ
ĠUD A
¡Į ëĭ¤ê³ł
EX X
Ġì¦ĿëŁī íķĺìĹ¬
Ġop eration
me di
ĠìłĦíĻĶ ì£¼
od erma
ĠìłķëıĦë §Į
ë§ İ
ê· Ģë
ìłĪ íıĲ
y al
íı¬ ì§ģ
Ġë¨¹ìĹ¬ ë³´ì
Ġdegen eration
Ġëį ©
Ġë³´íĺ¸ìŀĲ ìĻĢ
Ġíķĺ ëĭ¤ê°Ģ
ëħ ¸ë
ì§Ģì Ħł
ĠíıĲìķ¼ ìĹĲìĦľ
Ġë¹¨ ê°
Ġu op
Ġcol or
ĠDis ease
ch em
ĠëģĿ ìĹĲ
Ġìµľê·¼ë ĵ¤ìĸ´
O R
Ĺ ê²Į
ĠO P
Ġê°Ģ ê²©
íķĺë ¯Ģë¡ľ
Ġlow fat
Ġvis ible
Ġhypoth yroidism
Intra operative
ĠíĥĢì ¹ĺìĺ¨
§¥ ìĬ¤
ĠíĸĪ ê³ł
Ġë§ŀ ìĿĮ
êµ¬ ìĹŃì§Ī
9 0
Ġw et
¶Ģì ¢ħ
ĠìĿ¼ ìĹĲ
v ë¡ľ
Ĭ µ
Ġs ap
ì£¼ ìĿĺìĤ¬íķŃ
ê°Ħë ª¨ëĭĪíĦ°ë§ģ
ĠëĤ¨ ìĺĪë¦¼
Ġf ructosamine
Ġëĸ¨ ê³ł
Ġìķŀ ëĭĪ
Ġpal pebral
ìĬ¬ê°ľê³¨ íĥĪêµ¬
íĻ ĺìľ¼ë¡ľ
ìĽ Įë
Ġcor rug
ìĪĺì ¹ĺì
Ġíľ ´ë
Ġê³ł ì²´ìĺ¨
ĠìķĦíĶ Ī
Ġtumor s
Ġìłķê¸° ê²Ģì§Ħ
Ġíķ¥ ëĬĶ
Ġë¬¼ë §Į
ê²ĥ ê°Ļ
łë ¡ľ
Ġpl ate
Ġë¶ ģ
t ch
ë ¡Ŀ
Ġp ad
ĠëĪĪ ìĿĢ
Ġëĭ¨ë°± ì§Ī
ĠìķĪìķ½ ìĿĢ
Ġê°ģë§ī ë¶Ģì¢ħ
Ġëĵľë ¡łíĥĪ
Ġìľ¡ìķĪ ìĥģ
Ġëĳ ĺ
ìĤ¬ì§Ħ ìłĦìĨ¡
ĠìŀĶ ì¡´
ĠíĮĮ ìĹ
ìĹĨ ëĬĶ
ê¹Į ì§Ģë§Į
ĠìŀĪ ìľ¼ìĭ¬
Ġìłķìĥģ ë°°ë³Ģ
Ġë§Į ìĹĲ
Ġê²°ìłķ íķĺê¸°ë¡ľ
Ġê¸ģ ê³ł
ĠíķĦìļĶ íķĺë©°
Ġgast ro
in f
in sulin
Ġê´Ģì°°ëĲ ľ
ĠìĥĪë¡ľ ìļ´
Ġblephar ospasm
Ġëĭ¤ìĿĮ ëĭ¤ëĩ¨
ĠíĮĲëĭ¨ ëĲ©ëĭĪëĭ¤
ĠëĬĺë ł¤
Ġê´ľì°® ìķĦì¡Į
Ġëĭ´ì ĦĿ
c tion
arrh ea
Ġd ental
Ġcon clusion
Ġìĥģë¶Ģ íĺ¸íĿ¡ê¸°
Ġì§Ģëĥ Ī
Ġë¯¸ìļ© íĽĦ
Ġamin ophylline
Ġn h
Ĥ´ ê³ł
op t
ĠìłĦì²´ ìłģìľ¼ë¡ľ
Ġfiel ds
ĠìĪĺìĪł ìĿ´
ì¦Ŀìĥģ ìĿ´
Ġìĭłê²½ ìĿ¸
íķľ ëĭ¬
ì¡ ¸
ĠìķĬ ìķĺìĬµëĭĪëĭ¤
Ġê¸° ìł
ĠíıĲìĩĦë ´īíķ©
o ur
ec ia
ë¶ Ħìĸĳ
Ġìĺ¤ ìĺĪìĿ¸
ë² Ķ
ìĹ £
ëĭ´ëĭ¹ ìŀĲ
ĠíĿīë¶Ģë°©ìĤ¬ìĦł ìĥģ
ĠëĤĺìĻĶ ìĿĮ
Ġìķ ĵ
ìĦ ¸ë¡ľ
Ġì¹ĺë£Į ë°Ľ
ĠìłĦë ³´ëĭ¤
Ġë°Ľ ìķĦìĦľ
Ġìłģ ìĿĳ
Ġc arcinoma
Ġì° °
Ġíĩ´ìĽĲ ìķ½
ĠìĭĿìĿ´ ëĬĶ
Ġê² Ģì
ĠìĺĪìłķ ìĿ¼
Ġê¸°ì¹¨ ìķ½
ver y
Ġíŀĺëĵ¤ìĸ´ íķ¨
Con clusion
5 4
Ġë°Ķ ìĿ´ëŁ¬ìĬ¤
mon itoring
ì§ĢëĤ ľ
B UN
in jection
Ġë°° ìłľë
ĠíķĦìļĶ íķĺëĤĺ
ĠíķŃìķĶ ìłľ
mat oph
ĠëĤŃ ì¢ħ
Ġ20 0
ĠìĤ¬ì§Ħ ìłĦìĨ¡
Ġper for
ìłķ ë¦¬
ìŀħ ìĸĳ
ìĻ ¸ë
erv ical
ĠìĦ¸íı¬ íķĻ
or ac
Ġì²ľ ê³µ
Ġë°Ķê¿ Ķ
ĠìĿ Ħ
ine d
Ġam pi
m b
Ġìŀĳ ìĦ±
Ġê¸°ë³¸ ê´Ģë¦¬
Ġì²Ńì§Ħ ìĥģ
Ġf ocal
Ġv ess
ìĿ¼ë ıĦ
ĠìĿ´íĽĦë¡ľ ëĬĶ
Ġëĭ ¬ëĿ¼
ĠìĿ´ìłĦ ìĹĲëıĦ
ĠC omment
Ġìŀħ ìĪł
Ġë¨¹ìĿ´ì ĭľëıĦë¡Ŀ
ëĤ´ìĽĲ ìĭľ
Ġcode in
ur ic
ĠëĤ¨ìķĦ ìŀĪëĬĶ
ĠëĥĦìĥĪ ê°Ģ
ĠìŀĲ ë¦¬
´Ĳ ìķ¼
I S
ìĸ´ëĤ ĺì
alt ep
Ġl imb
Ġa urine
Ġìĭľ ì¼ľ
Ġìĥ ĺ
ì ĨĶ
ĠìĻĶ ëĭ¤
Ġíİľ íĨ¡
ìłľ ëĭī
ìĹĨ ìĿĦ
ĠìĭŃ ìŀĲìĿ¸ëĮĢ
p al
Ġë¶Ħë°° ëĭ´ëĭ¹ìŀĲ
Īĺì Īł
íķŃ ì§Ħ
ĠìŀĪ ìĹĪìľ¼ë©°
ĵ¤ ìĿĢ
ĠìķĦë ŀĺì
Ġbut o
ĠS AM
Ġitrac onazole
ìłĦ ìĿ´
ĠëĳĲ êº¼
ĠíĬ¸ë Ŀ¼
į°ë Ĥĺ
§ Ħë£Į
¦¬ë ©°
Ļ Ħ
oph il
ìĹ ĩ
ĠH yp
Ġíİ¸ ì¸¡
Ġíķ´ì ĨĮ
Ġìŀ¬ ì§Ħì
Ġì¤Ħ ìĹ¬
ìĭŃ ìŀĲìĿ¸ëĮĢ
Ġë§Ī ìĭ¬
ìŀĪ ìĹĪìĿĮ
Ġëĸ¨ìĸ´ì §Ģê³ł
Ġìĺ¤ íĽĦë¶ĢíĦ°
ê²ĥ ìĿ´
ìķĦë ³´ìŀĦ
ĠëĬĲê» ´ì
¶ ľë
Ġë°Ľ ìľ¼ëŁ¬
Ġë¶Īë ł¤ìĦľ
ĠìķĪë Ĳľ
Ġê²½ìļ° ê°Ģ
ë¹ µ
Ġíķ´ì£¼ ê³ł
ìĺ ĪëıĦ
´í Ŀ
£¨ ìĹ£
íĮ ¨ë
ct a
ograph y
ĠëıĮìķĦì ĺ¤
Ġê°Ģê¹Į ìļ´
ë³ĳìĽĲ ìĹĲìĦľ
Ġcomment s
Ġì§ĢìĨį ëĲĺë©´
ĠìĿ´ìĥģ ìĿ´
Ġìļ°ë £¨ìĤ¬
ìĿĺë¢ °
Ġm vi
Ġel ectrolyte
Ġtach ion
Ġë¸ĮëĿ¼ë²¡ íĨł
Ġìłķ ì¤ĳ
¡Ŀ ìĤ¬ìĭł
Ġíĺķíĥľ ìŀĪëĬĶ
ĠìłĦìĿ¼ ê³¼
Ġì§Ħíĸīì¤ĳ ìĿ¸
Ġvess el
Ġì¢Įì¸¡ ìĿĢ
Ġpi roxicam
íĺ Ģì
ez ing
ne x
Ġê²¬ ê´ĢìłĪ
ĠìŀĲê¶ģ ê°ģ
% )
ìĿ ĺìĦľ
ey edrop
Ġê³µ ê²©
ĠMM F
° Ķë
Ġì»¤ ì§Ĳ
Ġlob e
Ġsc aling
ļ© ëŁī
Ġíķ´ì£¼ ìĭ¬
Ġcyclospor ine
ëĬĶëį °ë
Ġêµ °ëį°
Ģë įĺ
íķĺ ëĭĪ
Ġì§ĢìĨį ëĲĺê³ł
Ġë »
ĠI RIS
ĠìĹİ ëĵľëł¤
íı¬ íķ¨
N R
Ġê°Ģì ĭ¬
Ġê²ĥ ìŀĦ
Ġwith in
ĠìĬµìĭĿ ìĤ¬ë£Į
Ġê²° ìłľ
ĠT ra
sti tial
m us
Ĭ ¸ë¡ľ
Ġë°ľ ìĿĦ
Ġìŀħ ëĭĪëĭ¤
Ġì¤Ħìĸ´ë ĵł
Ġê±¸ ì³Ĳ
Ġf ull
Ġì¤ĳ ìĪľ
ĠN PH
Ġvar iation
íŀĪë ł¤
ìŀĲ ê³ł
ĠëĤĺìĺ ¬
Ġê°Ģë ²¼
Ġm yd
ìĺ¤ ìĭ¬
Ġ Q
ê°ľ ìĿĺ
ê³łë ł¤
Ġê·Ģë ĵľëłĪìĭ±
Ġt l
ĠëĿ¼ ìĿ¸
ìłĲ ìķĪ
Ġëļľëł· íķĺì§Ģ
2 2
ĠìĤ¬ ê°ķ
ĠëĴ· ë°ľ
Ġìľłì§Ģ íķł
im arin
Ġì¿łìĭ± ìķ½
ĽĲ ìĹĲìĦľ
it rate
Ġì§Ħíĸī ëĲł
rof loxacin
Ġal op
ĠëŃ ī
ĠíĶĦëłĪë ĵľ
Ġì°¨ ê¹Įì§Ģ
¬ ´ë
Ġf orm
Ġcon cent
Ġë°Ľ ìĿĦ
Ġë§ĪìĿ´íģ¬ë¡ľ ì¹©
ê³ Ħì
Ġ18 0
Ġë¦¬ íı¬ì§ģ
ĠìķĪëĤ´ë ĵľëł¸ìĿĮ
Ġb oth
ìĬ¤ íĥĢ
Ġëĭ¤ë ¦Ħ
ìĦ ŀ
Ġê·¸ëŀ ĺìĦľ
ĠìĹŃë¥ĺ ìĿĺ
» µ
ê±´ì §Ģ
Ġë¹¨ê° Ľ
ĠíĻķìĿ¸ íķ´ìķ¼íķł
Ġt w
en ile
ê¸°ë ł¥
Ġì¢ĭ ëĭ¤ê³ł
Ġë°ķ íĬ¸ë¡ľë°ĺ
T h
ĠìĤ¬ ìłķ
ox ib
Ġíķĺë ³µë¶Ģ
Ġìķŀ ìª½
Ĭ ¬
ìĬ¤ íĭ°ë
s h
D T
ĠëĤ´ìĽĲ íķĺìĭľëĿ¼ê³ł
Ġall ergy
Ġre tinal
oth y
Ġë°Ľìľ¼ ìĭľëıĦë¡Ŀ
Ģì§ Ģì
ĠìŀĲ ìĹ°
Ģì§ Ħë£Į
Ġë³´ëĤ ´ì£¼
ĠëĮģ ìĹĲìĦľ
ĠíĺĪìķ¡ ìĿ´
er genic
Ġìĭľ ê¸°
ĠëĤ® ìķĦ
ĠìĹ¬ìŃ ¤ë
0 5
ĠìĭĿìļķ ìłĪíıĲ
ĠìķĪêµ¬ ì§Ħíĥķ
ĠíĦ ¸ë
Ħ ľë
Ġëĵ¯ íķľ
ìĸ´ë Ĥĺ
íĺĪ ìĦ±
Ġd elay
Ġê¸°ìĻķ ì¦Ŀ
ĠìĿ¸í ħĮ
ìļ°ì ¹ĺ
ĠíĻĺë ¶Ģ
Ġacup unture
ìĪĺ ìĿ¸ê³Ħ
ê³µ ê°Ħ
ĠëĤĺë Īł
Ŀ¼ ìĿ´
Ġalb umin
ĠIV S
Ġë§İ ì§Ģ
Ġíĩ ´ê·¼
ĠëĤ´ìĽĲ ìĺĪìłķ
ul monary
Ġì§Ģì ĸ´
Ġìĸ´ë ¦°
ìķĪ ìĹĲìĦľ
ë ªħ
ķ Ĳ
Ġm ob
ĠìĨĮ ìļĶ
ĠíĿī ë§ī
ìĺĪ ìķ½
ê³ ¤ë
Ġdil ated
Ġìĺ¤ íĨłë
ĠìĿ´ìłĦ ìĹĲëĬĶ
Ġë°°ìĸĳ ê²ĢìĤ¬
íĬ¸ë §Į
ĠìķĦì§ģ ëıĦ
Ġíķ´ì£¼ ìĭľê³ł
Ġì§Ģì¼ľë ³¼
Ġcholang iohepatitis
Ġê·¸ë Ł¬
Ġìĺ¤ íŀĪëł¤
íĿ Ķ
Ġë ±
Ġê·Ģì§ Ħë£Į
Ġmicro scopic
Ġë° ¤ë¶ĢíĦ°
ys titis
Ġë¨¹ ìľ¼ë©´ìĦľ
oc ity
³´ ëĭĪ
ìĿ´ ìłĦ
rox ine
thel ial
Ġas c
Ġca re
ĠE x
Ġë¬¼ ìķ½
Ġê¸ģ ìĸ´ìĦľ
ĠëįĶ ìĿ´ìĥģ
ê°ľë ¥¼
¡ °ì
Ġìĺ ®
ul ose
Ġë³ĳ ë³
ìħ¨ ìĬµëĭĪëĭ¤
ĠHW P
© Ŀ
ĠìĦł ìĺĪëıĦ
Ġê´ľì°® ìľ¼ë©´
Ġë ¯¼
Ġn orm
altep arin
ĠëĤ´ ìĹĲ
Ġê·Ģ ìĹ°ê³ł
Ġì¤Ģ íķĺìĹ¬
c v
Ġc itrate
Ġd uc
íĶĦë ¦´
íķ´ì §Ħ
Ġê³ł ì§Ģë
ĠëıĦë§Ĳ ê²ĢìĤ¬
ail ure
Ġë ĵľëł¸ìľ¼ëĤĺ
Ġê°Ģì ģ
íķĺëĬĶ ì§Ģ
Ġ7 0
Ġëĭ ´
Ġë¶Ħ ìľ¼ë¡ľ
Ġìĩ¼ íģ¬
Ġì¹¨ ìĬµ
oth erapy
Ġgast ric
Ġìłľ ê±°ë
Ġíķ´ì ¤Į
on itis
ĠëĤ Į
ĠíĻ ľ
ign ificant
ì¡Į ìĿĮ
on a
ĠìŀĳëħĦ ìĹĲ
ê³¼ ìĥģ
ĠìĦľ ìļ¸ë
Ġìļ°ìĦł ìłģìľ¼ë¡ľ
ĠìļĶëıĦë £¨
°ë Ŀ¼
Ġì½§ë¬¼ ìĿĢ
ŀ «
ĠìķĦë ²Ħ
ìļ´ë Ķ©
ĠíİľíĨ¡ ìĭľ
Ġpol y
ĠìłĦ ìĹĲëĬĶ
ì²Ń ì§Ħ
ik acin
Ġíİ ĺ
Ġlip id
Ġìĥģì²ĺ ê°Ģ
ê¸°ê´Ģ íĬľë¸Į
s ë¡ľ
Ġv ent
Ġs a
Ġìķ½ íķľ
ìłĢ íķĺì
² ´ì
Ġ2 7
ul es
Ġë³ĳë³Ģ ìĿ´
Ġíľ ´ìķ½
ĠíĹĽ êµ¬ìĹŃì§Ī
Ġa round
ĥ Ĳê³ł
ĠìķĪ ìĹĲìĦľ
Ġë¶Ħë §Į
² Īë
rop ofol
id ence
ë¶Ħ ìľ¼ë¡ľ
ë³ĳ ë³Ģ
Ġë°´ëĶĶ ì§Ģ
ª½ ìĹĲ
ë³µ ë¶Ģì
Ġì¹ĺ íĤ¨
ŀĺì §Ħë£Į
Ġë³´íĺ¸ìŀĲë¶Ħ ìĿĢ
Ġìĭ łë
Ġf f
Ġìŀĺë ª»
Ġìłģ ìĿĮ
Ġê±°ì ¦Ī
Ġê³Ħë ŀĢ
Ġë¹Ħìļ©ë¶Ģ ëĭ´
ĠìĪĺ íļĮ
Ġìĸ ĩ
ĠìłĪê°ľ íķĺìĹ¬
Ġíģ´ë¡ľ ë¥´í
ìĭľ ì¼ľ
Ġë³Ģê²½ íķĺìĹ¬
ìŀĳ ëħĦ
10 0
ê³Ħí ļį
Ġ4 2
Ġì¶ľíĺĪ ìĿ´
ĠëıĮìķĦì ĺ´
Ġìķķë°ķ ë°°ëĩ¨
ìļ ´ì
ìĺ¤ íĭ±
Ġê°Ħì§Ģë Ł¬ìĽĮ
f amo
¦ ¿
Ġì£¼ ìĭľê³ł
ĠAb dominal
( )
Ġì´ī ì§Ħë
Ġê°Ģë²¼ ìļ´
ê°Ģë ıĻ
ĠíķĦìļĶíķ¨ ìĿĦ
ìĿĦëķĮ ëĬĶ
Ġìŀł ìĭľ
Ġê¸° íĺ¸
ĠìĬ Ī
ĠíĺĪëĭ¹ ê³¡ìĦł
íĺĦë ¯¼
ĠëĤ´ìĻ ¸ë¶Ģ
Ġê¹ĢìĦ± íĽĪ
Ġê¸°ì¡´ ìĹĲ
Ġë³µ ë¶Ģë°©ìĤ¬ìĦł
ĠìĥĿìĭĿ ê¸°ê³Ħ
os al
ĠëĩĮ ìĪĺë
ĠìĿ¸í Ŀ¡ì°©ìłľ
Ġcomple te
Ġìłķìĥģ ìłģ
ĠìĿ´ìĥģ ìĿĺ
Ġmuc ocele
ĠíĽ¼ë¡ľ ë§¥ìĬ¤
inc ris
ĠíĻľëł¥ ìĥģíĥľ
las ma
ĠíĻĺìŀĲë ¥¼
Ġì§Ħíĸī ìĺĪìłķ
Ġìĭł ì²´
Ġì²Ļ ìĪĺ
Ġê·¸ ìłĢ
Ġr r
un k
Ġì§Ģ ìĹ°ë
Ġvel ocity
ul an
ê²ĥ ìĿĦ
Ġfluores cein
ep tion
i ed
arg et
Ġì¶ľ ê·¼
Ġamyl ase
² Ħë¦¬
ĠìŀĲ ê°Ģ
Ġëĵ± ëĵ±
Ġìĺ¤ëĬ ĺì
Ġìľł ê¸°ê²¬
Ġw n
Ġê°ľìĦłë Ĳĺê³ł
Ġro d
Ġí į¼
Ġp neumonia
Ġë¬¼ ìĦ¤ìĤ¬
íŀĪ ëĬĶ
Ġobstruc tion
2 9
Ġan orexia
Ġìĺ¤íĨłë §¥ìĬ¤
ĠH ead
t s
ac ter
ĠìĻ ķ
Ġë°Ķë ŀįëĭĪëĭ¤
³ įê²Į
Ĺ ¥
ĠëĮĢ ê¸°
ri asis
łĪìĿ´ íĬ¸
C K
Ġë°ľ ì¦Ŀ
Ġê³łëł¤ë Ĳ©ëĭĪëĭ¤
Ġê°Ģë §Į
ĠD TM
er ior
Ġë§Ī ìĭľê³ł
as one
Ġë¹Ħ íķ´ìĦľ
ĠìķĦì¹¨ ìĹĲëĬĶ
ĠíĻķìĿ¸ëĲĺ ìĹĪìľ¼ë©°
t r
ur ren
Ġpro c
Ġìŀĺë ķĮ
Ġim ha
Ġëĸ¨ìĸ´ ìł¸ìĦľ
ĵľë °
ĠëķĮ ë¶ĢíĦ°
Ġë¨¹ëĬĶ ëĭ¤ê³ł
ĠìŀħìĽĲ ë¹Ħ
ĠìĨĮë¦¬ ë¥¼
ĠI ris
dd er
Ġë¬¼ì²´ë ĵ¤
Ġì°° ê³¼ìĥģ
Į Ĳ
Ģìľ Ħë
ĠìĹĲ íĶ¼
ĠìĻ Ģë
oc ortic
¨ ê°Ģ
íķ´ ëĭ¬ëĿ¼ê³ł
ĠìłĦë °©
Ġíļ¨ê³¼ ê°Ģ
Ġfem oral
ìĺ ĢìĿĮ
Ġalop ecia
ĠëĮĢë ŀµ
cl ing
Ġox ygen
Ġì¹ ĺë
ë³Ģ ê²½
ìłĢëħģ ìķ½
Ġì¦Ŀìĥģë°ľíĺĦ ìĿ¼
ê¿ Ī
ì°¨ ê¹Įì§Ģ
ĠìĪĺë¡ľ ëŀĢ
Ġk cs
ĠíĹ Īë
Ġcor tic
ìłĲ ë§ī
Ġíķľë §Īë¦¬
ĠíĻĺìŀĲ ê°Ģ
ĠìĬ¤ íĥĢ
Ġíķĺ ìĹĲ
Ġê°ľìĦł ìĿ´
íĭ°ì ¡´
a ph
la dder
ìķĮëŁ¬ ìłľëĭī
F P
ĠC ornea
íģ ´ë
ĠìķĪìłķìłģ ìŀĦ
roc oxib
Ġë§Į íķľ
re p
ĠìĿĳê¸ī ìĥģíĻ©
Ġì§ĦíĨµìĨĮìĹ¼ ìłľ
ĠíĽĦ ì²ĺì¹ĺ
ĠìĤ°ì±ħ ìĿĦ
en ing
ĠíıīìĨĮ ìĹĲëıĦ
ĠíĹ¤ ìĸ´ë³¼
ê¸°ë §Į
em ber
Ġê°Ļ ëĭ¤
ĠëĲ ĺë
Ġì§Ħë ħ¸ëŀĳ
Ġìĥģ ìľĦ
ĠëĤŃ ìĦ±
hist amine
Ġê´ĢìłĪ ê°ĢëıĻ
Ĭ¬ ê¸°
ĠìĨĮìĭ¤ë Ĳĺ
ìĪ łë¶Ģ
ĠìĿ´ìĻ¸ ìĹĲ
ìĦŃ ì·¨
ĠL ens
Ġëĭ¤ìĿĮì£¼ ìĹĲ
ĠMM C
ìłĦ íķ´ì§Ī
Ġë§İ ê³ł
ĠìĿ¸ ì§Ģ
ĠìĺĪë°© ìĿĢ
ĠìķĪëĤ´ë ĵľëł¸ìĬµëĭĪëĭ¤
Ġì§Ħíĸī íķľ
Ġì¡° ìĭ¬
§Ī ì§Ħ
Ġì»¨ëĶĶìħĺ ìĿ´
ĠìĿ¸íħĮ ìĬ¤íĭ°ë
Ġë³ ĢëıĦ
Ġf ecal
Ġê°Ģë ³įê²Į
ê³¼ë ¥¼
Ġpost erior
ê°Ī ìĥī
w ise
Ġx ylazine
ĠìĺĪíĽĦ ëĬĶ
ìĨį ëıĦ
Ġì§Ģ ìł
ìĸ´ë ľ
ìĿ ĺë
Ġf oci
° ĳ
Ġë¹Īë ĩ¨
Ġíķľ ëĭ¬ë
ĠìĦľìĦľ íŀĪ
I soflurane
Ġë° ĺìĤ¬
Ġê³ł ìľł
Ġhyper mature
Ġíķĺìħ¨ ìĬµëĭĪëĭ¤
Ġì£¼ ìĭ¤
ul a
ĠìĿ´ ëĬĶ
Ġinf usion
ĠìĿ´ë²Ī ìĹĲ
Ħ Īë¦¬
Ġreac tive
Ġì§ĢìĨį ëĲĺëĬĶ
Ġìłķìĥģ ìłģìĿ¸
Ġë°©íĸ¥ ìľ¼ë¡ľ
Ġìĸĳíĺ¸íķľ íİ¸
Ġê°Ģëł¤ìĽĮ íķ¨
at ellar
ĠìľĦíķ´ìĦľ ëĬĶ
Ġear s
ens ion
Ġres p
a red
ìĿĺë¢ °ë
Ġìĸ´ìłľ ê¹Įì§Ģ
Ġintra cranial
ìĿĢ ê²ĥ
Ġf ace
pp er
íķĺìħ¨ ëĭ¤ê³ł
ĠíĿ °ì
Ġìĸ ´ì
Ġíķľë °©
Ġl n
ĠCon junctiva
Ġì£¼ ì¦Ŀ
íķĺìĺĢ ìĿĦ
ĠíĿī ìļĶì¶Ķ
L V
om ach
Ġim p
Ġì¢ĭìķĦ ì§Ħ
Ġbi op
ê² Ģë
Ġìĭ¬ ëĤŃ
Ġë¬½ ìĿĢë³Ģ
ìłĪ ìłľ
Ġë¶Ģë¶Ħ ìłģìĿ¸
Ġì²Ń ìĨĮ
Ġsl ight
Ġê´Ģì ŀ¥
Ġpentoxy f
ĠEy elid
ĠìķĮëł¤ë ĵľë¦¼
tro se
Ġmetast asis
Ġmob il
ĠìĿ¸ ìĪĺìĿ¸ê³Ħ
Ġë©Ķ íĬ¸ë¡ľ
ìŀ¬ ìĥĿìĦ±
ìĭł ì§Ģ
Ġnr c
Ġey es
ĠëŃ Ķ
Ġ- ,
ìłģ ìĿĢ
Ġê²½ ëıĦìĿĺ
Ġìĥģëĭ ´ë
Ġpy oderma
ìĿ´ì ¦Ī
ì¼ Ħ
Ġmass age
Ġë©Ķ íĨł
Ġf h
Ġê²°ìłķ íķ¨
Ġíķľë² ĪëıĦ
ł ģ
Ġìĸĳìĥģ ìŀĦ
Ģì§Ģë °©
Ġì¡°ìŀĳ ìĭľ
ĠìĿ´ë ¹¨
Ġh eter
íĤ¤ íĭ´
Ġref erence
im al
Ġì¤ĳ ê°Ħ
ĠF amotidine
ë ŀĮ
Ġê°ĦìĭĿ ëıĦ
Ġrecumbency ë¡ľ
ĠíĽĦ ì§Ģë
¯¸ë ŀĢ
Ġì¤ĳ ìŀĦ
Ġëª¨ë ĵł
ì» ¤ë
ĠëĳĲ ë¶Ģ
Ġë¶Ģë Ł¬
Ġd yst
ĠëķĮ ëıĦ
íķĺìħ¨ ê³ł
ìĵ °
Ġê¸ī ìĿ´
Ġí Ī¬ë
Ġì¹ĺë£Į ìĹĲ
Ġìĺ¤ëĬ ĺëıĦ
Ġê´Ģì°°ëĲ ĺëĤĺ
ìĥģ íĥľë¡ľ
Ġëĭ ¥
ħ ¸í
Ġì£¼ ê´Ģ
ĠìķĪìłķ ìłģìľ¼ë¡ľ
Ġdiff use
Ġd alteparin
ĠS K
ì°¨ íĬ¸
íĺ ĢìĦľ
Ġsp le
ìĽĲ ìĦ±
ĠìłĢì ķĮëŁ¬ì§Ģ
Ġì§Ģìł Ģë¶Ħ
¶ Īë
Ġp ig
Ġíķ ´ëĵľë¦¼
íĶĦë ¡Ŀ
ĠíıīìĨĮ ìĻĢ
Ġëĭ¬ë Ŀ¼ê³ł
ĠP M
ac om
ìķĦë ³´
othy roxine
Ġff p
Ġíķ Ħ
ëĬĶ ê²Į
ìĪĺ íĺĪ
ĠìĽĲ ìľĦë¶Ģ
el ine
Ġìļ´ëıĻ ìĦ±
Ĳ ĺì
Ġì¤ĳ ìĭ¬
oc ol
Ġìŀ¡ ìķĦë
Ġe a
ĠíĨµì¦Ŀ ìĿ´
2 6
ĠT L
Ġëĸ ¨ë
ĠìĽĲìŀ¥ëĭĺ ê³¼
Ġëı Įë
Ġê²Ĳ íĭ°ì¡´
C BC
Ī ĺë
Ġìĸĳ ìĿĢ
ĠíĿĳ ë³Ģ
ĠC a
ne ezing
ĠëĽ °
Ġë¶Ģë¶ Ħë
Ġìļ°ì¸¡ íĽĦì§Ģ
ĭľë ©´
Ġì½ ©
ĠëıĻë°ĺë Ĳľ
T ra
ëĭ¤ê³ł íķĺìĭ¬
ĠëıĦ ìĽĢ
OMM ENT
ìĺ ¬
ĠR e
ìľł ìĦł
ĠNR C
Ġíķľë² Īë
§Īë ¹Ħ
Ġëĭ¦ ìķĦì£¼
íĻ ľë
ĠL ac
Ġa ct
Ġìĥģ ë³µë¶Ģ
ĠM VI
Ġë ĵľëł¸ìĬµëĭĪëĭ¤
ìĤ¬ ê³ł
ĠI D
ĠíĻķìĿ¸ëĲĺ ìĹĪìĬµëĭĪëĭ¤
Ġmyd riasis
íķ´ì ¤Į
tis ol
Ġê³łë ł¹
Ġê¹Ģì Ĭ¬ê¸°
§Ī ëĭ¤
Ġh cm
ĠëĤ´ìĽĲ ëĭ¹ìĭľ
ĠìĺĨ ìľ¼ë¡ľ
Ġc d
ĠëŃ Ĳ
ĠìłľìĻ¸ íķĺê³ł
Ġë³ ¼ë
ĠëķĮ ê¹Įì§Ģ
Ġê´ĳ ë²ĶìľĦ
ľë ¦¼íĶĦìłĪ
Ġì´īì§Ħ ìĥģ
Ġcap sul
T H
Ġì¼ Ħ
¹ Ī
al b
ĠíķŃ ì²´ê²ĢìĤ¬
ĠíĶ¼ë¶Ģë ´īíķ©
ĠìĦľë §¥
EA D
Ġcl ock
Ġmaterial s
Ġt ars
Ġn acl
Ġ2 6
Ġê±±ìłķ ëĲĺìĸ´
u ff
ê²½ íĻĶ
Ġë³ĢíĻĶ ê°Ģ
ĠAn terior
ë° ĢëıĦ
Ġsple en
is h
oc ular
Ġë³ĳ ë°ľ
Ġc atheterization
Ġë¨¹ ìĹĪëĭ¤ê³ł
ĠìĽĲ íķĺì§Ģ
´ìŀ Ĳê³ł
Ġtob ramycin
yl on
Ġvit acom
ĠìĪĺì¶ķ ê¸°
ĠìĹĲíĶ¼ ìĺ¤íĭ±
ĠìĹ¼ì¦Ŀ ìĨĮê²¬
ĠìŀĪ ìĹĪìĬµëĭĪëĭ¤
ĠíĽĦë ĳĲ
Ġìľłë°ľ íķł
Ġì§Ħíĸī ëĲľ
Ġt ac
Ġ2 1
Ġì° ¨ë
Ġcomp ared
Ġë°Ķê ¾
íķĺë įĺ
Ġì¢Įì¸¡ íĽĦì§Ģ
ë© ľ
incris tine
Ġìĥģëĭ¹ íŀĪ
Ġì¤ĳ ìĿ¸
ê·¼ ìľ¡
Ġ(- ),
ê² °ë
yt osis
ìĦ¼ íĦ°
ri oc
i tion
Ġê³łë ¦Ħ
ë¶Ģì ¤ĳ
ĠIM HA
ì Į
o k
Ġìľ¡ íı¬
oc arcinoma
ĠìĦ¤ëªħë ĵľë¦¬ê³ł
íģĲ ìķĦ
Ġìĥģ ìķĪê²Ģ
ëį °
Ġì´ĪìĿĮíĮĮ ê²ĢìĤ¬
íĶĮë £¨
. ,
ìħ¨ ìľ¼ëĤĺ
Ġsymptom s
ĠN H
Ġëĵ± ë¶ĢìľĦ
Ġlact ulose
Ġm p
ĠëĤ «
ĠìĿ´ë ¡ľ
Ġë¶Ģì¢ħ ìĿ´
Ġê¸īê²© íŀĪ
et s
ìĦ¸ ê·ł
Ġì£¼ë ³´íĺ¸ìŀĲ
ĠCh em
Ġker at
ĠH alf
ĠëĦ¤ë· ¸
ë¶Ħ ìłĪ
Ġìĭ¬ íķ´ì§Ī
Ġëıħ ìĭľ
Ġìłĳ ì´ī
Ķë ¡ł
Ġë¨¹ìĿ´ì ĭľ
Ġë°ĺë ĵľìĭľ
ĠíĻ© íĺĦë¯¼
ħ ķ
ĠíĪ¬ìķ½ íĽĦ
Ġconcent ration
k cal
ĠìĪĺìĪł íķľ
ĠëĳĲ ëĭ¬
Ġíļ ¡
ar i
íĹ ĺ
Ġë¬¸ìĿĺ íķĺìĭ¬
ĠH EAD
ĠìķĮëŁ¬ì§Ģì Ħ±
ĠëĤ´ìĽĲ íķľ
ĠëĤĺì ķĦì
Ġê¸°ì¹¨ ì¦Ŀìĥģ
im us
ĠìĹĲëĤłëĿ¼ íĶĦë¦´
Ġamo unt
ìĭľ ëĭ¤ê³ł
ĠíĺĪìķ¡ ëıĦë§Ĳ
ĠìķĪ íķĺìĭ¬
Ġë§ĲìĶĢë ĵľëł¸ê³ł
oxap arin
¬ ¼ë¡ľ
Ġìĸĳì¸¡ ìĦ±
ìĤ°ì ĨĮ
yl ine
ĠNE CK
íĺ Ħì¦Ŀ
ê°Ģë ©´
ĠìĦŀ ìĸ´ì
rom ycin
ëĬĶëį°ë ıĦ
A CVIM
Ġdia gn
Ġd ue
ĠC H
íķĺë ł¤
ŀ ľ
ŀĲ ê³ł
ì´ Ŀ
Ġmainten ous
Ġê°Ģë§Į íŀĪ
l yc
Ġns aid
Ġíķ´ë³ ´ì
Ġì§ ĵ
Ġë¹Ħìļ©ë¶Ģ ëĭ´ìľ¼ë¡ľ
ìķĦ ìĿ´
ĠìĿ´ ìłľ
Ġíķľë² ĪìłķëıĦ
ìĥĪë ¡¬
Ġev idence
ĠìĪĺì¤Ģ ìĹĲìĦľ
ë°ľ ìĥĿ
ì¤ĳ ëĭ¨
Ġë Ŀ
ĠíĿ¥ë¶Ħ ìĭľ
Ġìĭ¬ íķł
ang i
Ġìĥĺ íĶĮ
F ace
Ġë§ĲìĶĢë ĵľëł¸ìĬµëĭĪëĭ¤
ĠìĨĮë³Ģ ê²ĢìĤ¬
Ġê´ĢìłĪê°ĢëıĻ ë²ĶìľĦ
ìĭ¤ ê¸Ī
ĠìķĦì¹¨ ìķ½
,, ,
Ġìĭ¶ ëĭ¤ê³ł
o y
Ġd ull
Ġìĺ¤ ìĭłëĭ¤ê³ł
ëĲĺ ìĹĪìĿĮ
Ĥĺë ©Ķì§Ħ
ĠìŀĺëĿ¼ íĥĦ
ë©ľ ì¦Ī
ê°Ģì ĭ¤
¨ëĶĶ ìħ
ĠíĮĮíĸī ëıĦ
ĠE ars
íĶ¼ ì§Ī
Ġê·Ģì§Ģ ê°Ģ
n ing
Ġíķľë²Ī ìĹĲ
Ġë°ľìĥĿ ìĭľ
Ġë©´íļĮ ìĭľ
ĠíĻķìĿ¸ëĲĺ ìĹĪìľ¼ëĤĺ
ë Ĵ
Ġìĸ´ìłľ ìĹĲ
yst ag
Ġëį© ìĸ´ë¦¬
ìĹ¼ ìĦ±
Ġìļ°ìĭ¬ ë°©
Ġv ir
Ġìļ°ì¸¡ ê·Ģ
ow n
o em
em oral
Ġìĺ¤ ìĭľëĿ¼ê³ł
¨ë ¦°
ķĮ ë¶Ģë¯¼
ĠìľĦ ìĹ¼
ĠìĤ°ë ıĻ
´ë °
ĠD X
ĠìĦ¸íı¬ ê²ĢìĤ¬
ĠìĿ´í ĭ
ì° į
Ġì¢ħìĸĳ ìĦ±
Ġìĭľ ê°Ħë
Ġor in
Ġbiop sy
ĠìĿ´í ĮĮ
Ġìĭ¬ë°ķìĪĺ íļĮ
Ġê¹ ľë
Ġë² Įë
ë¥ ł
ê¸ī ìłģ
Ġìłľê±° íķĺê³ł
Ġpro BNP
ĠìĿ¼ì£¼ìĿ¼ ê°Ħ
Ġì§Ģë Ĥĺ
Ġë¶Ī êµ¬
ĠëĤł ì§ľ
Ġneoplas m
Ġìłľ ìĿ¼
ĠìĥĪë²½ ë¶ĢíĦ°
Ġíķĺìĸ Ģ
ķĪ ê²Ģ
Ġradi us
Ħí ĥģ
Ġë´Ĳ ìĦľ
Ġk m
Ġcon st
Ġëĭ´ëĤŃ ëĤ´
Ġë§Īì§Ģë§ī ìľ¼ë¡ľ
Ġë³ĳ ë³Ģë
ë¯¸ìļ© íĽĦ
men ace
Ġneoplas tic
Ġìľłë¦¬ë ĦĪë¦¬
§ ë¬¼
Ġì²´ì¤ĳ ë¶Ģì¤ĳ
Ġë°ľê²¬ íķĺìĭ¬
Ġì± Ħì
ĠìĥĿ ê²Ģ
inal ysis
ceph al
Ġíģ´ë¡ľë¥´í Ĺ¥
ìŀ¥ ìķł
Ġ2 3
ec ti
ĠëĦ ĺìĸ´ì
Ġë¶Ģ íĨł
Ġìķ½ ìľ¼ë¡ľ
ìĸ´ì §Ħ
Ġorin ipural
N L
ìĿ´ë ¹ĦìĿ¸íĽĦ
íħ Ĳ
ĠíĺĪ êµ¬
ì§ĳ ìĹĲ
ë© į
Ġì» ´í
ĠìĤ¼ì¶ľë¬¼ ìĿ´
Ġket one
ren ocortic
Ġë¹ł ì§Ħ
íĿī ë¶Ģë°©ìĤ¬ìĦł
Ġìļ°ë ¦¬
Ġì£¼ê¸° ìłģìľ¼ë¡ľ
²ľ ìŀĲ
ĠìĿĺë¢°ë Ĳ¨
íķĺìħ¨ ìľ¼ëĤĺ
ĠíĦ± ë°ĳ
Ġmat ure
ìĭ ¸
Ġs tifle
int ment
Ġê³µê¸ī íķ¨
ìŀĪ ìĿĦ
ĠëĤ´ìĿ¼ ê¹Įì§Ģ
Ġcir cling
Ġìŀ¥ ê¸°ê°Ħ
Ġscre w
ra de
Ġ4 8
į°ëĤĺ íķĦ
İ ĺ
ë¹Ħë ĩ¨
Ġtor se
íĥ ĳ
Ġê³łìĹĲì½Ķ ìĦ±
Ġì¹´ë ĵľ
C h
b r
Ġs ac
ê¸°ë ¦½
ĠëĿ½ íĨłë
ë ĩĮ
ë¶Ħë ĵ¤
ĠíĿ¡ ìŀħ
Ġn ostrils
ë³µë¶Ģì ´ĪìĿĮíĮĮ
ro ss
ĠìĿĺë¢° íķ¨
Ġìĸĳìĥģ ìĿ´
Ġë§ĲìĶĢë ĵľë¦¬ê³ł
Ġca us
Ġë§Ŀ ë§ī
Ġtur n
Ġìī ½
ĠN ostrils
Ġìĭ¬ íıĲ
Ġíķł ê²ĥ
ħķ íķĺìĦ¸ìļĶ
ìĭ¬ìŀ¥ ìķ½
Ġë°Ľ ì§Ģ
¹ ľ
r ing
w eight
ĠìŀħìĽĲ ê¸°ê°Ħ
Ġë°Ľ ëĬĶ
Ġ> >
ystag mus
P DS
Ġìĺ¤ ëĭĪíĳ¸ëŀĦ
Ġ+ +
Ġë¶Ģ íĺķìłľ
ecti ous
ĠìŀĲìľ¨ ê¸īìĭĿ
Ġdex trose
Ġclemas tine
b etic
tic k
ĠEy es
mun e
v ed
Ġn esk
ĠN esk
ĠìľłìĿĺ ìłģ
ĠíĤ¤ìļ° ìĭ¬
Ġëª¸ ìĿ´
Ġpo or
Ġì§Ģì¼ľë³´ ê³ł
7 5
ìŀ¬ íĻľ
ver se
Ġwn l
w er
Ġê¸°ì¹¨ ë°ĺìĤ¬
ĠìĦ¸ë ²Ī
²´ì ĺ¨
ê²½ ëł¥
ëıĻ ë¬¼ë³ĳìĽĲìĹĲìĦľ
B L
íķ´ì §Īë
ĠM O
Ġê±°ë ¦¬
Ġ ã
ì° ¨ë¡Ģ
Ġìĭ¬íķ´ ìł¸ìĦľ
ìĽĮ ìĦľ
Ġê²½ ìļ°ë
íĮ ħ
¸ Ķ
§Ī ì·¨
ar row
Ġ ile
Ġê°ĢëĬ¥ íķĺë©´
ì»¤ë ²Ħë¦¬
ëĲľ ëĭ¤ê³ł
ĠE ch
ĠìĦ± ìŀ¥
N O
ĠìłĪ ëĭ¨
Ġë§ĮìĦ± ìłģìĿ¸
ĠìķĪë ³´
Ġne ovascular
Ġca val
lu e
Ġf s
it ation
ĠìķĦì¹¨ ê¹Įì§Ģ
ĠìĿ ĺë
ìĽĲ ëŀĺ
Ġê°Ģ ê¸īìłģ
ĠíĽĦì§Ģ íĮĮíĸī
Ġëĸ¨ìĸ´ì §Ī
ĠëĦ ĺìĸ´
Ġreg ular
ond yl
ancre atitis
a i
Ġëª© ìĹĲ
Ġë§ŀì¶ °
ĠìłĢìĹĲì½Ķ ìĦ±
Ġìłķ ëŁī
Ġë°ľìłģ ìĿĢ
ĠíĶ¼ë¶ Ģì§ĪíĻĺ
Ġcon dition
ĠìĥĿê°ģ ëĲ©ëĭĪëĭ¤
Ġëĭ¤ ëĭ
ĠE ENT
Ġì½Ķ ë§ī
ĠìĻ Ħì
ĠF H
Ķë ģĶ
s p
Ġh and
Ġdi arrhea
a di
Ġìĺ¤ ìłĦë¶ĢíĦ°
qu id
os arcoma
Ġìľł ì¹ĺë
ĠìĹ°ì Ĩį
Ġíıīê°Ģë Ĳ©ëĭĪëĭ¤
Ġpo ìłľ
ĠìķħíĻĶ ëĲł
Ł¬ ìĭ±
Ġë°ľë ĵ±
Ġì¼ģì¼ģ ê±°ë¦¬ëĬĶ
ĠëĳĶ ë¶Ģ
dib le
Ġê°Ħ ìĹ½
ìłķ íĽĪ
ĠìĦ łë
Ġrecord ed
Ġureter al
Ġex terna
ê°Ļ ìĿ´
Ġê¸°ìł Ģì§ĪíĻĺ
ê¸°ì ´ĪìĿĮíĮĮ
Ġìĸ´ëł¤ ìļ¸
Ġíĺ¼ íĥģ
ëĭ ¨ë
Ġ+ ,
Ġìĭ¬íķ´ì §ĢëĬĶ
Ġê·¸ëłĩ ê²Į
vi rus
íļĮ ìłķëıĦ
Ġal umin
ĠìķĦí Ĭ¸ë¡ľ
Ġë¯¸ë £¨
Ġëĳ¥ ê·¼
Ġë³´ ê°ķ
ĠíĪ¬ìķ½ ìĿĢ
Ġìľłë ŀĺ
ĠíļĮ ìłķëıĦ
Ġë¨¹ìĹ¬ ì£¼
ìķĦì£¼ ìĦ¸ìļĶ
Ġchl orpheniramine
renocortic ism
ĠP lasma
Ġu pper
Ġê°ĦìĭĿ ë§Į
Ġtr us
Ġchl or
ê¹ ¥
íĹĪ íĥĪ
k m
Ġêµ¬ ì·¨
Ġst ain
ĠëĪĦìĽĮ ìĦľ
Ġë¶Ģìĸ ´ìŀĪ
A I
í Ī
Ġìĭ¬ ìĿ¸ìĦ±
Ġê³ł ê°ľ
ĠP U
¯¸ ìļ©
Ġìĭ¤ìĭľ íķĺì§Ģ
Ġë¨¹ ìĿ´ë©´
Ġë°ľ ê´Ģ
ĠìĿ´íĮĮ íĤ¤íĭ´
ĠíĽĦ ìĹĲëĬĶ
ìĿ¼ ìĹĲ
el v
iz er
ĠAL B
Ġduc t
Ġc ushing
Ġresult s
S C
ê¸°ë ĵ¤
Ġfl ow
Ġfi rocoxib
Ġìĥģíĥľ ìĿ´ë©°
K I
ķ ī
Ġì£¼ ëĬĶ
Ġë°° ìĹĲìĦľ
Ġat rophy
Ġì²´ì¤ĳ ì¦Ŀê°Ģ
Ġëª© ë¶ĢìľĦ
íĨµ ìĤ¬ê³ł
Ġiv s
Ġìĭ¤ë į°ëĤĺíķĦ
n i
ìŀĪ ìľ¼ëĤĺ
Ġì¦ĿëŁī íķ¨
ĠìĦŀ ìĸ´
ĠF FP
Ġìķ¼ ì±Ħ
ĠR R
Ġì¹ľ êµ¬
ìĬ¤íĥĢ ìłľ
ìŀĪ ìĸ´
Ġê±°ë ¦¼
Ġë³´ëĤ ´ë
ot al
Ġëĭ¤ë¦¬ ê°Ģ
ìĿĢ ê±°
ĠìķĬ ëĭ¤ê³ł
ê·ł ìłľ
Ġíķ´ì£¼ ìĭ¤
ìĿ¼ë°ĺì ĥģíĥľ
matoph ytosis
Ġë¶Īêµ¬ íķĺê³ł
¦ Ļ
ĠëĿ¼ íģĲìķĦ
ı ¼
Ġw ell
nex amic
ê°ģ ë§ī
ĠíĶ¼íķĺì £¼ìĤ¬
°ľ ìĿĮ
ê±´ ê°ķ
Ġì§Ģìĸ ´ë
ìħĶ ëıĦ
Ġg ent
Ġì¹ĺë£Į ë°©íĸ¥
Ġê³Ħ ìĭł
ëĲ ĺìĦľ
Ġíķĺì§Ģ ëĬĶ
ĠìķĦëĭĪë Ĥĺ
atin g
A n
Ġê°Ļ ê³ł
Ġíķĺë£¨ë ĳĲë²Ī
ĠíĿīë§ī ê³µê°Ħ
Ġìĸĳíĺ¸ íķ´ì§Ĳ
ĠíĽĦ ì§Ģë¥¼
oplas m
Ġê°ķìķĦ ì§Ģì
Ġê» Į
is s
ĠR enal
Ġê¸° êµ¬
² ħ
ĠíĥĪìĪĺ êµĲìłķ
ĠëıĻë°ĺë Ĳĺìĸ´
Ġì¦Ŀ ê°Ģì
mur mur
ĠíĥĢë ³ĳìĽĲ
Ġìº Ĳ
o cc
ĠëĤ ´ë¡ľ
Ġì¶Ķì²ľë ĵľëł¸ìľ¼ëĤĺ
15 0
ŀĢì Ĭ¤
ìķ½ ìľ¼ë¡ľ
Ġë°ľìĥĿ íķĺìĹ¬
Ġë§Ĳ ëĭ¨
ĠìĪĺë ł¹
ëĭ ´ì
ĠìĿ´ë Ł°
ĠìķĦë ¬¼
Ġìĥģíĥľë ³ĢíĻĶ
ĠíĽĦë ¶ĢíĦ°
ĠìķĦëĭĪë Ŀ¼ê³ł
ĠP ropofol
Ġfib rosis
ĠìĽĲ íĻľ
? ?
Ġdrop s
Ġns f
Ġì£¼ ìłĢì
Ġê°Ħë ŀµ
Ġq ual
Ġë§Įë ĵ¤
rioc eption
ĠìĪĺì ¤Ģìľ¼ë¡ľ
Ġth yroid
Ġconst ant
ľ ĺëıĦ
ĠìĬ¤ íĶ¼ë¡ľ
Ġì²´íĳ ľë¦¼íĶĦìłĪ
Ġprol apse
ĺë ¯Ģë¡ľ
ìĭľ íĤ´
ìĭ¬ íķľ
Ġpentoxyf ylline
ĺëŁ ¬ë
Ġcorrug ation
¹Ħ ìĬ¤
Ġê° Ŀ
Ġìĺ¤ ìĹ°
Ĥ ľ
ķ ¼ë
ìĭ łë¶ĢìłĦ
Ġp ath
Ġë± ī
3 4
ìĽ Ģì
ĠëĦ£ ìĸ´ë
ìĪĺì ²ľìŀĲ
ì²ľ ìŀĲ
Ġì¹¨íĿĺë ¦¼
Ġc ervical
Ġë³´ì ĭľê³ł
ĠìĨĲ ìľ¼ë¡ľ
C E
amo x
Ġë°ľìłģ ìĿ´
Ġì´Ī ì½
Ġì§Ħëĭ¨ ìĿĦ
ìłĲ ìķ¡
¶Ģ ìłĦ
ìĿ¼ë ķĮ
Ġbab es
ĠìķĬìľ¼ ìħĶìĦľ
Ġlymph aden
Ġsild e
Ġì£¼ì¹ĺ ìĿĺì
ĠìĿ´ íķĺë¡ľ
ĠìłķëıĦ ê°Ģ
ĢìĤ¬ ë£Į
Ġì²ĺë°© íķĺìĹ¬
¦° ëĭ¤ê³ł
ĠìŀĦí ľĺëıĦ
Ġn ode
Ġtrans f
Ġbromhex ine
ìĬ¤ë ¥¼
Ġresp on
ĠìķĮë ĶĶ
ĠëĤĺì ĻĢìĦľ
Ġran ge
ĸ ¡
ĠìĦł ì²ľ
ê¿Ī ì¹ĺ
Ġë¹Ħ ìŀ¬ìĥĿìĦ±
Ġëĵľë ¦¬ê³ł
Ġíķ ´ëıĦ
Ġêµ ³
Ġì·¨ ìĨĮ
> >
Ġì» ¨
tra madol
Ġê° Īë
Ġíĺ¸íĿ¡ ìĥģíĥľ
Ġê²°ê³¼ ëĬĶ
ĠëĮĢì² ´ë¡ľ
ê¶ Į
ĠëĬĺìĸ´ëĤ ¨
Ġê°ľíĨµ ìĦ±
est asis
Ġd u
Ġìµľ ìĥĪë¡¬
ĠíĹ¤íĮĮ ë©ľì¦Ī
Ġhern ia
Ġìľłì§Ģë ĲĺëĬĶ
ìĬµ ì§Ħ
ì į¨
´ë ĵľ
Ġì£¼ ìħ¨ìĿĮ
Ġvis ual
D ER
Ġê³µ ìŀ¥
ĠìķĦíĬ¸ë¡ľ íķĢ
ĠìĿ¼ìĸ´ëĤ ĺìĦľ
ĠíĹ¥íĹ¥ ê±°ë¦¼
Ġneovascular ization
et ti
Ġëģ Įê³ł
2 7
Ġc age
ĠëĲ ĺìĸ´ìŀĪ
Ġê¸¸ ê²Į
Ġë°ľëĿ¼ ì£¼
ìłģì¶ľ ìĪł
Ġê°ĻìķĦ ìļĶ
Ġdelay ed
ìĬ¤ íħĮ
Ġple ural
Ġmarb ofloxacin
v ity
¶ ģ
ĠëĶ¸ê¸° ê°Ģë£¨
p nea
Ġë ŀĢ
ĠíĻķ ë³´
Ġì§Ģë ¦Ħ
Ġë¶Ģë¶Ħ ìłģ
§ĢìķĬ ìĿĮ
Ġslight ly
it us
ĠìĽĢì§ģ ìĿ´ì§Ģ
ĸ ìĹĲ
Ġp ss
Ġo v
Ġëĵ¤ìĸ´ ê°Ĳ
ox of
A ID
§Į ê°Ħ
Ġê·Ģ ìĹĲìĦľ
ĵľë ¡ľ
Ŀ¼ë §ĪìĿ´ìĭł
ĠV entilator
Ġíķ´ë³´ ê¸°ë¡ľ
íķ´ë³ ´ìŀĦ
ĠíĿĺë ¦¼
Ġê°Ĳ ìķķ
ĠU OP
ĸ µ
ĠìĹ¼ì¦Ŀ ìĦ¸íı¬
Ġchem osis
Ġs yl
´ëıĻ ë§¥
Ġc al
Ġìŀħ ì£¼ë³Ģ
Ġê±°ë ¦¬ëĬĶ
ĠëıĮìķĦ ëĭ¤ëĭĺ
Ġì£¼ê¸° ìłģìĿ¸
ĠìĿ¸íħĮìĬ¤íĭ°ë Ĥł
) /
ĠìĹĨ ìĸ´ë³´ìŀĦ
Ġë¶Ģì ¤ĳ
Ġìĭłìŀ¥ ìĹĲ
Ġìļ° ìľł
Ġhypoall ergenic
Ġì£¼ ê°ĦìĹĲ
Ġìŀħ ìĹĲ
Ġv er
ĠìłĢì ķĮë¶Ģë¯¼
ameth asone
ili ac
h yp
ĠíĿ ĺëŁ¬ë
ĠìķĬëĬĶ ëĭ¤ê³ł
° ı
Ġìł Ģì§Ģë°©
Ġìĥ µìĹĲìĦľ
Ġí ĥĿ
Ġt arget
ar ine
Ġlev othyroxine
P W
Ġw k
ĠëĿ¼ ìļ´ëĶ©
ĠíĻķìĿ¸ íķł
ĠìķĬ ìķĺìľ¼ë©°
Ġìĭľ ìłĢ
ĠìĪĺ ëĬĶ
Ġê·¼ ìľĦ
CR T
ĠìĿ´ë ¶Ī
ĠíĶĦìĦ¸ ìĿ´
ĠìĹ¬ìłĦ íķ¨
ìĹĪ ì§Ģë§Į
² ĺì¹ĺ
íķĺ íĬ¸
ìķĺ ê³ł
Ġëį°ëł¤ ê°Ģìĭ¬
ĠëĤĺëĪł ìĦľ
Ġì£¼ìłĢì ķī
ìĸ´ìŀĪ ëĬĶ
ap ine
ª½ ìľ¼ë¡ľ
ĠìĿ¼ìĭľ ìłģ
as ion
ëĤ ´ë
ĠìĹ¼ë °ľìĿĮ
f ull
ìļĶ ë§Ŀ
Ģìĸ ´ë
ìĸ ´ìŀĪìĿĮ
íļĮ ë³µ
Ġëĺ ĳ
ĠëıĦ ì°©
Ġë³´íĸī íıīê°Ģ
ĠìĪłìĭĿ ìľ¼ë¡ľ
Ħí ı¬
ul f
v o
ĠëĲ Ĳ
íıī ìĨĮ
Ġê·¸ëŁ ´
Ġì§Ħ íķľ
Ġêµ¬íĨłë ¡ľ
Ġmul tif
E T
Ģë ¹Ħ
Ġì² ¨ê°Ģ
ëĲĺ ìĹĪìľ¼ë©°
Ġperit onitis
ĠìłĢì ²´ìĺ¨
ìĥģ ìľ¼ë¡ľ
Ġì§ĳ ì¤ĳ
ìŀĲ ë°ľ
p w
¹ ë²
ê° ±
Ġíķ łëķĮ
Ġ( +),
M M
8 0
ŀ Ģìľ¼ë¡ľ
Ġìłķìĥģ íĻĶ
ĵľ ëĬĶ
ĠìķĦíı¬íĢ ł
ì£¼ë ©´
ëįĶ ëĭĪ
p d
Ġdis c
Ġg ing
ìĨĮ ìĸĳê°Ĳ
ĠìĬ¤ì¼ Ģì
a e
Ġë°Ķ ê¹¥
Ġìĭ¬ìŀ¥ìĤ¬ìĥģì¶© ìĺĪë°©
Ġìĭľìŀĳ ëĲ¨
R A
Ġs neezing
Ġìĸ µ
ĠK CS
ul s
Ġìĭ¤ë §Īì§Ħ
Ġë°ĽìķĦë ³´ì
¦ Ń
ĠH CM
Ġìµľ ìĽĲìŀ¥ëĭĺ
ë¬ ¼ë¡ľ
ell ing
. -
ĠìĿ´ ìłĦë¶ĢíĦ°
ĠìķĶ íı¬
Ġceph radine
Ġë¹łë ¥´ê²Į
ĠëĮĢíĩ´ ê³¨
ĠìłĦ íķ´ì§Īë
Ġre duced
íĬ ¼
Ġvir us
ĠíĮ¨ë ĦĲ
os ph
¬ ìľł
ëıĦ ëĬĶ
íĺķ íĥľ
Ġìĭ¬íķ´ì §Ģê³ł
Ġìŀ¥ëĤľ ê°Ĳ
ëĵ± ìĿĺ
ĠìĽ Ķ
Ġinter stitial
ĠìľĦì £¼
c la
ë°Ľ ìľ¼
ê¸° ê´Ģì§Ģ
Ġst atic
Ġê·Ģì ķ½
Ġë¦¼íĶĦ ê³Ħ
a k
íĶĮë ¡ĿìĤ¬ìĭł
Ġtrus opt
Ġchol estasis
ìłģ ìļ©
ĠëĪĪê³± ìĿ´
Ġìŀ¬ì§Ħì ĺĪìłķ
Ġë³ ĦëıĦ
Ŀ¼ ìĿ¸
Ġë§ĲìĶĢë ĵľëł¸ìĿĮ
Ġê¶Įìľłë ĵľëł¸ìľ¼ëĤĺ
oad ing
² ©
Ġd es
Ġëª» íķĺê²Į
Ġê·¸ë ŀ¬
Ġlv pw
oxof emoral
ì¡° ìłĪ
Ġor al
ĠíĶ¼ë¶Ģì ¢ħê´´
ìĭ¬ìŀ¥ ìĤ¬ìĥģì¶©
² Ń
ìĹ¼ ìľ¼ë¡ľ
Ģë¦¬ ëĬĶ
Ġì¦Ŀìĥģ ëıĦ
Ġë§İ ìķĦìĦľ
Ġë§ĲëĿ¼ ìħī
ĠìĹĨìĿĦ ìĭľ
Ġro und
Ġìķ½ ìĹĲ
Ġsc ale
ĠíĽĦì§Ģ ìĿĺ
Ġê²°ìłķ íķł
Ġíķĺë Ł¬
ë° Ķë
Ġan al
ĠìĪĺì ¤ĳ
ìĭľë Ĥĺ
Ġur inalysis
Ġìĵ°ëŁ¬ ì§Ĳ
¹ë² ¨ë¦°
ith romycin
íķ´ìķ¼ íķ¨
´í ħĮ
Ġì¡°ë §Įê°Ħ
ĠìĦ¤ìĤ¬ ê°Ģ
Ġê´Ģë¦¬ ëĬĶ
rol imus
osin ophil
Ġë¨¹ìĿ´ì ĭľëĿ¼ê³ł
ĠID EXX
in s
ab olic
Ġmg t
ĠìķĪë© ´ë¶Ģ
Ġp en
ĠìĤ¬ ëĤĺì
Ġê³ł ìĹ´
Ġìĭ¤ë £¨ìĹ£
ìĺģ ìĸĳ
ĠëĮĢ íķ´ì
ĠìłĦë°ĺ ìłģ
Ġh ist
ê³¼ ìĿĺ
Ġë¦¬ ì»¤ë²Ħë¦¬
Ġì·Įìŀ¥ìĹ¼ ìĹĲ
Ġê³łëł¤ë Ĳĺë©°
od on
ĠìĨ ľ
Ġenl arge
¶Ħ ìĿ´
Ġê³µë³µ ìĦ±
ac terial
ĠíĬ¸ë ¦¬
Ġli quid
ĠíĻķ ìĿ¸ë
lu x
Ġre d
ĠíĥĪ ìĪĺì
ĠëłĪë Ĥĺë©Ķì§Ħ
ĠAm ox
s ide
ìĿ¸ íķľ
Ġë¶ĢìľĦ ìĿĺ
Ġdist al
Ġê½ ¤
Ġc pe
Ġìĺ ·
Ġë°ĺìĿĳ ìĿĢ
Ġê² ģ
Ġìķ½ ë¬¼ë
Ġì¦Ŀê°Ģ ê°Ģ
ĠìłĦìĿ¼ ìĹĲ
íĻĶ ëĭ¨ë°±
Ġíķĺ ê²Į
ĠíĮĮ ìļ°ì¹ĺ
Ġíģ´ë¡ľë¥´íĹ¥ ìĭľëĶĺ
Ġíķ´ ëĭ¬ëĿ¼ê³ł
r u
ĠëĮĢíĩ ´ëıĻë§¥
ëĴ ·
ondyl osis
Ġë¨¹ìĿ´ì ħ¨
ĠìĭĿìļķ ì¢ĭìĿĮ
ĠëĮĢ íķĺìĹ¬
ì¼ Ģìĸ´
íıĲ ìĥī
er os
Ġíķ¥ ê³ł
ĠìłĦìĭł ë°ľìŀĳ
ëĲľ ëĭ¤ë©´
il ateral
ĠìĦ¸íı¬ ì§Ī
Ġì¡°ë ¯¸ëŀĢ
ĠëıĻ ë¬¼
ìĭ¤ë ķĮ
ogen ous
Ġì£¼ë³Ģ ìĹĲ
Ġëĵ±ìª½ ìĹĲ
ocyt openia
Ġìĭľ ìĽĲ
ê° Ĵ
Ġì£¼ ìĭł
Ġìĭ¬ íķĺë©´
Ġëª¸ íĨµ
Ġhydrox ide
ëª °
Ġë¦¼íĶĦ êµ¬
Ġen do
Ġê³Ħ ëĭ¨
Ġê¸°ì¡ ´ìķ½
7 0
Ġbut or
ĠìĦŃ ìĭĿ
ĠìĬµìĭĿ ìºĶ
Ġë´ī ì§Ģ
ĠëĮĢíĩ´ ê³¨ë
łë§Į íķľ
Ġëģ Ī
Ġì§ģ ìłĦ
ĵľë¦¬ ê¸°
ĠíıĲìķ¼ ìĿĺ
ì¹´ë ĶĶ
Ġê·Ģì² ´íģ¬
Ġì¶Ķ ìĦ¸
pe x
Ġë§¡ ê¸°
Ġë ®
ĠíĥĲ ìĥī
íĶ¼ë ıĦ
Ġìĭ¬ ìłķì§Ģ
Ġëĵľë ¦¬ê¸°ë¡ľ
Ġhead time
i tial
ĺì ķ¼
Ġê´Ģì°°ë ĲĺëĬĶ
orac ic
Ġê°ĲëŁī íķ¨
ĠìĹ¬ë¶Ģ ëĬĶ
ĠUS G
ìĭľ ì§Ģ
Ġìŀħ ìĿ´
ĠS A
ĥĦìĥ Ī
Ġë§ĲìĶĢë ĵľëł¸ìľ¼ëĤĺ
Ġì¢ĮìķĪ ìĿĺ
¦ ´ì
Ġ4 5
ce f
ot omy
ħ¸ë °Ķë
z ine
Ġg u
Ġì¹¨ ìĥĺ
Ġë³´ìĺ Ģìľ¼ëĤĺ
ë¶Ħ ìĿ´
Ġst omach
um ber
ĠìĨĮìĸĳê°Ĳ ìĿ´
Ġind ic
ĳĲ ì¦Ŀ
Ġë³´íĺ¸ìŀĲëĭĺ ê³¼
Ġê¹Įì§Ģ ëĬĶ
Ġìŀ¥ ìķł
ĠíĿī ë³µë¶Ģ
Ġì¦Ŀê°Ģ íķľ
Ġê³łì§Ģ íĺĪì¦Ŀ
az apine
ĠìĨĮë³Ģë Łī
Ġìłķìĥģ ë²Ķ
ĠìĥĿ ê¸°ëĬĶ
ë°°ì ¶Ķ
ĠëĿ½íĨłë ²³
Ġin patient
ë¹Ħ ëĬĶ
ĠìłĲìķĪ ìķ¡
ad renocorticism
ĠìŀĶ ì¡
Ġê°ľë³Ħ íĻĶìŀ¥
ĠíĿ°ì ĥī
s et
ĠëĤ ĺë©´
Ġenlarge ment
ê³ł ê´ĢìłĪ
Ġê°Īìĥī ê·Ģì§Ģ
ĠëĲĺëĬĶ ì§Ģ
ĠA S
´í ĽĦ
Ġë¨¹ ìĸ´ëıĦ
ìŀĪ ìĸ´ìĦľ
Ġìŀ łë§Į
ëĤĺ ê³ł
red nisolone
oc yte
Ġim mature
Ġê¸°ë³¸ ìłģìĿ¸
ì¡° ìłľ
ĠëĶ° ëĭĺ
( ),
¯ ¸í
´Ĳ ìĦľ
ĠH L
Ġmal ign
ì§Ģ ìĹ°
Ġê°ĳìĥģìĦł ìķ½
Ġb lue
Ġìłķê¸° ìłģìĿ¸
ĠcPL I
Ġì¶Ķìłķ ëĲĺëĬĶ
ĵ ¦
Ġëĸ¨ìĸ´ì ¡Į
Ġìŀłë³µ ê³łíĻĺ
ĠG i
ëª© ìłģ
ĠìĭĿìļķ ê°ĲìĨĮ
le d
ĠëĳĲ ê³ł
Ġë°¥ ë¨¹
Ġë³µìļ© íķĺê³ł
ĠìĿ¸ë ĮĢ
Ġcaval etti
ĠìĭĿìļķ ëĵ±
ì´ Īë
ìł¸ ìŀĪìĿĮ
Ġtr ial
ĠëĦ¤ ìĺ¤ë
Ġëª¨ë¥´ ê²łìĿĮ
Ġprop rioception
Ġë¹¨ ê°ľ
Ġìĺģìĥģ ìŀĲë£Į
Ħł ìĥĿëĭĺ
ī ģ
Ġê°Ħ íĺ¸
Ġê¸°íĺ¸ ìĦ±
ë¹ ĦíĽĦ
Ġn ystagmus
ë¬ ´
ĠD ob
Ġa pex
ķĦì ¹¨
ĠëĤĺíĥĢëĤ ľ
Ġêµ¬ê°ķ ëĤ´
Ġë°Ķë ¥´ëĬĶ
9 6
Ġì¦Ŀ ê±°
Ġo k
íĸĪ ëĭ¤ê°Ģ
ĠV I
ĠíĶĮë £¨
Ġdo or
ĠíıĲ ìĿĮ
Ġìĭ¬ê°ģ íķľ
Ġrec om
Ġratio ëĬĶ
Ġë¨¹ ìĹĪëĬĶëį°
Ġê±±ìłķ ëĲĺì
Ġover all
ach ment
´íĶ¼ ì½ľ
Ġìĭ¬ëĤŃ ìĪĺ
¡ Ń
Ġëĭ¹ ê·¼
ĠëıĮìķĦ ëĭ¤ëĭĪ
ëĨ Ģ
Ġìĸ Į
Ġfood s
Ġê°ĳ ê¸°ìłĢ
Ġëĩ¨ ìĬ¤íĭ±
Ġë¹Ħë ¹Ħ
ĥ ĪìĿĮ
ìĭ ¶
Ġs enile
Ġtra nexamic
Ġc ut
Ŀ¼ ëĬĶ
Ġìĭ¶ìĸ´ íķĺìĭ¬
ĠìłĦ ìĭŃìŀĲìĿ¸ëĮĢ
Ġëĭ¤ íĸī
Ġin g
Ġì ¦ī
Ġth ese
Ġtib ia
ĠìķĦë¬´ ê²ĥëıĦ
b ut
Ġì´Ī ìĹĲ
£ ©
Ģë¶ ĢìľĦ
ìĨĮë¦¬ ê°Ģ
ĠëĬ¦ ê²Į
Ġm ast
Ġcol on
ĠAmox icillin
¬ ¸ë¶Ģ
ĠíķŃë¬¸ ì£¼ìľĦ
ĠíĤ ¹ë²¨ë¦°
Ġë¶Īê·ľì¹Ļ íķľ
ķĪ ê°ģ
· ¨
ĺì ĻĢ
act ate
Ġqual ity
Ġë º
Ġì¤ĳ ìľ¼ë¡ľ
Ġë³µìķķ íķŃì§Ħ
ĠëķĮ ë§Į
ĠìķĪëĤ´ë ĵľëł¸ê³ł
ĠìķĬìķĺ ê³ł
in k
ĠëĮ Ģë¡ľ
ĠëĤĺíĥĢëĤĺ ëĬĶ
ĠìĤ½ ê´Ģ
ĠìļĶê´Ģ ê²°ìĦĿ
Ġë¹¨ë Ŀ¼
ëĲ ĺìĸ´ìŀĪ
Ġc n
ê°ľ ìĽĶ
íķ µ
íķĺ ëĭ¤ë©´
ëĲĺ ìĹĪìĬµëĭĪëĭ¤
ĠìĿĮìĪĺìļķ ìĿĢ
ĠíĶ¼ë Ķ©
Ġê°Ģì ĺ¨
Ģ ìĿĦ
Ġë³Ģì Ħ±
Ġë¶ĪìķĪ íķ´
Ĩĵ ìĿĮ
ĠìķĪëĤ´ íķ´ë
Ġíĺ¸íĿ¡ ê³¤ë
§Ģ ê±°ëĤĺ
ĠìĽĲ ë
Ġê¸ Īë°©
at er
Ġë¬» ìĸ´ëĤĺì
ìĥĪë ²½
Ġë°Ľìľ¼ ìĭ¤
Ġì» ¨ëĶĶìħ
íĺ¸íĿ¡ ê¸°ê³Ħ
ĠëıĻ ê³µ
a que
Ġìŀ¬ ë°ľë
íĺ¸í ħĶ
Ġìŀĺì ķĪë
Ġë²ł ìĬ¤íĥĢìłľ
Ġìĸ´ëĸ »
ìĿĺ íķĻ
Ń ī
ĠíĦ°ë ¹Ħë
íĻ ĺì
Ġn ylon
¹Ħ íĥĪ
Ġìĸĳ ì¹ĺ
Ġêµ¬ ìĦĿ
ìŀĺë ¨¹ìĿĮ
Ġelev ation
Ġëĵ£ ê³ł
´ëĤ ´ë
Ġê·¸ ìłľ
ĠëĮĢì ĭł
Ġíķĺì ķĪê²Ģ
Ġìŀ¬íĻľì¹ĺë£Į ìĭľ
Ġë¶Ģë¶Ħ ìłģìľ¼ë¡ľ
ê²ĢìĤ¬ ê²°ê³¼
g an
ĠíĬ¹ìĿ´ìĤ¬íķŃ ìĿĢ
Ġsw elling
į °ìĬ¤
ĠíķĺìĿ´íı¬ ìķĮëŁ¬ìłľëĭī
ĠFuro semide
Ġs im
ìķ½ ê³¼
ĠìłĦ ìĿ¼ë
Ġìŀ¥ìĹ¼ ìĹĲ
íĻľë ıĻ
U T
ë¶ ķ
Ġcan n
Ġëĭ¹ ìŀ¥
Ġìĭ¬ìŀ¥ ê²Ģì§Ħ
at es
Ġë¯¸ ìĦ¸
Ġulc eration
Ġìĭ¤ìĭľ íķĺê³ł
ì²ĺì¹ ĺë
Ġtac rolimus
Ġìĥģíĥľ ìĿ´ëĤĺ
Ġìĸ¸ ìłľ
Ġsam ple
l ing
ĥ Ī
Ġì²ĺë°© íķ´ëĵľë¦¼
Ġê¸°ë ĮĢ
Ġë°°ì ¶ľ
Ġm orph
b i
Ġíĺ¸íĿ¡ ìĿĮ
oc occ
yt es
ìĿ¸ ìĿ´
Ġed ta
Ġmal a
ı ¬ë
Ġu ter
ĠìĪ¨ ìī¬
ëª ĩ
Ġë¨¹ ìĹĪìĿĦ
ine mia
Ġê¸ ´ìŀ¥
ĠíĺĪ ê´´
Ġê¸īìĹ¬ ëŁī
íĬ¸ë ¦´
Ġì¢ħê´´ ìĿĺ
Ġê¸°ëł¥ ìłĢ
Ġëª ½
ìĦ± ìĪł
Ġv incristine
ĠëŃĶ ê°Ģ
ê°ĲìĨĮ ì¦Ŀ
ë łĪë
Ġê²ĢìĤ¬ ìĹĲ
Ġìľłì§Ģ íķĺë©°
ë ĺ
oph anol
Ġtl k
íĶĦë¡Ŀ ìĬ¤
Ġ enter
ĠìķĪ ê³ł
Ġcephazol in
ĠíĹĪë ²ħ
ĠCP E
Ġìĭ¬ ì´ĪìĿĮíĮĮ
ĠìĿĳê¸ī ì²ĺì¹ĺ
Ġìķ¼ ê°ĦìĹĲ
Ġê²¨ ìļ¸
ĠìķĪ íĸĪìĿĮ
íļĮ ë¡ľ
rop rus
Ġcor tisol
Ġl oading
Ġê´ľì°® ëĭ¤ê°Ģ
Ġë¨¹ ìĿ´ë©´ìĦľ
Ġr h
Ġfamo tid
Ġfem ur
ĠI N
°ĺì Ĥ¬
Ġìķł ê¸°
Ġì§Ħëĭ¨ë°Ľ ê³ł
Ġë°°ìķ¡ ê´Ģ
ĠíĿīë§īê³µê°Ħ ìĹĲìĦľ
w o
Ġìĸĳíĺ¸ íķł
Ġmainten ance
ĠëĦ¤ë·¸ëĿ¼ìĿ´ ìł¸
ĠìĿ´ë ©ĶìĿ¼
¼ë¥¨ íĺĪì¦Ŀ
íķĺì ĭŃëĭĪëĭ¤
íķĺì ħĶìķ¼
Ġìŀ¥ì°© ì¤ĳ
ŀ¬ ì§Ħ
íĺĦì¦Ŀ ê²½ê³¼
ìĤ¬ ìľ¡íĻĺê²½
Ġpan el
Ġìĥģíĥľë ¥¼
ĠìĦŀ ìĸ´ì£¼
Ġìļ°ìķĪ ìĿĺ
Ġíķľ ìĭľê°Ħ
dib ular
P atellar
l ob
¦ ´ë¡ľ
Ġl ess
Ġì¢Įì¸¡ ê·Ģ
Ġëĵľë ¦¬
l ow
Ġíķµ ê²½íĻĶ
êµ¬ ìłľ
Ġëĭ¹ íĻĶëĭ¨ë°±
Ġìŀ¬ë°ľ ìĭľ
ĠìķĪì¢ĭ ìķĦìĦľ
Ġëĺ ¥
ŀ ħ
íĻĶ íķĻ
alex in
Ġíķĺì ĭľëĿ¼ê³ł
Ġê°Ģ ëĬĶ
Ġë³Ħ ëĭ¤ë¥¸
f t
Ġíİĺë ħ¸ë°Ķë
Ġfh no
Ġíķĺì ĭłëĭ¤ê³ł
ph rine
Ġê°ĲìĨĮ íķĺìĹ¬
Ġcom pl
Ġsp ot
p eration
ìĽĲ íķĺìĭ¬
ĠëĤ® ê²Į
Ġê´ľì°® ëĭ¤ê³ł
Ġì¢ħìĸĳ ìĿĺ
ìĭĿìļķ ìĿĢ
ĠìĻ¸ê³¼ ìłģ
Ġê²½ê³¼ë ³´ê¸°ë¡ľ
Ġh on
Ġì¹¨ ìĿĦ
ĺ¤ ëĬĶ
ë© ´íļĮ
Ġë§Įìł¸ ì§Ĳ
D x
Ġìŀ łë
ĠìĿ´ì ĻĦ
Ġë¹µ ë¹µ
U S
´í ĸĪ
Ġmild ly
ê¹Į ì§Ħ
Ġ3 4
íħ Įë
ëĤ´ì Ļ¸
ĠC r
ĠíĬ¹ìĿ´ ë³ĢíĻĶ
Ġê·¸ìłĢ ê»ĺ
¤ ¬
Ġa cc
Ġì¶Ķì²ľë Ĳ©ëĭĪëĭ¤
ìĤ¼ ì¶ľë¬¼
Ġê¸¸ë ĥ¥ìĿ´
íķŃ ìķĶ
Ġë°ķ ìłķíĽĪ
Ġfore limb
ĠìĦľìļ¸ë ĮĢ
ì§Ģë ©´ìĦľ
į°ìĬ¤ íĥĢ
Ġëª© íĳľ
ĥģ ìĬ¹
Ġê°Ħ ê¸°ëĬ¥
Ġop en
TI V
======== ========
ìłķ ëıĦë
Ġon d
ococc us
Ġs BP
ìłĢíķĺì ¦Ŀ
f r
Ġpal p
Ġëĵ¤ìľ¼ ìħ¨ìĿĮ
©Ķë Ķĺ
Ġn po
ìĨĮ ë³Ģ
Ġìĸ´ëĸ» ê²Į
´ë ¶ĢìľĦ
oph ag
Ġval ve
í ľ
ëĭ¤ ëŁī
ĠíĶ Į
ĠëĤĺ ìĿ´ê°Ģ
Ġleve l
Ł¬ì§Ģ ëĬĶ
ł ¨ë
ĠëĤ´ìĽĲ ìĥģëĭ´
ĠíķŃ ìĤ°íĻĶ
ê²ĢìĤ¬ ëĬĶ
ê° Ħì¤ĳ
Ġì¹ĺë §¤
ĠíıĲ ì¶ľíĺĪ
Ġíķľëĭ¬ë Ĵ¤
ê¸°ë ©´
ĠìķĦë¯¸ëħ¸ íķĦë¦°
Ġê°ĸ ê³ł
ĠB i
ĠëĤ´ì ķĪê°ģ
Ġëĭ´ì ¦Ļ
Ġë°© ê¸Ī
ĠìķĶ ëª¨ëĭĪìķĦ
ĠìķĪëĲ ĺë©´
id erm
Ġcon j
ĠìĻĶëĭ¤ ê°Ķëĭ¤
Ġê¸°ì ¤Ģìľ¼ë¡ľ
ĠëĤĺíĥĢë Ĥ¬
Ġì¶Ķê°Ģì ķ½
Ġvitre al
Ġn umber
ĠM GT
Ġë¿ Į
Ġìŀ¬ ìŀ¥ì°©
Ġë°© ìļ¸
Ġcle ar
Ġperfor med
o ve
Ġsh a
ĠíĻĺìŀĲ ëĬĶ
res is
ìĽ Ģì§ģ
Ġê±±ìłķ íķĺìĭ¬
et c
¥ ĺë
ëĭ ĺë
ë³ ¼
ens ory
Ġì§Ģì¼ľë³´ì ĭľê³ł
ocardi ography
Ġìĭ¤ìĭľ íķĺê¸°ë¡ľ
Ġíı¬ëıĦ ëĭ¹
Ġtime iv
ĠT S
week s
ĠA pp
ì¢Į ìķĪ
ĠìłĪë ĮĢ
Ġê°ĢìĬ ´
Ġì¹ĺë£Į ë¶ĢìľĦ
Ġìłķ ì²´
°ĺ ìłĲ
Ġìķ½ ëıĦ
ĠìķĪë Ĳĺìĸ´
Ġau dible
ìĻ Ģì
Ġcor ona
ĦĪ ìĬ¤
Ġd m
ì¹´ëĶĶ ìĺ¤
Ġì¤ĳ ìĹ½
ĠìĹ¼ì¦Ŀ ìľ¼ë¡ľ
Ġë³´ ìĿ´ê¸°
ì£¼ ê°Ħ
Ġan is
ĠëĨĴ ì§Ģ
ë ¦¼íĶĦìłĪ
Ġmax on
Ģ ¸
íĮ Ĳë
Ġsh ock
¶ģ ëĮĢ
Ġa ki
Ġê¹ ½
ł Ĳ
Ġìľł ìĹ°ì
roprus side
Ġã ħģ
ì¢ħ ìĿ¼
Ġdet achment
Ġìķ½ íķĺê²Į
tin u
Ġì²´ì¤ĳ ê´Ģë¦¬
Ŀ¼ë ¯¼
ł¸ ìĿĮ
¥ µ
Ġt g
p an
ĠìķĶíĶ¼ ìĭ¤ë¦°
ĠìķĦíĶ Ħ
ì§ĢëĤ ľë²Ī
z y
ĠíĻĺìŀĲ ìŀħëĭĪëĭ¤
Ġê¼ ¬
ĠìĪĺìĿĺìĤ¬ ìŀħëĭĪëĭ¤
Ġì½Ķ ê°Ģ
Ġë¹Ħ ê³µ
Ġlymphaden opathy
Ģì§Ģ íĺĦ
Ġë¹Ħ ìĥģ
ĠëĪĪ ì£¼ë³Ģ
ost rid
ë¶Ħë ¦¬
Ġëĵ ľ
e ar
Ġíĺ¸íĿ¡ìĪĺ ëĬĶ
Ġbl ock
oxy ch
ĺ ĢìĿĮ
ìĥĿ ìĪł
Ġìľłì§Ģ íķĺê¸°ë¡ľ
ŀĪ ëĬĶ
Ġëĩ¨ íĮ©
íķ´ì£¼ ìĭ¤
Ġë³ĳë³Ģë ¶Ģ
V ë¡ľ
Ġt vi
íĻĺê²½ ë³ĢíĻĶ
ĠìłĪë °ĺ
Ġë łĮ
Ġd ate
ê±°ë Ŀ¼ê³ł
ëĭ´ ê´Ģ
¦¬ë ©´
Ġìĺģìĥģ ê²ĢìĤ¬ìĥģ
Ħë Ł
ĠêµĲ íĨµìĤ¬ê³ł
ĠAb domen
Ġëı ¼ì§Ģ
Ġ2 9
ĠF S
p ar
Ġe osinophil
Ġë¨¹ìĿ´ì ĭľëĬĶ
Ġëĭ¨ëĭ¨ íķľ
Ġì§ĢëĤľë²Ī ìĹĲ
Ġran i
mend ation
Ġmultif ocal
as c
ĠìĤ¬ë£Į ìĻĢ
Ġdex amethasone
ìĨĮíĻĶ ê¸°ê³Ħ
Ġë¹Ħ ìľ¨
§Ģë ©´ìĦľ
ĠíĶ¼íķĺì ¶ľíĺĪ
ĠìĥĿê°ģ ëĲĺë©°
ĠìŀĲë°ľë ¡ľ
ķ Ģ
Ġe m
Ġ3 2
Ġì§Ħë£Į ë¥¼
ë¶Ī ëĬ¥
Ġ9 6
Ġfel v
ĠìĹ°êµ¬ ê°ľ
ìłľ ê±°ì
Ġìľłë £¨
ìĬ¬ ê´ĢìłĪ
Ġmirt azapine
į ľ
es is
rop enem
ħĶ ëıĦ
Ġê±°ì ¹ľ
um p
ê²° ìłĪ
Ġgl ob
ĠëĬĳ ê³¨
Ġìŀħ êµ¬
£¨ ìĤ¬ë
Ġìĭ¬ìŀ¥ ì§ĪíĻĺ
Ġìŀ¡ ê³ł
Ġì»¤ ì§Ħ
Ġpul se
row n
oxych olic
ĺë ¦¬
Ġë§İ ìķĦì§Ĳ
Ġne uro
Ġn ec
íķĺë ł¤ê³ł
b y
ĭ ¤ë
Ġin dex
Ġì¢ĭìķĦ ì§Ģê³ł
ĠìłĦ ìĹĲëıĦ
ĠíĶ¼ë¶ Ģì§Ħë£Į
Ġr bc
ìŀ¬ ê²Ģ
Ġëĭ¤ëĭ Īëįĺ
y ph
êµ¬ ì¹ĺ
ĠëĤ´ ìĿ¼ë¶ĢíĦ°
ĠìĨĮíĻĶ ìłľ
ìĹĪëĭ¤ê³ł íķ¨
ĠìĿ´íĭĢ ìĹĲ
ìŀĲ ìĦ¸
ê·¼ ê³¨ê²©ê³Ħ
ĠìĿ´ë²Ī ìĹĲëĬĶ
Ġíķĺì ĭŃëĭĪëĭ¤
ĠR E
ĠëĨ Ģì
ë¹Ħëĩ¨ ê¸°ê³Ħ
Ġìĺ¤ìĹ° ìĦ±
¼ Īë
Īë įĶëĭĪ
Ġê³łëł¤ ì¤ĳ
Ġben ign
Ļ Ģì
Ġc oxofemoral
ĠìĤ¬ ìĿ´ì¦Ī
A N
ĠNS AID
Ġê¹Ĭ ìĿĢ
ĠìĨĮë¦¬ ì§Ģë
ĠìĺĪë¯¼ íķľ
ĠSAM e
Ġìľ ¤
Ġì¢ħíķ© íĺĪìķ¡ê²ĢìĤ¬
Ġëļľëł· íķĺê²Į
Ġasc ites
Ġ3 3
Ġëĩ¨ ë¹Ħì¤ĳ
ĠëįĶ ë
ì ±ħ
Ġì¹ ¼ìĬĺ
ĠìĪĺìĪł ìłģìĿ¸
°ľ ìłģ
v enia
Ĥ ´ë¡ľ
ĠFH NO
A o
ëĦ ¥
Ġëĭ¤ìĸĳ íķľ
Ġìĸĳ ë°°ì¶Ķ
Ġê°ĢëĬ¥ íķł
Ġë°ĶìĿ´ íĬ¸ë¦´
ĠíĶ¼ë¶Ģ ìłĪê°ľ
Ġë¬¼ ì²´ê°Ģ
Ġë³ĢíĻĶ ë¡ľ
Ġvar i
tic s
£¨ìĤ¬ë £¨ë
c atheterization
ë¶Ī ê°Ģ
¶Ħë ªħ
Ġì¢ĭìķĦì¡Į ìĿĮ
ĠíĿ Ĳë
ì§Ģ ê±°ëĤĺ
Ġì§Ħ ìŀħ
ens ive
Ġíģ´ë¡ľ ëŀĮ
p os
ĠìķĪë ĲĺëĬĶ
íķ´ì ļĶ
ĠìĥģíĶ¼ ìĦ¸íı¬
rep to
Ġê·¸ëŁ° ì§Ģ
Ġp up
ĠT reatment
ê²° ìłķ
Ĳë ĸ¡
ì§ ķ
Ŀ¼ë °Ķ
Ġë¯¸ëģĦë Ł¬
Ġf ur
ŀ¥ ëĭĺ
ĠìķĪì¢ĭ ìĿĢ
Ġv ascular
Ġìłģ ê²Į
ĠT VI
Įë ¦¬ë
ĠìĦ ¬ìľł
Ġì§Ģê¸Ī ê¹Įì§Ģ
ê¸Ī ìĭĿ
Ġx al
Ġì¢ĭìķĦ íķ¨
C N
Ĭ µìłľ
ìĥģ ìĿĺ
Ġinter pre
Ġdyst rophy
Ġd ent
Ġê± ¸ë¡ľ
ĠK idney
Ġt ro
ĠLV PW
Ġê¸īê²© íķľ
ê°Ħ ìłĳì¢ħ
Ġê ¿
ĠíĻķ ìĹ°
ĠìĤ¬ ì§Ħì²¨ë¶Ģ
ic in
ĠëĤ´ ìĿ¼ëıĦ
Ġë³´íĺ¸ìŀĲë¶Ħ ê³¼
Ġê¸°ë³¸ ìłķë¦¬
ĠTL K
Ġp elv
ìķĺ ëĭ¤ê°Ģ
Ġëĭ¨ë ıħ
ĠìĤ¼ì¶ľë¬¼ ìĿĢ
ĵ¯ ìĿ´
Ġíı¬íķ¨ íķľ
Ġfib rin
Ġìŀ¥ ë
Ġinter val
ĳ ł
íĻ ĺë
ìĭľ ìĹĲëĬĶ
Ġëľ ¸
Ġì¦Ŀê°Ģë Ĳĺìĸ´
Ġaden ocarcinoma
Ġg ait
ìĿ´ì ª½
Ġíķľë ĳĲë²Ī
Ġê²½ìļ° ìĹĲëĬĶ
Ġì¶©ë¶Ħ íķľ
p cv
Ġìļ °ìĨĮ
ìĭ¬ íĺĪê´Ģê³Ħ
£¨ìĤ¬ë£¨ë ¯¼
Ġíľ ´ì
Ġìĺ¤ì¤Į ìĿĦ
ech ia
Ġë° Ģë
Ġsp ondylosis
Ġreg urg
ìĽĢì ¦Ŀ
ĠìķĶíı¬ ìł¤
l r
ĠëĤ´ë³µìķ½ ë§Į
Ġíķ¥ ìķĦìĦľ
ĠII I
id oc
Ġê´ľì°® ìĿĢ
ĠìķĪë¨¹ ëĬĶ
Ġp p
ìĤ¬ ë¯¸
Ġl arge
ĠìĿ´ì ĺ
ë² Ħ
Ġìŀĳ ìķĦ
Ġbul ging
Ġc s
Ġì²ĺë°© ìłĦ
Ġê³ł íĺĪëĭ¹
ĠëĤĺë ĪĦ
Ĩ ¨
£¨ ë°į
íĻķìĿ¸ëĲ ¨
³ ĢëıĦ
´ë į°
ìĿ´ë Ŀ¼ë©´
Ġìĭľ ìĹĲëĬĶ
ĠíıĲ ìĦ±
Ġë¶Īë ªħ
ê¸°ì ĻĢ
Ġê¶Į íķ´ë
ĠAc ute
Ġch x
Ġê³¼ ì¦ĿìĭĿ
g ress
ë§İ ìĿ´
ĠíĨµ ë³´
íĶ¼ë ¶Ģì
ĠìŀĲë°ľ ê¸°ë¦½
ìĹĪ ìĸ´ìļĶ
ĠìķĪëĤ ´ì
Ġint act
Ġê²© ë¦¬
Ġen d
¥´ë ©´
Ġg v
pi rin
Ġë¶Ģ ê·¼
Ġìķ½ê°Ħ ìĹĲ
ĠìĺĪ íĽĦë
Ġmet abolic
Ġchol ec
Ġëħ¸ëł¹ ê²¬
ĠAl b
ĠëĶ±ëĶ± íķľ
ĠìķĦëĭ Ĳ
íŀĪ ê³ł
Ġê²°ìĦĿ ìĿ´
Ġìº £
ĠìĿĮìĪĺëŁī ìĿĢ
¥ ´íħĮ
Ġê³µê¸ī ìĭľ
e ine
ê²°ë§ī ìĹ¼
ĠìĹ°ë ł¹
ħ¸í Ģ¸
ìł Ħì¦Ŀ
Ġë¶ Ħì
um an
¹Ħì ¡¸
cime tidine
Ġëª» íĸĪìĿĮ
ì½ ľë¦¬
íĶ¼ëıĦ ê·¸ë
Ġ ti
ìĿ´ë įĺ
Ġê± °ì¹ł
Ġw eak
Ħ £
Ġëĸ ¼
ĭ ¸
ve ment
Ġì¦Ŀê°Ģ íķĺìĹ¬
Ġë¶Īë ¶Ħëªħ
Ġìļ°ìĨĮ ìĤ°
Ġíĺ Ģë
ĠìĹĨ ì§Ģë§Į
Ġch ang
Ġíģ¬ ì§Ģ
ĠìĹ´ ìĿ´
ĠìĹ°ì ĸ´
Įë¦¬ë £¨ë
ĢìĤ¬ íķŃ
Ġt rem
Ġê³ł ê°ľë¥¼
ĠëĪĦìĽĮ ìŀĪìĿĮ
ëĤĺì ¡¸
0 4
Ġì§Ģ ê°Ħë
Ġë¬¼ ìĸ´ë³´ì
il ep
Ġdia betic
ĠìºĲ ëĭĪ
p es
ĠìĪĺ ìłľ
ĠM P
Ġêµ¬íĨł ëıĦ
Ġê° Ħí
Ġd po
ìĬ¤ íĥĢë¯¼
Ġë¨¹ìĹ¬ ì£¼ìĦ¸ìļĶ
´ìľ ł
Ġëª»ëľ ¨
ê°ľë ¡ľ
íĺ ĳ
Ġì¶Ķ ìłĳ
Ġê¸° íĥ
ĠìłĢëħģ ê¹Įì§Ģ
Ġë²Ĺ ê²¨
ìĭ ŃëĭĪëĭ¤
is ual
Ġì§ĳìĹĲ ê°ĢìĦľ
Ġë°ĺë ĮĢì
Ġë¹¨ê°Ľ ê²Į
íĶ¼ëıĦê·¸ë łĲ
o ose
ìĿ´ì Ĭ¤
Ġë°ĺìĿĳ ìĦ±
Ġëĭ¤ë¦¬ ìĹĲ
ĠíĻķìŀ¥ ëĲľ
lux ation
Ġl s
Ġsme cta
íĺĦ ìļ±
Ġpent ox
ĠëıĻë¬¼ë³ĳìĽĲ ìĹĲ
O peration
Ġë°°ë Ĩį
do w
ë§Į ìĦ±
Ġt end
Ġam ikacin
ĠíħĮ ìĺ¤
ìĿ ĺë¡ľ
Ġìª½ ìľ¼ë¡ľ
a ine
ĠìŀĪ ê²Į
ìĿ´ì »µ
18 0
Ġê°ĲìĨĮ ê°Ģ
ĠìĿĮìĭĿ ìĿĦ
Ġíŀĺ ìĿĦ
Ġìĭ¬íķĺì§Ģ ëĬĶ
Ġocc ur
Ġë¶Ģì °©
ìĭľë Ķ
Ġn p
Ġë¹Ħ ìĹ¼
Ġì£¼ë ³Ģë
Ġì²ĺë°© ìĿĢ
Ġìĭ¬ìŀ¥ ìĿ´
ĠCR E
Ġíķ¥ ì§Ģ
Ġë¶Īíİ¸íķ´ íķ¨
ìĬ¤ì¼ ĢìĿ¼ë§ģ
Ġmobil ization
Ġì´Ī ìŀĲ
Ġsw ab
Īë ¦°
Ġìľ µ
ê°Ģì ĥģ
ĠìĿĳê¸ī ìĭ¤
Ġê·¼ë §ī
Ġëľ¨ ê³ł
Ġac tivity
ĠíĻķìŀ¥ ìĿ´
ĠíĮĮíĸī ìĿĢ
ĠëıĮ ì¶ľ
Ġker atitis
th al
Ġvit bc
ìĹĲì½Ķ ìĦ±
Ġëħ¸ ì¶ľë
ĠìĪłë¶Ģì ĨĮëıħ
ĠìķĦëĭĪë ©´
ac et
ĠìĪĺì ĭł
Ġê°Ħë ¹ĦëĮĢ
Ġë £¨ë
ĺì ²Ń
ìĭľ ìķĦ
ìĸ´ì §Ģê³ł
ĠìķĦë £¨ìĤ¬ë£¨ë¯¼
ĺ¤ ìĭ¬
íķľë į°
ĠëĳĲêº¼ ìĽĮ
ìĽĲ íĺķ
Ġë¯¸ ìĪĺ
ëĲĺ ê±°ëĤĺ
W O
Ġìĺ ħ
Ġf ailure
Ġê°Ĳ ìŀĲ
ĠìķĮ ìķĦë
ĠëĳĲ ê°ľ
ë°ľë ª©
ĠíĻķìĭ¤ íŀĪ
NR F
Ġd ig
ıĦë ¡ľ
łĪ ìĿ¸
Ġu m
Ġëģ¼ ê³ł
ĠëĮĢíĩ´ê³¨ë ĳĲ
Ġvitre ous
ìĬ ¨
ĠE l
ul in
ĠIn f
D I
at an
Ġcortic al
ëĤ Ļ
Ġëĵľë ¦´
Ġre generative
Ġíķĺ íĬ¸ë§Į
ĠëĨĴ ìĿĦ
ìķ łë
ĠìĭĿìĤ¬ ëŁī
Ġë¹Ħ íĥĢë¯¼
Ġê±¸ë ¦°
Ġëĥī ìŀ¥
ĺ ¬ë
Ġìĺ¤ ìĭł
ĠìĿ¼ ìĸ´ëĤĺ
ĠìĹ¬ëŁ¬ ê°Ģì§Ģ
Ġìĵ° ê³ł
ĠE OD
ĠìľłìĹ°ì ¦Ŀìĥģ
ĠìĹĲ ëĬĶ
ĠL ow
ì¹¨ ì°©
ĠëĤ´ìĽĲ ëª©ìłģ
ë°ľ ì¹ĺ
Ġê°Ģë ¹ł
ĠëĮ ĢìĤ¬
Ġsp p
ëĵľë ¦Ħ
Ġê³łëł¤ë ĲĺëĬĶ
Ġram i
Ġì£¼ìĤ¬ ìłľ
Ġë²Ī ìĶ©
ur y
ì½Ķ ëĤĺì¡¸
Ġth r
Ġleuk ocytosis
Ġìĭłìŀ¥ìĪĺì¹ĺ ëĬĶ
Ġpd h
Ġtib ial
Ġìľ Ĺ
Ġìľ Ħë¡ľ
Ġí ŀĪ
ê´Ģì Ħ±
ë°© ìļ¸
íĸĪ ìĿĦëķĮ
ob al
Ġì¹ĺê³¼ ì¹ĺë£Į
ê¸ ĭ
íı Ĳë
Ġrep ort
Ġê²½íĸ¥ ìĿ´
ĠìłĦë ¶ģëĮĢ
Ġê´ľì°® ìķĺëĬĶëį°
Ġì°¡ ê·¸ë
Ġìĺ¤ëĬĺì ķĦì¹¨
Ġheart worm
Ġregurg itation
Ġhepat omegaly
Ġs tim
Ġë³ĳìĽĲìĹĲìĦľ ëĬĶ
ĠìĹ¬ íĸī
Ġìĸĳìĥģ ìĿ´ëĤĺ
ĠíĹ Ĳëĸ¡
Ġìķŀëĭ¤ë¦¬ ë¥¼
Ġê²ĥ ì²ĺëŁ¼
Ġëĩ¨ ë°°ìĸĳ
ĠíĺĪê´Ģ íĻĶ
SA P
ĠìłĢìķĮë¶Ģë¯¼ íĺĪì¦Ŀ
. )"
Ġf undus
ĠíĪ¬ë ªħ
i e
ĠíĬ¹ ë°ľìĦ±
ĠìĥĿ ê²¨ìĦľ
íĶĦì ¢ħ
Ġcp a
ìļ° ìķĪ
Ġê³µê¸ī íķĺëĭ¤
Ġê¸°ë³¸ íĺĪì²Ń
Ġìĭ¤ì§Ī ìĿĺ
Ġìĥī ìĨĮ
ĠëĭŃ ë¼Ī
Ļ Ħë£Į
en olol
ĠíĻķìĿ¸ íĽĦ
ul itis
Ġcat s
ĠìĤ¬ìłķ ìľ¼ë¡ľ
Ġê° Ģì§Ħ
Ġë¨¹ê³ł ëĤĺìĦľ
es tinal
Ġíı¬ íĻĶëıĦ
Ġë°ľê²¬ ëĲĺì§Ģ
Ġê¹ Ģì§ĢíĺĦ
Ġì¢ħíķ© ê²Ģì§Ħ
ìĿ´ í
Ġë³Ģë ıĻ
Ġê³ §
Ġê¸°íĥ ĢìĤ¬íķŃ
ìĿ´ ìĿĺ
ķĮ ëĬĶ
ĠìľĦ ìĹĲ
Ġíķĺë£¨ ì¢ħìĿ¼
Ġê°ĲìĨĮ íķĺê³ł
ĠìĦ± íĺķ
ìĿ µ
Ġìĺ¤ ìĭľê¸°ë¡ľ
¥ĺ ê°Ģ
K Cl
Ġë§ Įì§Ģ
Ġì§Ħíĸī íķĺëĬĶ
ĠìĪĺìĪł ìĭľ
ĠìĤ¬ë£Į ëıĦ
Ġhyper t
Ġìĺ¤íģĲ íĶĦë¡ĿìĬ¤
ĠV isual
ĠíĦ°ë ¹Ħì¡¸
Ġëĭ´ ê´Ģ
ĠìĻĦë£Į íķ¨
Ġì¼ Ģìĸ´
Ġinf ectious
Ġê¹Ģ íĺĦìļ±
Ġì¶ķ ëıĻ
íĥĢë °©
Ġpancre atic
u th
Ġìł ł
ĠìłĢëħģ ëķĮ
ĠíĺĪìķķ ìķ½
©Ķ íĥĳ
íĽĦ êµ°
Ġì£¼ ìħĶìĦľ
Ġì°¨ íĽĦ
Ġc all
Ġì£¼ ê°Ħëª¨ëĭĪíĦ°ë§ģ
ma il
ìłľë ıĦ
Ġëĭ¨ ìĿ¼
Ġc T
Ġh ome
ĠíĻķìĿ¸ ìĿ´
ĠëĮĢë ¹Ħ
Ġë²łë į°ìĬ¤íĥĢ
¨ë įĺ
ĠA KI
Ġíİ¸ ìľ¼ë¡ľ
te bral
Ġë¶ģ ìĸ´
TIV E
Ķ ¼ë
Ġê°ĲìĨĮ ì¦Ŀ
Ġv d
ìĭľë ©°
Ġë³µìĪĺ ê°Ģ
ĠìĪĺìĪłë ¹Ħ
Ġêµ¬íĨłë Ĥĺ
Ġë¨¹ ì§ĢëĬĶ
ĠíĬ¹ìĿ´ì ¦Ŀìĥģ
ĠM ed
Ġë³´ì Ĭµìłľ
Ġì²ĺë°©ë°Ľ ìķĦ
ìĨĮ ìĭ¤
Ġë¶Ģ ëĭ´ìľ¼ë¡ľ
Ġë¶ĢíĦ° ëĬĶ
Ġì± Ħë¡ľ
Ġmit ral
ĠìĤ°ì±ħ íļŁìĪĺ
Ġother wise
Ġìŀ Ħë
Ġìĺ¤ ëĬĶ
Ġtherapy full
ĠíĶĮë łĪìĿ´íĬ¸
ìĹ ħ
ĠëĤ´ìĽĲ íķ´ì£¼ìĦ¸ìļĶ
ĠíĶ¼ ì§Ģì
Ġê³¨ ìĦ±
ulan ic
ĠN PO
ĠíĬ¹ ìĦ±
ĠíĶĮë ŀ©
ìĿĺë¢°ë ³ĳìĽĲ
3 3
ĠìķĪë ©´
ĠìĤ ´ë
ĠëłĮ ì¦Ī
o ch
ìĿ´ë ħ¸íĢ¸
ĠìĿ´ì ľ
ķ ìĬ¤
°ľ ìŀĳ
Ġê²¬ ì¹ĺ
ĠìºĶìĤ¬ë£Į ìĹĲ
Ġë¸Įë¡¬ ìĭł
Ġt ug
ĠR ec
íĺĪë ¡ľ
ĠíĹ¤íĮĮ ì¹´ëĶĶìĺ¤
Ġì²ĺë°© íķ´ë
Ġì²ĺì¹ĺ ëĬĶ
one ph
ë´ī ì§Ģ
ĠíĿ °
ĠìĹĨ ëĭ¤
ar ch
íķ´ì£¼ ìħĶìĦľ
Ġë°©ë²ķ ìľ¼ë¡ľ
ĠìĤ¶ ìĿĢ
Ġê´Ģë¦¬ ë¥¼
Ġë°ľëª© ê´ĢìłĪ
ìĥģ íĥľë
ĠëĵľëłĪìĭ± ìĭľ
ĠëıĻê±°ë ¬
ĠëĤ´ìĽĲ íķĺìĭľ
íķł ìĪĺ
Ġëħ¸ëŀĢ ê·Ģì§Ģ
» ·
ĠìĥĪë ģ¼
ĠìĿ´ìĺ Īë¦°
Ġì¦Ŀìĥģ ê³¼
ĠìľłìĿĺ ìłģìľ¼ë¡ľ
ìĹĨ ìĸ´
Ġspironolact on
Ġê¹Į ë§Į
ĠëŃĲ ê°Ģ
ê³¼ ìĦ±
Ġë¶ Ħíı¬
Ġë³´ íĺ¸ìłľ
Ġë¹Ħ ìľĦ
Ġê°Ģë ĵĿ
ep osit
ê°Ģë ģĶ
Ġìĥģëĭ ´ì
Ġtime ëĤ´ìĻ¸
Ĳĺ ìĹĪìĿĮ
ĠìĥĿ ê¸°
ĠD M
Ġì¡ Į
Ġy ou
Ġì§ĳìĹĲ ìĦľëıĦ
Ġf pl
ĠëĤĺ ê°Ķ
íĶĮë ŀ©
Ġab do
CR P
ĠìĽĢì§ģìŀĦ ìĿ´
Ġìľłì¹ĺë °ľì¹ĺ
r im
s o
ĠíĶ¼ íķĺë
Ġë§¤ë ħĦ
ë¬ ĺ
Ġrec o
Ġì§Ħì °°
Ī Ī
Ġê³ł ê¸°ë
Ġì¶Ķê°Ģ íķĺìĹ¬
ĠìĿĺìĭĿ ìĿĢ
Ġrecom mend
ĠP SS
ĠìķĪë Ĳł
Ġì¼Ģ íĨł
k al
Ġìº¡ìĬĲ ìķ½
Ġdet ail
Ġë³´ìķ ĺ
Ġìĥģ ê¸°
com ment
Ġê·¸ë £¨ë°į
ĠìłĲë§ī ìĥī
P E
e eding
Ġìŀ¬ íĻķìĿ¸
ĠNa Cl
Ġìĺ ¥
ĠìŀĲ ê¸°
Ġíģ ´ë¦¬
Ġë¶Ģë ª¨
ĠìĹĨ ìľ¼ë¯Ģë¡ľ
ĠëĦ£ ìĸ´
ìĹ ´ì
Ġsp inal
Ġíĥľ ìķĦ
Ġanti histamine
Ġgran ul
A S
łĪ ê¸°
ë© °ì¹ł
Ġë¶ī ìĿĢ
ìĽĲ ìĿ¸
ìĭ¬ íķ¨
ĠìĿ¼ë Ĵ¤
íĮĲë ´īíķ©
7 2
ĵľë ł¤
íŀĪ ìĬ¤íĥĢë¯¼
íĿ ¥ë¶Ħ
ĠëĿ½ íĪ
Ġë°Ķê¾ ¼
ëį °ë
ê±°ë ¦¬ë©´ìĦľ
ĠëªħíĻķ íŀĪ
Ġë°Ķê¾¸ ê³ł
ì§Ģ ê°Ģ
Ġìĺ¤ íĶĮë¡ĿìĤ¬ìĭł
Ġê°ĢëĬ¥ íķĺëĭ¤ê³ł
Ġê¸° íĿī
ĠìĨĮë³ Ģì
ĠìĭĿìĿ´ ê´Ģë¦¬
Ġê°ĲìĨĮ íķĺìĺĢìľ¼ëĤĺ
Ġvac u
Į íĶĦ
Ġd em
íİ ĺ
ëª¨ëĭĪ íĦ°ë§ģ
ĠìķĦ íĥĪêµ¬
Ġë¶ķ ëĮĢì
olog ist
Ġcyt ology
Ġì¹¨ëĮĢ ìĹĲìĦľ
ĠìĪĺëł¹ ìĺĪìłķ
Ġ+ /
ĠL VD
ëĮĢ ëĬĶ
ë°Ľ ê³ł
20 0
ĠìłĦìĭł ìłģìĿ¸
Ġë³µ íķ©
ĠìĬ¤ íģ¬ë
Ġë³´ì ĭľ
ĠìĦľ ìļ¸
Ġëªĩ ëĭ¬
ĠìķĦëĭĪ ì§Ģë§Į
ìĺģìĸĳ ìłľ
Ġnebul izer
6 6
ĠìĹ ½
ĠëĨĴ ê³ł
ĠìķĦì§ģ ìĿĢ
BC S
ĠìłĢíķĺë Ĳĺìĸ´
Ġë³ Ģìĥī
Ġìĸĳ ìŀ¬
ĠP ost
Ġê°Ħ ìĿĢ
ìľ¼ ìĭł
ìĪĺì¹ĺì ĥģìĬ¹
T r
ĠíĬ Ģìĸ
ĠëĨĴ ëĭ¤ê³ł
ĠìĹ¬ë¶Ģ ìĹĲ
ìľĦì ¹ĺ
ĠChem istry
Ġê³¨ ìĪĺ
Ġm osa
Ġb a
ìłĦ ìĭł
Ġre l
ìŀĦ ìĿĦ
ĠL actate
Ġìĸ´ë¨¸ ëĭĪ
Ġcut ëĭ¹
Ġv et
íķ´ì §Ģê³ł
Ġê°Ħë ³´ì¡°ìłľ
°Ķ ëª°
Ġìĸ´ëł¸ ìĿĦëķĮ
°Ľ ìĿĮ
Ġê³ł ì¹
Ġlipid osis
ĠíĺĦ ìłĢ
Ġas pirin
Ġëĭ¥ íĦ°
c ep
u es
Ġì ª
Ġëĭ¨ ìĹ´
Ġtug or
Ġíķ łë
Ġë§ Ĳë¦°
Ġh as
t t
ìĭľë ³´ëĭ¤
ĠëıĮ ì¶ľë
ĠíĶĮë Ł¬ìĭ±
ĠìĻķ ìĦ±
Ġê°Ħ ìĭ¤ì§Ī
ĠìĽĲìĿ¸ ìĿĦ
Ġìĸ´ëł¤ ìļ°ë
sc ess
Ġíģ´ë¡ľ íĶ¼ëıĦê·¸ëłĲ
Ġep iderm
ì² ¨íĮĲ
Ġë°Ķ ë²ł
ĠìłĢëħģ ìĹĲëĬĶ
Īë ł¨
Ġë°°ëĩ¨ ë¥¼
Ġìĸĳìĥģ ìĿĺ
Ġì»¤ ì§ĢëĬĶ
Ġìĺµ ìħĺ
Ġprotein uric
Ġë¶Ħ ìľł
Ġë°° ì§Ģ
íĤ¤ íĬ¸
Ġëª» íķľ
Ġíķľë ıĻìķĪ
Ġmen ance
th op
Ġsh unt
ë¶Ī ìķĪ
Ġì£¼ë§Ĳ ìĹĲ
Ġw he
ĠëıĦìĽĢ ìĿ´
Ġìŀ¬ ì´¬ìĺģ
ĠìĿĺë¢°ì ĽĲ
Ġmild íķľ
ĠIM T
ë ©Ķ
íĨł ëĭĲ
ìĨĮ ìĥĿìĪł
ĠìĽĲ ìķ¡
ê¹ Įë
Ġdis order
ìłľ ìłľ
ĠìŀĪ ê¸°
ìĿ´ì ļ©
Ġìĭ¤ìĭľ íķľ
Ġd s
ĠëĤ´ ìĹŃ
Ġìĭ¤ìĭľ íķł
Ġì¶ľíĺĪ ìĿĢ
Ġëĭ´ëıĦ ê³Ħ
9 8
Ġìŀ¡ ìĿĮ
ìķħ íĻĶ
ìĦŀ ìĿ¸
ì§ Ŀ
Ġë© ´ë
Ġëª¸ ìĹĲ
Ĭ ¹
ut ation
C OMMENT
Ġtime ìĤ¬ìļ©
Ġê°ĳìŀĳìĬ¤ë Ł°
Ġíķĺ ê°ķ
ĠìķĦìĿ´ë ĵ¤
Ġì§Ħíĸī ëĲ¨
ë¶Ģì ĭł
Ġê¸°ê´Ģ íĺĳì°©
ĠíķĦ ìĪĺ
Ġíŀĺë ĵł
Ġìķłë §¤
Ġíģ´ë Ŀ¼ë°Ķ
Ġp agen
ĠìķĦ ìĿ´ë¥¼
Ġvelocity ëĬĶ
Ġê² ī
ìĦľë §Į
ĠëĪĦë Ł°
Ġìĸĳìŀ¬ ìĽĲ
ĠìµľìĨĮ íķľ
ostrid ium
Ġe very
Ġê²°ì ĨĲ
ë ¯¸ë
Ġa v
Ġre st
Ġì½Ķ íĥĢë°©
Ġê·Ģì§Ģ ëĬĶ
Ġserra tio
ĠíķŃ ì²´
Ġì²« ëĤł
ĠìĹĨ ê±°ëĤĺ
ĠS T
ud ate
Ġsub mit
Ġì´Īë °ĺ
ĠìĿ´ ê²ĥ
P ancreatitis
Ġë¶Ģìľ Ħë
ĠìķĪë¨¹ ìľ¼ëł¤ê³ł
Ġim t
ì» µ
ĠìľłìĿĺ ìłģìĿ´ì§Ģ
ì² ł
Ġë°ľìĥĿ íķ¨
Ġëĸ¨ìĸ´ì §Ģë©´
ĠìłĦìĿ¼ë ³´ëĭ¤
f ace
Ġb re
ìĦ¸ ì²Ļ
P ulmonary
om as
ë¶Ģë ¥¼
Ġê²°ìĦĿ ìĿĢ
ĠëĮĢë ıĻë§¥
Ġshould er
íĦ° íİĺë
Ġcalcul us
íĶĦì ĨĶ
Ġì§Ħì °°ë
l am
ĠV D
ĠìĽĲìĿ¸ ìĹĲ
ìĿ´ëĿ¼ ìĦľ
ĻĶ ìĿĮ
íĺ¸ë °ķ
Ġëĭ¤ìĭľ íķľë²Ī
ce renia
Ġê²Ģ íĮĲë´īíķ©
ë°Ķ ëĭ¥
ĠëĳĶ ìĦ±
ĠëĤ ´ëĵľë¦¼
od erate
Ġìĥģíĥľ ìŀħëĭĪëĭ¤
ëĤ ĺë©´
ìķķ ë°ķ
Ġë¶ĢìľĦ ê°Ģ
ĠCef otax
Ġ one
Ġh isory
ê°Ģë ©´ìĦľ
Ġra b
Ġíķľëĭ¬ ìłķëıĦ
Ġê±· ì§Ģ
ĠíķŃìĤ°íĻĶ ìłľ
íĸī ëıĻ
Ġcbc ìĥģ
Ġíĺ¸ìłĦ ìĿ´
ĠìĤ¬ ìĭĿ
Ġì²ĺìĿĮ ìľ¼ë¡ľ
Ġê³³ ìĹĲ
l ood
Ġíĺ¸ ìłĦì¤ĳ
Ġmel ena
Ġê°ľìĦł ì¤ĳ
íĺĪë ĩ¨
ĠëĤľ ìĽĲíĺķ
Ġíĺķíĥľ ìĿĺ
ĠìĹŃ ë¥
ĠìłĦì²´ ìłģìĿ¸
l og
íĸĪ ì§Ģë§Į
Ġê²°ë§ī ë¶Ģì¢ħ
Ġì¢ħ ìĿ´ì»µ
ìĪĺë ¥¼
ĠíĪ¬ìķ½ ì¤ĳ
ĠëĦ¥ì¹ ¼ë
H yp
ĠíĻķìĿ¸ íķĺê¸°
ĠM I
Ġë¯¼ ê°Ĳ
ìĥģ ê·ł
Ġìłģ ìłĪ
3 2
ĠìķĪë¨¹ ìľ¼ë©´
Ġì²ĺì¹ĺë ¥¼
Ġë¡ľìļ°íİ« ìºĶ
Ġë© ľë
ë¶Ģë ıĻ
Ġì¢Įìĭ¬ ìĭ¤
Ġìŀĺ íķ¨
ìłĦë ıĦ
Ġíĭ °ë
Ġê°Ħíĺ¸ ìĤ¬
íĦ°íİĺë ¡ł
al assezia
Ġë¹ ¼ë
ĠH isory
Ġsupp le
Ġê°ķìķĦì§Ģì ļ©
Ġì§ ĢìĤ¬
ĠìĿ¼ ê°Ħ
Ġb rain
Ġíķĺê¸°ë¡ľ íķ¨
ëĭ¤ìĿĮ ì£¼
£¼ë ³Ģ
ĤŃ ì¢ħ
Ġìĭľë Ł½
Ġìľł ë°ľë
ê²ł ëĭ¤
ĠìŀĦìĥģì¦Ŀìĥģ ìĿ´
ìĸ´ ìł¸
Ġì¹¨ ì°©
Ġintes tine
į ìĬ¤
Ġíĳ ¸ë
in patient
Ġë¨¹ ìľ¼ëł¤
Ġ- [
id ental
Ġìĭ¤ íĮ¨
Ġëªĩ ë²Ī
ìłĪë ¶Ģ
êµŃ ìĹĲìĦľ
íı¬ë ¥´íħĮ
Ġíķľ ëĭ¤
Ġê²½êµ¬ ìķ½
U rin
Ġë³µìļ© íķĺë©´ìĦľ
Ġê³Ħì Ĥ°
Ġìĭ¬íıĲ ìĨĮìĥĿìĪł
ĠìķĪ ì¶©
ĠìķĪë ¡ľ
Ġíıī ê·ł
Ġì½Ķ ëį°
Ġor ig
Ġì²ĺì¹ĺì ĭ¤
ë§ Ľ
am c
Ġíķĺ íĶĦìĨĶ
Ġíĺ¸ìłĦë Ĳĺì§Ģ
ĠìķĬëĬĶ ëĭ¤ë©´
Ġì²Ńì§Ħ ìĭľ
łĩ ê²Į
ë¹Ī íĺĪ
ĠíĹĪë²ħ ì§Ģ
Ġìķ½ ê°Ħì
Ġê°ľìĦł ìĹ¬ë¶Ģ
ê³ ¼ë¡ľ
er matitis
Ġë¨¹ìĹ¬ ëıĦ
ĠìĦłìĥĿëĭĺ ê³¼
Ġpig mentation
os ed
ap p
ĠìĥģìĬ¹ ìĿĢ
Ġìŀł ëıĦ
arg ed
¬¸ ìłľ
ìľĦì ¶ķ
Ġêº ¼ë
ĠìĪĺëł¹ìĺĪìłķ ìĭľê°Ħ
Ġb et
ĠíķĺìĿ´íı¬ ìķĮëŁ¬ì§Ģ
Ġme mb
Ġìľłë ¦¬
Ġvi i
ici ency
Ġë¨¹ ëĬĶëį°
CP E
Ġrecommend ed
ìĤ °ë
ĠìĿ´ì Ĩ¡
ê°ĳ ìĥģìĦł
íĥ Īë
ĠìĿ´ì §Ī
ĠìľĦìŀ¥ ìĹ¼
Ġëĵ¤ìĸ´ ê°Ģ
ìĦł ì§Ħ
Ġë³´íĺ¸ìŀĲ ë¶Ħë
ê·Ģì Ħ¸ìłķ
ê¸ ģ
Ġl ig
Ġë°Ľ ìķĦì
Ġì·Įìŀ¥ ìĪĺì¹ĺ
¾ ¸ë
íĨ ¨
Ġme ropenem
ĠíĿĺë ¦¬ê³ł
Ġìĭ¬ íĺĪê´Ģ
ĠD PO
Ġë°ľìŀĳ ìĿĢ
ĠìĥģíĻ© ìĿ´
Ġì½§ ë¬¼ë
m l
** **
ĠìĿµ ìĿ¼ë¶ĢíĦ°
Ġn d
ê²ĢìĤ¬ ë¥¼
ĠíķŃë¬¸ ì£¼ë³Ģ
Ġìĭ¬ ì²Ńì§Ħ
ent ric
ill ary
Ġê°Ģì¡± ë¶Ħëĵ¤
Ġì²ĺë°© ìĤ¬ë£Į
ĠìķħíĻĶ ëĲĺìĸ´
Ġear ly
Ġë ĵľëł¸ìĿĮ
ro d
Ġnebul ization
ĠëĤ´ìĽĲ íķ´ì£¼
ĠN A
Ġê°ĢëĬ¥ íķĺëĤĺ
ĠëĨĴ ìľ¼ëĤĺ
ĠíĬ¹ìĿ´ìĤ¬íķŃ ìĹĨìĿĮ
ë Ĵ¤
ì½ §ë¬¼
ĠëĤ´ìĽĲ íķĺìĭľê¸°ë¡ľ
Ġê³łëł¤ íķ´
Ġìĺģíĸ¥ ìĿĦ
uc ral
Ġìľłì§Ģ íķ¨
ì¹ĺì ºĶ
Ġcapsul e
ìĿ¸ ì§ĢëĬĶ
Ġê³µ ë§ī
ìľł ìŀ¬
Ħë ¶ĢíĦ°
Ġcom mon
ëĵľë Ŀ¼ìĿ¸
Ġíľ ĺì²Ń
Ġb ladder
Ġìĺ¤ ê¸Ī
Ġw ere
Ġëħ¸ ìŀ¥
Ġheter ogenous
Ġtrem or
´ìľł ì¹ĺ
Ġ ?
Ġìĺ¤ ìħ¨ìĿĮ
Ġê²½ê³¼ë ¥¼
ĠìĪłìĭĿ ìĹĲ
Ġë¨¹ ìĹĪê³ł
Ġëª¨ë ŀĺ
Ġat enolol
ĠìĤ¬íķŃ ìĿ´
Ġsub luxation
ĠNS F
op ping
ľëł Ľ
Ġë¿Įë ł¤
ĠìĤ¼ ì²¨íĮĲ
ĠìĤ¬ë ©Ķíĥĳ
ìĽĲ ìĹĲìĦľ
Ġíĩ´ìĽĲ íķ¨
Ġíķĺìĸ Ĺê²Į
y ometra
~ ~
Ġì£¼ ê´ĢìłĪ
Ġê°Ħ ìłĳ
l oad
Ġì¡° ìľłìŀ¬
Ġìĥ µ
ĠìłĢì ¹
Ġìĸ¸ ìłľë
Ġê¸°ë¦½ ë¶ĪëĬ¥
ìĹ ł
Ġì£¼ ìŀħ
ĠìĥĿ ìĦ±
Ġì²ĺì¹ĺ íķ¨
£¨ë ĦĪìĬ¤
ê² Ĳ
ìłĦíĻĶ ìļĶì²Ń
ĠëĤĺìĦľ ëĬĶ
ãħ ĩ
Ġaden oma
íĥĪ ìŀ¥
ĠìľłëıĻ ìĦ±
Ġíģ ¼
ĠìłĦí ĽĦë¡ľ
ìĪĺì ¤Ģ
Ġexc ision
ĠíĺĪ ì¢ħ
Ġê¸°ë ıĦ
Ġcon venia
Ġíķ´ë³´ ê³ł
n own
ëĬĶ ê±°
Ġê²ĢìĤ¬ ì§Ħíĸī
Ġë³µë¶Ģì´ĪìĿĮíĮĮ ìĥģ
Ġë¬» ìĸ´
ocyt es
Ġì´Ŀ ëĭ´ê´Ģ
ĠìĪĺì¤Ģ ìĿĺ
ëĭ ¬ëĿ¼
ĠíĻį ì±Ħ
Ġì¸ µ
ĸ ¨
Ġp art
or ub
ĠìĪĺì ¹ĺë
ìĬ¤ íħĮë¡ľìĿ´ëĵľ
ĠìĥģìĬ¹ ëĲĺìĸ´
Ġex tens
ĠìĦ¤ëªħë ĵľëł¸ìľ¼ë©°
Ġê³¼ìłķ ìĹĲìĦľ
Ġëħ¸ëŀ Ģë
Ġíķĺìĭľ ê¸°ë¡ľ
8 4
Ġn c
Ġì¦Ŀìĥģ ìĿĺ
ê²° ìłľ
Ġë¦¼íĶĦìłĪ ìĿĺ
Ġë°ĺëĮĢì ª½
od yl
ĠëįĶ ìļ±
Ġìĭ¬íķľ íİ¸
ĠìķĪì¢ĭ ëĭ¤ê³ł
ĠíĺĪëĩ¨ ëĬĶ
Ġí ŀĲ
Ġë°Ľ ìķĺìľ¼ëĤĺ
Ġì§ĢìĹ°ë Ĳ¨
Ħë §Ī
ĠìŀĲ ìĦ¸ë¡ľ
¦¬ê³ł ê¸°
ĠìĿĮìĺģ ìĿ´
Ġgast ritis
Ġì£¼ê°Ħ ìŀħìĽĲ
met ronidazole
Ġaz ithromycin
Ġíİĺëħ¸ë°Ķë ¹ĦíĥĪ
Ġêµ¬ ìĹŃì§Ī
ê´Ģë ł¨ë
ĠìĻ ľ
ĠR adi
ĠëĭŃ ê³ł
Ġlv id
furo semide
Ġë©ĶíĨł ì¹´ë
r ally
Ġpol yp
ĠíĬĢìĸ ´ëĤ
Ġê²½ê³¼ ìĹĲ
ĠìĿ´íĭĢ ìłĦ
b un
ĠëĨį ìĸĳ
Ġë¬´ ìłķíĺķ
Ġëħ¹ ìĥī
Ġì² ´
ĠìĿ¼ ëĭ¹
Ġì¢Į ìĭł
le t
ĠH ep
it s
ĠN ormal
ĠëķĮ ë§Īëĭ¤
Ġì¹ĺì ķĦë
Ġë¶Īíİ¸ íķľ
Ġê¹Ģì ĽĲìŀ¥ëĭĺ
Ġm ost
ìľł íķ©
Ġë³´ë Ĥ´
Ġë°ĸ ìľ¼ë¡ľ
Ġê°Ħì ¢ħìĸĳ
Ġile us
Ł Ń
ve olar
Ġar tif
Ġë°Ķë²ł ìĭľìķĦ
ëĭĪ ìĸ´
Ġëĭ µ
Ġìĭłê²½ê³Ħ ê²ĢìĤ¬
Ġëĭ¬ ìĹĲ
Ġê³³ ìĹĲìĦľ
Ġì¤Ħìĸ´ëĵ¤ ìĹĪìĿĮ
Ġmineral ization
íķ łë
ĠìĿ´ì ĸ´
Ġê·¼ ìľĦë¶Ģ
ëĤ´ ìĹĲìĦľ
Ġìĺ¤ë ©´
Ġê°Ģì Ĭ´ì
Ġì§ĪíĻĺ ìĹĲ
Ġfiel d
Ġë°ĶëĢ Ĳ
di et
¥ ĺì
ìĬ¤ íĥĦ
ŀ Įë
Ġm yc
Ġíĩ´ìĽĲ ì¡°ì¹ĺ
ĠD R
Ġëıħ ìĦ±
ĠëĮĢíĩ´ëıĻë§¥ ìķķ
Ģì§Ģë §Į
Ġfamotid in
Ġì½ĶíĥĢë°© ìĬ¤
Ġtime sc
Ġs ed
Ġëª© ìłģ
ĠëĿ Ħ
Ġë ĵľëł¸ê³ł
ĠíĨµì¦Ŀ ìĿĦ
Ġor gan
Ġê¸°ê´Ģ íĹĪíĥĪ
Ġar th
Ġë¸Įë¡ľ ì½ľë¦¬
ì¦Ŀ ìĿ´
ĠíĻľëł¥ ìłĢíķĺ
ĠD dx
Ġë§Īì·¨ ì¢ħë¥ĺ
Ġíĺ¸ìłĦë Ĳľ
ĠíĿ¥ë¶Ħ íķĺëĬĶ
Ġê¹Ģ íķĺëĤĺ
ĠëĨĢ ëĭ¤ê°Ģ
ĠíĦ°ë¹Ħë į¤
b o
Ġíķĺì ĭľëĬĶ
ìłĦë °ĺ
Ġë¡ľìĸ Ħ
íĮĮ ëª¨
Ġë² ĪìłķëıĦ
Ġê´Ģì°°ëĲľ ëĭ¤
Ġê°Ŀ íĺĪ
ê´Ģëł¨ë Ĥ´ìļ©
ìŀ¥ ìķ¡ìĦ±
at ely
Ġê°Ģì ħĶìĦľ
ê°Ħë ŀµ
ic us
oc onazole
Ġìłł íĨłëĭĲ
in creased
ĠìŀĪ ëĭ¤ëĬĶ
Ġìķ½ë¬¼ ìĹĲ
ê° Īë
ĠìĦ¸ê·ł ë°°ìĸĳ
Ġíħ Įë
medi ate
ģ ¼ë
Ġê°Ħ íĺĪì²Ń
ĠìĿ´íĭĢ ìłĦë¶ĢíĦ°
íģ´ë¡ľ ìĬ¤
ĠíĮĶ ê¿Īì¹ĺ
ĠìĿĺë ¯¸
ĵľë ¦½ëĭĪëĭ¤
ëĤ´ ìĹŃ
Ġcl ot
Ġë³Ģê²½ íķ¨
ĠìĥģíĻ© ìĿĢ
oph osph
íĳ ľë
umb ar
Ŀ¼ ìĦľ
Ġnc pe
Ġì£¼ ìĽĮë
ĠB ilateral
ĠìĦŀ ìĹ¬ìĦľ
erg ic
Ġíķĺì ĭł
Ġê³ĦìĨį íķ´ìĦľ
ĠíĪ¬ìĹ¬ ì¤ĳ
ĠíĿī ê´Ģ
Ġfluid s
Ġcr yst
íİ Ļ
ĠëĥĦìĥ Īë
idoc aine
ĠíħĮìĺ¤ íķĦë¦°
¹ ĺëıĦ
ë¶Ģ íĥģ
ĠìĿĮìĭĿ ìĿĢ
ĠëĩĮìĪĺë ĳĲì¦Ŀ
Ġì§Ģë £¨
(+ ,
ī ìĭł
ĠìĽĲ ë°ľ
íĦ°ë Ħ·
íı¬ë ¦°
Ľ Ģ
Ĥ¬ ìĿĮ
Ġì¤ĳ ì¦Ŀ
ĠìĥģíĻ© ìĹĲ
ì» ¬
Ġb np
Ġcalc ium
d t
ë³µ ìĪĺ
ĠëĤĺíĥĢëĤ ĺë©´
Ġë¸Įë¡ľ ëĵľëĿ¼ìĿ¸
Ġë¨¹ ìĹĪìľ¼ëĤĺ
ĠEn rofloxacin
lyc emia
Ġpa ren
Ġs time
tion s
ĠìļĶ ë°°ìĸĳ
Ġë§Ī ì·¨ë
ĠìĭĿìĿ´ ê¸īìĹ¬
Ġìĥģíĥľ ìĺ
ch y
ov ec
Ġì£¼ê´Ģ ìłģìľ¼ë¡ľ
cephal us
Ġh x
ê°Ģë ¥¼
Ġìī½ ê²Į
ĠíĸĪ ìľ¼ë©°
Ġëĭ´ëĤŃ ë²½
ainten ance
Ġê°Ħì ¢ħê´´
Ġt em
Ġëĩ¨ ì¹¨
Ġë§ĲìĶĢ íķĺìĭ¬
ëĴ· ëĭ¤ë¦¬
Ġo l
Ġ14 0
Ġìľł ê¸°ë
ĠìĿ´ë¬¼ ìĿĢ
Ġìĭ¬ìŀ¥ìķ½ ìĿĢ
Ġì»´í ĶĮë
ĠìĦłë Ĥ©
Ġì¶Ķ ìĦĿ
ĠA CVIM
íķĺë Ŀ¼ê³ł
ìķĪ êµ¬
Ġu a
ĠìĹ¬ ì¡°
Ġcalc ification
Ġë°ĽìķĦ ê°Ģì
ĠíĿ¬ë§Ŀ íķĺìĭ¬
° ¬
ì ¿ł
as es
Ġv es
te x
Ġê´Ģ ê³Ħë¡ľ
Ġev ent
Ġclav amox
ì¼ Ģ
Ġhem ol
Ġë¦¼ íĶĦì¢ħ
ĠM aintenance
ĠíĮĲ ë§ī
Ġì¶ľëłģ ìŀĦ
( ?)
ìĥģ íĶ¼
ĠëĤ´ë³µìķ½ ìľ¼ë¡ľ
Ġíķľ ìķ½
oc on
ì¼ °
Ġep ilep
ìķĦë ıĦ
ath ion
ĠíıĲë ıĻë§¥
orub icin
Ġf ine
Ġíķľëĭ¬ ìłĦ
ĠëĤ¨ ìĿĮ
Ġíŀĺë ĵľ
Ġsurg ical
ĠíķŃì§Ħ ê·łìłľ
v ac
ĠìłĢ íķŃ
Ġì£¼ë³Ģë ¶Ģ
Ġìłģìļ© ì¤ĳ
P al
h pi
ĠëĨį íı¬
Ġdu od
ma x
Ġcon junctivitis
ĠìĪłë¶Ģì ĸĳíĺ¸
ìĦľ ëĬĶ
ìĭľ ëĭ¤ê°Ģ
Ġëĵ¤ ìĸ´ìĦľ
Ġser osal
ĠìĤ¬ ê³ł
ĠD ox
Ġapp rox
Ġlesion s
ĠìķĪëĲ ĺì
Ġhypoall ergy
ĠìŀĪ ìĸ´ìļĶ
ĠìĤ°ìĨĮ ì²ĺì¹ĺ
oplas ia
Ġm ore
an c
ĠíĿī ì¶Ķ
Ġì¤ Ģë¹Ħ
ê²© ë§ī
hep atic
Ġo intment
ì¦Ŀ ìĹĲ
ĠëĤ´ìĽĲ íķł
ĠìĪĺìĪł ìĹĲ
íĺ¸íĿ¡ ìĪĺ
¥´ì §Ģ
ĠìĿ¸ ìĪĺì¹ĺ
íĬ¸ë ¥¨
ist ant
Ġìŀ¥ë ¡Ģ
ìľ¼ë¡ľ ìĿĺ
ĠíĻ© íĥľ
Ġë¶Ħìĸĳë°Ľ ìĿĢ
ìĦ ¤ëªħ
Ġì² ©
´ë³ ´
Ġê³¨ìłĪë ¶Ģ
¦ Īë
ķ ĺ
ê¸ ¸ë
ë§Ī ìŀĲ
Ġì¡°ì¹ĺ íķ¨
ĠìļĶ ìĥĪ
Ġë¶Īíİ¸íķ´ íķĺëĬĶ
íķľ ì¹ĺ
ĠìĹ° ê°Ħìłĳì¢ħ
l es
ĠìĺĪìłķ ëĮĢë¡ľ
Ġì¢ĭ ìľ¼ëĤĺ
íĮ »
Ġph ac
ovec in
Ġ3 1
iv itis
ĠVI I
d dx
Ġí ĥģ
Ġë°ľ íĺĦë
ĠëĪĪ ì£¼ìľĦ
Ġê°ľìĦł ìĸĳìĥģ
ĠìŀĦ ìĿĺë¡ľ
Ġdys pnea
Ġëĸ¨ë ¦¼
ë³ Ģì
Ġìĵ°ë łĪê¸°
Ġë°ľëĿ¼ ì¤Į
Ġhemat oma
Ġìĭ¤ë°¥ ìłľê±°
Ġì½Ķëį° ìĿ¸
7 8
Ġíģ Ĳ
íķĺ ê¸¸
ĠìĿ¸ íĦ°íİĺë¡ł
ĠìķĦì¹¨ ìłĢëħģ
ĠìĹ¼ì¦Ŀ ìĹĲ
ĠíĿĺë ¦¬ëĬĶ
ĠëłĪ íį¼
ĠíĻķìĿ¸ëĲ ĺë©´
ë¬ ´ìĬ¤
Ġê³łëł¤ ìĭľ
ĠìĬµ ê´Ģ
Ġperi odon
ĠQ ID
re f
Ġë°ĺë ł¤ë
Ġê°ķê¸ī íķ¨
ĠêµŃìĨĮ ìłģìĿ¸
Ġmalign ant
p v
Ġì¤ĳ ìĿ´ìĹ¼
Ġê±° ìĥģ
Ġìĺ¤ìłĦ ê¹Įì§Ģ
ë°Ľ ìĿĮ
ĠìĹ ´ë
Ġen oxaparin
Ġíĺķ íĥľë¡ľ
Ġhypo echoic
ĠìĿ´ìĸ ´ìĦľ
ĠëĤ¬ ìĿĮ
Ġvent rally
Ġì²ĺë°© íķľ
Ġth oracic
ĠíĥĢì ĽĲìĹĲìĦľ
¥¸ ìŀĲ
ìľ¼ ìħ¨ìĿĮ
Ġê°Ħëĭ¨ íķľ
O d
t otal
íļĮ ìĶ©
ĠíļĮë³µ ìĥģíĥľ
íĤ ģ
ĠìľĦë ²½
¶ ©
ëĮĢ íķľ
Ġêµ Ń
ĠíĦ± ëĵľë¦Ħ
¸Ķë Ŀ¼ìĿ´
Ġl im
Ġenl arged
´ì Ĭ¤ë
ĠíıĲ íĮ¨íĦ´
Ġë¿Įë ¦¬
Ġdalteparin time
ĠìĿ´ì ľł
ê¹Į ì§ĢëıĦ
ĠíĻķìĿ¸ëĲĺ ìĹĪìĿĮ
ê±°ë ¦¬ë©°
Ġíĺ¸ ê¸°
Ġì²´ìĺ¨ ìĿ´
ê¸°ì ¢ħ
íķ´ì£¼ ê³ł
ĠíĬ¸ë ¦´ë¡ľ
C L
Ĭ ê·¸
yp nea
ĠíĨł íķĺê³ł
Ġê²½ìļ°ë ıĦ
ë² ĪìłķëıĦ
Ġì¶ľíĺĪë °ĺìłĲ
íĤ¤ë Ħ·
ŀ ł
Ġct wo
íĶĦë Ŀ¼
Ġì§ĢëĤ´ ëĬĶ
Ġêµ¬ ì§Ħ
Ġíŀĺëĵ¤ ëĭ¤ê³ł
Ġ+ /-
ab do
Ġì²ľ ìĭĿ
ĠíļŁìĪĺ ê°Ģ
Ġp atient
Ġë°ĺ ìłķëıĦ
Ġìĭ¬ íķĺì§Ħ
Ġìĸ´ìłľë °¤
Ġmuc ous
Ġê¸°ìłĢ ê·Ģ
Ġêµ¬íĨł íķĺê³ł
Ġì¤Ħ ìĿ´ê³ł
Ġë°ķ ìĦłì§Ħ
Ġ** *
u inal
Ġìĺ¤ìłĦ ìĹĲëĬĶ
ĠìĿ¼ë°ĺ ê±´ìĤ¬ë£Į
Ġì§Ħì°°ë £Į
Ġm iosis
ĠP ro
Ġam oc
ëĭ¤ë ©°
Ġ9 9
ĠìłĦë¶ĢíĦ° ëĬĶ
Ġíķĺìħ¨ ëĭ¤ê³ł
Ġëĭ¤íĸī íŀĪ
Ġf oy
Ġêµ¬íĨł ìĻĢ
ĠN d
ĠëĨĴ ìĬµëĭĪëĭ¤
ĠìłĢì ļ©ëŁī
ìĿĢë ĵ¯
Ġê°ĢëŁī ìĿĺ
Ġê¾¸ì¤Ģ íķľ
Ġì§Ģìĸ ´ëĵľë¦¼
ĠíļĮ ìĶ©
ë°ľ íĨ±
ary n
ĠìĿ¸ íķĺìĹ¬
Ġì£¼ìĤ¬ íķ¨
Ĳľ ëĭ¤ê³ł
ê³ł ìłķ
Ģë ¯¸
Ġìŀ¬ ìĥģëĭ´
ê¸°ë ķĮ
Ġìŀ¦ ìĿĢ
ĠìĭľìĽĲ íķĺê²Į
ļ ´ëį°
ĠíĻķìĿ¸ëĲĺ ìĹĪëįĺ
ë°©ê´ĳ ìĹ¼
ĠCeph alexin
Ġivs d
ĠìĹ° ê²°ë
Ġì²ĺìĿĮ ìĹĲ
r up
pi m
Ġ10 8
Ġê°Ģëł¤ ìĽĢì¦Ŀ
Ġë©´ë ´ī
Ĥ ´ìĽĲ
Ġë¹Ħ ìĭ¬
Ġìĭ¬ìŀ¥ìĤ¬ìĥģì¶© ìĿĢ
ì» ¤
íĻķìŀ¥ ìłľ
d er
ub le
Ġinj ury
Ġìĸ´ëłµ ëĭ¤ê³ł
ĠìĻĦì ¹ĺ
íĮĮ ëĨĢ
Ġct ni
Ġê³¼ë ıĦ
Ġepiderm al
¦¼ ìŀĲ
Ġë§Ī ëĭ¹
ì ³
Ġ und
ĠíķŃ íŀĪìĬ¤íĥĢë¯¼
ip enem
i re
ľ ¼ë¡ľ
ĠìķĦë²Ħ ëĭĺ
Ġêµ¬ê°ķ ìĨĮëıħ
Ġìĺ¬ëĿ¼ ìĺ´
Ġê°Ħëĭ¨ íŀĪ
ĠëĽ°ìĸ ´ëĤ´ë
Ġë¶Īë¦° ìĤ¬ë£Į
Ġf ist
ì§ĦíĨµ ìłľ
kal emia
bil ity
Ġd ra
Ġë§ ĪìĿĮ
ĠìķĦëª©ìĭľ ìĭ¤ë¦°
Ġep is
ĠìķĪ íĺĦ
ĵľëł¸ ëĬĶëį°
Ġë¶Ģìŀ¬ ì¤ĳ
Ġê²ĢìĤ¬ íĽĦ
Ġê²ĥ ë§Į
em atous
ĠìĻ¼ìª½ ëĪĪ
Ġsusp ected
ĠíĻĺìŀ ĲëĿ¼
ë¶ķ ëĮĢ
ĠìĬ¤íĬ¸ëłĪ ìĬ¤ë¥¼
rox il
b le
Ġs n
Ġëª© ìłģìľ¼ë¡ľ
ĠìĹĨ ìľ¼ìĭ¬
ĠìĪĺìķ¡ ìĨįëıĦ
Ġse en
Ġst op
Ġê·Ģë ıĦ
oth er
ol ithiasis
Ġê¸° ëĭ¤ë
ë¬¸ ìłľ
ê±´ì ¡°
Ġcp v
ł ¸ë
íĺ Ķ
Ġìĥģíĥľ ìĸĳíĺ¸
Ġë¶Ģì Ĭ¤
ĠëĨĴ ìķĦìĦľ
Ġì´Īê¸° ìłĳì¢ħ
di r
zy me
Ġê±´ì Ħ±
Ġpost ural
Ġìĸĳ ì¹ĺì
Ġg ain
Ġì£¼ ìĭľëĬĶ
ĠìĹ¼ì¦Ŀ ìĿĢ
Ġê±´ì ¹¨
ĠIVS d
ĠíıĲìĦ± ê³łíĺĪìķķ
ì¤ĳ ëıħ
ì§ ĢìĤ¬ë£Į
Ġìŀ¬ì§Ħ íķĺìĹ¬
Ġë°ĺ ìĹĲ
ĠìłĦë°ĺ ìĹĲ
u tion
ìĺ¤ ìħĶìĦľ
Ġíĸ Ŀ
ĠíķŃìĥĿìłľ ëĬĶ
ìĦ¸ ìłķ
Ġë¬¸ì§Ħ ìĥģ
Ġêµ¬íĨłë ¬¼
Ġp or
ĠL iver
ì§ĢìķĬ ìĿĮ
Ġëĳĺ ëĭ¤
Ġë³Ģ íķ¨
Ġì¹ĺë£Į ì¤ĳ
ĠëĨĴ ìľ¼ë©°
Ġê³¼ ìŀ¥ëĭĺ
Ġë°°ì ¶ľë
±ìłķ ë¦¬
Ġìĺ¤ ìĭľ
ìĹĪ ëĬĶì§Ģ
ĠìĿ´ë ¦¬
ĠíĮĮíĸī ìĿ´
ĠìĤ° íĻĶ
Ġorig in
ìķĦ ì§ģ
ĠìĿĺìĭ¬ ìĨĮê²¬
ë§¤ ê°ľ
Ġmo vement
ĠëģĪ ìłģ
ĠíıĲ ê³łíĺĪìķķ
Ġì»¤ ì§Ģê³ł
C KD
ĠìŀĪëĬĶ ê²ĥ
Ġì¢ħìĸĳ ìĿ´
ir ub
Ĩĵ ê³ł
Ġë¹ĦìľĦ ê´Ģ
Ġì» µ
ë¶ĢìľĦ ìĹĲ
Ġpar vo
b ic
Ġì°¸ ì¹ĺìºĶ
Ġìĭ«ìĸ´ íķ´ìĦľ
eak age
Ġnit roprusside
ê°Ĳ ìĪĺìĦ±
ĶĶ ìķĦ
ĠìķĦì¹¨ ìĿĢ
ĠìĺĪìķ½ ìŀ¡
ĺ¤ ê³ł
Ġd oc
ìĺ ĩ
ê¸ Ģ
ef ec
Ġíĺ¸ ìĤ°
Ġsim ple
Ġm tc
ĠD O
ĠìĿ¸ ê·¼
Ġê°ķ íķĺê²Į
ĠëĦ¤ìĺ¤ë į¤
ĸ ĪìĿĮ
ë°ľ ìłģ
Ġëª¨ëĭĪíĦ°ë§ģ ìĿ´
Ġëį°ëł¤ ê°Ģì
Ġê¸°ê´ Ģì
aph y
Ġê°ĲìķĪ íķĺìĹ¬
ĠëĳĶìĦ± ë¶Ħë¦¬
Ġìķ½ë¬¼ ìĿĢ
ĠìĺĪìķ½ íķ¨
Ġdep osit
íķĺ ê¸°ëĬĶ
Ġl ay
ĠìĦ± ìĥģ
Ġextra ction
Ġthromb ocytopenia
Ġì£¼ ìłĢ
Ġê·¸ë Ĥł
ĠíļĮë³µ ëĲ¨
ĠíĿ¬ìĦĿ ìķ¡
ĠìĹ¬ì¡° ìĿĢ
en ro
Ġê´ Ģë
íĴ Ģ
Ġinfil tra
¹ ¡
ìĭĿ ìĤ¬
ĠM icro
ĠìķĪìķ½ ìĿĦ
oll ic
ĠíĶĦë¡ľ íķĺíĬ¸
Ġë¶Īëªħ íĻķ
O titis
Ġë°ĺ ê·¸ë¦ĩ
Ġìĭ¬íķ´ì ¡Į
ĠëĦ¤ë ¸ĶëĿ¼ìĿ´
ĠëĿ½íĪ ´ë¡ľ
Ġì²ĺë°© íķĺìĺĢìľ¼ë©°
Ġal veolar
Ġì§Ħë£Į ìĭ¤ìĹĲìĦľ
ĠíĶĦë £¨ëĦĪìĬ¤
°Ľ ìķĦë
ucral fate
Ġket o
ì§Īë Ĥ´
ìĭľíĤ¤ ê³ł
urren t
t ocol
ĠìĥģìĬ¹ íķ¨
Ġpro m
ĠíĤ¤ íĬ¼
Ġìª½ ìĹĲ
Ġpy el
ī ìŀ¥
Ġíĩ´ìĽĲ íķĺìĹ¬
ĺ ¤ë©´
Ġh opping
ŀĲ ê·¹
Ġë³´ë ©´
Ġì¢ģ ìķĦ
ìłĦì² ĺëŁ¼
ĭ °
ĠF e
Ġìº ĲëĭĮ
Ġë°ĺë³µ ìłģìľ¼ë¡ľ
Ġmemb rane
Ġíİ¸ ìķĪ
Ġìŀĳ ê²Į
ì§Ħì °
Įë¦¬ë£¨ë ¹Ī
ar ing
Ġst repto
ĠëĬĺë ¦¬
Ġinv ol
Ġìĥģ ì²
Ġê¸°ì ĸµ
Ġìĭ¤ìĭľ íķĺìĺĢìľ¼ë©°
Ġë¯¸ìļ© íķĺê³ł
ìłĪë ĵ¤
§ İ
Ġëĭ ¿
ìĭľë ©´ìĦľ
ĠìķĪìķ½ ìłĲìķĪ
ĠìĤ°ìĨĮ ë°©
Ġëĭ¤ëĭĪ ëĬĶ
ìłĲìķ¡ ì¢ħ
ì§Ģ ê¸°
Ġl eakage
ë¬ ¸ë¶Ģ
Ġë°ľìĥĿ íķĺëĬĶ
ìĥ µìĹĲìĦľ
Ġë³´ìĺ Ģëįĺ
Ġm ic
ëĭĪëĭ¤ ì¡¸
Ġì²ĺë°© ëĲľ
Ġindoor s
ëª© ìĬ¤
Ġcardi omegaly
ĠìĿ´ì°¨ ìłģìĿ¸
Ġì° ¬
4 4
ë »
ĠK g
ĠìĿ¼ë°ĺ ìłģìľ¼ë¡ľ
Ģìĸ ´ì£¼
S time
Ġc atheter
Ġb ra
id ine
Ġ1 10
is on
ĠìĿ¼ ì°į
Ł¬ ìļ´
Ġu w
Ġìŀ¬ë°ľ íķł
Ġureth ral
ìĦ± ìĪĻ
Ġin itial
Ġë¬¼ë ł¤ê³ł
Ġíĺ¸ìłĦë Ĳĺìĸ´
ĠíĺĦì¦Ŀ ìĿĺ
ë°ľë ¡ľ
tib ular
Ġì¤ĳê°ĦìĹĲ ëĿ¼ëıĦ
Ġii i
ĠìķĪíĺĦ ìĪĺ
ĠíļĮ ë¡ľ
íħĮ ìĬ¤íĬ¸
I OP
Ġf b
ëĲ ĺìĸ´ìĦľ
ê¹Įë ´Ĳ
Ġìķ½ê°Ħì Ķ©
° ±
Ġì¹ ¼ë¦¬
ges tion
o ol
Ġë¶ĢìľĦ ìĹĲìĦľ
ĠìķĦìĿ´ ë¡ľ
Ġcol itis
ê° Ħí
Ġë³´íĺ¸ìŀĲëĭĺ ìĿĢ
Ġgastro enteritis
f eeding
cc ìĶ©
Ġë§Ĳ ìĹĲ
orm ation
ŀĺë ¡ľ
Ġíķĺìħ¨ ê³ł
Ġë® ¤
ĠëĲĺë ıĦë¡Ŀ
¸ µ
ìĿ´ ìĹĲ
ìľ¼ ìĭľê³ł
íĺķ ê´ĳìĹ¼ìĥī
³ĳ ëł¥
Ġë°ĽìķĦë ¨¹ëĬĶ
Ġìļ°ë ł¤ë
ĵľë° ´ìĬ¤ë
ĭ łë
ìłľ ìĬ¤
ì° Į
Ġamp utation
ĠCh ronic
ĠìĿ¸ ìłĳ
r t
ĠEch o
B I
ĠìłĦ ê¹Įì§ĢëĬĶ
Ġê¹Ģ íĥľ
ìĻ ķ
ìĻ¸ ìĦł
Ġder matophytosis
ĠíĬ¹ ìłķ
Ġ9 5
v id
ĠíĿ ¥
Ġíķľë ĳĲ
Ġíĺ¸ìłĦ ìĹĨìľ¼ë©´
ëĵľë łĪìĭ±
ĵ ¨
ìĥī ìĨĮ
Ġë² ¤
³´ì ĭ¤
Ġê·Ģë ģĿ
ĠìŀĪìľ¼ ìħĶìĦľ
Ġë©Ī ì¶
ĠìĿ´íĭ Ģë
u ra
Ġê¸°ë ¦Ħ
ìķĦë ŀĺ
ĠíıīìĨĮ ìĹĲëĬĶ
Ġíĺĳ ìĨĮíĻĶ
6 5
íĨ ±ìłķë¦¬
ĠíļĮ ìĿĮ
ħ¨ ëĬĶëį°
ì¡ ±
Ġê³¼ ìĭĿ
Ġinc idental
ĠìĬ¤íĥĢ íĤ¤ëĦ·
ins ignificant
thal m
ĠCT WO
ĠìķĬìķĺ ëĭ¤ê³ł
Ġcholec ystitis
t re
Ġì§Ħíĸī ëĲĺìĸ´
Ġspec ific
ê´Ģì °°ë
Ġì°¾ ìľ¼ëŁ¬
īìŀ¥ íŀĪ
Ĳ Ĳ
ĠìĿ´ë §Ī
ëĲĺ ìĹĪê³ł
Ġìļ° ìĭł
ê¸°ì ¤Ģ
Ġëĵ¤ìĸ´ ê°Ħ
Ġm ix
Ġë¬¼ ê³ł
ĠíĬ¹ìĿ´ìĨĮê²¬ ìĹĨìĿĮ
Ġë¿Į ìĺĩ
· °
Ġë³´ íĺ¸ìĨĮ
Ġíķľ ê°ľ
ĠPO ìłľ
Ġë¶ĢíĨł íĮĮëĨĢ
on al
Ġì¡° ê°ģ
ì¡° ê¸Ī
ĠëĨį ìĿ´
ĠìĤ¬ë§Ŀ ê°ĢëĬ¥ìĦ±
Ġìŀ¬ì§Ħ ìĿ¼
ĠìķĪì¢ĭ ìķĦì§Ĳ
Ġêµ¬ ë¶Ħ
Ġìĭłê²½ì¦Ŀìĥģ ìĿĢ
Ġìĺ¬ëĿ¼ ìĺ¤
Ġmargin s
oneph ritis
ĠíĻķìĿ¸ëĲĺ ìĹĪê³ł
ectrol ytes
Ħľë ¶ĢíĦ°
Ġd rh
Ġëħ ¼
ë§Īë Ķľ
íĶĮë Ł¬
eter in
ĠìłĢíķĺë Ĳľ
9 9
Ġgeneral ized
Ġê²ĥ ìĿ¼
Ġëªĩ ëħĦ
og ram
A ct
D rh
V mt
a f
Ġv mt
ĠìĿĮìĪĺ ëĬĶ
t d
Ġì£¼ìĤ¬ ë§ŀ
Ġì§Ģ ìĿ¸
ĠíĺĪìķ¡ê²ĢìĤ¬ ëĬĶ
ob acter
D efec
ĠìĤ¬ ì§Ģë
ĠìłĢ ëĬĶ
¬¸ ìĤ¬íķŃ
ĠN CPE
´ìŀ Ĳ
ìŀ¬ ì±Ħ
ĠìķĮìķ½ ìľ¼ë¡ľ
3 1
m i
Ġë§ĮìĦ± ì·Įìŀ¥ìĹ¼
ĠìŀĲê·¹ ìĹĲ
Ġì°¾ ìķĦ
ìĭľëĶ ĺì
Ġì¯¤ ìĹĲ
ĠëĤ´ë¶Ģ ìĹĲ
Ġì¡°ê¸Īë įĶ
ĠìŀĲë°ľìĭĿìļķ ìĿĢ
ĠìĿ¼ì£¼ìĿ¼ ìłķëıĦ
Ġìĸµ ì§Ģë¡ľ
N D
ĵ± ìĿĺ
Ġì¤Ħ ìĹ¬ìĦľ
Ġê²½êµ¬ ìłľë¡ľ
n I
¸ë ¦°
ĠëĨ Ģê³ł
Ġê±· ê¸°
Ġì¦ī ìĭľ
Ġì§ Ļ
Ġë¨¹ ê¸´
Ġê°ľ ìĭľ
et ron
ĠìŀĲê·¹ ìĭľ
log ic
ìŀĪ ìľ¼ë©´
Ġnod ules
íģ´ë¡ľìĬ¤ íı¬ë¦°
e art
ĠìĥģìĬ¹ ìľ¼ë¡ľ
Ġê¸ģ ì§Ģ
Ġë¹ł ì§Ģê³ł
Ġë¡ľìļ° íĮ»
Ġìĩ¼ íĮĮ
g rade
Ġf dt
Ġab scess
se vere
con j
ëıĦ ê°Ģ
Ġì¡°ìĺģ ìłľ
Ġsti tch
ìĤ¬ ì§Ħì²¨ë¶Ģ
íķĺìĭľë Ŀ¼
íĨłë ¥¼
Ġëĭ¤ìĿĮë²Ī ìĹĲ
0 2
ĠìĹĨ ëĭ¤ê°Ģ
Ġë© ĺ
ĠE d
ìĭĿìļķ ë¶Ģì§Ħ
Ġmethocarbam ole
cr ip
Ġf a
Ġìĸ´ìłľ ê¹Įì§ĢëĬĶ
ìĸ´ë ¨¹
ĠíĿ¥ë¶Ħ íķĺë©´
thop rim
Ġëį ®
ĠëĨĴ ìĿ´
ĠëĲĺ ìĹĪëĭ¤ê³ł
Ġë¶Īê·ł ì§Ī
is ed
Ġë¨¹ìĹ¬ ìķ¼
¬ ¸ë
Ġc entral
Ġì¤ĳ ìĿ´ëĤĺ
Ġpo t
Ġì§Ģìĭľ íķ¨
ĠíĬ¸ë¦¬ ë°į
° ĸìĹĲ
íķľ ëĭ¤
ĠìĥģíĻ© ìĹĲìĦľ
PI C
enter ic
ìĭ¤ ì¡°
Ġíļ¡ ê²©ë§ī
ìĿ¸ íĬ¸
Ġtr unk
Ġêµ īìŀ¥íŀĪ
Ġë°©ê´ĳìĹ¼ ìĹĲ
ĠìłĦì ĽĲ
ĠíĤ ģ
« ìĨĶ
ĺì ĭľ
ê° Ħì¦Ŀ
ĠìĿ´ë¬¼ ìĿ´
ĠëģĿ ëĤĺê³ł
ĠCh l
Ġì±Ħì ·¨
íħĲ íĬ¸
Ġìĺ¤ë ¥´
ĠíĮĮìĹ ´ë
ĠDob u
ist ent
ĠíĹĪ ëĭĪìķĦ
ìľ¼ë¡ľ ë¶ĢíĦ°
Ġsp ur
ìĹ°ë Ŀ½
Ġof loxacine
Ġê°ĦìĭĿ ìľ¼ë¡ľ
Ġê°ĲìĹ¼ ìĹĲ
Ġë³´ê°ķ ìłĳì¢ħ
al king
Ġìŀħ ìĭ¤
ê±° íĴĪ
ĠìĤ¬ë£Į ëŁī
ĠìķĦë ĵľ
ĠëĤĺìķĦ ì§Ħ
Ġdef orm
A O
l ip
ĠD I
Ġê¼ ¬ë
Ġsyn echia
hep agen
dition al
n ar
Ġì ı
Ġìĭ¤ ìĻ¸
om atous
kin ase
ot ensive
dl ing
ëĵ± ìª½
Ġspl en
Ġì²© ëª¨
ìļ° ê³ł
Ġì²ĺì¹ĺ ìĹĲ
Ġê³łëł¤ë Ĳĺìĸ´
f unction
Ġê´Ģëł¨ ìĦ±
ĠìĥģíĻ© ìĿ´ëĿ¼
Ġíı¬íķ¨ íķĺìĹ¬
Ġê³µë³µ ìĹĲ
Ġì¢ĭìķĦì¡Į ëĭ¤ê³ł
Ġëĭ¤ë¥¸ë ³ĳìĽĲìĹĲìĦľ
D V
ime thoprim
Ġsur face
ìŀĪ ëĭ¤ê³ł
ĠComment s
Ġt yp
Ġë°ĺ ìłĲ
ĠìĨĮë³Ģ ìĿ´
Ġì§ĢëĤľë²Ī ê³¼
ìĿ´ì ħĶìĦľ
ĠìĿ´ì ĭĿ
ĠëĤ´ë³µìķ½ ìĹĲ
Ġë¶Īíİ¸ ê°Ĳ
9 5
Ġë°ľë ³ĳ
ë°°ì ª½
Ġë¶Ģìĸ ´ìŀĪìĿĮ
Ġinflamm atory
Ġë¬¸ìłľë ĲĺëĬĶ
ìł Ħí
ent on
Ġìľłë ¬¸ë¶Ģ
pira tion
ĠìķĪëĤ´ë ĵľë¦¬ê³ł
ĠìŀĲìĦ¸ íķľ
íĹĪ ëĭĪìķĦ
i tive
Ġìĭ¬ íĸĪìĿĮ
Ġcl ostridium
Ġket oconazole
C H
¶ Ģë¡ľ
Ġê³ ¨ë
Ġê³µ ê°Ħ
ĠëĪĪ ìĥģíĥľ
ĠìĹĨ ìĹĪìĬµëĭĪëĭ¤
ĥĿ ê²Ģ
Ġë¹Ħì ¶ľíĺĪ
Ġsyl imarin
Ġë ĥĦ
il ity
ìĹ° ìļ°
Ġë°¥ ê·¸ë¦ĩ
Ġìļ ķ
ĠìĿ¼ìľ¼ íĤ¬
ĠëĮĢíķ´ì ĦľëıĦ
Ġìľłë£¨ ì¦Ŀ
lam ation
ĠìĿ´ íĺķìĦ±
ĠíĶĮë Ŀ¼
íķĺ ê²łëĭ¤ê³ł
ĠìķĪë ħķíķĺìĦ¸ìļĶ
ĠìĦ¤ìĤ¬ ì¦Ŀìĥģ
ê³¨ ìĿ´
iment ary
Ġëį ľë
Ġam y
¹Ħì ½
Ġh ac
an ning
Ġìŀħ ìĿĦ
Ġtransf usion
ĠìĺĪíĽĦ ê°Ģ
ì§Ģ ìĹŃ
ì¹ ¼ëĿ¼
Ġê°ĢëĬ¥ìĦ± ìĿĦ
ep t
ĠìķħíĻĶ ëĲ¨
ëķĮ ë¬¸
Ġslow ly
or nipural
ar opitant
íĦ ±
Ġh co
Ġë³´íĺ¸ìŀĲ ëĬĶ
ĠìĿ´ë Ĥĺ
ĠìłĦíĻĶ ë
Ŀ¼ë ¥¼
Ġë³´ìĺ Ģ
Ġdoc p
ĠìĤ¬ ìĤ¬ë¯¸
Ġìĺ¤ëĬĺ ê¹Įì§Ģ
Ġíİ¸ ìĿ´ëĿ¼
ĠíĺĦì¦Ŀ ê´Ģëł¨
Ġvit BC
Ġbut ophanol
Ġgent amycin
d le
į ©
Ġê°Ģë ŀĺ
Ġê°Ķ ëĭ¤
Ġìĥģì²ĺë ¶ĢìľĦ
Ġì§ĢìĤ¬ ìłľ
m is
íķľ ê²ĥ
ĠT G
tra s
ĠëĦ¤ë·¸ëĿ¼ìĿ´ ìłĢ
Ġc obal
ĠìķĪ íĨµ
ul us
ct omy
íĹ ī
Ġë³µìļ©ì¤ĳ ìĿ¸
ĠìĥĿê°ģ íķĺìĭ¬
ophosph amide
Ġë°ĺëł¤ë ıĻë¬¼
ì ©Ŀ
ĠëĨ Ķë
Ġìŀ¬ëĤ´ìĽĲ íķĺìĹ¬
Ġnit ro
Ĥ´ ìĹĲ
UT D
T A
Ġë°°ëĩ¨ ìĭľ
Ġ) "
Ġì¶©íĺĪ ìĿ´
ĠëĮĢìĨĮ ë¶ĢëıĻ
ëĿ½ íĨ¤
Ġê°Ģ ìĿĦ
Ġì° Į
ìĶ ¬
ìĸ´ì §ĢëĬĶ
ĠL ef
Ġthr ust
ê°Ģë ıĦ
Ġeosinophil ic
© ´ë
´ì ĺ¤ë
ĠìĪĺ íıī
ĠëıĻ ìĥĿ
ĠìĿ¼ë ¶Ģë
Ġê²½ìļ° ìĹĲ
Ġëĭ¨ íĺ¸ë°ķ
Ġë¬´ë £Į
yph ema
Ġìŀ¥ì°© íķ¨
ĠìĨĮìĭ¤ë Ĳĺìĸ´
Ġuw tm
ĠíĿī ê³¨
Ġë³µ ë°°
row th
ĠíħĮ ìĬ¤íĬ¸
Ġstim ulation
ĠìľĦ íķĺìĹ¬
Ġen zyme
íĪ¬ ìĬ¤
0 8
ìĿ´ ìłĦìĹĲ
Ġìĭľëł¥ ìĿ´
íķ´ë³´ì ĭľê³ł
Ġì²łìłĢ íŀĪ
Ġvari ant
Ġepis cl
Ġì¦Ŀìĥģ ê°ľìĦł
oc ytic
ĠëĲĺ ìĹĪìĬµëĭĪëĭ¤
Ġf pv
ìŀ¥ ìĹĲ
ĠC time
ĠA U
ĠìĥĿê°ģ ëĲĺìĸ´
ê¶Į ìľł
ĠíĬĢìĸ´ëĤ ĺì
ĠìķĦë ŀ«
Ħ¸ ì²Ļ
Ġx cm
Ĩį ëıĦ
Ġìŀĺì§Ģë ĥĦ
íĺĪ ìłĦ
ĠíĹ ī
Ġê³łëł¤ë ĲĺëĤĺ
CR OS
Ġelev ated
v ial
Ġë¯¸ë ¯¸
ĠêµŃìĨĮ ë§Īì·¨
ê° ĦíĹĲ
ĠìĪĺì °
ic ally
íĮ ľ
ë³´ ëĬĶ
ĠcT nI
ìĿ¸ ëĭ¤ê³ł
ĠìŀĪëĭ¤ê³ł íķ¨
Ġê²ĢìĿ´ê²½ ìĥģ
ìĸ´ëľ ¯
P CR
ë§ ĲëĿ¼
ĠìĦ¤ íĥķ
Ġcryst al
cor bic
¼ íĦ°
er ated
Ġher pes
ĠìĨĮìĪĺ ìĿĺ
ìŀĲ ë¦¬
Ĩį ìĸĳ
Ġì§ĢëĤ ĺìĦľ
ath iop
Ġì Ńī
ê³¼ ëĬĶ
ìŀĲ ìĦ¸ë
ĠìĤ¬ ìłķìĥģ
Ġë°ľ íĨ±ìłķë¦¬
Ġíĺ¸íĿ¡ ìłķì§Ģ
ĠìĦ¤ìĤ¬ ë¡ľ
ĠìĿ¸ íĦ°ëĦ·
ìĦ¸í ĭ¸
Ġíıīê°Ģë ¥¼
Ġdiff eren
ĠìĹ°ëĿ½ëĵľë ¦¬ê¸°ë¡ľ
ĠíĺĪ ê²Ģì
Ġê±°íĴĪ íĨł
ĠíĦ° ëĬĶ
ĠìĻĢë ¥ĺê°Ģ
ĠìĪĺ íı¬
ĠëķĮë¬¸ ìĿ¼
Ġc arb
ìĪĺ ê°Ģ
§Ī ìĿ´ëĵľ
ì²Ļ ê³¨
Ġing uinal
ë ¨¹ìĿĮ
ĠíĽĦ ì½Ķ
íķĺì ŀĲê³ł
ĠìĪĺë ©´ì
CO PIC
Ġì¡°ê¸Īë §Į
ë ¨
Ġë¹Ħ ëĭĲ
Ġê±±ìłķ ìĿ´
CROS COPIC
Ġë¨¹ ìĸ´ìķ¼
ê³¼ ìłķ
ĠI f
ìĭľë ıĦ
Ġëĭ¨ ìľĦë¡ľ
ê³³ ìĹĲ
íķŃ ë¬¸
Ġë¹ĪíĺĪ ìĿ´
Ġë¹Ħìŀ¥ ì¢ħê´´
Ġë¦¬ ë§ĪëĶľ
ull ary
in ter
ĠìĤ¬ë ŀĮë
¦¬ë Ł¬
ĠìĦ¤ìĤ¬ ìķ½
ĠìĿ´ìĻ¸ ìĹĲëĬĶ
ĠìłĪìłľ íķĺìĹ¬
Ġê°Ģì ĭ¤
Ġbil e
íĤ¤ ëĬĶ
in itis
Ġl ab
Ġìŀ¬ ê³ł
ĠìĿ´ë¬¼ ìĦŃì·¨
Ġì´ĪìŀĲ ì²´
Ġë³´ë ¦Ħ
Ġíģ´ëĿ¼ë°Ķ ëª©ìĬ¤
Ġìļ°ë ł¤
ĠëĳĲë²Ī ì§¸
Ġin duced
ron g
íĺĪë ³ĳ
ĠEd ema
ë Į
ĠíĻķìĿ¸ íķĺìĹ¬
ĠëĴ¤ ìª½ìľ¼ë¡ľ
Ġst ool
ĠìĹ° ê¸°
Ġë³´ì ¡´
ĠìĿĺìĭ¬ ëĲĺë©°
Ġê¶Į íķ´ëĵľë¦¼
ĠíĤģ íĤģ
g lu
l in
ìĦ¸ ì§Ģ
ĠìĦ¸ë °
Ġz enton
¬ ´ë¦¬
Ġëª °
ĠìĪĺì »·
Ġê·Ģ íĦ¸
Ġê±´ìĤ¬ë£Į ëĬĶ
ĠìķĦíĮĮ íķĺê³ł
Ġê°ģì§Ī ìĿ´
ìŀ¬íĻľ ì¹ĺë£Į
ìĪĺ ëĬĶ
ĠI soflurane
Ġê³Ħì ħ¨ìĿĮ
Ġì¢ħê´ ´ë
Ġacetylcyst eine
Īĺë ¶Ħ
ĠíĬ¸ë¦´ë¡ľ ìĬ¤íĥĦ
ĢìĤ¬ ìĥģê·ł
Ġcardi ogenic
an ds
Ġê´Ģì°°ë Ĳĺê³ł
G A
ìĦ± ìĿĺ
ê²½ êµ¬ìłľ
Ġì§Ħíĸī ëĲĺëĬĶ
Ġco unt
Ġcyt oplasm
´íĿ ĺ
Ġartif act
Ġg ro
ĠP rednisolone
Ġì¢ĭ ìķĦìĦľ
ìĭ¤ ìĹĲ
ĠíĪ¬ìĹ¬ íķĺê³ł
Ġëĭ¤ë¦¬ ëĬĶ
Ġmy el
íĮ¨ë ĦĲ
Ġëĭ¤ë ¥´ê²Į
st able
Ġíĩ´ìĽĲ íĽĦ
ĠìĥģìĬ¹ ìĿ´
´ë° ľë
íķŃ ì²´ê°Ģ
ans etron
f ore
íķ į
°ì ¹
Ġê°ķê¸ī ìĭľ
Ġë°ĸ ìĹĲìĦľ
ìĹĪ ìĹĪìĿĮ
Ġê°ĲìĹ¼ ì¦Ŀ
íĤ ¹
ëĦ ¤ë
Ġê°ľìĦłëĲĺ ìĹĪìĿĮ
ĠPH OS
ĠìĬ¤íĶ¼ë¡ľ ëĿ½íĨ¤
Ġë» Ĺ
Ġì° ĶëģĶ
Ġê°Ħë ¶ĢìłĦ
art an
Ġë³´ëĤ ´ì
ĠLV ID
ë ıĮ
Ġíıīê°Ģ ê°Ģ
ĠëĦ£ìĸ´ì ¤Į
ameth ox
ĠEx terna
ĠìŀĶì¡ ´ìľłì¹ĺ
k nown
Ġs ection
ĠëĤĺíĥĢëĤ ĺì§Ģ
Ġìŀĩ ìĿĮ
Ġì¼Ģ íĨ¤
Ġìĺ¤ìĭ¤ ìĺĪìłķ
ĠëĮĢë¶Ģë¶Ħ ìĿĺ
Ġì§Ģê°Ħë ¶Ģ
Ġìĺ ¨ë
Ġìĭ¬ ìĽĲìĦ±
Ġì¹ĺ ê·¼
Ġíı¬íĶ¼ ìĹ¼
f undus
Ġëĭ¤ë ħĶ
ĠìĻ¸ë ŀĺì§Ħë£Į
ĠìĪĺì° ¨ë¡Ģ
© į
Ġê°Ģì ļ´ëį°
Ġat opy
ĠìķĮ ë¡ľ
ĠìķĦëĭ Įì§Ģ
ĠìĤ¬ìĥģì¶© ìĺĪë°©
Ġproc ess
Ġê°Ĳ ìĹ¼ë
pi g
pl ant
Ġíķĺìĺ Ģê³ł
Ġst ress
Ġê´Ģë¦¬ íķł
Ġëª¨ìĬµ ìĿ´
Ġacid time
ĠëĬĳ ê°Ħ
íĮ¨ë ĵľ
ac ing
Ġê°Ģìłķ ë¶Ħìĸĳ
ĠìĹ Ħë§Ī
Ġs arcoma
ec a
Ġê¸° ëĭ¤ë¦¬
ĠëĮĢì ĭĿ
ë°± ëĤ´ìŀ¥
Ġê²¬ ìĿ¸
Ġë°Ķê¿ Ī
Ġë¨¹ìĿ´ì ħ¨ëĭ¤ê³ł
Ġë¶Ģ ìłķ
Ġd ye
ĠO to
Ġcc ìĶ©
íĶĦë ¦¬
ĠìµľìĨĮ íĻĶ
Ġ tim
Ķ Ħë
íķ łë§Įíķľ
Ġìļ°ì¸¡ ìłĦì§Ģ
ĠìĿ¼ì£¼ìĿ¼ ì¹ĺ
Ġdet ected
Ġëĵ¤ë ¦¼
Ġê±¸ìĸ´ ëĭ¤ëĭĺ
al p
Ġìĥģ ìĻĦ
ĠëłĪëĤł ìĸ´ë
ı Ĳ
Ģì ŀ¥ëĭĺ
ol i
Ġêµ¬íĨł íķĺëĬĶ
íĢ ´ëĵľ
ĠëĤ¨ ê¹Ģ
íĶ¼ë¶Ģ ìĹ¼
ĵľë°´ìĬ¤ë ĵľ
ĠH R
ìĸ´ì §Ī
Ġ5 4
Ġmid a
Ġmp ss
ëĲ ĺë©´ìĦľ
ĠìĿ´ë ²Ħë
ĠPD H
Ġì§ Ģë¦¬ëĬĶ
Ġê°Ħ ìĹ¼
Ġìĸĳì¸¡ ê·Ģ
ens ual
ì¹ĺì ĦĿ
Ĥ´ì Ħ±
Ġì° ¨ë¡Ģ
Ġê°ķ ëł¥
ĠìľĦì ª½
ĠìĭĿíĥĲ ìĿ´
ulf amethox
Ġne ed
Ġë³´ëĤ ´ëĵľë¦¼
ìĿĢì ķĦ
Ġì£¼ì¹ĺìĿĺì ĻĢ
ĠìŀĪ ìĸ´ë³´ìŀĦ
Ġê²½ ë¶ĢíĦ°
ĠA d
ĠëĲĺ ìĹĪìľ¼ëĤĺ
ĠíĹĪ íĥĪ
Ġ13 2
ĠíĻķìĿ¸ëĲ ł
Ġì¹ĺì ¦Ī
Ġë¨¹ìĿĢ ê²ĥ
j d
ķ ĺìĿĮ
Ġê²½ ëıĦ
ĠêµĲìłķ ìĿ´
Ġpr ur
ark able
Ġê¶ģê¸Ī íķ´
ĠI m
Ġê¸īìĹ¬ íķĺê³ł
ĠíĹī íĹī
Ġê·¸ ìłĦ
ĠìķħìĦ± ì¢ħìĸĳ
Ġëĥī ê°Ĳ
ê°Ģì Ĭ¤
ob er
ĠìĿ¼ëĭ¨ ìĿĢ
Ġíĺ¸ìłĦë ĲĺëĬĶ
ĠìłĦëĤł ìĹĲ
ĠDox ycycline
Ġ %
Ġp ack
ĠëĤľ ëĭ¤ê³ł
Ġfib ro
Ġpo ss
ìĽ ł
ĠìĨĲ ê°ĢëĿ½
Ġê·¹ ìĨĮëŁī
Ġë©ĶíĬ¸ë¡ľ ëĭĪëĭ¤ì¡¸
Ġc ase
Ġìŀ¬ ì²ĺë°©
Ġê°Ļ ìĿĢëį°
Ġê°ķ íķľ
Ġêµ ½
Ġë³´ìĿ´ì§Ģ ëĬĶ
Ġìĭłìļ° íĻķìŀ¥
ëĬĶ ì§ĢëĬĶ
Ġtra che
ct ober
ĠíĶĦëłĪë ¹Ħì½
ĠíĶĦëłĪëĵľ íı¬ë¥´íħĮ
ì½Ķ ë¡ľ
ĠëĤ® ìĹĲëĬĶ
ëĭ¤ ìĭľ
ĠìķĪ ìłĪë¶Ģ
Ġë§Ī ìĿ´ë
ĠíĿĶëĵ¤ë ¦¼
ê·¼ ì²ĺ
Ġì²´ìĺ¨ ìĿĢ
ëĲĺ ìĹĪëįĺ
ĠìĤ¬ìĿ´ íı´
ĠëĤĺë¨¸ ì§ĢëĬĶ
Ġ iliac
Ġë¶Ħ ìĿ´
ĠìľĦìŀ¥ ìķ½
² ĺëŁ¼
ĠëĤ´ìĽĲ íķĺìĭľë©´
Ġë³´ìĺ Ģìľ¼ë©°
Ġì½Ķë§ī íŀĺ
ĸĳ ìĥģ
ìĿ´ë ©ĶìĿ¼
ìĺ¤ ëĬ
Ġìĭľìŀĳ íķĺìĹ¬
ĠìŀĲê·¹ ìľ¼ë¡ľ
ĠìĥĿ ê¸°ë©´
ĠëķĮ ê°Ģ
tin ib
Ġë°Ľìľ¼ ìĭł
ìļ´ì °¬
° ¥
ĠìķĪë Ĳĺ
ĠìĦ¤ìĤ¬ íķ¨
Ġë¬¼ ìĸ´ëľ¯
Ġë°¥ ë¨¹ê³ł
ìłķëıĦ ëĬĶ
ĠìķħíĻĶ ëĲĺëĬĶ
ìĹ°ë ³Ģ
Ġê²ĥ ìĿ´ëĿ¼ê³ł
Ġre qu
Ġíŀĺëĵ¤ìĸ´ íķĺëĬĶ
Ġì¢ĭìĿĢ íİ¸
ĠìĨ Ķë¡ł
Tra uma
Ġìĸĳíĺ¸ íķĺëĭ¤ê³ł
ìłĢë ²Ī
ph eral
ĠëıĻ ìĿĺìĦľ
Ġíķĺ ê²łìĬµëĭĪëĭ¤
Ġì¢ħìĸĳ ìľ¼ë¡ľ
crip tion
m ic
ĠìķĪ ìļ´ì°¬
ĠC e
ë¬¸ ìłľë¡ľ
ì£¼ë ¶ĢíĦ°
ĠëĮĢíĩ ´ë¶Ģ
ĠìĻ¸ì¸¡ ìĥģìĹĲìĦľ
ĠëĤĺìĻĶ ëĭ¤ê³ł
ĠìłĢíķĺë Ĳ¨
Ġb rown
Ġn arrow
Ġì¹ «ìĨĶ
ĠìķĪ ì£¼ìĭ¬
Ġê¸ī ìĤ¬
ê±° ìĿĺ
Ġë¨¸ë¦¬ ë¥¼
ìļĶ ëıĦ
ĠH AC
ĠíĿī ë²½
Ġìĭ¬ íķĺëĭ¤ê³ł
ol ate
ĠM S
Ġìĸĳìĥģ ìĿĦ
ĠìĹ°ê³ł ëĬĶ
ĠëĤ´ì¸¡ ìľ¼ë¡ľ
Ġë £¨
Ġìľłì§Ģë Ĳĺìĸ´
Ġë¬´ìłķíĺķ ìĿĺ
ĠëĤ ´ë³µ
Ġ1 30
Ġëª» íķ´ìĦľ
Ġìŀ¥ ìķĪìĹĲìĦľ
Ġëĭ¤ëĭĪ ìĭľëĬĶ
SA A
ĠìŀĲìĹ° ìĭĿ
ĠìĬĪ ê°Ģë
Ġcann ed
Ġrani tidine
Ġì¹ĺë£Į ê¸°ê°Ħ
Ġê·¸ë ¡ľ
Ġì§Ħìłķ ìłľ
ĠìĨĮë³ Ģìĥī
Ġë°°ë³Ģ ìĹĨìĿĮ
int estinal
Ġì»¨ íĬ¸ë¡¤
Ġì§Ħíĸī ëĲĺê³ł
ìķĺ ëĭ¤
ìłķëıĦ ìĿĺ
ìĨĮê²¬ ìĿĢ
N a
v et
Ġìĭľ ìĬ¤íħĮ
Ġìļ°ì¸¡ ìĿ´
Ġì¢ĭìķĦ íķĺëĬĶ
ìĬ ¬ë
ì£¼ ëĬĶ
¯¼ íĬ¸ëĿ¼
Ġë°ĺìĿĳ ìĿĦ
ĠìĺĪë°©ìłĳì¢ħ ìĿĢ
an cy
Ġì¹ĺìĦĿ ìĿ´
Ġë¬´ë¦İ ê´ĢìłĪ
ĠëĮĢì² ´
íı °
ĠìĿĺìĭĿ ìłĢíķĺ
Ġepilep sy
Ġw a
0 3
ê³ °íĮ¡
ĠìłĦë ¶Ģ
ì¹ĺ ëĬĶ
Ġë¶Ħ ëĭ¹
Ġíŀĺë ĵ¬
Ġê³łì§Ģë ĵľë¦¼
Ġ '
Ġíķĺë ıĦë¡Ŀ
ĠìĽĲìĿ¸ ìĿ¼
Ġì£¼íĺ¸ìĨĮ CC
ĠíıĲìĩ Ħ
Ġíķľë²Īë įĶ
ĠìļĶ ëıħ
J D
Ġt a
ĠìĪĺë ¦½
Ġsh ap
Ġê²¬ê°ĳ ë¶Ģ
íĽĦ ìĹ½
Ġ30 0
ì½ ©
Ġmel ting
Ġëĵľ ëĬĶ
ĠìĿ´ë¦¬ ìĺ¨
ti ts
Ġê°ĲìĨĮ ëĲ¨
ad roxil
ëĵ¯ íķ¨
Ġìłĳê·¼ íķĺìĹ¬
ĠìĥģíĶ¼ íĻĶ
ì§ĢìĨį ìĭľ
Ġb order
ĠìŀĪ ëĭ¤ë©´
Ġê°ĢëĬ¥ íķľì§Ģ
Ġk n
ĠìĤ¬ìĥģì¶© ìĿĢ
ĠìłĢë²Ī ì£¼
Ġìĸĳíĺ¸ íķ´ì
ĠìĽĲ ëĤ
ĠìĪĺìķ¡ ìĿĢ
ĠìĿ´ìĥģ ìĭľ
Ġìº¡ìĬĲ ë¡ľ
ĠëıĮìķĦ ëĭ¤
ìĭľ ëĬĶëį°
Ġìļ°ì¸¡ ìľ¼ë¡ľ
Ġì°¨ ìĺ¤ë
AI R
Ġpen is
Ġê¸īìĹ¬ íļŁìĪĺ
ĠìĿ´ìļ© íķ´
9 7
i u
Ġì§Ħíĸī íķĺìĹ¬
Ġìľłì§Ģ íķĺë©´ìĦľ
ĠëĳĲ ê°ľë
Ġcom m
ĺ ¥
Ġp lu
Ġëį°ë ¦¬ëŁ¬
Ġcan al
Ġê¹ľë ¹¡
ĠíĹ¥íĹ¥ ê±°ë¦¬ëĬĶ
Ġë°©ê´ĳ ìĹĲ
ĠìĸĮ ìłĦ
Ġì° ¢
om ple
Ġíķľë ´ī
Ġìĸ´ë ¯¸
ĠìľĦì ĥĿ
ĠëĤĺë ¯¸
Ġb all
ine phrine
Ġre verse
ķĮ ê¹Įì§Ģ
ĠìĿ´ë łĩê²Į
Ġì¹ĺë£Į ê³Ħíļį
ĠìĹ° ê´ĢìĦ±
ĵ± ë¡Ŀ
ëĵ¤ ìĿĢ
í ŀĲ
§Ģ ê¸°
ul ent
Ġan y
Ġë°ľê²¬ ëĲ¨
ĠëĪĦìĽĮ ìŀĪ
íĺ¸ë ¥´ëª¬
ĠTra madol
Ġextens or
Ġë°© ì§Ģ
Ġ9 8
Ġíĺķíĥľ ëĬĶ
Ġì£¼íĺ¸ìĨĮ cc
ĠíĺĦì¦Ŀê²½ê³¼ HPI
Ġê¸°ì¹¨ ëıĦ
ĠìłĲ íĶĦ
ip ro
ìĪĺ íĻĶ
ìĻ¸ë ŀĺì§Ħë£Į
ĠëĮĢìĤ¬ ìĦ±
Ġd ea
ĠìŀĪ ê±°ëĤĺ
ĠìķĪë Ĳĺê³ł
ĠíĺĦ ê¸Ī
ĠëĤ´ë ¦¼
Ġadd ed
Ġì´Īì½ ľëłĽ
Ġf ollic
ëıĦ ì§Ī
ĠìĬ ¹
Ġë¨¹ìĿ´ì ĭľë
Ġì¢ħìĸĳ ìĹĲ
Ġê±· ê³ł
Ġê±· ëĭ¤ê°Ģ
ìłľê±°ì Īł
ĳĲë ©´
Ĥĺ ê³ł
ë³´ ê¸°ë¡ľ
Ġë°Ľìľ¼ ìħ¨ìĿĮ
Ġê°Ĳë³Ħ ìĿĦ
Ġëª¨ìĬµ ìĿĦ
Ġê°Ģëł¤ìĽĮ íķĺëĬĶ
Ġrespon se
ep p
Ġê´Ģëł¨ íķľ
ĠíĮĲ ìłķ
ĠìĻĶ ìĿĮ
Ġì ©Ŀ
ì§ Ħì¦Ŀ
Ġë¨¹ ê¸°ëĬĶ
ĵ¤ ìĸ´ìĦľ
Ģë¶ Ħë
ĠëĦ£ ìĸ´ìĦľ
íķ´ë ĥĦ
ĠìķĦíĮĮ ìĦľ
ĠìĻ¸ë ŀĺ
P V
Ġm ac
ìĪ łë
įĶ ìĬ¤
Ġë¶Ħë¦¬ ë¶ĪìķĪ
§ ŀ
ìĸĳ ìª½
ëĤ ´ìļ©
Ġê·¸ë ¦ĩ
Ġìĺ¤ë ¦¬ê³łê¸°
Ġchem otherapy
Ġì´īì§Ħë Ĳ¨
ĸ ´ë
lex ia
Ġê·¸ ìĹĲ
Ġëħ¸ëł¥ìĦ± ìĿĺ
ĠëłĪìĿ´ ìłĢ
ĠìĬĪê°Ģë ĵľëłĪìĭ±
į ¼ë
Ġìķ½ ê°Ĵ
Ġìĭ¬ìŀ¥ íıīê°Ģ
e u
íķĺì ķħ
ur in
Ġìĸ´ëł¤ ìļ°
įľ íĬ¸
Ġë³µìĪĺ ëĬĶ
ĠIn duction
ì¡Į ëĭ¤ê³ł
ĠìłľìĻ¸ íķľ
Ġd jd
ìłģ íĺĪêµ¬
Ġê²½ ë¡ľ
ĠìĨĮìĭ¤ë Ĳľ
ĠíĺĦì¦Ŀê²½ê³¼ hpi
íĺ ¼
ĠíĤ¤ìļ° ëĬĶ
Ġah ìĹĲìĦľ
ì¡°ì§ģ ê²ĢìĤ¬
Ġíģ¬ëłĪë©Ķì§Ħ time
ŀ ¨
Ġs ome
ĠS I
Ġ4 1
Ġì¸¡ìłķ ëĲ¨
ĠìķĦìĿ´ì Ĭ¤
Ġìĭ¬ ìłĦëıĦ
ìĤ ´ë
ĠìĿ´ëıĦ ìĹĲ
Ġê±¸ë ¦´
Ġsha dow
ĠìĹ Ĭê·¸
ë° Ģì
ar pal
Ġh yphema
n ic
Ġìĺ¤ ìłĦì¤ĳ
ĠëĺĲ ëĭ¤ë¥¸
EA U
ì§ ľë¦¬
re mia
Ġme lan
Ġë°Ľ ê¸°ë¡ľ
ì» ·
ĠíĽĦìĹ½ ìĿĺ
Ġíĺ¸íĿ¡ê³¤ë ŀĢìľ¼ë¡ľ
U B
ìĤ¬ ë§Ŀ
Ġan tib
ĠìĹīëį© ìĿ´ìª½
Ġpad dling
ª °ë
Ġë ĵľëł¸ìľ¼ë©°
en tif
Ġìĭ¬ ìĹ°ìļ°
Ġê²ĢìĤ¬ ë¡ľ
Ġëĭ¤ ìłľìĬ¤
ĠìĹ¼ ì¢Į
Ġìĺ¤ë¦¬ ìłł
Ġìĵ°ëłĪê¸° íĨµ
Ġê°ĦìĭĿ ìĹĲ
ĠìĹĨ ëĬĶëį°
ìķĦì¹¨ ìĹĲ
ĠDO CP
ĠìĻ Ħë
Ġì²ĺë°© íĽĦ
Ġê°ĲìĨĮ íķĺëĬĶ
Ġë©´ìĹŃ ë§¤ê°ľ
Ġì©Ŀ ì©Ŀ
P M
Ġì£¼ ìĭłëĭ¤ê³ł
Ġì§Ħíĸī ìĭľ
ĠìĿ¼ë°ĺì Īĺìķ¡
Ġon ly
ĠìĥģìľĦ ê²ĢìĤ¬
me c
Ġì§ĢëĤ ľë
¥ ¸í
Ġë¨¹ ìĿĦëķĮ
§Į íģ¼
ĠëĬĺ ê³ł
Ġë¿Įìĺĩ ê²Į
Ġzenton il
b ond
p a
Ġìĭľ ê°ģ
ir d
Ġìŀĺì§Ģë ĥĪìĿĮ
Ġìĸĳì¹ĺì §Ī
´ë°ľë ŀĢìĬ¤
ĠB id
ì° ľ
ĠìłĪ ì°¨
ĠíĶĦëłĪë¹Ħì½ ķìĬ¤
oplas ma
Ġë¬¸ìĿĺ íķĺìħĶìĦľ
ìĸ´ë³´ ê³ł
Ġbromhex in
ĠíĥĲìĥī ìłģ
Ġì²ĺë°© ìĿĦ
Ģë¦¬ ê³ł
ë¬¼ ì§Ī
Ġê³µê¸ī íķĺëĭ¤ê°Ģ
Ġë¬¼ì²´ë ĵ¤ìĿ´
Ġinv asion
Ġíľ´ë ¬´
ëĭĪ ìĬ¤
íĶ¼ íķĺì
Ġìŀ¡ ìĿĦ
Ġì§Ħíĸīíķĺê¸°ë¡ľ íķ¨
Ġë§ŀ ëĬĶ
Ġë¹Ħí Ī¬
roma zine
ĠëĬĲê»´ì §Ĳ
Ġconcentration s
Ġvacu olar
Ġë§ŀ ìĿĢ
5 5
Ġëª» ìŀĲê³ł
ĠìľĦìŀ¥ ê´Ģë
k et
ĠF DT
ath y
Ġcol lare
ĺì ¢ħ
Ġìļ°ì¸¡ ìĹĲ
ĠíĨµì¦Ŀ ìľ¼ë¡ľ
ĠíĻĶìŀ¥ìĭ¤ ìĿĦ
Ġë¶Ģíĥģ ëĵľë¦¼
Ġmit otic
ìķ½ ë§Į
Ġíİ¸ ìĿ´
Ġëĭ´ëĤŃ ìłĲìķ¡ì¢ħ
ĠíĴ Ģ
Ġgl ands
ĠëĤĺìķĦì ¡Į
Ġê² Ģì§
ĠìľłìĦł ì¢ħê´´
ĠìĦ¤ ìłķ
wk s
Ġëĭ ¬ë¦¬
Ġê²ĥ ê³¼
Ġíķľ ìĬ¤íĳ¼
oth in
Ġkcl ìľłì§Ģ
op aque
ĠíĸīëıĻ ìĿĦ
Ġfunction al
ĠìĿĺìĭ¬ ëĲĺëĤĺ
Ġpro tocol
Ġìłķë°Ģ ê²ĢìĤ¬
ìķ ¼ë
ra g
Ġ9 7
ĠìķĪìłĪë¶Ģ ìłĪ
Ġ4 4
ĠëĴ·ëĭ¤ë¦¬ ìĹĲ
G B
Ġp b
ëį ľë
Ġë¬¼ë ¦¼
ì» ¥
ard ed
ĥ Ĳ
Ġm ct
Ġof ten
Ġtra ct
Ġcons ensual
Ġea u
s m
al othin
ep romazine
ħ¨ ê³ł
Ġë°° ìĹĲ
ìºĶ ìĹĲ
ĠíĶ¼ë¶Ģë ¥¼
Ġhydro cephalus
en z
Ġê°Ģì Īĺë¶Ħ
Ġëģ¼ ëĬĶ
ĠìłĦ ìĹ¼ìĦ±
ĠL ung
Ġfordays p
ì¦ Ļ
ĠìĿĺìĭ¬ ëĲ©ëĭĪëĭ¤
ronch itis
ĠìĿ´ìłĦë³´ëĭ¤ ëĬĶ
¹Ħ ìĬ¤ë¡ľ
Ġaz athiop
ĠìŀĲìĦ¸ë ¥¼
Ġì ħ
ĠíķŃ ëª©
Ġcr y
Ġì£¼ë³Ģ ìĿĺ
Ġë³´ìĹ¬ ì§Ĳ
ìłĪë ¡ľ
ari an
ĠìļĶëıĦ ê²°ìĦĿ
our ce
e j
ĠìłĦ ìĭłë
ìķĪ ìķķ
Ķë Ł
Ġì¡ ±
Ġë¬¼ë ¦°
ìłĢë ¥ĺ
ulfamethox azole
u ch
ì ĨĲ
ìŀ ĩ
ĠìķĪë °Ľ
ĠëĮĢ íĺķ
ĠE DT
ĠìĦł íĺķ
ì¡°ë ¦¼
g ative
Ġì¶ĶíĽĦ ìĹĲ
Ġë¹ł ì§ĢëĬĶ
unt ary
Ġt s
ìķĪë ¶ĢìłĦíĻĶ
Ġíķµ ìĨĮ
Ġxal atan
ê³ ¤
Ġv ery
Ġvit b
ê¸°ëĬ¥ ìłĢíķĺì¦Ŀ
ìķĺì §Ģë§Į
azep ine
ar m
Ġv ein
ĠíĻķìĿ¸ ì°¨
ĠìĤ°ì±ħ ë°°ëĩ¨
Ġë¹ĪíĺĪ ìĿĺ
Ġìĭľëł¥ ìĿĢ
Ġë©ĺ íĥĪ
e ver
ĠìłķëıĦ ìŀĦ
Ġal so
ê¼ ¬ë¦¬
Ġë¶Ħìĸĳë°Ľ ìľ¼ìĭ¬
ĠEDT A
Ġe t
ect asia
Ġê°ĲìĹ¼ ì²´
¨¸ ëĭĪ
ĠíĽ ¨
ĠìĿĺë¢° íķ´ì£¼ìħĶìĦľ
Ġcar pal
Ġnec rosis
¬ë ¦Ń
Ġìĸĳìĥģ ìĿ´ëĿ¼
Ġìĥģëĭ ´íĽĦ
Ġaz odyl
Ġex p
Ġat opic
Ġì»´íĶĮë łĪìĿ¸
Ġi ma
ĠëĤĺì ĻĢ
ĠìłĢëħģ ìĿĢ
ĠëĴ·ëĭ¤ë¦¬ ê°Ģ
Ġë©°ì¹ł ìłĦë¶ĢíĦ°
ıĻë¬¼ë³ĳìĽĲ ìĹĲ
Ġë¹ĦíĭĢ ê±°ë¦¼
ì £½
Ġs tick
an ti
ìĹ¼ ìĿ´
Ġì¢Į ìļ°
ĠíĪ¬ìķ½ íķĺê³ł
Ġë¡ľ ëıĦì§Ī
Ġalumin ium
Ġtim olol
l ens
Ġf iv
Ġìłľê±° íĽĦ
ĠíĽĦì§Ģ ìĹĲ
Ġìĸ´ìłľë¶ĢíĦ° ëĬĶ
ĠìĶ »
ìĹ¬ ë
ìĭ¤ ëıĦëĬĶ
Ġê°Ģë °Ķ
ĠëĪĪë ıĦ
Ġì§ĵ ë¬´ë
b acterial
ĠìķĪ ì´ĪìĿĮíĮĮ
ĠìķĦ ìĦ¸íĭ¸
íĭ ¸
ĠíĻķìŀ¥ ìĿĢ
bl ing
ì³Ĳ ìĦľ
ĠëıĻìĿĺ íķĺìĹĲ
Ġtro ch
Ġë©ĶíĨłì¹´ë °Ķëª°
Ġìĭľê°Ħ ìĹĲ
ĠëĨį ì¶ķ
Ġì¤ĳ ê°Ħì¤ĳ
ĠR BC
ĠíĺĪëĩ¨ ë¥¼
Ġë¶Ħë³Ģ ê²ĢìĤ¬ìĥģ
Ġê²½ëł¨ ìĿĢ
Ġves tibular
ì²ĺë°© ìłĦ
ĠìĬ¤íĬ¸ëłĪ ìĬ¤ë¡ľ
0 7
B G
ĠìķĦì§ģ ê¹Įì§Ģ
ëĤŃ ì¢ħ
íĻķìĿ¸ëĲ ĺìĸ´
Ġê°Ģì§Ħ ëĭ¨
Ġp t
Ġl ocal
Ġìĭľ ê³¨
ĠìĺĪìłķ ìĿ´ìĹĪìľ¼ëĤĺ
ĠìºĲëĭĮ ìĬĲë¦°
ìĿ´ ê±°ëĤĺ
ìĿ´ì §Ħ
Ġê¸Ī ìķ¡
Ġì¶Ķ ìłģ
Ġë¶Ħìĸĳ ì²ĺ
íĺĪ ì¢ħ
Ġu rolithiasis
Ġìŀł ìĿĢ
ëª© ìļķ
ĠìĨĮìŀ¥ ë¶ĦìłĪ
Ġê¸¸ ê³łìĸĳìĿ´
ĠëĳĲëĵľëŁ¬ ì§Ħ
ë° ĺì
ìĿ´ì Ļ¸
Ġê²ĥ ìĿ¸ì§Ģ
Ġíĺ¸íĿ¡ ìĿĦ
Ġíķ´ì£¼ ìĭľëĿ¼ê³ł
ãħ ł
p pl
Ġìĭ¬ ë¶Ģ
ë¹Ħ ìŀ¥
Ġíı¬íķ¨ ëĲľ
ê¸°ì¹¨ ìĿĢ
ĠìĺĪìĥģ ëĲ¨
tr usion
Ġê°ĲìĨĮ ëĲĺìĸ´
ê°Ģì ħĶìĦľ
A D
Ĳ ĺìĸ´ìŀĪ
¹Ħë Ĥł
ĠëĦ£ìĸ´ì£¼ ìĦ¸ìļĶ
Ġì£¼ìĤ¬ ëĬĶ
Ġë¶Īíİ¸ íķ¨
Ġcrt sec
ĭ¤ë ķĮ
ìĸ ´í
ì± Ħë¡ľ
20 1
ĠìłĦì Ĩ¡
íķ´ì£¼ ìĭľëĿ¼ê³ł
Ģìĸ ´ìĦľ
inf lamation
ì ģ
Ġìłģìļ© íķĺë©´ìĦľ
ĠìķĦëª© ìĤ¬
ĠíİľíĨ¡ìĭľ íķĦë¦°
pig mentation
t te
ìĿĮ ìĪĺëŁī
ìķ¼ íķ¨
Ġper ine
Ġsed iment
´í Į
Ġë³´íĸī ìĿ´ìĥģ
ìĺ Ĩ
Ġì§Ģë°© ê°Ħ
Ġna dir
ĠìłĦ ìĿ´ì
is is
Ġìĸ µìłľ
ĠìķĪìłķ ëĲ¨
ëĵ± ìĿĢ
ĠìĿ´ë²Ħë ©ķ
ĠìĽĲëŀĺ ëĬĶ
íķľë ĵ¯
ë³¸ ìĽĲ
ĠìĹ¬ìŃ¤ë ³´ì
T ER
ģ ìĬ¤
ĺë łĪ
§ģ íı¬
ĠíĮ Ĳë
Ġë¨¹ìĿ´ì Ħ¸ìļĶ
ĠìĿĮìĦ± ìľ¼ë¡ľ
Ġë³´ìĺ Ģëĭ¤ê³ł
Ġê·ł íĺķ
b ow
Ġìĥģ ê´Ģ
am ple
ĠìĦ¬ìľł íĻĶ
Ġë¹ĦíĪ¬ ê³¼ìĦ±
ĠìķĮ ìĪĺ
Ĥĺì ļĶ
ĠìĿĺë¢°ì ¤ĳ
ê» ĺì
Ġë°± íĺĪë³ĳ
th ma
Ġêµ¬íĨł ìĹĨìĿĮ
Ġë³Ģ íĺķ
ĠìķĦ ìĿ´ëĿ¼
Ġë°©ê´ĳ ì´ĪìĿĮíĮĮ
-> ->
Ġìŀ¬ì±Ħ ê¸°ëĬĶ
Ġì¹´ë ĶĶ
Ġweek s
ĠëŀĢ ìĹĲ
Ġëª¨ë łĪ
Ġct ì´¬ìĺģ
Ġech ocardiography
ĠìĿĮìĪĺëŁī ìĿ´
Ġel ectrolytes
oci ated
Ġë¬¼ êµ¬íĨł
ĠíĻĶ ìĥģ
Ġê°ĢëĿ¼ìķī ìĿĮ
íĻĶíķĻ ê²ĢìĤ¬
Ġshadow ing
ĠB NP
ëĭĪë ŀ©
Ġpelv ic
W NL
íķĺ ê¸°ëıĦ
ĠI U
Ġê°ķ ìĿĢìķĦ
cap sul
ĠìĹĲ ìĸ´ì
Ġìĭ¤ìĭľ íķĺìĹ¬
´íĿ ¬
ĠíĽ¨ ìĶ¬
R T
ê² Ģì§
Ġp se
ĠíļĮ ìŀ¥
ĠíĤ¤íĬ¸ ê²ĢìĤ¬
Ł ê°ĢëĿ½
Ġm ain
ĠìĪ ĺë©´
Ġre duction
Ġê¹ ľ
Ġìľłì§Ģë Ĳĺë©´
ĠìķĪëĤ´ë ĵľëł¸ìľ¼ëĤĺ
Ġother s
Ġproc ed
ì¦Ŀ ê°ķ
Ġê²ĢìĤ¬ ë§Į
ĠM ild
ĢìľĦë ¥¼
Ħì ĻĢ
ĠëıĻ ìĭľìĹĲ
Ġìłľê±° íķľ
ĠëıĻìķĪ ìĿĢ
ĠíĨµì¦Ŀ ê´Ģë¦¬
ê± ´íĿ¬
ìķĪ íķ¨
ê³Ħ ìĭ¬
ĠìłĲ ìĥģ
Ġì¢ħíķ© ìłĳì¢ħ
ĠíĶ¼íķĺ ê¸°ì¢ħ
ëŁī ìĿ´
ĠíĻķìĿ¸ ìĿĦ
ĠD JD
ĠíĸĪ ìĿĦ
Ġel ect
ĠíĶ¼ì§Ī ìĿĺ
Ġlik e
Ġneph ritis
0 1
ë ĥĦìĥĪ
Ġ eros
ĠìŀĪ ìĿĦëķĮ
ĠìĤ¬ëŀĮ ìĿ´
Ġìłķíĺķ ìĭłì²´ê²ĢìĤ¬
re generative
ĠëıĻ ë¬¼ë
ĠìĿ¼ì£¼ìĿ¼ íĽĦ
Ġë¨¹ìĺ Ģ
Ġìĺģíĸ¥ ìľ¼ë¡ľ
ë°©ê´ĳ ê²°ìĦĿ
Ġhon king
ĠH CO
íĥĢë Ķĺ
ĠìľłìĤ¬ íķ©ëĭĪëĭ¤
Ġìĸ´ë¨¸ ëĭĺìĿ´
ĠìĥīìĨĮ ì¹¨ì°©
Ġhypert rophy
W TM
ë ģ¼
Ġmes enteric
0 6
ĠìŀĲ ì§Ģ
Ġê²° ê³¼ë
ĠMicro scopic
° ĺë
Ġ( +
ĠíĨµ íķ´ìĦľ
Ġê¶Įìľł íķ¨
ĠíĥĢì ĽĲ
ì¹ĺë ¥¼
Ġyellow ish
ĠìĮ Ī
Ĳĺ ìĹĪìĬµëĭĪëĭ¤
20 15
ĠìłĦìĭł ìĥģíĥľ
ĠìĦľ ê¸°
Ġì¢ħê´ ´ì
ìłĪìłľ ìĪł
ìĪ ľë
Ġw ound
Ġw ater
ron eph
Ġê²½ê³Ħ ê°Ģ
ê³Ħì Ĩį
ĠíĬ¹ìĦ± ìĥģ
ìĪĺì ŀĪ
ĠìĽĲìŀ¥ëĭĺ ê»ĺ
Ġì§Ģìĸ ´ì£¼
ĠìķĦëŀĺì ª½
y th
ìľĦ íķľ
Ġë²Ī ê°Ī
ĠíĸĪ ì§Ģë§Į
Ġëĩ¨íĮ© êµĲì²´
Ġpentox if
Ķ¼ë įĶìĬ¤
, "
Ġs in
Ġê³ ¡
oc ate
Ġì¤ĳìĦ±íĻĶ ëĬĶ
Ġíķľëĭ¬ ê°Ħ
tinu ed
ĠìĹ½ ê°Ħ
ê³ł êµ¬
Ġlim it
Ġë¨¹ ìľ¼ëĤĺ
Ġë¨¹ ìĹĪìĬµëĭĪëĭ¤
ĠìķĬ ìľ¼ë¯Ģë¡ľ
ìŀĲ êµŃ
Ġë¶Ģì §ģíı¬
ĠìĦ¤ëªħë ĵľëł¸ê³ł
³µ ìļ©
íĿ¬ ìĦĿ
ĠEl ectrolyte
Ġflu td
ìĹ¼ë ıĦ
Ġging ivitis
Ġi ol
ë¶Ģë¶Ħ ìĹĲ
ìĭ¬ ìŀ¡ìĿĮ
Ġë¶Ħë¹Ħë¬¼ ìĿ´
ĠìķĪì¢ĭ ìĿĦ
ĠìĽ Į
ĠìĿĺë¢° íķ´
ëĵ¤ ê³¼
Ġbul la
Ġond ansetron
5 6
Ġì¹ ¼ë¥¨
ĠR ight
Ġê·Ģê°Ģ íķ¨
ĠíĦ¸ ê³ł
Ġ14 4
°ķ ìĬ¤
Ġepi thelial
cla v
ĠíĺĪëĭ¹ ìĿ´
Ġë¬¸ìłľ ìĿ¼
ĠíĽ Īëł¨
ĠíĿĳ ìĥī
ĠìłĦ ìłģì¶ľ
Ġw ane
ox in
ĠëĳĲ ë§Īë¦¬
Ġdis con
ŀ¥ ìķł
Ġë¨¹ìĹ¬ ë³´ê³ł
ĠìĻ¸ë¶Ģê¸°ìĥĿì¶© ìłľ
Ġë§ŀì¶° ìĦľ
íķĺ ê²łìĬµëĭĪëĭ¤
Ġë¹ł ìł¸
Ġap ical
Ġë©Ī ì¶Ķ
Ġë¶ĵ ê³ł
o ugh
Ĥ´ ëĬĶ
Ġìĭľìŀĳ íķľ
Ġë³´íĸī ìĸĳíĺ¸
Ġë§ŀ ìķĺìĿĮ
Ġcefotax im
Ġë¨¹ìĺ ĢëĬĶëį°
t ent
Ġê²ĢìĤ¬ ëıĦ
ĠìĤ¬ë£Į ê°Ģ
ep o
ĠìĥģíĻ© ìĿ´ëĤĺ
Ġad ditional
Ġë§Īë ¬´ë¦¬
Ġas corbic
ê´ĳ ê²¬ë³ĳ
ìļ°ë ¦¬
ĠìļĶ íķ©ëĭĪëĭ¤
Ġëª» íķł
Ġê³łêµ¬ ë§Īë
Ġê°ľë³µ ìĪł
Ġê°ģë§ī ìĹĲ
ĠíĶ¼ë¶Ģë³ĳë³Ģ ìĿĢ
Ġë³Ģìĥģíĥľ ëĬĶ
Ĩ Ģ
ê¸°ë ķĮë¬¸ìĹĲ
Ġë¶Ģì ĸ´
Ġid entif
ĠìĺģìĹŃ ìĹĲìĦľ
ê¸ Ģë
Ġa ir
ĠìĭĿ ëıĦë
ĠìĪĺì ²©
ĠíĮĮ ë
Ġìĸ´ë ĶĶ
ĠìķĦëĭĪë ©°
Ġëł¹ ìĹĲ
ŀ Ģìĥī
Ġf anning
Ġì²´ì¤ĳ ëıĦ
Ġë¨¹ìĿ´ì ĭł
Ġìĸ¼ë §Īë
Ġê°Ĳê¸° ìķ½
ĠìĨĮë³ ĢëıĦ
Ġst ag
íİ¸ ìŀĦ
Ġìĭľê°Ħ ìĿĢ
ĠìĥĿê²¼ ìĿĮ
Ġìĸ´ëĸ¤ ì§Ģ
Ġë¹ Ħì¤ĳ
ĠìļĶ ìĭ¤ê¸Ī
Ġfordays P
Ġgra d
Ġtube ë¡ľ
ë°Ķ ìĿ´ëŁ¬ìĬ¤
Ġcp cr
Ĥĺì ĺ´
Ġê°Ħì§Ī íĮ¨íĦ´
z in
ĠìĦľ ì§Ģë
Ġcholang itis
ĠìŀĦí ĮĮ
Ġë ī
ĠëĳĲ ê»
Ġneph rolithiasis
Ġfist ula
Ġìº¡ìĬĲ ìĹĲ
Ġê·Ģì§ Ģë
ë¯¼ íĺķ
Ġmirt azepine
Ġìŀ¬ ì§Ħë
ĠìĹ¬ ê¸°ìłĢ
ĠìĺĪ ìłĦë¶ĢíĦ°
Ġë³´ì¡° ê¸°
ĠMet ronidazole
Ġë° Ģ
Ġì¦ĿëŁī íķĺê³ł
ĠëĶ±ì§Ģ ê°Ģ
ĠìłģìłĪ íķľ
Ġë¬¼ ì²´
ê±¸ ìĿĮ
Ġì§ĸ ìĿĮ
] "
Ġs ite
ëª »
ĠìĤ¬ë§Ŀ íķ¨
Ġì»¤ ìł¸
met ro
Ġìĭ łë¶Ģ
Ġë¨¹ ìĬµëĭĪëĭ¤
ĠìľĦ ìķ½
Ġì²ĺë°©ë°Ľ ìĿĮ
ĠìĸĳìķĪ ìĿĺ
roneph rosis
et amine
Ġë°©ê´ĳ ìĿĺ
ĠëĤ´ì Ħ±
Ġpin na
ĠìĹ¬ëŁ¬ ê°ľ
l o
Ġíķ «
ĠìĥĿ ê¸°ê³ł
ì¤ ¬
ix ime
ĠíĺĢ ê°Ģ
ìĹĩ ìĿĮ
Ĥĺ ëĬĶ
§Į íķľ
Ġë¶Īë Ł¬
ĠíĹ¥ ìĭľëĶĺì
Ġëħ¸ ì±ħ
Ĩĵ ìĿĢ
Ġê°Ģê¹Į ìĿ´
Ġepi thel
Ġsep t
ĠíĽĦì§Ģë §Īë¹Ħ
ĠíĥĪìĪĺì ĨĮê²¬
ëĺ Ĳ
Ġìŀ ĶëĶĶ
ĠìĪĺìĪł ìĺĪìłķ
ĠìķĪëĤ´ ìĹ¼
Ġíİ¸ ìĿ´ë©°
ill ine
Ġë¹Ħëĩ¨ ê¸°ì´ĪìĿĮíĮĮ
ìĺ¤ë ©´
Ġë§Īì·¨ìłĦ ê²ĢìĤ¬
ìħ¨ ìľ¼ë©°
EN V
int en
ìķł ëĭĪëŀ©
ĠìļĶì¦ĺ ìĿĢ
m oderate
ĠC ol
Ġì¤Ħ ê³ł
Ġì´Īë ¡Ŀ
Ġ+/ +
t y
ìĭĿ ìľ¼ë¡ľ
ĭľ ê²łëĭ¤ê³ł
Ġê·¸ë ¦¬
Ġê²½ìļ° ëĬĶ
ĠëıĦ ìŀħ
ìĥ µ
Ġì¢ĭìķĦ ì§ĢëĬĶ
Ġë¹Ħìŀ¥ ìĿĺ
Ġlow er
Ġê¸¸ ìĹĲìĦľ
Ġì¦Ŀê°Ģë Ĳľ
Ġdys plasia
4 6
r ial
Ġê·Ģì Ħ¸ì²Ļ
Ġë²Ī ìķ½
Ġìłķê¸° ìłģìľ¼ë¡ľ
Ġë³µìķķ ìĥģìĬ¹
Ġp ati
ge al
¦ °ì
ĠìļĶ ê³¨
Ġë§Į íģ¼
Ġê´ľì°® ê³ł
Ġë°ľíĨ± ìĿ´
ĠëĤĺìĺ¨ ëĭ¤ê³ł
Ġê¸°ìĻķì¦Ŀ PH
Ġl ë¡ľ
ĠìĪĺìķ¡ ì¹ĺë£Į
ĠL D
ĠíĴ Ī
ĠìķĦíı¬íĢ ¼
ëĭŃ ê°ĢìĬ´ìĤ´
Ġepiscl eral
i at
ĠìĥĿ ê²¨
ĠíĻĺë ¶Ī
Ġíĺ¼íķ© ë°±ìĭł
Ġê¸°ìĻķì¦Ŀ ph
L A
² ¨ë
Ŀ ìķłëĭĪëŀ©
Ġìŀĺ íķĺê³ł
Ġì§ĢìĨį ëĲľëĭ¤ë©´
ìłĢ ê²ĥ
ĠìłĪìłľ ìĪł
med ication
An ti
Ġì²ĺì¹ĺìĭ¤ ìĹĲìĦľ
" "
´ ¤ìĿĮ
ti bility
ĠìŀħìĽĲ ìĭľ
Ġìłĳì¢ħ ìķĮëŁ¬ì§Ģ
Ġac tive
cor nea
ìĺģìĥģ ìŀĲë£Į
angi osarcoma
ĠìĪĺìĭł ì¦Ŀ
ľ »
íķŃ ë¬¸ëĤŃ
ĠI OL
ĠëĮĢìĭĿ êµ¬
t ub
¼ Ģìĸ´
į ķ
ĺì §
Ġìŀĺë °ĽìķĦë
ĠìĪĺë ıĻ
Ġíĺ¹ ìĿ´
íķĻ êµĲ
Ġë¹ł ìł¸ìĦľ
Ġìŀ Ķë
Ġw ill
rol act
ĠíĮ¨ íĺĪì¦Ŀ
ì²ĺì¹ ĺë§Į
Ġb u
en v
ì² ´ë¡ľ
Ġform ation
DI ET
B ID
Ġê°ĲìĨĮ ëĲľ
Ġì¦Ŀê°Ģ íķĺê³ł
Ġìĭłê²½ ìį¨
Ġë°¤ ìĹĲëĬĶ
ol ism
ph al
Ġì¢Įì¸¡ ìłĦì§Ģ
ĠF B
ĠíĪ¬ìķ½ ìĿ´
ìħ¨ ëĭ¤ê³łíķ¨
ļ ¨
ê± ·
Ġêµ¬íĨł íķľ
Ġì» ¥
Ġê°ķ íĻĶ
ĠíĴ Ģìĸ´ì
Ġinc ision
ĠMI CROSCOPIC
ars al
ĠëĨĴ ìķĦë³´ìŀĦ
ĠìĶ ¨
ĠíĺĪìķķ ìĿĢ
ëĭ¤ë ħ
Ġêµ °
Ġìłľë ĮĢ
ì¤ĳìĦ±íĻĶ ìĪĺìĪł
ĠFe LV
Ġë² Ħí
Ġíķł ìĪĺ
Ġë§Įë ĵ¤ìĸ´
Ġíĺ¸íĿ¡ ëıĦ
ĠíĺĦìŀ¬ ë¡ľ
Ġíİ¸ ìĿĢ
Ġë°ĺë³µ ìłģìĿ¸
Ġê² ¹
Ġíģ¬ ê³ł
ìĬ¤ë ²³
Ġì¤ĳíĻĺìŀĲ ìĭ¤
ĳ Ķ
ĠìĹ ´íĿĺ
ĠìĻ Ģì
Ġê´Ģì°°ëĲĺ ìĹĪìľ¼ë©°
Ġmid dle
ĠìķĪëĲľ ëĭ¤ê³ł
²Īë ³´ëĭ¤
Ġcaus es
ìŀĲ ìľ¨
Ġsubmit ted
is k
ĠD iet
Ġìłģ ìĻ¸ìĦł
ŀĲ ìĿĮ
ëĭ¹ ìĿ¼
ĠCP V
Ġprol if
íĺ¸ ìłĦ
Ġë³Ģ ìĹĲìĦľ
Ġê¸°ì¹¨ íķ¨
Ġê°ľìĦłë Ĳĺë©´
ĠëĤ´ë ħĦ
Ġë°Ķë ŀĮ
ìĿ¼ ìłķ
Ġëª» ìĺ¤
I RIS
z ol
Ġë³´ ê´Ģ
ĠíĻķìĿ¸ íķĺìĭ¬
tin ct
Ġë³¸ ëĭ¤ê³ł
ê³µ ë³µ
ĠëĪĪë °ĳ
Ġì£¼ì¹ĺìĿĺ ê°Ģ
Ġìķķ ëł¥
ĠíĺĪì²Ń ê²ĢìĤ¬
Ġì§Ħë ¬¼
Ġë© İ
10 8
Ġê¸ģ ê±°ëĤĺ
Ħìĸĳ ìĥģ
ĠìĹ°ëĿ½ì£¼ ìĭľê¸°ë¡ľ
Ġì§Ħë£Į ìĭľ
Ġëĩ¨ ìĥī
Ġne x
ĠëĤĺìĺ ¤ë
Ġì½Ķ íĶ¼
êµ¬íĨł ëĬĶ
ĠëĩĮ ëĤ´ì
ĠìłĦì² ĺì¹ĺ
AL T
h em
ĠìķĪ ìĽĢì§ģ
Ġíģ¬ ê¸°ë¡ľ
ven tion
Ġìĸ¸ìłľë ĵł
ê°Ħ ìĪĺì¹ĺ
ë³´ ê´Ģ
Ġê°ķìķĦ ì§Ģë
Ġdox orubicin
ĠìĹİ ëĵľë
ĠìĭľìĬ¤íħĮ ìĿ´ëĵľ
b ial
Ġê´Ģë¦¬ íķĺê¸°ë¡ľ
ë¶ĢìľĦ ëĬĶ
Ġìļ© íĺĪ
Ġthicken ing
ĠìķĪ ê²Ģë
ĠS e
ĠëıĻ ëĦ¤
Ġêµ¬ê°ķ ê²ĢìĤ¬
Ġíģ´ë¦¬ íķĳ
Ĥĺ íĬ¸ë¥¨
Ġë¹Ħìŀ¥ ì¢ħìĸĳ
ĠíĻķìŀ¥ ëĲĺìĸ´
ĠíĺĪìķ¡ íĺķ
ìĿĳ ê¸ī
Ġsa a
ĠìĨĮ ìĸĳ
íĺĪë ³Ģ
ĠìĦ¸íı¬ ì¶©
Ġì¶Ķê°Ģë ¹Ħìļ©
Ġì´ĪìĿĮíĮĮ ë¡ľ
one al
Ġac epromazine
ĠìĺĪë°©ìłĳì¢ħ VAC
Ġìĭłìļ° ìĭł
ëĭ ´ëĤŃ
Ġë³´ì ĭ¤
Ġê·¸ëŁ ¼
ĠìŀĲë ĳĲ
ar ox
Ġl oc
ĠìĿµìĿ¼ ê¹Įì§Ģ
ĠìĺĪë°©ìłĳì¢ħ vac
Ġindic ates
Ġì½Ķ ì½Ķ
ĠíĿĶë ĵ¤
Ġë¶ĪìķĪìłķ ìĦ±
v ite
ë²Ī ìķ½
Ġcp r
Ġë³´íĺ¸ìŀĲ ëĭ
ĠìŀħìĽĲ íķ´ìĦľ
Ġtra ma
Ġëĵľë ¬¼
Ġëĵ¤ë Ŀ½
ĠìĿ´ë²¤íĬ¸ ëĬĶ
chy ma
B W
dd st
ĠìĪĺìĪł ì§Ħíĸī
Ġê°ĲìĨĮ ì¤ĳ
ìľłìĦł ì¢ħìĸĳ
ĠíĨµíĻĶ ìŀĲ
Ġë ķħ
ìĿ´ë ²Ī
Ġph e
Ġê°ķ ë¯¼íĺķ
Ġ16 0
Ġë§ŀì¶Ķ ê³ł
ĠëĴ ¤ë¶ĢíĦ°
Ġ4 7
Ġê¹Ģ ê±´íĿ¬
Ĩ Ĵ
Ġëį°ëł¤ ìĺ´
» ¨
ĸ Ħ
ĠìķĦ ìĿ´ëĬĶ
yc ardia
Ġë°Ķë ¥´ê³ł
ĠíĻĶìŀ¥ìĭ¤ ìĹĲ
Ġdiagn osis
íķľ ëĭ¤ë©´
êµ¬ ë©į
Ġed ematous
ìĿ´ ëĭĪ
íķ´ì §ĢëĬĶ
Ġíĺ¸ ìł
Ġtap ing
tim icro
Ġìļ¸ íĺĪìĦ±
Ġë¨¹ìĿ´ ëĭ¤ê°Ģ
Ġbabes iosis
y n
Ġì¢Įì¸¡ ìĹĲ
Ġst rong
Ġëĸ¨ ìĸ´ëľ
Ġass ociated
² ´
Ġìľ Ħíĥģ
ìĭĿ ìłĦ
Ġë³Ģ ìĹĲ
Ġì¢Įì¸¡ ìľ¼ë¡ľ
DS T
ĠìķĪë¨¹ ìĹĪìĿĮ
Ġì§Ģë£¨ ìĦ±
timicro bial
ê² ģ
ĠìķĪ ì£¼
t or
ol ing
Ġê²° ê³¼ë¥¼
ĠëĤĺíĥĢë ĥĦ
Ġphac oem
al ate
ĠìĿ´ìĥģ íķľ
Ġì¹ĺì ľł
Ġë§Īì·¨ íĽĦ
ĠìľĦì ĻĢ
ìłĦíĻĶ íĨµíĻĶ
ìĦ¸í ĮĮ
ì¹´ë ĵľ
Ġì»¥ ì»¥
Ġì£¼ë ¬¸
Ġíķľëĭ¬ ìłĦë¶ĢíĦ°
Ġê±¸ ìĿĦ
ìłķíĺķ ìĭłì²´ê²ĢìĤ¬
Ġparen chyma
ej un
ĠìĪĺìĪłë ¹Ħìļ©
ĽĮ ìĦľ
Ġê°Ħì ĥĿê²Ģ
Ġìĭł ìĥĿ
ĠíķĦìļĶ íķĺë©´
Ġì¢Įì¸¡ ìĿ´
Ġì²´ì¤ĳ ì§Ģì§Ģ
ĠìķĪë¨¹ ëĬĶëĭ¤ê³ł
Ġë°°ëĩ¨ ìĤ°ì±ħ
Ġìľłë ĳĲ
íĺ¸íĿ¡ ë§Īì·¨
Ġë¶Ģë ĵľëŁ¬
Ġes p
Ġf ac
Ġh yal
ìĿ´ì ĭľê³ł
Ġgra ft
Ġëª»ëľ ¸
ĠëĤ´ìĽĲ íķĺê¸°ë¡ľ
ĠìľłìĤ¬ íķĺëĤĺ
ĠìķĪê³¼ ì§Ħë£Į
Ġìłģê·¹ ìłģìľ¼ë¡ľ
Ġìłķìĥģë²Ķ ìľĦë¡ľ
ľë ¦¿
ĠìĹĨ ìĹĪëĬĶëį°
ìĿ¸ ìĬĲë¦°
Ĳĺ ìĹĪìľ¼ëĤĺ
ĠëĦ¥ì¹¼ëĿ¼ ëĬĶ
ĠìķĦëĭĪë ¯Ģë¡ľ
ķĮë Ł¬
Ġinterpre tation
ĠCe renia
Ġìĸĳ ìĿĦ
ì² ĺìĿĮ
Ġì²ĺë°© íķł
Ġday time
Ġì§ĳ ìĿĦ
Ġì°¸ ì¹ĺ
ĨĮ ìĸĳê°Ĳ
il ine
ìĿ´ì ĺ
Ġr im
ìĥĿ ë¦¬
Ġu ro
ab dominal
Ġë³¼ë ķĮ
ĠìĿ´ê²ĥ ìłĢê²ĥ
w ith
Ġì² ¨ë¶Ģ
ĠìĬ¤ ìºĶ
ĠëĤĺì ļ°
Ġìŀĳ ëħ
Ġtars al
k c
ĠH AIR
Ġíĺ¸ìłĦë Ĳĺê³ł
ëĦ £
ĠëĦ£ìĸ´ì£¼ ê³ł
Ġìĥģíĥľ ìĹ¬ìĦľ
os tic
ĠìłĢ íķĺì
Ġìķ½ë¬¼ ì¹ĺë£Į
Ġìļ°ìĦł ìĿĢ
ĠìĿ¼ì£¼ìĿ¼ë ¶Ħ
©Ķë ĶĶ
ĠSK IN
Ġk br
Ġëĵ¤ìĸ´ ê°ĢëĬĶ
ĠìķĪê²Ģ ìĹ¼
r ip
² ĪìłķëıĦ
ŀ Ģë
ìĦ ¯
Ġd rug
Ġë°ľ ëĭ¬
ê±°ë ³ĳëł¥
Ġë§¤ ì£¼
ĠíĿ¡ìŀħ ì¹ĺë£Į
Ġsupple ment
Ġìŀ ĥ
Ġme al
Ġth ird
Ġduod en
ĠìŀĲ ìłľ
ĠF PV
ê²° ìŀ¥
ìķĦë łĮ
Ġì¹´í ħĮ
ĠìĽ ħ
op neumonia
ìľ¼ ìĭ¤
Ġìµľ ìĦł
ĠíļŁìĪĺ ëĬĶ
Ġì¤ĳê°Ħì¤ĳ ê°Ħ
² Ķ
Ġd ip
ĠP P
Ġhyp og
íķ´ë ĵľë¦¬ê¸°ë¡ľ
ĠëĤĺìķĦ ì§ĢëĬĶ
Ġìĸ¼ë§Ī ìłĦ
ê¸°ê´Ģì§Ģ ìĹ¼
Ġorgan ism
Ġperiodon titis
Ġë§İ ìĿ´ë
Ġíĩ´ìĽĲ íķĺê¸°ë¡ľ
Ġì§Ī íĻĺìľ¼ë¡ľ
Ġcal ici
Ġë£¨ë ¹ĦëĤł
Ġlay er
ìŀĲ ëĬĶ
íķĺë Ĳĺ
Ġê´Ģë¦¬ íķĺê³ł
Ġì§ĳ ìľ¼ë¡ľ
ĠG V
ĠìķĪìłķìłģ ìĿ´ëĤĺ
Ġë°ĳ ìĹĲ
Ġpati ents
m ode
ph ylline
ĺì§Ģ ëĬĶ
ĭľ ê¸¸
ĠíĹ ¬ë¦Ń
Ġap y
´í İ
Ġra d
ace ment
ĠëĳĲëĵľëŁ¬ ì§Ģì§Ģ
ê³ł ëĬĶ
ar th
Ġìŀ¥ ë¬¸
Ġë© Ģë¯¸
Ġì¹¨ ìĥ
Ġìķķ ì¶ľ
ĺĪ ìķ½
Ġg oose
Ġìĺ¤ ìĭľëıĦë¡Ŀ
ĠíļĮ ì¶©
Ġìķ¼ ìĻ¸
ĠëıĦë§Ĳ ê²ĢìĤ¬ìĥģ
Ġgu arded
ĠìĪĺ ìłķ
ĠìĥģìĬ¹ íķĺìĹ¬
ĠíĶ¼ë¶Ģì ĨĮëıħ
Ġ12 6
ĠìĹĨ ìĸ´ë³´
es ia
íİ ¸ë
ĠìĹĲì½Ķ ìĥģìĬ¹
ìŀħìĸĳ ìĿ¼
ĠLef t
í Ŀ¡
on y
ë¬¸ ìĿĺ
oph en
Ġíĺ¸ìłĦë ıĦ
Ġìĭľë ©Ķ
ì½Ķë¡ľ ëĤĺ
ìŀ Ķ
Ġìķ½ ê³¼
ìĸ´ ìłľë
ĠìļĶ ë¡ľ
ĠìĬ¤ íħĲíĬ¸
ĠD EA
ĠìĭĿìĿ´ DIET
ĠëĭŃê°ĢìĬ´ìĤ´ ìĹĲ
ĠCP A
ĠMP SS
Ġì± ĦìĽĮ
ĠW NL
ĠìĿ´ë£¨ ìĸ´
ìŀĲê¶ģ ì¶ķëĨįì¦Ŀ
ìŀĲ ê°Ģ
ìĺ ¬ë
ĠìĪĺ íģ¬ë
ĠìĭĿìĿ´ diet
Ġë§Ľ ìľł
ĠëĦĵ ê²Į
ìŀ¬ì±Ħ ê¸°
8 5
Ġal imentary
íķĺëĬĶ ê²Į
Ġê³¨ ê´ĢìłĪ
ëĵ¤ ìĹĲìĦľ
O T
Ġê ¾¸ë
Ġsus cep
Ġperi pheral
Ġster nal
OR L
p g
em ic
Ġë§Īì·¨ ìĭľê°Ħ
ĠìĤ¬ìĿ´ íģ´ë¡ľìĬ¤íı¬ë¦°
Ġëĵ¤ìĸ´ ê°ĢìĦľ
Ġì¼Ģ ìĿ´ì
Ġradi opaque
ĠCP CR
ĠìºĲëĭĪ íĶĮë£¨
Ġê°Ħìłĳ ë©´íļĮ
eu tic
ļ¨ ìĨĮ
ìĨĮ ìĹ°
ê±°ë Ŀ¼
Ġìłľ íĴĪ
Ġde b
ìĤ¬ë£Į ëĬĶ
Ġê¸ģ ìĿĢ
ĠíķĺëĬĶ ì§Ģ
ĠíıĲë ł
inten ance
íĺĪ ê²Ģ
ĠìĦ¤ìĤ¬ ëıĦ
Ġres ection
ĠëĲĺ ìĹĪê³ł
ĠíĶ¼ë¶Ģë³ĳ ìĿ´
Ġob s
ê·¼ë ŀĺ
Ġêµ¬íĨł ìĹĲ
ĠìĤ¬ìĿ´ íĨł
Ġvi ral
mec tin
Ġë³ Ģìľ¼ë¡ľ
ac i
Ġìĥģíĥľ ìĿ´ë¯Ģë¡ľ
ch ing
Ġìŀ¥ ê¸°ëĵ¤
ĠìĥĿê°ģ íķĺê³ł
Ġbac ter
Ġê¼¬ë¦¬ ìª½
ĠëĪĦìĽĮ ë§Į
Ġro yal
Ġnorm otensive
er um
ĠíĨµ ì¡°ë¦¼
ĠíĪ¬ìķ½ íķ¨
Ġex tension
Ġì¶©íĺĪ ìĿĢ
Ġlip a
ìĭłìŀ¥ ìĪĺì¹ĺ
ĠFL UTD
ì£¼ ìĭľëĿ¼ê³ł
Ġê°Ļ ìķĺìĿĮ
ì¡° ê°ģ
cre a
íĳ ¸
roph ic
Ġins uff
Ġì¹¼ë¦¬ ìĭľ
ĠìĦľì§Ģë ¯¼
ê² °ì
ĠìĹ Ħ
ĠíĻķ ë¥ł
ĠìĨĮ ìĦ¸ì§Ģ
ĠíĺĪìķ¡ ìŀ¥ìķ¡ìĦ±
Ġpro st
Ġì¤Ħ ìĹĪìľ¼ëĤĺ
Ġëª¨ íĺ¸
Ġamp ic
ĠêµĲì²´ íķ¨
ì¿ł ìĭ±
ĠìĬ¤ íħĮë¡ľ
ĠëĶ°ë ľ»
íķ´ì£¼ ìĭľëıĦë¡Ŀ
Ġì¦Ŀê°Ģë ¡ľ
ĠíĨłë¸Įë Ŀ¼ë§ĪìĿ´ìĭł
Ġê´Ģë Ĥ©
i men
Ġì´¬ìĺģ ìĭľ
íıĲë ł´
Ġì²ĺë°© ë§Į
Ġì²ĺì¹ĺ íĽĦ
ĠìĿ´íĭĢ ê°Ħ
Ġëª©ìļķ ìĿĢ
ĠíĴ Ģì
ĠìĿ¸í ĽĦë
Ġê·ĵ ë³ĳ
c ardi
Ġ4 6
ĠìĺĪ ìłĦë³´ëĭ¤
Ġë³µìļ© íķĺë©°
13 2
Ġel bow
ìµľê·¼ ìĹĲ
Ġlvid d
ì¹ĺ ê³¼
GA TIVE
Ġfor l
Ġë°ľìłģ ê³¼
Ġìķ½ìļķ ìĥ´íĳ¸
Ġfore ign
mit tent
O U
ìł ¯
Ġì¹ ĺë§Į
ìĭľë Ŀ¼
ìĹĨ ìĸ´ìĦľ
Ġ7 2
Ġíķ´ì£¼ ìħ¨ìĿĮ
Ġë¦¬ íĢ´ëĵľ
íİľ íĭ´
urren ce
Ġnex t
Ġe uth
Ġëħ¸ë ł¥
ĠìĦł íĺĪ
Ġì¤Ħìĸ´ë ĵ¦
ĠIn ter
ĠíĺĪ ê´
ĠìĤ¬ìļ© ì¤ĳ
Ġì¶ľíĺĪ ìĦ±
Ġë°ķ ìĨĮìĹ°
Ġìķ¡ ìĥģ
Ġì £
ìĿ´ë ĵ¤
ì£¼ ê¸°
Ġê°Ģ ê³ł
íĶ¼ë ¶Ģë
Ġì¹¨ìľ¤ ìĿĢ
acet yl
ê³łêµ¬ ë§Ī
Ġì ¥
Ġì§ ľë
Ġìłķìĥģ ìĿ´ëĤĺ
Ġtid ë¡ľ
Ġìłģìļ© íķ¨
l and
Ģìľ Ħë¡ľ
ê±´ê°ķ ê²Ģì§Ħ
ĠìĹ¬ê¸°ìłĢ ê¸°
ac illin
ìŀĦ ìĭł
Ġíıī ìĥĿ
íĿ¬ ìĹ°
q id
ìĭľ ê¸°ë¡ľíķ¨
ìŀĲ ê·¹
ĠëĤ´ìĽĲ íķĺìħ¨ìĬµëĭĪëĭ¤
ĠA z
Ġê°ľ ìĪĺ
up or
ĠNE GATIVE
Ġund er
Ġpentoxif ylline
ìĦ± ìĿĦ
Ġíĺ¸íĿ¡ ìĿ´ìĥģ
ĠìĪĺìķ¡ ë§ŀ
Ġëħ¸ë ¥¸ìŀĲ
ĠíĬ¹ìĿ´ ìłĲ
ĠíĺĪë³Ģ ìĿĦ
Ġë¹Ħìĥģ ìķ½
¤ë ¦¬
Ġìłķìĥģ ìŀĦ
Ġìĭłê²½ ë°ĺìĤ¬
Ġì°© ìĥī
ĠíŀĲ ìĬ¤
Ġe c
Ġìłľ ê³µ
ì¼ ľë
Ġchang es
ĠìķĬ ìľ¼ëł¤ê³ł
Ġl ddst
Ġì¦Ŀìĥģ ìĿ¼
Ġë» £
Ġcd v
ìĿ´ë ıĦë
ĠëĤ´ì ¸
ĠíĿĶëĵ¤ë ¦¬ëĬĶ
ĠìĨĶë¡ł ìĹł
p ink
ì§Ģ íĿ¬
ĠìļĶ ì²Ļê³¨
Ġíİ¸ íķĺê²Į
ìľĦ ìĪĺ
ìĿ¼ë °ĺ
Ġê°ĦìĪĺì¹ĺ ëĬĶ
Ġsuction ëŁī
Ġê°Ģìł¸ìĺ¤ ìĭł
et ast
ve lop
oma titis
Ġë©Ķ ìĿ¼ë¡ľ
B A
Ġmar k
ĠìłĢë²Ī ìĹĲ
¸ë §ģ
Ġv ial
Ġìĥģíĥľë ³´ê³ł
ĠíĮĲë ıħ
ŀ ľë
ê°Ħ ìĹ¼
ĠìĿ¼ë ¶Ħ
Ġê´Ģì°° ìĭľ
Ġì²Ń ëł¥
Ġë²ł ìĿ´ë
E ar
P A
ĠT r
ĠìļĶ ì¹´íħĮíĦ°
ë¦¬ ë¬´ìĬ¤
Ġì¤ ĺë
Ġam it
Ġë³µìļ© íĽĦ
Ġê³łìłķ ëł¥
Ġcough ing
¼ìĬĺ íĺĪì¦Ŀ
Ġdeform ans
ĠìĹĨ ìĬ´
Ġìĭ¤ ìłľ
ìķĺ ìĹĪìĿĮ
Ġsp ace
Ġëĵ¤ìĸ´ ê°Ķ
ìĿ´í ĽĦë¡ľ
h x
¦ Ħë
§ Ľ
Ġs o
ĠìĬ¤ ì¹´
ĠU A
ì¡° ìĦ±ìĪł
Ġall ergic
amine ctomy
me zin
´í Ī¬
Ġ6 2
Ġíıīê°Ģë Ĳ¨
N e
Ġë¨¹ ìĿ´ë
ìĥģíĥľ ê°Ģ
ë¶Ģì ª½
ĺì¹ ĺì
Ġdis pl
Ġì¶Ķì²ľ íķ¨
ĠCT ì´¬ìĺģ
íģ´ë §ģ
Ġêµ¬ìĦĿ ìĹĲ
ol a
Ġíı Ń
Ģìľ ł
Ġíķĺ ëĭ¤ê³ł
Ġcon f
ĠëģĿ ëĤľ
Ġpo wer
ĠìĨĮê²¬ ìĿĦ
ĠëĤ´ìĿ¼ ìĿĢ
Ġì½§ ëĵ±
ĠìĹĲì½Ķ ê°Ģ
Ġë°Ľìľ¼ ìĭľëĿ¼ê³ł
Ġê¹¨ ê°±
AH ìĹĲìĦľ
ì²ĺì¹ĺë ¥¼
ph or
ĠìĽĲ ìĿ¸ë
Ġì¢ĭ ìĬµëĭĪëĭ¤
ĠìķĪì¢ĭ ìľ¼ë©´
Ġíķ ´íĶ¼ì½ľ
Ġì£¼ ìĭľê¸°ë¡ľ
Ġìĭł ì¢ħ
ĠíĻķìĿ¸ íķľ
Ġê¸°ëł¥ ìĹĨìĿ´
Ġìŀ¡ ìķĦì£¼ìĦ¸ìļĶ
ĠB lood
ĠìķħíĻĶ ëĲľ
Ġwh ich
Ġdiscon tinued
r ide
© ¡
ë¶Ģ íĺķìłľ
ìķķ ìĤ°ìĨĮ
ĠìłĲ ìĿ´
ëĤłë ¶ĢíĦ°
ì²ĺë ¦¬
ru vite
Ġmix ed
arox ab
on t
ĠP B
ĠìĽĲ ìľĦ
os ap
ê°Ļ ìĿĮ
ĠìĦ¸ë ¯¼íĬ¸ëĿ¼
ë¯¼ ì§Ģ
ľë ĵ¯
Ġìĸĳíĺ¸ íķĺìĺĢìĿĮ
Ġê´Ģë¦¬ ìĹĲ
Ġê´Ģëł¨ ëĲĺìĸ´
i ma
ìŀ¥ ìĹĲìĦľ
ĠìĪĺ íĻĶ
Ġìĭ¬ìŀ¥ ìĿĺ
Ġê¹ Ķ
Ġpre vention
ìłĳ ë¶Ģ
Ġbp m
ĠëĬĺìĸ ´ëĤĺ
Ġíİĺë ħ¸
ĠíĽ¼ë¡ľ ë°Ķ
Ġì£¼ ìĭľëıĦë¡Ŀ
Ġwith out
Ġìĭ¬íķ´ì ¡ĮìĿĮ
Ġad j
Ħëĵľ ê¸°ëĬĶ
Ġë°°ë³Ģì ĭľ
Ġë°°ë³Ģ ìĿĦ
Ġì§Ħë£Į ê¸°ë¡Ŀ
ĠìĿ¼ì£¼ìĿ¼ ìłĦë¶ĢíĦ°
Ġíķ´ì ļĶ
ì§Ģë¡ľ ìĿ´ëĵľ
ĠìķĪëĤĺì ĺ´
ĠìłĦíķ´ì§Īë ¬¼
Ġë²Īê°Ī ìķĦ
l ess
m al
ìĿ ĺë£Į
ìľ ĦíĹ
Ġìĺ¤ ìĿ´
ìĪĺì ¹ĺë
Ġìĺ¤ë ŀ«
Ġcyst aid
Ġpp n
4 3
Ġt er
Ġìłķ ìĭĿ
an al
Ġê°Ħë Ĥ´
ì§Ħë ĵ¯
Ġthick ness
Ġìŀ¬ê²Ģ ìĿĢ
ĠD i
ìĤ¬ë£Į ë¥¼
¥´ ê¸°
Ġìķ¼ ê°ĦëıĻìķĪ
ĠíĨłë §Ī
Ġman age
Ġëı¼ì§Ģ ê³łê¸°
ëįľë ¯¸
1 10
m aropitant
Ġì¹ĺ ê³¼ë
ĠìĥģíĻ© ìŀĦ
Ġë³´ë ĥĦ
Ġìķł ê¸°ëķĮ
ĠëĪĦìĽĮ ìŀĪëĬĶ
Ġë³´ìķ ĺìĿĮ
ëħ ¸
íķ´ë³´ ëĭĪ
Ġë³´ìĿ¸ ëĭ¤
Ġìĸ¼êµ ´ì
ĠSA P
K A
ĠìĦ¤ìĤ¬ ìĹĲ
oth orax
Ġtars orrh
ìĬ¬ë Ł¬ì§Ģ
ĠìĿ¸íĽĦë ĳĲ
ļ ±
³´ ëĬĶ
Ġê³¡ ìĦł
C RE
i i
ĺ ¬
Ġp ust
ĠìĨĮ íĮĮ
ĠK CL
if ied
ĠìĥģìĿĺ íĽĦ
ëĪĪ ê¼½
usc ep
ĠPD s
ĠHyp er
Ġb ic
ì§Ī ìĿĢ
ure l
ĠíĮĲëĭ¨ ëĲĺëĤĺ
Ġ10 2
Ġê¸ģëĬĶ ëĭ¤ê³ł
Ġo te
íĬ¸ë ©ĶëĶĺ
Ġëĩ¨ ë¥¼
ë» £
; "
² ķ
ĠH eart
pl as
ìĸ´ë Ĥ¬
Ġëª© ê²©
ĠëĲĲ ìĿĮ
Ġíķł ì§Ģ
Ġë¨¹ìĹ¬ ì£¼ìĭľê³ł
ĠìĪĺì ¹ĺì
Ĩį ëıĦë¡ľ
íı¬ ë§Ī
Ġë©´íļĮ ìĭľê°Ħ
Ġê±°ë ĮĢ
ĠìĹŃ ìĭľ
ìĿ´ë ĵľë
ĠëĤ´ë³µìķ½ ìĿĦ
ĠíıĲ ìłĦìĿ´
Ġë¨¹ìĿ´ ê¸°ë¡ľ
Ġpyel onephritis
ë°Ģì ¦Ī
Ġê±´ì Ĥ¬
Ġì§Ģì¼ ľ
ĠëıĻë°ĺë Ĳ¨
Ġradi ographic
Ġìĭ¸ ê³ł
Ġzonis a
íĶ¼íķĺì Īĺìķ¡
Ġpro x
Ġpro gress
ë²Ī ìĶ©
Ġarth rod
ĠìķĪ ìª½ìĹĲ
Ġê¸°ì¹¨ íķĺëĬĶ
ì¹ĺ ìĿĺ
ëĲĺ ìĹĪìĿĦ
ĠíĮĮëª¨ ìĬ¤
Ġê°Ħ ìĪĺì¹ĺìĥģìĬ¹
Ġê°Ļ ê¸°ëıĦ
Ġê³Ħì ħĶìĦľ
Ġê²°ìłķ íķĺìĭ¬
Ġë³µë¶Ģì´īì§Ħ ìĭľ
Ġpup il
4 1
ê² ¹
ĠìĪĺì §Ī
ĠD e
ĠìĺĪë°© ìłģ
Ġtr ia
íĿ ¥
Ġspiron o
Ġë°ľíĺĦ ìĭľ
Ġì¤Ħìĸ´ëĵ¤ ê³ł
Ġrh initis
Ġl ight
Ġiv er
ĠF entanyl
Ġì¢ħê´´ ìĹĲ
Ġë´īíķ© ë¶ĢìľĦ
Ġì§ĪíĻĺ ìĿ´
Ġì§Ħëĭ¨ë°Ľ ìĿĮ
¦ ¼ë
Ġp et
ĠìĹ ħ
ĠíĺĪ íĨł
ĠíķĦìļĶ ê°Ģ
łĪ ìĬ¤
Ġìŀ¥ ë²½
Ġì²ĺì¹ĺ ê°Ģ
íĬ¸ë ¦¬
Ġíĺ¸íĿ¡ìĪĺ íļĮ
AL P
ĠëĦĺ ê²Į
Ġê¸°êµ¬ ëĵ¤ìĹĲìĦľ
Ġíĺ¸ìĤ° êµ¬
Ġêµ¬íĨł ìĭľ
Ġíģ¬ ê¸°ë
ĠìĤ¬ìļ© íķĺê³ł
Ġê²½ê³¼ ê´Ģì°°
ìĬ¤ë¡ľ ë°ĺ
14 4
ë¶Ģíĥģ ëĵľë¦½ëĭĪëĭ¤
Ġa ut
ĠìĦ¤ëªħë ĵľëł¸ìľ¼ëĤĺ
ëģ Ŀ
êµ¬ ê°ķ
íķĺìĭľ ê²łëĭ¤ê³ł
ëĶ °ëĿ¼
f amotidine
ĠìŀĪ ì§ĢëĬĶ
ĠA C
Ġíĺ¸íĿ¡ ê¸°ì¦Ŀìĥģ
ëĲľ ëĭ¤
ĠìĦ¸í ı¬ë
ìĨĮíĻĶ ê¸°
íĻį ìĥī
aryn geal
ìĹ¼ ìĪĺ
ĠìŀħìĽĲ ìĿĢ
ĠëĤĺì ĻĢì
ĠìĭĿìĤ¬ ëĬĶ
Ġpor tal
V L
Ġìłķ ìŀ¬
il y
ĠìłĢëħģ ìľ¼ë¡ľ
Ġìĺ¤ë ŀľ
ĠíĬ¹ìĿ´ìĨĮê²¬ ìĿĢ
ĮĢì Ħł
¯ ¤ë¶ĢíĦ°
Ġìĥī ìĿ´
ail y
©Ķë ¡ł
BI L
ìĥīìĨĮ ëĩ¨
ĠìķĪ ìª½ìľ¼ë¡ľ
Ġr iv
12 6
Ġë©°ì¹ł ìłĦ
¹ Ľ
Ġì²ĺë°© íķĺì§Ģ
ĠA us
Ġíķĺë Ĥ
ìª½ ìĹĲìĦľ
³´ íĺ¸
ìŀħ ìĪł
Ġcl ass
Ġíģ °ë
Ġê¹¨ëģĹ íķ¨
B O
ı ī
ë³ ĢìľĦ
Ġìĭ¬ íķĺë©°
ĠìĭĿìļķ íħĮìĬ¤íĬ¸
ĠS uscep
Ġsc ars
Ġê±´ì ĤŃ
Ġëª© ìĿĦ
ĠìļĶêµ¬ ëĲ¨
ĠíĺĪìĨĮíĮĲ ê°ĲìĨĮì¦Ŀ
Ġíĥ ĢìĦľ
Ġíĸ Īëįĺ
Ġì²ĺë°©ë°Ľ ê³ł
ĠíĮ¨ëĵľ ìĹĲ
Ġê°ĳìŀĳìĬ¤ë Ł½ê²Į
ĠíģĲ ìķĦëłĮ
¹ ĺë¡ľ
Ġh or
íĶ¼ë ¶
Ġìľ¡ìķĪ ìłģìľ¼ë¡ľ
uls ification
Ġí ŀĺì
ê¸ ĪëıĦ
Ġt athion
ì² ©
ĠìŀĲ ì²´
ĠD ry
Ġì°¨ ìĹĲ
Ġìľłë ĮĢìĦł
ĠìĦľë ¹ĦìĬ¤ë¡ľ
Ġë° Ģìĸ´ë
Ġpl acing
ë¹ Ľ
ĠìĬ¤ì¼Ģì ¤Ħ
ĠìķĪ ê²Ģì
ªħ ì²ł
ĠL ux
Ġê·¸ íĽĦ
Ġìĭ¬ ê·¼
ĠìĤ ´íİ
ĠìĪĺìĪł ìĹ¬ë¶Ģ
Ġê°ĲìĨĮ íķĺìĺĢìĬµëĭĪëĭ¤
¥´ë łģ
ĠìĿ¼ìĸ´ëĤ ĺì§Ģ
Ġap pl
Ġìľł ì¦Ļ
Ġv ag
ĠìĿ´ ìłĦë
ĠíĺĪë ¥ĺ
Ġíķľëĭ¬ íĽĦ
ĠìķĦíĮĮ íĬ¸
Ġë¬´ ê²Į
ĠëıĦë ¡ľ
Ġëª»ëľ¨ ê³ł
ìĿ¸ë ¶Ħ
ĠìĪĺìĪł ì¢ħë£Į
ĠìŀĦ ìľ¤
Ġhyper pigmentation
Ġsy ring
Ġíĺ¸ìłĦëĲĺ ìĹĪìľ¼ëĤĺ
¡Ń ê²Į
Ġíķĺ ëĭ¤
Ġëĵ¤ìľ¼ ìĭľê³ł
Ġëĭ´ëıĦê³Ħ ìĹĲìĦľ
´ì ĭł
Ġë³ Ħë
Ġë°ľ ìĬµì§Ħ
Ġê¸īìĹ¬ ìĤ¬ë£Į
ĠëĦ£ ì§Ģ
Ġìĥģë¹Ħìķ½ ìľ¼ë¡ľ
Ġê³¨ë°ĺ ê³¨ìłĪ
Ġeros ion
ĠìłĦë °ľì¹ĺ
¹ł ì§Ĳ
Ġê°Ģìģ ĺ
ĠìĿ´ìĻĦ ê¸°
ĠìĤ°íĻĶ ìłĦ
u ation
Ġê³¼ëıĦ íķľ
6 4
ìĹ ĺ
ic a
Ġì£¼ ìħ¨ëĭ¤ê³ł
ê²½ ë¶Ģ
³ĳ ë³Ģ
ĠíĺĪëĭ¹ ìĿĢ
ìķĶ ëª¨ëĭĪìķĦ
!! !!
¡°ì ¦Ŀ
Ġg h
ìĭĿ ëıĦ
ĠíĻķìĿ¸ ìķĪëĲ¨
le g
Ġìŀĺë ¨¹ëĬĶ
Ġê´ĳ êµ¬
ë°¤ ìĹĲ
Ġì§Ħëħ¸ëŀĳ ìĥī
Ġre che
Ġì¤ ĺëıĦ
Ġout door
ĠìĦĿ ìħĺ
Ġcont act
Ġnucle i
ĠìĹ¬ë¦Ħ ìĹĲ
Ġê°Ħí ļ¨ìĨĮ
Ġìĺ¤ë¥´ ëĭĪíĳ¸ëŀĦ
íķŃ ì§Ħì¦Ŀ
Ġëį °
Ġìłľ ìĻķ
Ġì´Ī ì½Ķ
Ġur s
ĠíĺĪê²Ģì ĥģ
Įë ¦¬
ĠíıĲ ìĹ½
Ġhyper ref
ĠìĿ´íĭĢ ìłķëıĦ
Ġì§ĢëĤľì£¼ ìĹĲ
Ġê²ģ ìĿ´
ì ºĦ
Ġkg ë¡ľ
Ġh uman
ĠìĨĮíĻĶ ê¸°ì´ĪìĿĮíĮĮ
íĻ© ìĥī
Ġop tic
ĠíĿ¡ ê¸°
Ġê²Ģì ¶ľ
Ġprur itus
ĠìĹ½ê°Ħ ìĹ´
i val
ë ¡ł
ĠìĿ´ë Ł¬
ap s
ĠìĤ¬ìļ© íķĺì§Ģ
ĠìĹĨëĬĶ ì§Ģ
Ġ" "
Ġë°ĽìķĦë ¨¹
ê³³ ìĹĲìĦľ
ĠíıĲëł´ ìĹĲ
Ġíĺ¸ìł Ħìĸĳìĥģ
Ġìķ½ ë¬¼ë¡ľ
ì§Ģì ĻĢ
ìĦ¸í ŀĪ
Ġì¶Ķê°Ģìłĳì¢ħ ìĿĢ
Ġtem p
Ġë Ŀ¼ë
ĠëĤ ³
Ġcef ixime
ĠìĽ Ģì
bl ood
Ħë¦¬ ì¹´
ĠìĦ¤ ì¹ĺ
Ġë¶ĢìľĦë ¥¼
ê´ ´ìĤ¬
ê°Ħ ì§Ī
ep tid
ĠìĥģìĬ¹ ìĹĲ
Ġê²½ íĹĺ
ma intenance
ĠìĨĮê²¬ ìľ¼ë¡ľ
Ġë°± ë¯¼ì§Ģ
ê¼ ¬
Ġsiz ed
ĠëģĻëģĻ ê±°ë¦¼
Ġnsaid s
ħ ¨ëįĺ
ĠìĤ¬ ìĿ´ëħ¸íĢ¸
Ġê³łëł¤ íķĺê¸°ë¡ľ
ĠëĤ® ìĿĦ
Ġíĺķ ê´ĳ
ĠìĦŀìĸ´ì £¼ë©´
ìĥģ ìĹĲ
ĠD ia
Ġcycl ophosphamide
amp yl
osap ride
Ġìĥģëĭ´ íķ¨
ĠìķĪìłķ ìĭľ
ĠìĿĮìĪĺ ê³µê¸ī
ĺìĸ´ì ķ¼
¢ Į
Ġp ed
Ġl amp
Ġíķĺë£¨ ìłķëıĦ
ĠìłĢì ŀ¥
Ġpath ologist
u bc
² łë
ĠC I
Ġ5 5
Ġê²Ģ ìłķ
ĠCP R
Ġëĭ¤ëħĢì ĺ¨
ĠìłĦíĻĶëĵľë ¦¬ê¸°ë¡ľ
ĠìĹĲìĸ´ì »¨
ëĬ Ĳë
Ġc utaneous
Ġs i
Ġf ll
Ġì² ´ë¦¬
us p
ĠìĿ´ì ĻĢ
Ġca vity
Ġfl r
ìĨ Ķë
ĠFL L
ĠFL R
Ġsupp ort
Ġìŀ¥ ê³¨
ë¶ĢíĦ° ëĬĶ
Ġox alate
ë§ĲëĿ¼ ìĦ¸
ĠëĩĮëĤ´ì Ħ±
i red
Ġê¸ Ģë
Ġth en
Ġë°ľìĤ¬ ëĬĶ
Ġëĵ¤ìĸ´ ê°Ī
ĠìĪ¨ ìĿ´
ĠìĶĮ ìĽĮ
Ġbabes ia
l i
ĠëĮĢ ìĹ¬
ìĹĨ ëĭ¤ê³ł
ìĿ´ìĥģ ìľ¼ë¡ľ
Ġê´Ģëł¨íķ´ìĦľ ëĬĶ
Ġcollare tte
Ġobs erv
ĠLux ation
# #
p s
Ġë¹Ħí ĽĦë
Ġìĭľë©Ķ íĭ°ëĶĺ
aroxab an
' (
í īģ
Ġìļ ¸í
Ġê³¨ íİ¸
Ġì½Ķ ìĨĿ
Ġì§ĢëĤ ĺë©´
ĠíķĺëĤĺ ìĿĺ
Ġposi tion
for te
Ġë»£ ë»£
Ġê°Ħ ìĹĲ
ê´Ģë¦¬ ìĥģíĥľ
Ġ6 6
ĠíĶ¼ë¶ ĢìĤ¬ìĥģê·ł
ĠìĨĮëıħ íĽĦ
ĠìĭĿìĿ´ ìłģìĿ¸
Ġíĺķíĥľ ê°Ģ
ĠìĿ´ìĻ¸ ìĿĺ
ìĭ¬ìŀ¥ ì´ĪìĿĮíĮĮ
Ġë¶Īê·łì§Ī íķľ
g a
Ġëª» ìŀł
Ġë³´ì ľł
ìĿ¼ë°ĺì Ĥ¬ë£Į
Ġbab y
Ġadv ocate
¥¸í İ¸
ìĿ¸ë ĵ¯
Ġë°©ìĤ¬ìĦł ì´¬ìĺģ
ìĤ¬ë£Į ë¡ľ
Ġêµ¬ê°ķ ìłĲë§ī
ë§ ¹
ìļĶ ì¦ĺ
Ġre tin
ĠìĬ¬ë Ł¬
ĠëıĮìķĦì ĻĶ
Ġì§ĸ ëĬĶ
pan ting
0 9
Ġìĭłìŀ¥ ë³´ì¡°ìłľ
Ġsc ra
ĠìłĢ íĿ¬
ĠìĿ¼ìĸ´ëĤ ¨
Ġê°Ģìłķ ê´Ģë¦¬
Ġgranul oma
Ġs ial
Ġì² ĺë¦¬
ĠTh ere
Ġdys function
ìĿ´ë ł¥
ĠìķĦì¹¨ ìĹĲëıĦ
Ġë§ŀì¶ ¤
Ġëª¨ë¥´ ê²łëĭ¤ê³ł
Ġë³´ìĿ´ ëĭ¤ê°Ģ
ê·Ģë ¥¼
Ġ4 3
ìµ ľë
Ġrab ies
ocon junctivitis
w ay
ìŀ Īëįĺ
ĠìĤ¬ ì§Ħì°
ë¡ľ ìĸ
ĠíıĲ ë¬¸ë¶Ģ
ì§Ģì ĭľ
ìĪł íĽĦ
Ġare as
Ġbe aring
Ġë¹¨ ê°Ħ
ur ulent
es ter
Ġë³´íĺ¸ìŀĲ ìĿĺ
Ġëĸ¨ìĸ´ì §Ģë
ìĭ¤ë ¡ľ
Ġë§ŀì¶ Ķë
Ġë§¡ ê¸°ê³ł
Ġl idocaine
íķ´ ìłľ
ĠìĿĺìĭ¬ íķł
íĮ¨ ì¹ĺ
ĠìĽĮ ëĤĻ
ì§Ī ìĨĮíĺĪì¦Ŀ
íŀĪ ì§Ģ
ĠìĿĺìĭ¬ ëĲĺì§Ģ
¥´ë ©´ìĦľ
ĠíĥĢ íģ¬ë¡ľ
Ġìłķ ìļ©ëŁī
Ġë³µ ìĪĺì²ľìŀĲ
Ġì¡° ëĭĪ
ì· Ħ
Ġmet ronid
Ġê²°ê³¼ ê°Ģ
Ġë°¥ ìĹĲ
Ġì½ ¤ë
íķĺìħ¨ ëĬĶëį°
Ġì¡°ìĺģ ì¦Ŀê°ķ
ĠìĽĲëĤ ´íĪ¬
¦¬ ì§Ģ
ĠìķĪìłķ ëĲĺë©´
Ġlob es
Ġalumin um
Ġì£ Ħì
Ġì§Ħíĸī ëĲĺì§Ģ
ĠM CT
ĠOU T
tib le
Ġë´¤ ìĿĦ
Ġëĵ¤ìĸ´ì ĺ¬ë
Ġë¹Ħìĭ¬ ìĿ¸ìĦ±
6 7
Ġì¢ĭ ê²łëĭ¤ê³ł
¯¼ ìŀ¬
ĠëĦ£ìĸ´ì£¼ ìĭ¬
ĠíıĲíı¬ ì¹¨ìľ¤
Ġê°Ģë°Ķ íİľíĭ´
4 7
ĠìĤ°ì±ħ ëıĦ
Ġì´īì§Ħ ìłľ
ê·Ģ ê°Ģ
ĠìķĪìķķ ìĿ´
Ġíķ´ ê²°
Ġëĭ¤ëħĢì ĺ¤
N F
ĠíĪ¬ìķ½ ìĹĲ
Ġìĸĳì¸¡ ìĬ¬ê´ĢìłĪ
ĠE cto
Ġë°ĶëĢ Į
Ġìĭłë ªħì²ł
íģ´ë ¦°
¹ Ń
£¼ ìĦ¸ìļĶ
ê·ł íĺķ
ĠìºĶ ìĿĦ
io tics
a ment
ĠìĿ´ì ķĪ
Ġìĸ´ìłľ ìłĢëħģ
Ġìµľ íĿ¬ìĹ°
ìŀħ êµ¬
Ħì¦Ŀ ìĥģ
r ight
Ġd k
Ġst one
ĠìĹ°ë¶Ģì¡°ì§ģ ìĹĲìĦľ
íķĺ ê¸´
ëĲ ĺìĸ´ìŀĪìĿĮ
ê°ķ ìķĦ
Ġë¹ĪíĺĪ ìĿĢ
ode oxycholic
íĬ¹ íŀĪ
Ġple ase
Ġwa ve
ê° Ģì§
Ġê°ĦìĪĺì¹ĺ ê°Ģ
Ġê°ĲìĹ¼ ìľ¼ë¡ľ
ĠìķĬëĬĶ ëĭ¤
14 0
¤ ĺìķ¼
Ġa ce
Ġkg ìľ¼ë¡ľ
ys tic
Ġê´ľì°® ìĿĢëį°
ĠìķĪëĲ ĺìĦľ
êº ¼ë
Ġregion al
ì ¿
Ġa er
Ġì¦Ŀê°Ģ ëĬĶ
Ġì¶© ê²©
Ġì§Ħíĸī íķĺìĺĢìľ¼ë©°
ê°ľ ìĿ¸
ìĹ° ìŀ¥
íķ´ë³´ì ĭľëıĦë¡Ŀ
Ġman dibular
Ġìĭ¬íķ´ ìł¸
Ġë±ī ìĸ´ë
Ħ ¸í
ìĿ¸ íĺĪì¦Ŀ
Ġì¤ Ħì
ĠìķĦë ¬´ë
Ġíķ´ì ¤Ħ
Ġspec imen
Ġhand feeding
Ġchlor am
Ġë¯¸ìĪĺ ê¸Ī
ĠíĻ Ī
ĠìłĪ ê°ľë
ĠìĪĺìĪłë ¡ľ
Ġìľ¡ìķĦì ¢ħ
Ġìĺ¤ëŀ« ëıĻìķĪ
ĠìłĦ ìłķ
ìĸĳ ìķĪ
Ĳĺ ìĹĪìľ¼ë©°
Ġê´Ģì°°ëĲ ĺì
ĠíĤ¤ìļ° ê³ł
ĠìĪĺì¶ķ ëł¥
ĠíĶĮëĿ¼ ìĬ¤íĭ±
arc tion
ìĨ Ķë¡ł
Ġure mic
ê¸° ìłĦ
íķĺë įĶëĿ¼ëıĦ
Ġíı¬ ë§Ĳ
Ġê°ĲëŁī íķĺê³ł
Ġë³´ë ©´ìĦľ
ĠíĶĦë¡ľ ë§¥ìĬ¤
Ġì§Ģìĸ ´ìĦľ
Ġë¶Ģìĸ ´ìĺ¤ë
Ġì¶ķ ëĨįì¦Ŀ
ĠìķĮë¡ľ ë¹Ī
ìĹ ī
Ġíķ ı
Ġì¶Ķê°Ģ íķ´ìĦľ
Ġíĩ´ìĽĲ íķĺê³ł
ĺìľ ł
Ġìļķ ì°½
5 8
Ġíķ« íĮ©
P CV
Ġs el
ab id
Ġìĵ°ë Ł¬ì§ĢëĬĶ
Ġê³łë¯¼ ì¤ĳ
Ġexc ised
Ġìĺ¤ ìĦ¸ìļĶ
ĠìĪĺë ¶Ħ
Ġsil ym
Ġpal ate
ì°¸ ê³ł
5 2
at ure
ĠìĹĲ ìĬ¤ë¡ľë°ĺ
ĠG ait
ĠíĶ¼ë¶Ģë ıĦ
Ġê³łê¸°ë ¥ĺ
in tra
ĠìĿ¼ ì¹ĺ
Ġíķĺ ëĭĪ
Ġ8 4
°Ķ ìĿ´ëŁ¬ìĬ¤
ĠíĴ Ģê³ł
ìĹ°ì Ĭ¤ë
Ġìłľê±°ì ĪĺìĪł
ĠíĺĪêµ¬ ê²ĢìĤ¬
t on
ĠíĪ¬ìķ½ íķĺë©°
Ġìłľê±° ê°Ģ
ĠìĺĨ ìĹĲ
ĠíıĲíı¬ íĮ¨íĦ´
Ġìĭľ ìł¸
ë³ĳ ë¦¬
Ġì²ĺì¹ĺë ¡ľ
ĠëĬĲëĤĮ ìĿ´
ĠíĻķìĭ¤ ì¹ĺ
ĠìĽĲ ì¶©
ĠìĿ´ë ¬¼ë¡ľ
ĠíķŃìĥĿìłľ ê°ĲìĪĺìĦ±
ĠíĹ¤íĮĮ ë°Ģì¦Ī
Ħ¤ ìļĶ
IN E
Ġì ¿
ìĪĺì ĻĢ
Ġë³´ì ±Ħ
íĥĢì ļ°ë¦°
Ġax ial
Ġíĩ´ìĭ¤ ìĺĪìłķ
lu m
Ġìĭłìŀ¥ ì²ĺë°©ìĭĿ
ĠìĭĿìĿ´ ë³ĢíĻĶ
Ġì½Ķ ìĹĲìĦľ
Ġtr ich
ĠìĦľ ìŀĪ
ĠìķĪêµ¬ ìłģì¶ľ
ĠëĪĪê¼½ ìĿĢ
ëªĩ ìĿ¼
¡ ´ì
Ġìĭľ ìĹĲëıĦ
Ġë°Ķ ìģ
ĠPost ural
Ġh ip
ĠìĤ¬íķŃ ìĿĢ
Ġíĳ ¹
Ġìŀ ¤
Ġê²½ ê²°
©° ëĬĲ
Ġë§İ ìķĺìĿĮ
Ġì¢Į ìļ°ì¸¡
Ġìķ½ê°Ħ ì§ĢìĹ°
Ġìĭ¤ë į°
ere d
Ġover load
ìĤ¬ë ŀĮ
ĠKCl ìľłì§Ģ
ê°Ħí ĮĲ
ìķ Ĺ
ĠëĪ ķ
ĠìŀħìĽĲ ìĭ¤
Ġê·Ģë ³ĳ
Ġf PL
Ġìļ°ì¸¡ ëĪĪ
Ġeff ect
ĠìĹĨìĸ´ì ¡Į
Ĥ łë
Ġì ±ħ
ìĹĲìĦľ ìĿĺ
Ġin cre
ĠëĪ Įë
Ġë´īíķ© íķĺìĹ¬
arg y
rup ted
Ħ ¥
´ì §Ģ
Ġê° Ģë¦¬
Ġë³´ íĺ¸
ĠìŀĲ êµŃ
ëĲĺ ìĹĪëĭ¤ê³ł
ĠPh os
ë°©ìĤ¬ìĦł ê²ĢìĤ¬
Ġinsuff iciency
d is
ec reased
Ġê³ł ìķķìĤ°ìĨĮ
ê±° ëĬĶ
Ġê¸° íĺķ
Ġìŀ¡ ìķĦì£¼
b pm
il ymarin
Ġíķĺ ê±°ëĤĺ
om ic
íķĺìĭľ ê¸°
Ġas thma
Ġì£¼ìĤ¬ê¸° ê¸īìĹ¬
t ely
at arsal
ĠìĿ¼ ìĿ´
Ġê³Ħ ìĭľëĬĶ
Ġê°ķê¸ī ì¤ĳ
Ġì²« ë²Īì§¸
Ġtach ypnea
Ġì°¨ ëĬĶ
Ġì¤Ħ ê¸°
Ġì¼ĢíĨł ì½ĶëĤĺì¡¸
Ġdifferen ti
ĠO x
Ġëį ±
ìª½ ìĿĦ
ëį ĶëĿ¼ëıĦ
ĠìĿ´ìļ© íķľ
pro fen
ven ous
ent ery
ĠëĦ¤ ì¸
íľ ´
Ġíĭ°ë ª°ë
Ġíķľëĭ¬ ì¹ĺ
ĠìĻ¸ì¸¡ ìľ¼ë¡ľ
en e
ìĦ± ë¶Ħ
¦° ì§Ģ
ìłĲ ìĹĲìĦľ
Ġë¬¼ë Ł¬
Ġê³łìľł ìŀĲìĦ¸ë
Ļ ëĭĪëĭ¤
ĠO TE
Ġíķĺì §Ħ
Ġìĭ¬ìŀ¥ ê´Ģëł¨
Ġê²½ëł¨ ìĿ´
Ġê°Ģë£¨ ë¡ľ
Ġì§Ħìłķ ëĲ¨
Ġê°Ģì¡±ë¶Ħëĵ¤ ê³¼
Ġê²½ ì¦Ŀ
Ġê°ľ ìĿĺ
Ġthe oph
ì¦Ŀ ê°Ģì
Ġi ron
Ġëį°ëł¤ ìĺ¨
Ġë°Ľìľ¼ ìĦ¸ìļĶ
Ġì§Ļ ìĿĢ
H P
Ġë¬ ¸ë
ĠíĪ¬ìķ½ ìĿĦ
ê°Ģë ©°
ĠëĬĺìĸ´ëĤ ľ
Ġsin us
Ġë¶ĢëĵľëŁ¬ ìļ´
Ġpust ule
Ġsc ar
Ġê·Ģì ŀ¬ì§Ħ
Ġíķľëĭ¬ ìłĦìĹĲ
Ġsur vi
Ġsal iv
ì²ĺì¹ ĺë¡ľ
Ġun known
Ġidentif ied
etast arch
ìļĶ íķ¨
ĠìĤ¬ë£Į ëĲ¨
ĠH G
ĠìĦ¸ê·ł ìĿĢ
ĠíĶ¼íķĺ ìĹĲ
Ġì¢ħê´ ´ë¡ľ
ĠíĶĦëłĪëĵľ ëĭĪ
Ġneuro logic
ĠìĨĮëŁī ë§Į
Ġbe at
ĠëĮĢë³Ģ ìĿĢ
ķĮë ĶĶìķĦ
Ġíķĺë įĶëĿ¼ëıĦ
ê´Ģ ìłĪë
Ġíĺ¸íĿ¡ìĪĺ ê°Ģ
Ġsign ificant
Ġëĭ¦ ìķĦì
oem b
1 30
ĭ¬ íŀĪ
os ic
ĠëıĻ ë§¥
ĠìĿ´ íķ´
ĠíĿī ìĪĺì²ľìŀĲ
Ġìĭľìŀĳ íķ´ìĦľ
ow ever
Ġê²½êµ¬ ë¡ľ
Ġul na
ìĻĢë ¥ĺ
Ġì§Ħì°° ìĥģ
aci tinib
Ġh u
Ġë§Ī ìĭľëĬĶ
Ġê·¼ ì²ĺë
Ġê±°ì ¦Īë
9 2
ti op
Ġë³´ ê¸°ë¡ľíķ¨
íĦ°ë °ķìĬ¤
ĠíĥĪ ì¶ľ
ĠìķĪìķ½ ìľ¼ë¡ľ
ĠìĦ¸í Į
ĵľë¦¬ ê¸°ë¡ľíķ¨
ëĶ ¸
Ġes ome
Ġíľ´ë ¬
ìĿĮ ìĦ±
Ġì§ ľë¦¬
Ġê°Ħ ìķ½
ĠìķĪêµ¬ ìķķë°ķ
ĠìķĶ ì»·
ĠëĤ´ì¸¡ íĥĪêµ¬
©Ķë ĵľ
Ġê²Ģì ¶ľë
Ġsection s
s ucralfate
ĠìĺĪìķ½ ìĿĢ
©°ëĬĲ ë¦¬
Ġs ph
Ġop tion
Ġê°Ĳë³Ħ ìĿ´
Ġê³łìĸĳìĿ´ ê°Ģ
ĠíĪ¬ëªħ íķľ
irub in
Ġì¹ĺê³¼ë °©ìĤ¬ìĦł
Ġë ¸Ķë
th isis
Ġìĸĳì¸¡ íĽĦì§Ģ
ĠëªħíĻķ íķĺê²Į
ĠìĿ´ëĤ´ ìĹĲ
ĠìĿ´ê°ľ íĺĪì¢ħ
eptid ase
Ġp ort
Ġë°°ë ¥¼
Ġíļ Ł
Ġstrepto kinase
¡° ìłĪ
ĠS UB
ĠìĹĲ ëıĦ
ê±° ê²¬
ĠìĿĺë¢°ë³ĳìĽĲ ìĹĲ
Ġz epp
ĠíħĮë Ŀ¼ë§ĪìĿ´ìĭł
Ġu ti
Ġë¶Ģ ìĹ¬
bil ateral
Ġíľ ´
Ġìĺ¤ëĬ ĺë
Ġurs odeoxycholic
Ġs ensory
Ġê°ĲìĨĮ íĸĪìľ¼ëĤĺ
ĠíĦ¸ ìĿĦ
Ġíķ´ë³ ¼
ģ ëĭĪëĭ¤
ĠìĭĿìļķ ìĿ´ëĤĺ
ê²° íķį
Ġëª© ì¤Ħ
ł¤ë ©´
Ġab d
íķĺìħ¨ ìľ¼ë©°
Ġë©´ìĹŃ ëł¥
Ġpap ill
oss ible
ĵľë° ´ìĬ¤
ëĦ¥ ì¹¼ëĿ¼
Ġreche kc
ĠëĤ´ìĽĲ íķĺì§Ģ
Ġ7 5
ĠìķĦí Į
Ġëª¨ìĬµ ìĿĢ
Ġíĺķíĥľ ìĹĨëĬĶ
íķ´ë³´ì ĭ¤
Ġsk ip
ĠìĹĳìĬ¤ë łĪ
V omiting
W BC
b its
n et
´ë ¯¸ìļ©
Ġìĺ¤ ì§Ģ
Ġë°© ìĤ¬
Ġíĩ´ìĽĲ íķł
íĮ ¥
Ġëªĩ ê°ľ
ĠêµŃìĨĮ ìłģ
Ġëĸ¨ìĸ´ëľ ¨ë
Ġë° Ł
ĠìłĦ íĺķ
Ġë¹ Ľ
ĠìĪĺë °ķ
p ost
Ġíķ Ļ
ch ol
ĠG L
Ġê±¸ë ł¤
Ġëª¨ëĤŃ ìĹ¼
íķĺìĭľ ê¸¸
Ġìŀł ìĿ´
Ġë°Ľìľ¼ ìĭľê³ł
ĠHep atic
ëĤ ĺëĤĺ
Ġëª» íķ´
Ġst ent
Ġëĩ¨ ê°Ģ
ĠìĽ ¨
ĠìłĢì £¼
ĠëĶ± íŀĪ
ĠìĭĿëıĦ ê´Ģ
Ġt ìĶ©
il ar
ĠíĺĪ ê´Ģì
Ġì¤ĳëĭ¨ íķľ
Ġinf arction
¶Ģë ¥¼
ĠìĦľë ¹ĦìĬ¤
Ġë¬¼ì§Ī ìĿ´
íķ ´íĶ¼ì½ľ
ĥģ íĥľë
ĠìŀĲ ì¶©
Ġìŀħ ì²ľ
ìĸ´ì §Ģì§Ģ
ĠëĲ ĺìĸ´ìĦľ
Ġì§Ħë£Į ë°Ľ
ĠëĤĺíĥĢëĤĺ ê¸°
Ġë°©ê´ĳë²½ ìĿĺ
Ġìī¬ ëĬĶ
Ġìĸĳíĺ¸ ìĭľ
ĠëĤ´ìĽĲ íķ´
ë°ľ ìĤ¬
Ġce ren
ĠíĨł íķĳ
Ġë§ĮìĦ± ìĭłë¶ĢìłĦ
Ġbe en
me ter
ìĸĳ ìĦ±
ĠH em
ìº £
ĠíĺĪë ³µ
oplas tic
c alc
ĠìĨĮ ê°ľ
Ġìĥģíĥľ ìĺĢìĿĮ
íĦ°ë ¡ľ
um inemia
ì²Ń êµ¬
Ġë¹ł ì¡Į
Ġíķ´ ìĹ´
Ġíķ´ìķ¼ íķ¨
ëĶĶ ìĬ¤íģ¬
ĠíĶ¼ì§Ģì ĥ
9 4
Ġì² ľë
ĠíĮĮ ë³
Ġì¤Ħìĸ´ë ĵľëĬĶ
Ġì¤ĳëĵ± ëıĦë¡ľ
Ġë©´ìĹŃë§¤ê°ľ ìĦ±
© ´íļĮ
ëĲ Ĳ
Ġhyd ronephrosis
Ġë°°ìª½ ìĹĲ
Ġë²Ħë ĳ¥
¼Īë ¥¼
Ġprox imal
L S
ë ĮĲ
ĠA ll
ĠH S
ë§Į íķľ
Ġìķħ ì·¨
ëĭ¤ë¦¬ ë¥¼
Ġë©Ķ íĥĢë
ĠìĹ´ì ĭ¬íŀĪ
Ch ronic
Ġê³łì¹ ¼ë¥¨íĺĪì¦Ŀ
ì¦Ŀ ëŁī
ĠìĹ° íķĺ
ĠëĤĺ ê°Ī
Ġì·Įìŀ¥ ìĿĺ
Ġì²ĺìĿĮ ìĹĶ
ĠëıĻê±°ê²¬ ìĿ´
ĠìĿ´ìĸ ´ì
Ġlvpw d
Ġinvol untary
Ġeuth yroid
b in
Ġìĸĳíĺ¸ íķ´
Ġh lr
ĠìĺĪ ì¹ĺ
Ġì§Ħë£Į ë¹Ħ
Ġì¢ĮìķĪ ìĿĢ
ëĨį ìĦ±
Ġins ignificant
Ġmes entery
Ġêµ°ëį° êµ°ëį°
¦Ŀ ê°Ģ
Ġìłģ ìĸ´
Ġë°Ķ íĥķ
Ġë¶Ħë ªħ
Ġê°Ģì ħ¨
ĠíļĮë³µ íķ¨
Ġëĭ´ëĤŃ ìĹ¼
Ġë§Įìł¸ ì§ĢëĬĶ
ĠëĶĽ ì§Ģ
ĠHL R
b end
Ġë ķĲ
Ġì¤ĳ ë³µë¶Ģ
ĠíĪ¬ìķ½ íķĺë©´ìĦľ
Ġê·¼ ìľĦì¶ķ
Ġkidney s
ĠLVPW d
Ġíĸ ĩ
ìķ¼ ì§Ģ
íķ´ì£¼ ìĭľë©´
ĠëĭŃ ìºĶ
Ġble eding
Ġg m
Ġh ll
ê¸°ë ³¸
ê¸ī ìĦ±
Ġì¶ľ êµŃ
Ġíĺ¸ìłĦ ìĹĨìĿĦ
¼ ľë
Ġì§Ħíĸī íķĺìĺĢìľ¼ëĤĺ
ì§Ģë °©
Ġê¹ Įë
Ġë¬¼ ìĿ´
ĠìłĢì ķĮëŁ¬
Ġul nar
ì§ĪíĻĺ ìĹĲ
si ve
Ġmul tic
Ġìĸ´ë¦´ëķĮ ë¶ĢíĦ°
! "
Ġê°ķ ì¡°
Ġë¹Ī íĺĪë¡ľ
Ġì¢Įìĭ¬ë°© ìĻĢë¥ĺ
ĠíĥĲ ìĭĿ
Ġì°¨ëıĦ ê°Ģ
Ġdra wer
ĠìķĪë Ĥĺ
ìľĦ ìŀ¥
ĠíĽĦì§Ģ ëĬĶ
Ġ40 0
Ġê´ĳë²ĶìľĦ íķľ
ĠHL L
d erma
ëĬ ĲëĿ¼
Ġt ens
Ġìŀ¬ ê°ľ
Ġsu ch
ì§ĢëĤľ ì£¼
Ġuter us
ìŀ ĺì
kg ìľ¼ë¡ľ
ĠìŀĪ ìĹĪìĿĦ
ĠìĪĺì §ģ
ĠëįĶ ëĶĶ
Ġíĺ¸ ìĹ¼ìĦ±
ìĿĦë ĵ¯
Ġì§Ģì¼ľë ´Ĳìķ¼
Ġì§Ģì¼ľë³´ì ĭ¤
ìĿĮ ìĪĺ
Ġê°Ģì ĭľ
Ġmass ëĬĶ
ëĪ Ħ
ĠìĦłìĥĿëĭĺ ìĿ´
Ġacid osis
Ġmuc oid
Ġë¿ Ĳ
Ġë¶Ħìĸĳë°Ľ ìĿĮ
ĠDog s
íĺĢì ŀĪ
ĠíĹ¬ë¦Ń ìĬ¤
oemb olism
c an
ul um
Ġìķ¼ ì±
Ġìļ°ìķĪ ìĿĢ
Ġbronch opneumonia
ĠìĤ¬ìĿ´íı´ ìĹĶ
Ġìĭ ¤ëªħ
íķľ ìłģ
Ġan g
ĠëĲ ĺìĸ´ìŀĪìĿĮ
Ġìĥģì²ĺ ëĬĶ
Ġìĭ¶ ìĿĮ
Ġê¼¬ë¦¬ ë¥¼
ìľĦë ¥¼
ĠìłĢíķĺë ¡ľ
Ġtarsorrh aphy
ľë ©´
ĭł ê²½
Ġê²°ë§ī íĶĮëŀ©
Ġíķĺìħ¨ ìľ¼ëĤĺ
Ġëª °ë
Ġì¦Ŀ ê°Ģìĭľ
Ġë§Į ì¡Į
Ġê°ľìĦł ìĿĦ
Ġíķ´ì£¼ ìĭľëıĦë¡Ŀ
Ġgi ardia
ĠìķĪìķķ ìĿĢ
Ġê³µë³µ íĺĪëĭ¹
Ġê´ľì°®ìķĦì¡Į ìĿĮ
į ì§Ī
Ġë§ĲìĶĢë ĵľë
Ġë¨¹ëĬĶ ê²ĥ
ĠìļĶì²Ń íķĺìħĶìĦľ
ĠíķŃë¬¸ëĤŃ ìĹ¼
Ġíķ´ë ĵľë¦¬ê¸°ë¡ľ
ìĦłìĥĿëĭĺ ê»ĺ
Ġê°Ħì ¢ħ
Ġë¶ĦìłĪ ìĿĺ
Ġtw ice
z ia
Ħ ¤ë
Ġì¢ħ ìĿ´
ĠìĬ¤ íĭ±
ëıĻ ê±°ê²¬
ì£¼ë ¡ľ
ì± Ļ
Ġì´Īë¡Ŀ ìĥī
ĠìĨĮ íĺķ
Ġl ola
Ġë°Ľ ìķĺëįĺ
ë°ķ ë¦¬
Ġfollow ed
eterin ary
ĸ ¸
Ġì£¼ ìĭľëĿ¼ê³ł
Ġan echoic
Ġcor tex
ĠíĨłë ĮĢë¡ľ
ìĮ ¤
Ġmorph ologic
Ġì½§ë¬¼ë ıĦ
Ġì į
Ġê¸ Īë
Ġê²½ ì§ģ
Ġì¢ħ ëĮĢë
ĠìĦ¤ëªħë ĵ¤
Ġj ejun
ĠëŃ į
Ġmast ectomy
b ra
Ġìĺ¤ ìħ¨
Ġë³´íĺ¸ìŀĲ ê»ĺ
11 4
ĠíĶĦë¡ľ íĨł
Ġnumber s
ìĿ´ì ĭľ
ĠF eline
ĠìĹ° ê³¨
Ġìĸ´ë įľíĬ¸
Ġê³¨ ê²©ê³Ħ
Ġê³¨ ë°ĢëıĦ
ĠìĥĿìĭĿ ê¸°ì
Ġê°ķì§ģ ìĦ±
ìĿµ ìĿ¼
ë Ŀ¼ê³ł
ìĿ´ ìĹĪìľ¼ë©°
Ġtra n
ĠíĶ¼ ì§Ģë
Ġë¹Ħí Ķ¼ëįĶìĬ¤
ĠìłĦì² ĺì¹ĺì
ĠìĹ¬ëŁ¬ êµ°ëį°
ìĿ¼ ëĭ¨
Ġê²ĢìĤ¬ íķĺê³ł
Ġìĭ¬ìŀ¥ ìĹĲ
Ġíķľ ê³Ħ
ĠëĨ Ķ
Ġë³µë¶Ģ íĨµì¦Ŀ
Ġìŀĳ ìļ©
Ġë¹Ħìŀ¥ ìĹĲ
Ġinter rupted
Ġazathiop rine
ìłĲ ìĭ¬
ëĤĺì ĺ´
Ġcons istent
Ġìĭłìļ°ìĭł ìĹ¼
Ġìŀ¬ ì¸¡ìłķ
ì¶ ĶëĶĶ
ì§Ģë ©°
Ġìĭ¤ ìĪĺ
uc k
íĴ Īë
Ġëĭ¹ìĭľ ìĹĲ
6 8
Ħ Īë
Ġl umbar
Ġìķŀ ìĹĲ
°ĺì ľ¼ë¡ľ
ĠëłĪë ©Ķë¡ł
ĠIN TER
Ġìŀĺë°ĽìķĦë ¨¹ìĿĮ
ĠíĻķ ìłķ
ar acter
ĠìĤ¬ ê²½
Ġíķĺë ł¤ê³ł
Ġê²½ê²° ê°Ĳ
° ¤ë¶ĢíĦ°
Ġì²´ì¤ĳ ë³ĢíĻĶ
ĠìĿĳê¸ī ìĪĺìĪł
¶Īë Łī
Ġê²ĢìĤ¬ ìĹĨìĿ´
Ġìłģ ëĭ¹
ild enafil
ĠìĥģìĬ¹ ê³¼
ìľł ê³¼ìŀ¥ëĭĺ
ì§Ģì ŀ¥ìķł
Ġìŀ¥ê¸° ìłģìľ¼ë¡ľ
Ġê°ķìłľê¸īìĹ¬ íķ¨
ìłĪê°ľ ìĪł
ëĭ¤ëĭĪ ê³ł
ĠSA A
ĠìĽĲë ŀĺë
Ġbacter ia
Ķ ë²Ħ
Ġëĭ «
ĠT umor
íı¬ ìĿ¸íĬ¸
Ġëĭ¤ëĭĪ ê³ł
ìļ°ì £¼
ĠìĪĺìĪł ìŀĲ
Ġw or
ê°Ī ìĿ´
// //
n u
ĠìĹĨ ìĹĪëįĺ
§Į ìĹĲ
ê¹ Ģì
Ġë§Į ìł¸ë
ìľĦë Ĥ´
L R
Ġst upor
ìĿĳ ì§ĳ
ì¹´í ħĮ
Ġres istant
Ġë¬»ìĸ´ëĤĺì ĺ´
ĠP er
Ġêµ¬íĨł íĸĪìĿĮ
Ġë°Ľ ìķĺëĭ¤ê³ł
Ġë¹Ħë ĵ¬
Ġì½ ľë
Ġìŀ¬ì±Ħ ê¸°ë¥¼
ĠìĭľíĤ¤ ê³ł
Ġíį¼ íĶ¼
Ġarthrod esis
Ķ ±
me cta
ìĸ´ ìł¸ìĦľ
Ġr ule
ìĬ¤ íĬ¸ëłĪ
ê°Ģì ĭł
Ġìĭľìŀĳ íĸĪìĿĮ
ìķĪë ħķíķĺìĦ¸ìļĶ
íĴ į
Ġì¢ħëĮĢ ê°Ģ
ìĺ¤ëĬĺ ìĿĢ
ame l
Ġceren i
ì¶ĶëĶĶ ìĬ¤íģ¬
Ġm ite
Ġì²ĺë°© íķ´
ĠìĿ¸ ì²ľ
ë¬¸ ìŀĲ
Ġìĭľìŀĳ íķĺê³ł
arg ine
ìĺĪ ìĿĢ
Ġap tt
Ġë´¤ ëĬĶëį°
alb uminemia
7 6
ª ¸
Ġt onic
ĠíĶ¼ë¶Ģ ìĿĺ
im m
ĠìºĶ ìĿĢ
ĠíĽĦë ³µ
ĠëıĻë¬¼ë ĵ±ë¡Ŀ
¶Ģ íĥĢë¯¼
Ġr ing
pl enic
ĠìĹ°ê³ł ë§Į
íıĲ ìĪĺì¢ħ
s al
Ġm osapride
Ġg kg
Ġíı¬ ìŀ¥
Ġë¯¸ë£¨ ìĸ´
Ġíı¬ë§Ĳ ìĦ±
Ġë°°ë³Ģ íĻľëıĻ
Ġì°¨ ìĦľ
ìŀĪ ìĬµëĭĪëĭ¤
Ġfl ur
Ġcont ain
ĠìłĢì¹ ¼ë¥¨íĺĪì¦Ŀ
tub e
ĠìĿ´ëŁ¬ íķľ
8 8
u men
ëĭ¤ íķĺìĭ¬
Ġ1 14
ĠC PL
Ġê³łë §ī
ëıĻ ê±°ë
Ġì¢ħìĸĳ ìĿĢ
Ġë¶ĪëŁī íķ¨
Ġì§ĸ ê³ł
opy on
ë¶Īë ¦°
M alassezia
¢ ĭ
Ġìŀ¬ ë´īíķ©
Ġêµ¬íĨł ìĿĺ
Ġìłľ ìłľ
ĠìĿ´ìĸ ´ëĤĺ
Ġt sh
at remia
ĠíĺĦ ìĥģ
ê°Ģë ¡ľ
Ġì§ĳ ìķĪ
Ġj unction
Ġcyst s
tiop eptidase
derma tits
ìľł ì§ĢìĨį
Ġë°± ì§ĢìĦł
orph ologic
ĠìĻĦíĻĶ ëĲ¨
ĠìĿ´ë¶Ī ìĹĲ
§ Ĳë
ëĭ ´ë
un e
Ġst en
ĠíĮ ½
Ġê±´ìĤ¬ë£Į ë¥¼
ĠíĮĮíĸī ì¦Ŀìĥģ
Ġì¢ħíķ© ê²ĢìĤ¬
lud ing
Ġpd a
ĠêµĲìĥģ ë¶ĢìľĦ
ĠëĪĦë Ŀ½
Ġìŀ¥ê¸°ëĵ¤ ìĹĲìĦľ
P yometra
Ģë įĶëĭĪ
íķ´ì ķ¼ë
ìĪĺì ²©
ĠíĥĪêµ¬ ê°Ģ
Ġë° Ŀ
Ġìĸĳíĺ¸ íĸĪìľ¼ëĤĺ
Ġl o
ĠìĿ´ ìłĦì²ĺëŁ¼
ĠìĿ¸ ê·¼ë
Ġpro fil
ĠìĿ¼ì£¼ìĿ¼ ìłĦ
ĠìĿĳ ì§ĳ
Ġinf ormation
ĠìľĦìŀ¥ ê´Ģì
ou et
Ġì¡°ìĭ¬ ìĬ¤ë
ĠíĽ¼ë¡ľë°Ķ ìľł
Ġíķ į
Ġb ase
ê· ľë
ĠìĬ¤ íħĮ
ĠìĥĿ ì¡´
10 2
ĠìĪĺë ³µ
ĠìķĮëł¤ ì£¼
Ġë ©°ëĬĲë¦¬
Ġì¹ĺë£Į íĽĦ
Ġê±¸ ìĿĦëķĮ
Ġì¹ĺë£Į ìłģ
ĠD oppler
Ġë¬´ë ¦Ħ
Ġel ong
Ġuter ine
Ġê¸ ´
Ġì¤ĳ ìĹĲëıĦ
Ġíķľ ìłģ
ìĭľë ¶ĢíĦ°
Ġê³¨ ìľłíķ©
ë³´íĺ¸ìŀĲë¶Ħ ìĿ´
ì°ľ ì§Ī
al one
Ġê¸°ì¹¨ ìĿĺ
ê°Ģë ĵľë¡ľ
omy opathy
Ġmetast atic
êµ¬ì¶© ìłľ
ubc utaneous
Ġì¡°ëĭĪ ìĤ¬
ĠìĽĲëĤ´íĪ¬ ìķ½
Ġs cc
rol one
Ġê¹ľ ì§Ŀ
Ġêµ¬ ë©į
ĠT est
Ġì¡° ê¸°
ë³´ ëĭĪ
Ġìķŀ ë°ľëª©
ĠìĻ¼ìª½ ìľ¼ë¡ľ
oxy gen
ĠìļĶëıĦë£¨ ì¡°ìĦ±ìĪł
ĠìĦ¸íı¬ì¶© ìĭ¤ëıĦëĬĶ
Ī ²
Ġìłķìĥģ ìĭĿìļķ
ĠìľĦ ìĿĺ
ê°ķ ì§ģ
ĠíĮ ĿìķłëĭĪëŀ©
ê¸°ì ¡´
Ġì§ĢëĤľ ëĭ¬
ëĬĶê²ĥ ìĿĢ
p ril
ĠíĺĪ ì¦Ŀ
Ġê´ĢìłĪ ìĺģìĸĳìłľ
ĠìĽĢì§ģ ìĿ´ëĬĶ
Ġdox o
ampyl obacter
ĠìĿĺìĭ¬ ëĲľëĭ¤ê³ł
Ġì¸¡ìłķ ëĲĺìĸ´
Ġê°ľìĦłë Ĳ
Ġêµ ¶
Ġë³´íĺ¸ìĨĮ ìĹĲìĦľ
ĠíĶĦëłĪëĵľëĭĪ ìĨĶë¡ł
íķ ¸ëĵľ
Ġì¢ĭ ìľ¼ë©´
Ġë³ĳìĽĲ ìĿĦ
Ġul tras
íħ įìĬ¤
ĠìĭĿìĿ´ì ķĮëŁ¬ì§Ģ
ĠìĪ¨ìī¬ ëĬĶ
± ìĬ¤
Ġce re
ìª½ ìĿĢ
ìľ¼ ìħ¨ëĭ¤ê³ł
ĠìĦ± ì¶©
ìĿĦë ł¤ê³ł
Ġê¹Ĭ ê²Į
dog s
Ġì´Īì½ ľë¦¿
Ġë³ ĢìľĦë
ĠìĿ´ ìłķ
ch l
Ġì§ĢìĨį ëĲĺê±°ëĤĺ
¦° ëĭ¤
ĠëĤ´ìĭľê²½ ìľ¼ë¡ľ
o val
ĠìĥĿ íĽĦ
ĠM ass
Ġê¸°ëł¥ ëıĦ
ĠìłĪ ê³ł
Ġì¹¨ ìĤ¬
Ġmen ing
Ġìŀĺì§Ģë Ĥ´ê³ł
ĠìµľìĨĮíķľ ìĿĺ
ĠìķĦëĵľ ëĭĺ
em per
ĠìļĶ íĮ©
Ġìłľ ê°Ģ
ìĦ¸ ìĿ´
tin es
Ġë¯¸ ìĦ±ìĪĻ
Ġì½Ķ ìĸ´
ĠìĹ°ê³ł ë¡ľ
Ġse b
Ġbul bi
ĠìŀĲìĦ¸ë °ĺìĿĳ
Ġo cl
Ġìķ½ ìĨį
Ġì¦Ŀ íĽĦêµ°
Ġpo s
Ġ5 00
Ġê³łëł¤ íķĺê³ł
Ġë³´íĸī ìĿ´
ĠëĲĺ ìĹĪìľ¼ë©°
Ġëįľ íķ¨
Ġë¦¼ íı¬ë§Ī
Ġiver mectin
b rom
¸ ëĭ¤ê³ł
Ġf en
Ġv as
ìĹ° ê²°
Ġ7 8
Ġëĵ¤ìĸ´ ê°Ģê³ł
ĠëıĻê±°ë¬ĺ ê°Ģ
Ġen c
oph age
and rolone
íķĦìļĶ íķ¨
Ġë¹Ħíķ´ìĦľ ëĬĶ
ìĭľ ìĹĲëıĦ
ĠìĨĮ ëĩĮ
Ġê°Ļ ì§ĢëĬĶ
Ġê´Ģ íĨµ
Ġë¨¹ëĬĶ íİ¸
Ġíķĺìħ¨ ëĬĶëį°
Ġì¹ĺìķĦ ê°Ģ
Ġë°ĺë³µ íķ¨
Ġinter mediate
ĠíĤ ¤ë¡ľ
Ġì¸Ħë ¥´ë
Ġcaus ed
ĠLD DST
Ġìķ½ ë³µìļ©
Ġì£¼ ìļĶ
ĠíĺĪ ìĥīìĨĮëĩ¨
ug ust
ë¶Ħë ³Ģ
Ġcs f
ĠInf ection
ĠìłĢì£¼ íĮĮ
ĠP ancre
Ġì£¼ìĤ¬ ë¥¼
Ġë³´ì ĭ¬
Ġë¦¬ íĦ°ë°ķìĬ¤
ĠìĿ¼ìĸ´ëĤ ĺë©´
Ġcomp osed
Ġìłģì¶ľ ìĪł
alp cr
Ġperine al
ĠìŀĲ ì²´ëĬĶ
ìĿ´ë ıĻ
ĠC ranial
ĠS ensory
om ide
Ġë³´ì ĭľëıĦë¡Ŀ
Ġëª© ëįľë¯¸
Ġë§Īì·¨ ìŀĲ
§Ģë ıĦ
ì§ĢìķĬ ê³ł
Ġë³´ì¡° ìŀĲ
ľ ¨
Ġìĸĳ íĮĮ
ĠìĽĲ ì¹Ļ
ë°ľ ìĨ¡
ĠìĹ° íķĺë
Ġê´ľì°® ìĿĦ
ĠìĤ¼ ì¶ľë
Ġìĭľê°Ħ ìĿĦ
Ġse ver
ì¹ĺì ķĬ
ĠìĤ¬ìľ¡íĻĺê²½ ENV
Ġìķī ìķĦìĦľ
Ġcomple x
Ġphacoem ulsification
Ġíķį ëĩ¨
ĠíĺĪëĩ¨ ê°Ģ
Ġêµ¬ì¡°ë¬¼ ìĿĺ
ĠëıĦë ¶ĢíĥĢë¯¼
Ġì£¼ ìĭ¤ê²ĥ
ĠëıĻ ë°°
Ġì» ¤ë
Ġê°ľìĦł ìĿĢ
Ġê¸¸ ìĿ´
Ġëª»ë¨¹ ìĿ´ìĭ¬
ĠëĦ¥ì¹¼ë Ŀ¼ë¥¼
U rine
h ouet
t ur
Ġì¡° ìĦ±ìĪł
íı¬ íĭ¸
Ġíķ´ì£¼ ìĭ¤ê²ĥ
ê°ĢëĬ¥ìĦ± ìĿ´
ĠìĤ¬ìľ¡íĻĺê²½ env
Ġë¶Ģìľ Ħë¡ľ
Ġëľ¯ ìĸ´ë
Tr unk
ĠìłĦì²ĺì¹ĺì Ĥ¬íķŃ
Ġ unc
Ġìłķ ë³µ
Ġk re
íķĺëĬĶ ê²ĥ
Ġì¹ĺì ¡°
ë¨¹ ëĬĶ
enic ol
Ġamp le
ì²ĺì¹ ĺì
Ġcomp ression
l un
al PCR
Ġë³´ ëĭ¤ê°Ģ
Ġì£¼ ìĭľë©´
Ġìĸĳìĥģ ìĿ´ë©°
Ġê°ķ ìĺĪìĿĢ
Ġìŀł íĺĪ
Ġì²ĺì¹ĺë §Į
ĠìłĲë§ī ì¸µ
ĠíĨłë ¥¼
Ġìķī ìĿĮ
ĠìĤ¶ ìĿĺ
Ġclav ulanic
īģ ë¶Ī
Ġsurvi val
ĠìĹ Ħì
ł¤ ëĬĶ
ìĥĿ íĻľ
Ġíķĺë Ĥĺë
Ġëª¨ëĭĪíĦ°ë§ģ íķĺê¸°ë¡ľ
az e
Ġì§Ģ ê¸ĪëıĦ
Ġsh en
ĠìĬ¬ëŁ¬ì§Ģ ê°Ģ
Ġì²Ļ ìĪĺì
Ġêµ° ì§ĳ
Ġsilym arine
Ġëª» ë³´ì
ë§Ī ìĿ´ëĵľ
Ġì¢ĭìķĦ ìł¸ìĦľ
ĠìķĦëĭ Įë
ìĿ´ëĿ¼ ëĬĶ
Ġì¢ĭìķĦì¡Į ìľ¼ëĤĺ
Ġì ¦
ĠìĪ Ļ
ic ardi
Ġì²ĺë°© ìĺĪìłķ
Ġë¯¸ ìĹ´
Ġì¦Ŀê°Ģ íķĺëĬĶ
ì¡ ¸ë
ĠíļĮë³µ ëĲĺì§Ģ
ĠìłĦíķ´ì§Ī ê²ĢìĤ¬
Ġdis ch
Ġì£Ħì Ĩ¡
ĠìłĦ ìļ©
op l
Ĳĺ ìĹĪìĿĦ
Ġíıīê°Ģ ëĬĶ
ĠíĶ¼íķĺìĪĺìķ¡ ìĿĢ
Ġê°Ī ìĿĢê±°
ĠìłĦìĿ´ íıīê°Ģ
Ġëĭ´ì ļĶ
ĵľë¦° ëĭ¤ê³ł
ë¶Īë Ĥ´ìĦ±
ì§Ģ ìĹĲ
Ġst and
Ġíķĺë£¨ ë§Į
Ġë³´íĸī íıī
ĠìĽĲëĤ´ ìĹĲìĦľëĬĶ
Ġê°Ģìłķ ìĹĲìĦľ
Ġë³ĳë³ Ģìľ¼ë¡ľ
Ġìĸĩ ìĿĢ
¦´ì ĺĪìłķ
Ġriv aroxaban
ìĬ Ĳë
Ġìĸ´ ìł¯
ĠìľĦ ìĹĲìĦľ
ĠU TI
Ġph thisis
Ġë¶Ģ ìĿĢ
Ġhyper adrenocorticism
Ġìŀ¡ ìķĦ
Ġë¬» ìĸ´ìŀĪ
ìŀĺë ¨¹ê³ł
íİĻ ìĬ¤
ĠìķĦìĿ´ìĬ¤ íĮ©
Ġd aily
ĠìŀĲ ìľł
Ġk id
Ġë³µìļ© íķ¨
Ġë¹Ħìļ© ë¬¸ìłľë¡ľ
ĠëıĻìĿ¼ ì²ĺì¹ĺ
Ġê°ķì§ģ ì¦Ŀìĥģ
Ġìĭłë¶Ģ ìłĦìĹĲ
S RR
Ġëª °ëĿ¼
ĠíķŃ íĺĪìłĦ
ĠìĿ¼ë ħĦ
ĠíķĺëĬĶ ê²ĥ
ĠìļĶì²Ń íķ¨
ĠìľĦì¹ĺ ìĹĲ
ĠìķĪë ĵ¤ë
ĠS h
Ġë°ľê²¬ íķ¨
ĠìĹ¬ëŁ¬ ê°ľìĿĺ
Ġìĵ° ì§Ģ
Ġìļ¸í īģë¶Ī
Ġìł ĪìĿĮ
Ġl ump
Ġìķ½ ê°Ħë
ĠH ome
ĠD ermatitis
Ġìŀ¥ì°© íķĺìĹ¬
ĠìĹ°ëĿ½ ë
Ġim plant
ìĮ ķ
ĠëĤ´ì¸ ĦëŁ
§ Ħë
Ġë¶Ģë¶Ħ ìĿĦ
Ġë¹Ħìļ© ìĹĨìĿ´
ĠíĨµíĻĶ ìĻĦë£Į
ì²ľ ê³µ
Ġë³´ìĺ Ģê³ł
Ġìķ½ë¬¼ë °ĺìĿĳ
> "
íķł ìĿ¸
Ġë© ĶëĶĶ
ì¶ľë ¡ľ
Ġìĥģíĥľë Ŀ¼ê³ł
ĠìĥĿê°ģ ëĲĺëĬĶ
ê°Ļ ëĭ¤ê³ł
ung al
ìĿ´ì ĭľë
¬ë įĶëĭĪ
ĠëĪ Ħì
íĥĢë §ĪìĿ´ìĭł
Ġì²´íģ¬ íĳľ
Ġê¸°ê´Ģì§Ģ ìĹ¼ìĹĲ
ĠëģĿ ë¶Ģë¶Ħ
Ġë²½ ë¹ĦíĽĦ
Ġìķ¡ì²´ ìłĢë¥ĺ
ĠëŀĢ íĪ¬ìĬ¤
ĠRec o
i w
íĩ ´
ĠìķĦíĶ Ħë¦¬ì¹´
ìĻĦ ìłĦ
ĠëĤĺë¯¸ ìķ¼ì§Ģ
ħ Ĳ
Ġì£¼ íĸī
Ġê²½ë ĵ±
ĠëĤ® ìķĦìĦľ
ĠìĨĮìŀ¥ ëĤ´
Ġhemat uria
ĵ ¨ë
ĠëıĻ ëĦ¤ë
Ġë§Ī ìĦ¸ìļĶ
Ġëĩ¨ ê²ĢìĤ¬ìĥģ
Ġìļ©ëŁī ìĿĦ
ìĦ¤ìĤ¬ ëĬĶ
Ġë¬¸ë §¥
ëĭ Ĳë
Łī ìĿ´
ĠìĿ¼ íĽĦ
Ġìĭłìŀ¥ ê¸°ëĬ¥
ĠìĹĬê·¸ ìłľ
Ġë°Ķíĥķ ìľ¼ë¡ľ
6 2
6 3
G S
M RI
b e
Ġf iss
Ġiv ss
Ġê³łëł¤ íķ´ìķ¼
Ġmed ullary
ĠìľĦì¹ĺ ìĹĲìĦľ
Ġìļ°ìĭ¬ë°© ìĹĲìĦľ
Ġ \'
ìľ¼ ìĭľëĭ¤ê³ł
ĠíĿĺëŁ¬ë Ĥ´ë
ŀ ħëĭĪëĭ¤
ess ion
ê²ł ì§Ģë§Į
Ġíİ ĮíĶĦ
Ġê¹¨ ë¬¼
Ġëĭ¤ëħ Ģ
ìĻĦ íĻĶ
ĠIVS s
Ġëĩ¨ì¹¨ ìĤ¬
Ġì ĮĮ
Ġì²ĺë°© ìĿ´
Ġë¶Ģ ìĿĮ
ĠìĦłìĥĿëĭĺ ìĹĲê²Į
Ġìµľë ¦¬
ĠíĺĦìłĢ íŀĪ
ĠCefotax ime
Ġìĭ¬ ì§ĪíĻĺ
ĠëĳĲ ê°ľê³¨
Ġê·Ģê°Ģ íķĺìĹ¬
Ġì¹´íĨ¡ ìľ¼ë¡ľ
íĶĮë Ŀ¼
Ġíķĺìĸ Ģìĥī
ac ytic
le ar
Ġcor d
ĠíĨł íĸĪìĿĮ
Ġê·¼ë ŀĺ
Ġê³¨ìłĪë ¶ĢìľĦ
ĠìĮ ķ
D er
ĨĮ ëŁī
ĠìŀĲ ìĦ¸íŀĪ
ìŀĦ ìĪĺìĪł
íĹ ¤
ì²´ë ¥¼
Ġepithel ium
i omy
Ġì «
ì£¼ ì¹ĺìĿĺ
Ġê³ł ê¸°ë¥¼
ĠH T
ĠìĽĲíĺķ ìĿĺ
íļ¨ ê³¼
ĠìķĦíĶĦ ê¸°
Ġs et
Ġê³ł ìķĶëª¨ëĭĪìķĦ
Ġëĳ ĺì§
ĠìļĶì²Ń íķĺìĹĲ
Ġë´Ĳ ìķ¼
ìļ©ëŁī ìľ¼ë¡ľ
ĠìĭĿìĿ´ì ¡°ìłĪ
pim obendan
ĠìķĬ ê¸°ë¡ľ
Ġìŀ¬ ìĥĿ
íķ´ì ¡Į
uc il
Ġmass es
ĠìļĶì²Ń ìĹĲ
ë°ľë °Ķëĭ¥
Ġíļ¨ê³¼ ëĬĶ
ĠìłĲìķ¡ ì¢ħ
ĠíħĮ ìĿ´
Ġmir ta
Ġë°°ìłľë Ĳ¨
Ġêµ¬íĨł ìĹĨìĹĪìĿĮ
ast ric
ĠìĹ¼ìĥī ëĲ¨
ĠìĤ¶ ìķĦìĦľ
ìĵ °ë
Ġë²Ħë ¦ĩ
ì İ
ĠC OMM
Ġë§Įëĵ¤ ìĸ´ìĦľ
Ġ Z
ìĭĿ íĽĦ
ì° ¨ë
Ġê°ģë§ī ìĿĺ
ìĿĺì £¼
Ġim mune
Ġchl orph
Ġê°Ķ ëĭ¤ê°Ģ
Ġserra tiopeptidase
ê¸°ëł¥ ìłĢíķĺ
ĠëĤĺëĪĦ ìĸ´
kg ë¡ľ
ìķĪ ê°ģ
ĠìĿ´ë ¦Ħ
Ġì·Įìŀ¥ìĹ¼ ìľ¼ë¡ľ
Ġhypog lycemia
Ġìļ¸íīģë¶Ī íīģ
F eline
G GT
Ġì¶Ķ ìĿ´
ĠëįĶ ëĶ
Ġst ruvite
Ġsac ro
arth ritis
Ġê³łìľłìŀĲìĦ¸ë °ĺìĿĳ
Ħí ĸī
ìĿ´ì ¤ĳ
ĠìķĪ ê²ĢìĤ¬ìĥģ
ĠC an
ê¸°ëĬ¥ íķŃì§Ħì¦Ŀ
Ħíĥģ ìķ¡
ĠíĶ¼ëĶ© íĬľë¸Į
Ġp te
Ġst omatitis
ĠìŀĲë°ľ íĺ¸íĿ¡
ìŀĪ ê²Į
arb epo
ĠìĤ¬ë§Ŀ íķľ
Ġdia meter
houet te
P TT
Ġë§ ¹
Ġìŀ¬ ë£Į
Ġclemas tin
ĠìĦ±ìŀ¥ íĮĲ
Ġreco mendation
d ëĬĶ
s r
Ġ rom
ìľ¼ë¡ľ ëıĦ
ìĹ¬ ìłĦíŀĪ
Ġë³ĳ ìĨĮ
ìķĪë Ĥ
Ġê±¸ ì¹ľ
Ġhem angiosarcoma
Ġìķķë°ķ ìĭľ
ĠìĶ ¬
ĠìļĶì¶Ķ íķĺ
Ġlvpw s
ë Ŀ¼ë
Ġë ¨¸
ĠìĿ¸ ì§Ģìŀ¥ìķł
ĠëĤĺíĥĢëĤĺ ê³ł
ĠìĦłì²ľ ìłģ
Ġdes cription
ĠìłĦìĿ´ì ĨĮê²¬
bend azole
ĠìĿ´ì §Ħ
ĠH ct
Ġê³µ ìĽĲ
Ġì¤Ħ ìĹĪëĭ¤ê³ł
Ġì¸¡ìłķ ë¶Īê°Ģ
ĠìĥĿê°ģ ëĲĺëĤĺ
´¤ ëĬĶëį°
art man
ĠìľĦìŀ¥ ì¦Ŀìĥģ
ìļ°ì ħĶìĦľ
ĠLVPW s
Ġf il
Ġìŀ¬ íĥĪêµ¬
ĠíĺĪ êµ¬íĨł
ķĮ ë¬¸
de oxycholic
°° ìķ¡
Ġca use
ìĦ¸íı¬ ê°Ģ
Ġìľłë°ľ íķĺëĬĶ
Ġlv dd
ĠìķĮëŁ¬ ì§Ģë
Ġaml o
angi ectasia
©ĶëĶĶ ì»¬
Ġg all
ĠF ailure
Ġst ay
ĠU l
di tis
Ġë°ĺë ĮĢ
Ġíİ ¸í
°Ľ ê³ł
Ġome pra
Ġì½© íĮ¥
S R
Ġë ¾
ìļ° ëĬĶ
ch ym
Ġíıī ê°Ģìĭľ
Ġro ot
Ġê²Į ìĭ¤
U E
¹ ´
Ġëĭ¤ ì¹ľ
Ġiv rt
ab ility
ĠìĨĮëıħ íķĺê³ł
Ġë§Īì·¨ ìĹĲ
Ġì¤ĳìĭ¬ ë¶Ģ
Ġìĺ¤ ê¸°
ìĿ´ë ĩ¨
ĠìĺĪìłķ ìľ¼ë¡ľ
ìĬ¤ íĶĦëłĪìĿ´
Ġìĭ¬ìŀ¥ íģ¬ê¸°
ĠìĿ´ìłĦ ìĿĺ
Ġìŀĩëª¸ ìĿ´
ìĤ¬ìĿ´ ìĹĲ
Ġëĺĳ ê°ĻìĿ´
ìķłë ĵľë³´íĤ·
M E
ĠìļĶ ê·¼ëŀĺ
Ġbil irubin
b et
Ġf ic
Ġìĭł ê·ľ
¹Ħ ëĬĶ
Ģë¶ Ģì
Ġë°° ê³ł
Ġì»¤ ìĦľ
êµ¬ ì¡°ë
lu de
ĠìĺĪë°© ìķ½
ĠëĤ´ê³¼ MED
ĠìłĦì§Ģ ìĿĺ
ĵľë¦¬ ì§Ģ
Ġreg ard
Ġendo thelial
Ġm ox
Ġë§ ģ
Ġë°°ëĩ¨ íķ¨
ĠëĤ´ê³¼ med
ĠìĤ¬ë§Ŀ ìĭľ
ĠTS H
Ġì¹«ìĨĶ ì§Ī
ĠíļĮ ìĿĮë¶Ģ
ìĶ Ģ
ìľł ë°ľ
Ġëĭ¨ ê¸°
Ġê°ģë§ī ìĹ¼ìĥī
Ġìĭ¬íķ´ì §Ģê±°ëĤĺ
Ġcan insulin
ëį© ìĿ´
íĭ°ì ¦Ī
Ġvent ric
p H
Ġë¨¹ ìĹĪëįĺ
ĠìłĦ êµ¬ì¹ĺ
ê·¸ë Ł°
Ġëªĩ ê°ľìĽĶ
Ġtel mis
Ġrem oval
Ġìĸ¼ë§Īë Ĥĺ
Ġë ¥ĺì
ìłģ ìŀĦ
ëĵ± ìĹĲ
Ġdeep íķľ
¶Ī ê·łíĺķ
Ġfur d
K g
µ Ļ
Ġv e
ĠíĻķìĿ¸ íķ´
ª© ìĬ¤
Ġë§Ĳë ŀĳ
ĠìłľìĻķ ìłĪê°ľ
Ġì¹ĺì¡° ê³¨
Ġê· ľ
ìŀĲ ë§ĪìŀĲ
ic ine
ĠìĿ¼ ìłĦë¶ĢíĦ°
ëª ¸ë
Ġch aracter
ĠìķĪìķ½ ì²ĺë°©
Ġar ter
ĠCH X
uck ling
Ġì£¼ ëĭĪ
ì£¼ ìĭľëıĦë¡Ŀ
yl ococcus
ĠìķĪìłķ ëĲľ
Ġsp ine
ĠìĹĨëĬĶ ê²ĥ
ëĭĪë ©Ķëĵľ
Ġë°Ķê¾¸ ìĭ¬
Ġì£¼ìłĢìķī ìĿĮ
U WTM
½ ĺ
Ġt one
ĠB ut
Ġì§Ī ì¼Ħ
íĻĺìŀĲ ìĥģíĥľ
Ġgastro intestinal
§İ ìĿ´
Ġì¤Ħê¸° ìĦ¸íı¬
ĠíĻķìĿ¸ëĲ ĺì
ĠìķĪë ´Ħ
Ġìĥģíĥľ ìĿ´ê³ł
ut amin
ê» ĳ
ĠíĸĪ ëĭ¤
ĠëĤĺìĺ¤ ê¸°
Ġìŀħìĸĳ íķĺìĭ¬
Ġnod es
Ġê°ĢìĬ µ
Ġìĸ´ëł¤ìļ°ë Ĥĺ
8 6
Ĥ ´ë³µìķ½
th orax
Ġd h
íĸĪ ìĸ´ìļĶ
Ġcef ovecin
gen ital
Ġëĵ¤ìľ¼ ìħ¨ëĭ¤ê³ł
Ġov arian
Ġëĵľë¬¼ ê²Į
ester ol
ĠìĶ¬ ì§Ģë¡ľìĿ´ëĵľ
Ġë³´íĺ¸ìŀĲ ìĥģëĭ´
ĠìłĲ ìĿĦ
Ġfor us
ĠìĨĮëıħ ìłľ
ag ul
Ġy our
Ġëĭ¤ë°ľìĦ± ìľ¼ë¡ľ
OR Y
Ġë¶Ģëª¨ ëĭĺ
Ġd ic
ì¹ ł
Ġê°ĲìĹ¼ ìĿ´
ì¢Į ìĭ¬
íķ´ë³´ ê¸°ë¡ľíķ¨
qu el
Ġë§Ŀë§ī ë°ķë¦¬
ĠìĽħ íģ¬ë
Ġs ens
ê²ĢìĤ¬ ìĭľ
Ġre alpcr
ĠL ip
ìĻ¸ ìĿ´ëıĦ
rome tra
ĠìĹ¬ìŀĲ ë³´íĺ¸ìŀĲ
imm ing
Ġë¬ ´ìĦľ
Ġê³ł ìĿĮìĺģ
ìŀ¬ ë°ľ
Ġë¶Ī ëĬ¥
tra n
Ġê²½ëł¨ ì¦Ŀìĥģ
ĠìĻ¸ìĿ´ëıĦ ìĹ¼
Ġëı ¼
ĠíĥĢíģ¬ë¡ľ ë¦¬ë¬´ìĬ¤
F I
ĠíĺĪ ì¤ĳ
Ġì¤Ħ ìĿ¼
Ġë²Ī ìĹĲ
ê°ĢëĬ¥ íķľ
ĠëĬĺë ¦´
ĠìĹ¬ë¦Ħ ìĹĲë§Į
Th orax
g ree
íĺ ģ
er oid
Ġì§Ģì §Ģ
Ġì¢ĭ ìľ¼ë©°
Ġê´Ģë¦¬ íķĺëĬĶ
ìķĺ ìĿĦ
Ġì²Ļ ê³¨
Ġë´Ĳ ì£¼ìĦ¸ìļĶ
ìĻĢë ¶Ģ
arrow ing
ĠìŀĦìľ¤ ì§Ģ
w e
Ġì¶Ķ ì¸¡
Ġê¸Ī ìĨį
ĠëĪĪ êº¼
ĠìłĦë°ĺ ìĿĺ
ĠìķĦëĭĪ ìĸ´ìĦľ
Ġìļ°ìĭ¬ ë¶ĢìłĦ
Ġperfor ation
ĠëĤ« ì§Ģ
ê³°íĮ¡ ìĿ´
i tivity
Ġtime tid
Ġm u
ê°Ģ ê¸°ë¡ľ
Ġê°ľìĦłë Ĳł
Ġê´ĳê²¬ë³ĳ ìĿĢ
Ġlip oma
ĠìłĲìķ¡ ì§Ī
ĠìĿ´ìľ łë¡ľ
ĠLVD d
¯ ¹
Ġt T
ê± ¸ë
Ġê°Ļ ìľ¼ëĤĺ
Ġst ra
´íĳ ¸ë¡ľ
ĠëĤł ìĶ¨
ĠëıĻë°ĺ íķĺëĬĶ
Ġê²ĢìĤ¬ê²°ê³¼ ìĹĲ
ëĬĶê²ĥ ëıĦ
Ġë¶Īê°ĢëĬ¥ íķľ
Ġlig ament
Ġhemol ytic
Ī Ħë¦¬
ìľ¼ ìĭľëıĦë¡Ŀ
ĠíĬ¹ìĿ´ ìłģìľ¼ë¡ľ
ëĶ °ë
Ġê·¸ëłĩ ì§Ģ
ļ ´
Ġc ur
ĠF or
ass ium
Ġë¹ł ì¡ĮìĿĮ
ĠíıĲì¹¨ìľ¤ ìĿĢ
Ġìĸ´ìłľë³´ëĭ¤ ëĬĶ
ĠíĻķìĹ° íŀĪ
lun omide
Ġ ent
ë° ¤ìĤ¬ìĿ´
íĦ °ì
ĠìŀħìĽĲ íķĺë©´ìĦľ
Ġëª» ìĵ°
Ġì½Ķ ë¥¼
Ġìĥģíĥľë ıĦ
ĠìĨĲ ì§ĢíĿ¬
ĵľë¦¬ ê²łëĭ¤ê³ł
ĠìĭĿëıĦ ìĿ´ë¬¼
ìĤ¬ë ¯¼
Ġê¸īê²© íķĺê²Į
Ġcompl ain
ĠìĭĿìļķ ìłĢ
Ġê³ł ì§ĪìĨĮíĺĪì¦Ŀ
Ġde velop
Ġë§Į ì¡±
Ġis o
Ġìķŀë°ľ ìĿĦ
ê²¹ ìĤ´
Ĥ Ļ
ĠìĭĿ ëĭ¨
ĠìĨĮ ë¡ł
ĠìĪĺìĪł ìłģìľ¼ë¡ľ
ĠM orphologic
ê³µ ë§ī
Ġim ipenem
ì½ ľë
ff ected
Ġë¯¸ë§Į ìĦ±
ĠìĹ°ì Ĭµ
Ġë¶Ģë¶Ħë °ľìŀĳ
Ġconf ir
ìĭĿ ìĿ´ìĦ±
Ġìľł ì¹ĺì
Ġë§İ ì§ĢëĬĶ
Ġìµľ ì´Ī
Ġëĸ¨ìĸ´ì §Ģì§Ģ
Ġradi ology
Ġì¦Ŀê±° ëĬĶ
Ġum bl
ĠPP N
Ġìĭ¬ ë¦¬
ph thalm
el ow
ĠìłĲ ì§Ħ
Ġcef adroxil
Ġë¶Ģ íĴ
ĠëĤ® ìľ¼ëĤĺ
ĠìĿĮìĭĿ ìĹĲ
Ġíķ´ëĭ¹ ë¶ĢìľĦ
N U
on ographic
Ġë¹ Įë¦¬ë£¨ë¹Ī
Ġìŀħ ì£¼ìľĦ
ìĭł ê·ľ
Ġê´Ģëł¨ ëĲĺìĦľ
Ġìĭľìŀĳ íķĺê¸°ë¡ľ
Ġê´Ģ ê³Ħ
ëĵľë ¦¬ê³ł
Ġë¬¸ì§Ħ SR
ĠëķĮë¬¸ ìĿ¸ì§Ģ
Ġêº ½
Ġgro ove
Ġë§ĪìĿ´ë ·°
Ġb ony
ê°Ģ ìł¸
Ġe f
Ġë°°ë ³ĢëıĦ
ĠìĪĺìĪł ì°¨íĬ¸
ĠìĹ¬ ê¸°
ĠE H
Ġë¹Ħìļ© ìĿ´
ĠìĥģíĻ© ìŀħëĭĪëĭ¤
Ġë¬¸ì§Ħ sr
Ġêµ ¿
ìĿ´íĽĦ ìĹĲ
Ġë³ĢìĹ° ìĿ´
ĠìĤ°íĻĶìłĦ ìľĦìĪĺ
ĠìķĬ ìķĦëıĦ
ĠìĭĿìļķ ê³¼
ĠíĻķìĿ¸ íķĺê¸°ë¡ľ
íĺķ ìĿĺ
ìķĦë ²Ħ
Ġsp ay
Ġê·¹ ìĭ¬íķľ
oxap arine
Ġë¨¹ìĹ¬ë³´ì ĭľê³ł
ulan ate
ophage al
Ġd rain
Ġh t
Ł¬ ìĦľ
ĠìĿĳ ê³ł
ĠëĭŃ ê°ĢìĬ´ì
Ġmetac arpal
Ġíķĺìĭľë ©´
Ġsep sis
or p
Ġì§Ħíĸī ìĿ´
Ġì²ĺì¹ĺ íķĺê³ł
êµĲ ìľ¡
ag ic
ĠíķŃë¬¸ëĤŃ ìķ¡
ëĤ´ì ĭľê²½
íİĺë ĵľë¦°
ĠìķīìķĦ ìŀĪ
ĠìŀĲëĳĲ ìĶ¨
¯¼ìŀ¬ ìĦłìĥĿëĭĺ
¶ ĶëŁ
ĠìĨĲìĥģ ìĿ´
ĠCeph a
ĠRe alPCR
ĠìĽĲ ìľĦì¹ĺ
Ġë³´íĺ¸ìŀĲ ê»ĺìĦľ
ê²ĥ ì²ĺëŁ¼
Ġhyp opyon
ip ping
íķĺìĭľë ©´ìĦľ
Ġì§ĦíĨµ ì²ĺì¹ĺ
¥´ë ¥µ
ĠíĴ Ģìĸ´ì£¼
ĠìĹīëį© ìĿ´ë¥¼
Ġcobal amine
Ġp v
Ħí Ķ
ro us
ĠíĺĪ ìłĦì¦Ŀ
ĠìĻ¸ ìķĪê°ģ
ĠìĺĪë°© ìĿĺíķĻ
Ġë¶Ģ ìĹĪìĿĮ
Ġëĸ¨ìĸ´ì ¡ĮìĿĮ
ĠAm p
Ġì§Ģ íĳľ
ĠëĤ¨ ê²¨ë
Ġê°ĳìĥģìĦł ê¸°ëĬ¥ìłĢíķĺì¦Ŀ
Ġmo ê·ĢìĦ¸ìłķ
Ġdispl acement
e til
f er
ìĹ ´ë
ëĲ ĺë¯Ģë¡ľ
Ġr isk
Ġì§Ģë ¦¼
Ġëĭ¤ìĿĮëĭ¬ ìĹĲ
Ġìŀħ ìĹĲìĦľ
ê¹ ½
ĠíĮ ¬
Ġì¹ĺìķĦ ëĬĶ
Ġë°ĺëĮĢìª½ ëıĦ
Ġdeb ris
) )
íķľ íİ¸
ĠC DV
Ġê¸° ìļ¸
Ġë¬¸ íķ©
ĠìĿĺì Ĥ¬
Ġmet atarsal
ë§Ī ì§Ģë§ī
Ġëª© ìĿ´
Ġë³ĢíĻĶ ìĹĲ
Ġìŀĳ ìĿĮ
of etil
Ġë©´íļĮ ìĭ¤ìĹĲìĦľ
Ġspi rolact
Ġì¹ĺìķĦ ìĥģíĥľ
Ġëª½ ìļ°ë¦¬
7 4
Ġë°Ķ ëĤĺëĤĺ
ìľł ì§Ģì
Ġì¼ Ģìĸ´ì
íĺ¸íĿ¡ ê³¤ëŀĢ
ĠìĿ¼ìĸ´ëĤ ł
Ġìĺµ íĥĢë
ìĬ¤ì¼ Īë§ģ
ìłķëıĦë §Į
ľ ê»ĳ
Ġm v
Ġb ur
ì² ľë
Ġr ib
Ġì¢ĭ ì§ĢëĬĶ
ĠíĺĪìķ¡ê²ĢìĤ¬ ìĻĢ
ì¢ Ģ
Ġê¹Į ë§
Ġê°ĢìĪĺë¶Ħ íķ´
ĠìĿ´ë ķĮ
ĠìķĦë §Ī
ĠìķĬìľ¼ ìħ¨ìĿĮ
Ġëª»ë ´Ħ
ĠëĪĦ ê´Ģ
Ġê°Ģìł¸ìĺ¤ ìĭ¬
Ġneed le
Ġuro deoxycholic
ìŀ¥ ê¸°
Ġë°¥ ê³¼
Ġë¶Ģìĭł ìĿĺ
ë³´ ìĹ¬
ì§Ģì ¼ľë
Ġë³µë¶Ģ ìĹĲ
Ġë¶ķëĮĢ êµĲì²´
Ġê¸°ì¡´ ìĿĺ
ëł īìĭł
O B
ìĿ´ ê¸´
ìĹĲ ìĦł
ĠìłķíĻķ íķĺê²Į
Ġdef ect
ĠëĤĳëĤĳ ê±°ë¦¼
Ġc i
Ġìłķ ìĭł
Ġë¬ ¶
st age
Ġê²½ëł¨ ìĿĦ
Ġtrans udate
Ġinfiltra tive
ĠìĿ´ë ©°
Ł¬ì§Ģ ê³ł
ëħ ¹
ĠìĦ¸ê·ł ê°ĲìĹ¼
ĠìĿ¸ë ıĦ
ĠìľĦìŀ¥ê´Ģë ³´íĺ¸ìłľ
Ġfac ial
y el
ëĭĪëĭ¤ ê°Ģ
íķ´ë ĵľëł¸ìĬµëĭĪëĭ¤
¨¸ ëĭĺ
Ġë§Īì§Ģë§ī ìĹĲ
Ġëĸ¨ìĸ´ ìł¸ë
: ,
a re
íķ ¥
ĠP im
Ġìŀħ ë§Ľ
Ġìĭłìŀ¥ ìĿ´
ĠE ducation
íĸĪ ëĭ¤
te bra
Ġê±´ì ĭĿ
ĠPD A
Ġm ofetil
ĠìŀħìĽĲ íĻĺìŀĲ
íĥĢ ìł¤
Ġë¹ĪíĺĪ ìĹĲ
Ġlv ds
ĠLVD s
ĤĺíĬ¸ë¥¨ íĺĪì¦Ŀ
ĠëĤ´ìĽĲ íķĺìĭłëĭ¤ê³ł
ĠíĶ¼ë ©į
om p
Ġìŀĳ ê³ł
Ġdo uble
n on
ìłĦ íĻĺ
ë¡ľ ìļ°
Ġë§Ī ìłĢ
Ġì°¨ ìĿ´ê°Ģ
Ġë°ľìŀĳ ìĿ´
ĠìĬ¤ì¼Ģì ¥´
ĠìĿ´ì§Ī ìĦ±
Ġê°ĢìĬ´ì ª½
ë¶ Ħì¦Ŀ
Ġìĭł ìĪĺì
ĠìŀħìĽĲ íĽĦ
ł¸ ëĭ¤ê³ł
Ġíİ¸ ìĿ´ê³ł
Ġchol el
ĠíĻ©ëĭ¬ ìĪĺì¹ĺ
Ġun rem
ili ary
ìĥĪë²½ ìĹĲ
Ġc ac
ĠìķĬ ìķĺì§Ģë§Į
ĠíĻķìĿ¸ íķĺì§Ģ
Ġíı¬ ê¸°
íĬ¹ ë³Ħíķľ
ĠìłķëıĦë ¥¼
Ġë³´ìĿ´ ê¸°ëıĦ
Ġë³ĳë³ Ģë¶ĢìľĦ
ëłĪë Ĥł
C omment
n el
Ġëĵ ł
Ġíı ´ë
ĠT E
ĠíĨµì¦Ŀ ìĹĲ
ĠëıĻìĿ¼ ì²ĺë°©
Ġanal ysis
ĠìĺĪì¹ĺ ê¸Ī
¬ ĺë
Ĥ °ìĨĮ
ĠìĪĺ ê°ľìĽĶ
ê²Ģ ìĿ´ê²½
ĠìķĦì¹¨ ë°¥
Ġë¯¸ìļ© ìĭľ
Ġë¬¼ë ¨¹ê³ł
Ġëĥī ê°ģ
Ġë¬´ë¦¬ íķľ
Ġcle an
Ġìŀłë ĵ¤
ĠëĤ´ìĽĲ íķĺëıĦë¡Ŀ
ĠìĪĺìķ¡ ìĿĦ
Ġcon d
Ġê°Ģìģ ľ
R enal
¼ Ģ
in door
Ġf asc
ê´ ĳì¢ħ
łë įĺ
Ġë°ľ ì¹ĺë
Ġì£¼ íĻ©ìĥī
¨ë ª¨
Ġì¡° ìłĪë
ê°Ģë ł¤
Ġìĭ¤ìĭľ íķĺìĺĢìľ¼ëĤĺ
Ġìĺ¤ë¥¸ìª½ ìľ¼ë¡ľ
Ġíĺ¸ìłĦë Ĳĺë©´
ĠìĿ´íĭĢ ìłĦìĹĲ
u ally
Ġë°° ê¼½
Ġcell ular
Ġì±Ļê²¨ ì£¼ìĦ¸ìļĶ
Ġê²Ĳ íĥĢë§ĪìĿ´ìĭł
íķ¸ëĵľ íĶ¼ëĶ©
ìłķ ìľ¼ë¡ľ
Ġd ens
ph enicol
ĠìĽĲ íķĺìĭŃëĭĪëĭ¤
ìĪĺë ¡Ŀ
°ľ ìĥĿ
Ġìĭ¬ìŀ¥ìķ½ ë¬¼
íĹ Īë¦¬
Ġlist s
ĠSt age
ìĹ´ì ĥģ
Ġmark ed
Ġìĸ´ë ĳĲ
Ġê¸ģ ì§ĢëĬĶ
Ġrec urrence
ĠìĽĢì °Ķ
v ascular
Ġë³´ ìĿ´ì§Ģë§Į
ĠD ex
Ġì¶ľ ìĭł
Ġì²´íģ¬ íķĺê³ł
ĠìķħíĻĶ ëĲĺì§Ģ
ĠìĻ¸ì¸¡ ìĥģ
Ġíĺ¸ë¥´ëª¬ ìķ½
Ġíĥľ ìĸ´ëĤ
ìķ½ ì²ĺë°©
ĠìĬ¤ íħ
ĠL e
ëıĻ ìłķë§¥
íķĺìĭľë ©°
íĳľ ìĭľ
ŀ Ħí
Ġëĵ± ìĹĲì½ĶìĦ±
Ġë³Ģ ê²ĢìĤ¬
Ġst roma
ìĥī ê¹Ķ
Ġìłĳì¢ħ ìĿĦ
ìķ¼ ìĿĺ
Ġì´¬ìĺģ ë¶ĢìľĦ
ìĭľê°Ħ ìĹĲ
Ġëħ¸ ìĬ¤ë²³
íķĺìĭ¤ ê²ĥ
Ġì£¼ê¸° ê´Ģì§Ģ
Ġë¬´ë£Į ë¡ľ
ł ·
ĠA R
ì§Ģë §Ĳ
ĠM it
Ġë³´ì ¶©
ĠëªħíĻķ ì¹ĺ
ĠíĤ ¤ë
ĵ¨ íĦ°
ìĭľ íĤ¨
ĠìĿ¼ ìĥģ
ĠëĨĴ ìķĺìľ¼ë©°
Ġë¨¹ìĿ´ì ĭłëĭ¤ê³ł
Ġëĭ¹ìĭľ ìĹĲëĬĶ
ĠíĻķì§Ħ ìĿĦ
ĠìĽ¨ ìĬ¤
ĠìĮķ ìĮķ
Ġíĺ Ħíĥģìķ¡
UR D
Ġim mun
ĠReco mendation
h u
ar ia
ĠP V
Ġëĭ¤ ìĭĿ
ĠìĿĮ ëĤŃ
ê°Ĳ ë³Ħ
³´ ëĭ¨
Ġê°ģë§ī íĺķê´ĳìĹ¼ìĥī
Ġë°ľë ŀĢìĬ¤
VD D
Ġë°ĺì ¯¤
Ġì¤ĳìļĶ íķ¨
Ġíĳľ ìĭľ
Ġíĺ¸ìłĦëĲĺ ìĹĪìĿĮ
a qu
p at
§ ĳ
Ġìĥģ ëĮĢ
Ġin h
Ġíķĺì ħĶìķ¼
ìª½ ìĿĺ
ĠM V
ĠíĺĦìŀ¬ ìĿĺ
Ġê±´ê°ķ íķľ
na ver
Ġìķłê²¬ ìļ©
ìĭłê²½ê³Ħ ê²ĢìĤ¬
Ġë¹Ħëªħ ì§Ģë
. ),
³ ´íĸī
°© ìļ¸
Ġìĺ¤ ìĭľëĬĶ
ĠíķĦìļĶ ìĹĲ
Ġë°Ľ ìķĺìľ¼ë©°
ĠìĿ¸ ìłķ
ĠìłĢ ëĭ¨ë°±
ĠìĥĪë ģ¼ë
Ġìŀħìĸĳ íķ¨
ìĥĿìĭĿ ê¸°
ail able
Ġíŀĺëĵ¤ ê²Į
íħ Ķë
ìĪĺìĪł ì°¨íĬ¸
Ġimp ossible
Ġreco very
C G
Ġêµ¬ ëĳĲ
ĠìĿ´ì £¼
Ġë¶Ģ ìłĦ
´ë° Ģ
Ġì°¡ê·¸ë ¦¼
Ġsph er
c king
ĠE F
ĠIV RT
Ġvit c
ĠG lu
íİ ľë
ĠëĪĦ ìĪĺ
Ĥ´ì ĭľê²½
Ġê¸°ê´Ģì ŀĲê·¹
ĠìĪ Łê°ĢëĿ½
¬¼ ìķ½
ì¢ħ ìľ¼ë¡ľ
ìĬ¤ íĨłë
Ġam mon
Ġë¬¼ ê³¼
ĠìĪłë¶Ģ ëĬĶ
ĠìĤ¬ë§Ŀ ê¸°ë¡Ŀ
In ter
ĠìķĬìľ¼ ìĭľê³ł
Ġsel f
ħ Ķë
ìłķ ê¸°
ĠìŀħìĽĲ ìĿĦ
Ġì§ĳ ìĿ´
Ķë ł
Ġevalu ate
Ġplas m
Ġì§ĢëĤ´ ëĭ¤ê°Ģ
Ġíķĺìĭ¤ ê²ĥ
Ġì°¡ ê¸ĭ
ĠëĩĮìĪĺë §īìĹ¼
Ġìŀ¡ìķĦë ĵľë¦¼
ë¯¸ë §Į
S DMA
ì§ ĢìľĦ
Ġì¦Ŀ ê°ķ
Ġme ds
Ġcc lr
ĠìĤ°ì±ħ íķĺëĭ¤ê°Ģ
Ġì¢ħê´´ ìłľê±°
Ġat ov
Ġle th
ĠíĥĪêµ¬ ì¦Ŀ
ĠíĶĮë ŀľ
ocyt oma
ë¯¸ìļ© ê´Ģëł¨ëĤ´ìļ©
ĠëĶ° ëĭĺìĿ´
Ġë³ĢìĹ° ìĿĺ
( <
Į ģ
Ġê²° ìłĪëĵ¤
Ġìŀ¥ ë¶ĦìłĪ
Ġê·¸ë ¦¼ìŀĲ
ĠìĨĮê²¬ ëıĦ
Ġë§ĲìĶĢë ĵľëł¸ìľ¼ë©°
ìĺĪë°© ìĿĺíķĻ
Ġíŀĺëĵ¤ ìĸ´ìĦľ
íĶĦë¡ľ ìĬ¤
Ġë§¤ë ²Ī
ĠìķĪ ìłĢ
Ġê´Ģë¦¬ ë°Ľ
ĠíĺĪìķķ ìĿ´
Ġcon c
Ġcom mun
ĠìĸĳìĦ± ìľ¼ë¡ľ
ì± Ķë²Ħ
Ġë¬´ë¦¬ ê°Ģ
Ġì§ĢëĤľë ²Īë³´ëĭ¤
artman n
ĠP TE
Ġìĭľ ìłĢì
ìĪĺì ¹ĺëıĦ
ł¸ ìĿĦ
³´ì ĭľê³ł
ĠíĿ¥ë¶Ħ íķł
Ġkerat oconjunctivitis
Ġê¶Įíķ´ë ĵľëł¸ìľ¼ëĤĺ
Ġa k
Ġo e
is hing
ĠíļĮ ìĤ¬
Ġì°¨ ì§Ģ
Ġì§Ģ ëĬĶ
ĺìľ¼ë Ĥĺ
Ġìĸ´ëł¤ìĽĢ ìĿ´
ëĨ Ĵ
Ġê³µê²© ìĦ±
ĠìĤ Ĳ
Ġìĸ´ìłľë ıĦ
Ġna ver
ĠEn ter
ĠìĹ°ëĿ½ëĵľë ¦¬
ĠìłĦíĺķ ìłģìĿ¸
ĠíĶ¼ì§Ģìĥ ĺì¢ħ
Ġ ãħĩ
Ġìŀħ ìľ¼ë¡ľ
ĠìĿ¼ ìĸ´ìĦľ
Ġë³´ì ¡´ì
Ġíķµ ìĿĢ
Ġretic ul
ìĦ¸ê·ł ìĦ±
ì¦Ŀê°Ģì ¦Ŀ
Ġ( +,
ĠìķĪ ìłĦ
Ġan imal
Ġëĭ¤ìĿĮ ëĤłë¶ĢíĦ°
di ets
ìĻ¸ ìĹĲ
Ġobserv ed
ìĿ´ ëĭ¤ê°Ģ
ìĭľ ìºĦ
Ġìĥģ íķľì¹ĺ
ìĿ´ì ħ¨ìĿĮ
ì¢ħ ìĿĺ
it ary
om ate
ìĺ¤ ì¤Į
ìŀĦ ìĥģ
Ġìļ´ëıĻ ëŁī
ĺìĸ´ì ļĶ
Ġë¶Ģìľ łë
Ġcar profen
ĠëĿ½íĪ´ë¡ľ ì¦Ī
ĠíĶĦë¡ľíĨł ì½ľ
D ors
Ġê°Ĳ ê³ł
ĠíĻľëł¥ ê°ĲìĨĮ
¦° íĬ¸
Ġíķ¥ ëĬĶëĭ¤ê³ł
Ġë¬´ ê¸°ëł¥
ĠëķĮë¬¸ ìľ¼ë¡ľ
ĠëłĪ íı¬íĭ¸
ĠìĦ¤íĥķ ë¬¼
ĠíĴĢì Ī²
Ġocl acitinib
ĠìĭłìĪĺì §Ħ
I VDD
ê ¾
ëĭ¤ ìĭ¬
ìķ½ ìłĦíĻĶìļĶì²Ń
pl omate
ĠìĬ¬ê°ľê³¨ ìĿĺ
ĠëģĬ ìľ¼ë©´
ĠìŀĪ ê¸°ëĬĶ
ĠìķĪ íķĺëĬĶ
ĠìĽĲ íķĺìĭľë©´
ĠìĦ¤ëªħë ĵľëł¸ìĿĮ
Ġtr imming
Ġìļ© íĺĪìĦ±
Ġê°Ģë£¨ìķ½ ìľ¼ë¡ľ
Ġë¹łë ¦Ħ
Ġamin o
Ġì¹ĺë§¤ ìķ½
ĠRadi ographic
9 3
B r
Ġì§ Ĳ
ĠO E
ëıĻ ìĿ¼
ĠìĤ¼ ì¶ľ
Ġíĺķ íĥľë
ĠìłĦíķ´ì§Īë ¶Īê·łíĺķ
ìĿ´ëĩ¨ ìłľ
ìļĶ ê´Ģ
ing le
Ġpro gn
ĠìĹ¼ì¦Ŀ ë°ĺìĿĳ
Ġìļ© ìłģ
Ġê³łì§Ģ íķ´ëĵľë¦¼
ĠìŀĲê·¹ ìĿ´
Ġìī ¼
Ġdors ally
Ġíķĺë Ĥĺì
ĠíĬ¹ìĿ´ íķľ
¶Ģë ©´íļĮ
ĠPancre as
Ġd iver
ĠíĺĪ íĿĶ
ĠC or
Ġì¦Ŀìĥģ ì§ĢìĨįìĭľ
Ġìłģ ìĸ´ëıĦ
ìĿ¼ë ĵľ
ëĵ± ìĿĦ
ĠëģĿ ë
Ġë¶Ģìĭł ì¢ħëĮĢ
ìĦ¼íĦ° ìĹĲìĦľ
Ġëħ¸ëŀĢë ĪĪ
ophen olate
l ymph
as id
ĠìĺĪìłķ ìĿ´ê³ł
ìķķ ìłľ
Ġë© ¸
íĥĢ ê³ł
Ġê¶Įìľł íĸĪìľ¼ëĤĺ
Ġint o
íĥĢì ĽĮ
Ġì¡´ìŀ¬ íķ¨
Ġìĭ«ìĸ´ íķĺëĬĶ
Ġhern iation
Ĭ ¸ë
Ġg ìĶ©
ac ent
Ġê°Ģ ê³¨
Ġê°ĢëĬ¥ íķĺë©°
ĠíĺĦìŀ¬ ëıĦ
ĠìķħíĻĶ ëĲĺë©´
Ġì¹´íĨ¡ ìĻĦë£Į
ì¹´íĨ¡ ìĻĦë£Į
Ġanis ocytosis
ì°Į ìķĦ
Ġì¹´ëĶĶ ìķħ
, -
Ġday fluid
ĠëįĶ ë¶Ī
Ġst ruc
Ġê·¸ ìłĦìĹĲ
ID EXX
ĠëıĦ ìĻĢë
ĠìĿ´ë¬¼ ìĹĲ
ocarbam ol
ëĤĺë ¯¼
ĠìĤ¬ëŀĮë ¨¹ëĬĶ
cardi ogenic
tur ition
5 7
ĠìŀĲ ê²¬
Ġin app
Ġëª© íĳľë
iz on
Ġìļ´ëıĻ ë¶ĪëĤ´ìĦ±
com ycin
Ġì¹´ëĵľ ê²°ìłľ
ĠìĪĺë©´ì ĭľ
F NA
Ŀ ¼ë¡ľ
ìĺ ¬ëĿ¼
Ġì¹ ¼ìĬ
day fluid
ŀĢ ëĭ¤
Ġë°ĺë Ĥĺ
Ġë´īíķ© íķ¨
Ġì¶ľíĺĪë ¡ľ
Ab dominal
Ġëĭ¨ëĭ¨ íķĺê²Į
Ġtob ra
but o
Ġpalp eral
urel en
l ik
Ġ- /-
ìĭľ ê²łëĭ¤ê³ł
ĠìĤ¬ ìĦľ
Ġre tro
ĠìĿ¼ ìłĦ
Ġë² ķ
ì§Ģì ĺģ
Ġlas ix
Ġë¬¼ìĸ´ë³´ì ĭ¬
5 3
Ġìķ½ ìłĦíĻĶìļĶì²Ń
ĠìĿ´ë²Ī ëĭ¬
íĶĦë¡ľ íĭ´
Ġtelmis artan
m ass
± Ħë¡ľ
ti um
Ġm a
ìĺ Ģìľ¼ëĤĺ
íķĺìĭľë Ĥĺ
ëıĦë ¥¼
Ġê²°ìĦĿ ëĵ¤
Ġê³łìĹĲì½Ķ ìĿĺ
Ġê±°ë¶Ģ íķĺìĭ¬
Ħì °¨
Ġì§Ħíĸī íķĺìĺĢìĬµëĭĪëĭ¤
Ġv s
Ġcoll ar
Ġeod ë¡ľ
ĠëĳĲê»ĺ ëĬĶ
Ġov ary
Ġhyperref lexia
íĺģ ìŀ¬
en oxaparin
ĠìĨĮ ê°Ħì¦Ŀ
ĠìŀĪ ê¸´
Ġìĺ¤ ìĭľê¸°
Ġê²½ íĺĪ
od ic
Ġê³łëł¤ íķ´ë³¼
Ġê³¼ ìŀĲ
íİ ĮíĶĦ
Ġëħ¸ëŀ Ģì
Ġê²°ìŀ¥ ìĹ¼
ĠëĮĢìŀ¥ ìĦ±
Ġwor k
Ġìłķ ì§Ģ
Ġìĥģëĭ´ ìĿĦ
Ġê°ľìĦł ìĭľ
Ġíĺ¹ ìĭľëĤĺ
ĠCC LR
Ġvessel s
Ġíķľë°© ìļ¸
Ġvascular ization
ĠìĺĪíĽĦë ¶ĪëŁī
ĠìĨĮë³Ģì ĸĳ
Ġb as
Ġpo int
ĠíĺĪ ê´Ģë
ĠëĤ´ìĽĲ ìłĦ
Ġë°°ëĩ¨ ëıĦ
ĠìĪ¨ ìĨĮë¦¬ê°Ģ
Ġê²°ìłĪ ìĿ´
ĠìĬ¤ë §Ī
Ġì´Īë ¶ĢíĦ°
ĠëĶĽ ê³ł
ĠìłĦíĻĶëĵľë ¦´
ĠìĨĮ ê³ł
ê²¬ ê°ĳ
íķ´ì §Ģë©´
ĠD ER
Ġì£¼ìĤ¬ íķĺê³ł
ê°Ģì Ĭ
Ġì¸¡ìłķ ìĭľ
Ġê²½êµ¬ ìĪĺìķ¡
ĠìĭľëıĦ íķĺìĺĢìľ¼ëĤĺ
Ġdia ph
íĻľëł¥ ìĿĢ
Ġes ophag
Ġê°Īë ¹Ħë
n er
í Ī¬ë
ħ §
Ġg r
ĠìŀĦ ìĿĺ
ĠíĨł íķľ
ĠPL E
Ġli u
Ġë¶ĢëŁ¬ ì§Ħ
ĠìĪĺíıī ìĿ´ëıĦ
= >
ìĹ ĪëįĶëĭĪ
ĠíĶ ½
ab domen
Ġìĺ¤íĽĦ ìĹĲëĬĶ
íķ´ë³ ´ë
Ġë©°ì¹ł ê°Ħ
Ġvar ia
Ġhypoth yroid
Ġoste oph
Ġê°Ĳìķķ ì²ĺì¹ĺ
Ġë°Ģìĸ´ë Ħ£
Ġë³Ħë ıĦë¡ľ
u ous
į ĺë
on ate
Ġë§Ī ì°¬
ìĺ¤ ìĭ¤
ill ing
Ġê²Ģ íĮĲ
Ġêµ¬ì¶© ìĿĢ
Ġë¬´ íĺ¸íĿ¡
Ġìĭľë ¦°ì§Ģ
ĠíķĢ ìłľê±°
Ġreport ed
ĠìłĢìķĮëŁ¬ ì§ĢìĤ¬ë£Į
° °ì
ë ĸ¨
ëĭ µ
Ġ( #
an comycin
ìª½ ìĿ´
ĠíıĲ ìĤ¬
Ġìĸ¸ ìłľë¶ĢíĦ°
ĠëĬĺë ł¤ìĦľ
Ġê±¸ë ¦¼
Ġë°Ķê¿ ¨
ĠìĬ¤íħĮë¡ľ ìĿ´ëĵľë
amel z
Ġstruc ture
ìĿ´ íķĺë¡ľ
al tal
ĠìĿ¼ ìĸ´ëĤ¬
ê°ľ íĨµ
Ġë³ĳë³Ģ ìĿĺ
Ġì»¤ ì§Ģê±°ëĤĺ
Ġtachion time
ĠíĶ¼ë¶ĢìłĪê°ľ íķĺìĹ¬
E m
Ġh p
Ġpo days
ph en
Ġì¡°ìłľ íķ¨
Ġë¨¹ìĺ Ģëĭ¤ê³ł
Ġíĸ¥ ìłķë§Īìķ½ë¥ĺ
ìĿĢì ķ½
ĠíĺĪìŀ¥ ìķ¡ìĦ±
ĠíĥĿ ë°°
Ġíĩ´ìĽĲ ìĹ¬ë¶Ģ
Ġê¸° ìĿ¸íķľ
Ġ4 9
ĠD Z
ĠíĺĦìŀ¬ ìĥģíĥľ
ë³µ ë¶Ģë°©ìĤ¬ìĦł
Ġìĭľìŀĳ ëĲľ
ĠëıĦ ìĻĢì
Ġpan nic
Ġìĭ¬íķ´ì ¡Įëĭ¤ê³ł
Ġë³ĳëł¥ ìĥģ
ĠìĥĿìĭĿê¸° ìĹĲìĦľ
ĠìĦłìĺĪëıĦ ëĬĶ
ĠìĦ±íĺķ ìĪł
ìłĦë°ĺ ìłģìĿ¸
Ġpot assium
łĪìĬ¤ íħĮë
Ħ íķ´
Ġë ķĢ
ĠC OMMENT
Ġw ood
Ġíĩ´ìĽĲ ìłĦ
Ġsil houette
Ġtran si
Ġì¤ĳ ìĹĲëĬĶ
Ġê²ĢìĤ¬ ë¹Ħ
Ġëª¨ë ¥´ê³ł
©Ķ ê°Ģ
ĠìĬ¤íĬ¸ëłĪìĬ¤ ìĦ±
Ġë¶ĪëŁī íķľ
ë¶Ħë ¹Ħë¬¼
Ġëĭ¹ë¶Ħê°Ħ ìĿĢ
Ġê°Ģì¡± ëĵ¤ê³¼
ĠëıĮìķĦìĺ¤ ì§Ģ
Ġë¶ĢëŁ¬ ì§Ĳ
ìĪłë ¶Ģì
ìĤ¬ë§Ŀ ê¸°ë¡Ŀ
íķĺ íĬ¸ë§Į
Ġìĭł ìłĦ
Ġmet ron
íķ´ì£¼ ìħ¨ìĿĮ
Ġë¹Ħìļ© ìĹĲ
ress ed
Ġíĳ ľë©´
ì¶Ķê°Ģ ìłĳì¢ħ
u do
ĠìŀĪ ìĸ´ë³´
ĠP A
ĠíķŃ ë¬¸ìĹĲ
ron ate
azol amide
íķĺìĺĢ ëĭ¤ê°Ģ
Ġê·¼ë ³¸
ìĦ¼ íĬ¸
Ġwk s
Ġì°ĶëģĶ ì°
Ġc urelen
ìĭ¤ ì§ĪëĤ´
Ġê³µ íı¬
Ġìłģìļ© íķĺê³ł
Ġê±´ê°ķ ìĥģíĥľ
ë°Ķ ìĿ´ì
Ġinc lude
Ġorganism s
ĠëĤ´ìĽĲ íķĺìĺĢìľ¼ë©°
íķ´ ìł¸
Ġë³ĢìľĦ ê°Ģ
Ġg reat
Ġìķ½ íķ¨
Ġì§Ħíĸī ìĹĲ
ìĹĪ ìĿĦëķĮ
Ġíĥ Ģê³ł
ì§Ģì§Ģ ëĬĶ
Ġë°Ķê¿ ĶìĦľ
Ġfem ale
ol ith
ĠìķĪêµ¬ ìĦ¸ìłķ
ĠíĻĶ ìĭĿ
Ġspl int
que ous
Ġê¸°êµ¬ ìĿĺ
Ġìŀħ ëĥĦìĥĪ
el ing
Ġì§Ģë Ĥ¬
Ġìŀ¥ ìķĪìĹĲ
Ġíķľ ì°¸
Ġì½Ķ ìĹĲ
Ġscre ening
Ġdiver tic
ìĭľ ê±°ëĤĺ
ìĿ¼ ìĪĺëıĦ
ìĹĪ ìľ¼ë¯Ģë¡ľ
ĠìľĦ íĻķìŀ¥
ĠíıĲ ì¢ħìĸĳ
Ġê·Ģì ª½
Ġì§Ģì¼ľë ³¸
Ġë§ĪìĿ´ ëĭ¤
H x
ĠìĨĮ ìĿ¸
ĠM ammary
ĠìĿĺì ¦Ŀ
Ġë§¤ ìĭľê°Ħ
Ġì§Ħëĭ¨ ê²ĢìĤ¬
Ġtherap eutic
ĠìŀĪìĿĦ ìĪĺ
ìķĦì¡Į ìĿĮ
ĠíĻĶìŀ¥ìĭ¤ ìĹĲìĦľ
ĠëĮĢìŀ¥ ëĤ´
Ġvet bond
ĠìłĦ íĺĪ
Ġìĭ¬ íķłëķĮ
Ġë°ľ ê¸ī
Ġiv taurine
ĠíĿī ê´Ģë
ot ension
man dibular
6 1
ì¦Ŀ ìĿĢ
Ġìĭľ íĤ´
ĠìĦ¤ìĤ¬ ìĻĢ
Ġê°ķ ëıĦ
Ġê´ĢìłĪìĹ¼ ìĿ´
¤ Ģì
íĽĦ ìĹĲëıĦ
Ġë°© ê´ĳì¢ħ
Ġì£¼ë Ĳľ
íĥĪ ìĪĺ
Ġëĭ´ì ķĦ
ìĹ°ì Ĭµ
Ġfiss ure
a ir
i oma
Ġb elow
Ġë¨¹ ì§ĢìķĬìĿĮ
ĠëĤ´ìĽĲ ìĿ´
Ġëĵ± ëıĦ
ĠF ORL
ê°ķ ìĤ°
ë°°ë ³Ģë
Ġë³´ìĿ¼ ìĭľ
Ġadd ison
Ġìŀ¬ êµĲìłķ
Ġë§İ ìľ¼ìĭ¬
ĠëķĮ ìĹĲëĬĶ
ide ment
ê±´ì ļ°
Ġë°ĺì ºĶ
Ġê³¨ë°ĺ ê°ķ
Ġìłľê±°ë ¥¼
Ġíķ´ìĹ´ ìłľ
Dors ally
łĪìĬ¤íħĮë ¡¤
th e
Ġìĸĳ ìĿĺ
ê¹ Ĭ
ì¹ĺ ê³ł
Ġë¹Ħë ĮĢì
ìķĪìłķ ìłľ
ê²ĥê°Ļ ìĿĮ
5 9
ì¤ĳ ìŀĦ
¡Ŀ ìĭľìºĦ
ĠíĺĪìķ¡ ìĦŀìĿ¸
ĠìĹ°ëĿ½ ì£¼ìĦ¸ìļĶ
ĠìĦ¸íĮĮ ëłīìĭł
´¤ ìĿĦ
Ġamoc la
ì¡¸ë ŀĮ
ĠëįĶë¶Ī ìĸ´
ĠëĤ ¯
ch ea
ĠìŀĦ ìĭľë
Ġë´īíķ© ë¶Ģ
Ġbi ot
g c
ĠìĪĺìĪł íķł
ĠS c
Ġìĭłìŀ¥ ìĿĢ
Ġê´Ģì°°ëĲ ł
ëĭ¤ë ħĶ
Ġíķ¥ ìĬµëĭĪëĭ¤
Ġìŀħêµ¬ ìĹĲ
Ġsept ember
Ġmetronid azol
Ġumbl icus
ĠìļĶ ë¹Ħì¤ĳ
ĠëĤĺ ìĿĮ
Ġë¯¸ìļ© ê´Ģëł¨ëĤ´ìļ©
ell ular
ĠìĤ¬íķŃ ìĹĨìĿĮ
ĠíĿ¥ë¶Ħ íķ´ìĦľ
Ġì»¤ ì¡Į
ĠíĺĪë³Ģ ìĿĢ
ĠìŀĦë ³´ì
Ġf lex
ic ular
Ġì¶Ķ ê°ĦíĮĲ
Ġex t
ĠìĭľëıĦ íķ´
ĠìĺĪìłĦ ìĹĲëıĦ
br idement
Ġë°Ķìģ ĺì
) +
o on
ë ¦¼
ĠìĪĺìĪł ëıĦ
Ġë§Ī íĬ¸
Ġìłĳì¢ħ íķ¨
Ġë³´ì Ĭµ
ĠëĤ´ì ¶ĶëŁ
Ġtr ig
ĠëĽ°ìĸ ´ë
ĠëĦ¤ì¸ ĦëŁ
ìĿ´ ëĭ¤
Ġc sa
Ġëĵ± ë¡Ŀ
ĠìŀĪëĬĶ ëĵ¯
ter us
Ġë§ī íĺĢìĦľ
ħ¸ ìŀ¥
Ġìŀĳëħ Ħë¶ĢíĦ°
g ìĶ©
ê¸Ī ì§Ģ
rop ri
Ġsil imarin
ĠëĤ´ê°ķ ìĿĺ
Ġmic turition
u ven
ķ ķ
Ġt ail
ìŀĲ ë
Ġìĺ¤ ìĹ¼ë
ĠìĽĲ ì¹ĺìķĬ
Ġìĭľìŀĳ íķł
ĠëĤ¨ ê±´ìļ°
Ġë¶Ģìĸ ´ìĦľ
R OM
Ġa a
ê´ Ģìľ¼ë¡ľ
Ġìĭ¬ ê·¼ë
ur ing
ê°Ħ ê·ł
Ġw e
ìĽ Ģë
p ical
r ib
ĠìĿ´ ê°ľë
Ġì¹ĺë£Į ë¡ľ
Ġëª» íķľëĭ¤ê³ł
Ġì§ĳ ìķŀ
Ġê¶Į íĺģìŀ¬
ĠAb normal
Ġì§Ģìĸ´ ëĭ¬ëĿ¼ê³ł
Ġì»´í ĵ¨íĦ°
ĠìłĦ ì§Ģë¥¼
min ist
Ġëħ¸ëŀ Ĺê²Į
ĠìłĲìĭ¬ ëķĮ
Ġë¬´ì ĸ¸
ĠìľĦ íĺĳ
ìĸ´ì ¡Į
Ġìļ° ëĬĶ
ê°ĢëĬ¥ìĦ± ìĿĢ
ĠNSAID s
Ġprolif eration
g lob
Ħ ¼íĦ°
Ġê° Ģì§Ģë
ĠìĪĺ íĺĪë
ĠE N
Ġë°ĺ íĿĶ
ëĭ¤ëĭĪ ëĬĶ
Ġìŀ¬ê²Ģì ĺĪìłķ
Ġë¶Īê·ľì¹Ļ ìĦ±
ĠìłĪëļĿ ê±°ë¦¼
Ġì¤¬ ëĬĶëį°
Ġposs ible
is c
ĠìĹĲ íİĺëĵľë¦°
Ġcc v
dol ent
Ġì´¬ìĺģ ìĿĦ
Ġì²ĺë°©ë°Ľ ìķĦìĦľ
ìľĦì £¼ë¡ľ
Ġê±´ì¡° íķľ
Ġì§Ģìĭľë ĲĺëĬĶ
ĠìŀĶë ĩ¨
Ġë³´ìľł ìĹ¬ë¶Ģ
ë° ĸìĹĲ
ĠìĺĪìłķ ìĿ´ëĿ¼
ĠìĿ´ìĥģ ì¦Ŀìĥģ
ì¼ ĵ
ĠìĨĮìĸĳê°Ĳ ìľ¼ë¡ľ
Ġìĥģíĥľë ´ĲìĦľ
Ġoste otomy
ĠìĬĪ ê°Ģ
Ġleth argy
Ġë° ¤ë
ĠìĭĿ ë¶Ħì¦Ŀ
Ġìŀ¬ ìŀħìĽĲ
Ġì¹ ¼ëĿ¼
Ġëĭ¤ ëĭĮ
ĠìłĦë ³´ëĭ¤ëĬĶ
Ģì§ Ħëĵľê¸°
ĠëĪĪ ìķŀ
ĠìĹ°ëĿ½ ì£¼ìĭ¤
ĠìĿĺë¢° íķĺìĭł
ĠìĹ¬ë ¦
orph one
ran i
ìľłë ŀĺ
ê°Ģë£¨ ìķ½
Ġê´Ģë¦¬ì¤ĳ ìĿ¸
Ġë¼Ī ê°Ģ
ĠëŃī ì³Ĳ
Ġë¶ķëĮĢì ²ĺì¹ĺ
Ġë³´ ìĿ´ë©´ìĦľ
ĠìĪĺ ê°Ģ
Ġë°° ìłľë¥¼
Ġê³¼ íĿ¥ë¶Ħ
ĠíĨł íķĺëĬĶ
ĠìłĢë ¥ĺë
cor neal
Ġê°ľìĦłëĲĺ ìĹĪìľ¼ë©°
ë©´ ìĹŃ
uls ion
rip t
Ġcommun ication
c PL
³ ´ìŀĲê³ł
Ġs erv
ĠíķĦìļĶ íķĺê³ł
ê°Ĳ ê°ģ
ªħ ì§Ħ
Ġë°©ê´ĳ ìĿĢ
Ġíİ¸ ìĿ´ëĿ¼ê³ł
Ġì§Ħëĭ¨ ìĿ´
Ġle iomy
Ġì§Ģì¼ľë ´Ĳ
Ġìļ©ëŁī ìĿĢ
Ġpar al
ìĪĺìķ¡ ì²ĺì¹ĺ
ĠFI C
ıĲ ìĥī
íĻ ī
ìľ¼ë¡ľ ë§Į
Ġr j
Ġíķľë²Ī ìĿĢ
Ġê¶Į íķ¨
Ġbl unt
Ġmod er
ĠíĽĦìĹ½ ìľ¼ë¡ľ
ĠíĿ¡ ìĪĺë
ìĸµìłľ ìłľ
ĠìĦ¸íı¬íķĻ ê²ĢìĤ¬
Ġë§Įì§Ģ ëĬĶ
ĠíĽĦë³µ ê°ķ
Ġ1 38
Ġìĺ¤ íĶ
ĠìĹĨìĿĮ ìĿĦ
Ġíķľ ìķĮ
ĠëĤĺìĺ ¬ë
ĠìĤ¬ë§Ŀ íķł
ëĦ Ī
Ġrem od
Ġhist opath
pos ition
ĠíĶ¼ì§Ģë ĤŃì¢ħ
ĠìĿ¸ íķ´ìĦľ
ì¦Ŀìĥģ ìľ¼ë¡ľ
ĠìķĪìķ½ ë§Į
Ġì¶© ëŀĢ
ê°ĢëĬ¥ìĦ± ëıĦ
ëĭŃ ê³łê¸°
íļ¨ ìĨĮ
Ĥ ¼
Ġf ron
Ġg rowth
Ġìľ ¼ë
Ġì§Ģì ķĮëĶĶìķĦ
ĠìĿ´ë ©Ķ
Ġìŀ¬ì§Ħ íķł
Ġëĭ¨ ê³Ħë¡ľ
Ġê³Ħíļį ìĿ´ëĤĺ
Ġê¹¨ ìĦľ
ìĤ¬ìĿ´ íģ´ë¦°
Ġ: ,
Ġo t
ĠëĴ ¤ë
ê²ĥ ë§Į
ĠíĥĪêµ¬ ë¡ľ
ĠíĥĢì ķ¡
ĠìļĶê´Ģ ìĿĺ
ì¹ĺë ¡ľ
Ġë§ī íŀĮ
ìº ĳ
Ġì£¼ìĤ¬ë§ŀ ê³ł
Ġadj acent
izon tal
ì¤ĳ ìĿ¸
Ġ5 2
Ġweek ly
clav ulanic
es ity
¹Ħë ıħ
íķ´ì£¼ ìĭ¤ê²ĥ
Ġê¸ģ ê¸°
ĠìķĪìłķìłģ ìĿ´ë©°
Ġê°Īìĥī ëĩ¨
ĠSp inal
S MS
s ion
Ġw ed
Ġw arm
Ł¬ ìĽĢ
Ġê³¨ ìĪĺì
ĠëĤ´ë Ĥ´
Ġë¬¼ë §Ī
Ġì§ģê²½ ìĿĺ
Ġind is
£ ê²Į
Ġìĸĳì¸¡ ìĭłìŀ¥
Ġë§Īì·¨ ìĭľ
ĠìķħíĻĶ ë¡ľ
Ġë¬¸ìŀĲ ë¡ľ
Ġì°¾ ìķĦë
Ġë¬¼ë¦¬ ìłģ
ê³łìłķ ìĪł
Ġê²Ģìłķ ìĥī
8 3
ĠR ef
Ġê³ł íĨµ
Ġìłĳì¢ħ íĽĦ
ĠìĦ± ìĪĻ
Ġì¢ĭìķĦ ì§Ģë©´
Ĭ¤ íĳ¼
ĠíĻķìŀ¥ ìłľ
ĠíĤ¤ ìļ°ë
ëĵľëł¤ ìļĶ
ì¹ľ êµ¬
Ġdr ib
ìĻĶ ìĿĮ
Ġë³ĦëıĦ ìĿĺ
Ġë²¤ íĨłë
5 1
Ġ \
ĺì §Ħ
ìĿĦ ìĪĺ
íķ´ ìł¸ìĦľ
om al
ë¬¸ ì§Ħ
ë¶Ģì ĻĢ
Ġgra vity
Ġclopid o
ĵ¤ë ©´
Ġìĭłìļ° ìĿĺ
íķĺìĺĢ ëĭ¤ê³ł
ĠBid days
aqu one
íİľë įĶ
C re
¹ Ħë¡ľ
Ġê²ĥ ìĿ´ëĿ¼
Ġëĭ¤ëŁī ìĹĲ
Ġpm ol
po on
Ġê·Ģì§ Ģì
ê°ľë ħ¸ìŀ¥
ìĦľë ¶ĢíĦ°
Ġê³łë¦Ħ ìĿ´
ai y
Ġtime s
Łī ìĿĺ
Ġê²½ ê³Ħë
ĠíĬ¹ ì§ķ
Ġìŀ¬ì§Ħ ìĿĢ
Ġë¶Ģì¢ħ ê³¼
Ġab ove
ĠìŀĲê¶ģ ê³¼
íĤ¤ ì§Ģ
Ġíĺ¸íĿ¡ê³¤ëŀĢ ìĿ´
Ġob j
ĠëıĮìķĦëĭ¤ëĭĪ ëĬĶ
ĠìĭĿëıĦë Ĥ´
Ġc ome
Ġìĥģëĭ´ íķľ
Ġë³¸ ìĿ¸
ĠëĲĺ ìĹĪìĿĦ
Ġdex tran
Ġunrem arkable
ë ¸Įë
Ġë°ľ ìĿĢ
ĠA t
ì²´ ìĹĲ
Ġë¬¼ ê·¸ë¦ĩ
ĠëĲ ¬
Ġê´ľì°® ìľ¼ëĤĺ
Ġì§Ħëĭ¨ ëĲ¨
(+ ++
Ġhypo albuminemia
ĠíĹ¥ìĭľëĶĺì ĨĮëıħ
Ġíģ¬ê¸°ë ³ĢíĻĶ
D X
ìĪ ¨
Ġo val
ë§Į íģ¼
Ġì§Ħë£Į ë³´ì
Ġì¤Ħ ìŀĦ
ĠìĤ°ìĨĮ l
Ġë¬´ë ĩ¨
Ġcardi omyopathy
Ġêµ¬ì¡°ë ¬¼ë
Ġìļ¸ ê³ł
Ġindex ëĬĶ
ì³ ¤
ipro fen
ŀ¨ íĶĦ
ìł ĦíĽĦ
ĠP T
Ġë³µìļ© ìĹĲ
Ġcon gestion
Ġë¯¸ìļ© ìĿĦ
Ġì·¨ íķ¨
Ģì§Ī íĻĺìľ¼ë¡ľ
ê±¸ ìĿ´
ì¡°ì ĺģ
d ecreased
Ġë¨¹ ìĿĢì§Ģ
ĠìĤ°ìĨĮ L
Ġìĺģ êµ¬ì¹ĺ
ë°° ìĭĿ
ĠìķĦíĮĮ íķĺì§Ģ
ĠPL AN
ĠìłĢì Ĥ°ìĨĮ
Ġìķ¡ ìĻĢë¶Ģ
Ġíĺ¸ìĨĮ ëĬĶ
Ġê·¸ëķĮ ëĬĶ
Dog s
Ġlump ectomy
Ġm i
ìĸ ¸
Ġìĺ¤ ìħ¨ëĭ¤ê³ł
ĠD E
Ġì°¨ íĽĦìĹĲ
ĠK Br
ore d
ĠìĿ¸ìĬĲë¦° ìĿĢ
ë°Ķ ë¡ľ
ĺ íĬ¸
Ġl ns
ĠìĺĪìłķ ìĿ´ëĿ¼ê³ł
Ġë§İ ëĭ¤ê³ł
£¨ ìħ
ĶĶ ìĬ¨
Ġlef lunomide
ë°¥ ìĿĦ
Ġclind a
ĠìŀĲë£Į íı¬íķ¨
Ġê²°ì°° íķľ
Ġë¹Ħë§Į ìĦ¸íı¬
Ġkn uckling
ıĻ ìĿĺìĦľ
íĶ ½
Ġê³¼ ëĭ¤
Ġê·¸ëŁ¬ë ©´
Ġëĭ¤ë¥¸ë ³ĳìĽĲ
Ġë¬´ì ¦Ŀìĥģ
Ġíķľë²Īë §Į
ĲĺëĬĶ ì§Ģ
íĢ ´ë
Ġìľµ íķ´
Ġíķ ĳ
ìłķ ëŁī
op ress
ĠF amo
Ġì§Ģ íĺĪë
Ġde bridement
Ġlymph angiectasia
Ġìŀ¥ìĹ¼ ìľ¼ë¡ľ
Ġfem or
con azole
ĠìĻĢë ³´ëĭĪ
Ġì§ĵë¬´ë ¦Ħ
ìķ½ ìĿ´
³Ģ ê²½
Ġre t
Ġìĥģíĥľ ì²´íģ¬
Ġneutrophil s
Ġê°Ħì¢ħ ëĮĢ
d eposit
ĠP an
ĠF URD
Ġë¯¸ ìłķ
Ġëª© ìª½
Ġíĺ¹ ìĭľë
ĠìĿ´ë²Ī ìĹĶ
ĠìĹŃë¥ ĺëŁī
. /
Ġs ource
Ġì§ ķ
Ġì¹ ¼
ĠìłĦíĻĶ ëĵľë¦¼
ë²½ ìĿĺ
ĠIn t
Ġìķ¡ ì²´ê°Ģ
ëĨį ëıĦ
Ġinc luding
Ġê·¹ íŀĪ
Ġamoc ra
Ġcry otherapy
d ox
Ġëĭ ´ë
ìĭľ ê°Ħë
ĠìĥģìĬ¹ íķľ
ëĵ± ìĿ´
Ġë°ľìĤ¬ ìĺĪìłķ
Ġ15 6
tens ive
Ġë§Ĳë ł¤
Ġì¤ĳìķĻ ë¶Ģ
Ġë¶Ħì £¼
ĠìŀĲ ê°Ģì
Ġìłģìļ© íķĺìĹ¬
ª¨ íĥĢë
ĠìķĦìĿ´ ìĿĺ
ĠìŀĪìľ¼ ìĭľë©´
Ġmedi as
Ġíķĺìĭľë Ĥĺ
Ġmorph one
íĶĦëĿ¼ ì¡¸
ìĬ¤íĬ¸ëłĪ ìĬ¤
Ġfen bendazole
bet es
ê¸° ìļ´
ìĿ¼ ìĪĺ
Ġìĭ¬ ì¢ħëĮĢ
Ġêµ¬ ìĹŃ
Ġ+ +,
ell y
Ġë¹ĦíĽĦ ëĬĶ
ert or
ĠLN s
ĠëĦ¤ë¸ĶëĿ¼ìĿ´ ìł¸
Ġìłķìŀ¬ íķĺ
ħ ĺ
Ġg ross
Ġìĺ¤ ìĭ¤ëķĮ
ul tiple
Ġì§Ħíĸī íķ´ìķ¼
ëĲĺ ê¸°
Ġì¹ĺì ļ
Ġì½Ķ ê³¨ìĿ´
Ġper icardi
Ġì»¤ ì§Ģë©´
ĠìĦ¸íı¬ ëĬĶ
ĠìĨĮìĹ¼ ì§ĦíĨµìłľ
Ġìĸĺ ê¸°ë
Ġê´ĢìłĪë ³´ì¡°ìłľ
Ġìĥģëĭ´ë Ĳľ
ĠíĿ¥ ë¶
ĠìŀĲìľł ê¸īìĭĿ
ë°°ë³Ģë °°ëĩ¨
re ous
Ġo ctober
Ġìķ½ íĪ¬ìķ½
Ġe qu
ĠìĿ¼ ìłķëıĦ
ĠíķĦìļĶ íķĺìĹ¬
ìĪĺì ĦłìĥĿëĭĺ
Ġë°Ķ ëĬĺ
Ġìĭ¬ìŀ¥ìķ½ ìĿĦ
30 0
ĠìĹ´ ê°ľ
ì§Īë ¡ľ
Ġê¹ĢìĦ± ìĪĺ
ĠAmp icillin
ĠN V
Ġê°ĲìĨĮ ìĸĳìĥģ
Ġì§Ħë£Į ëĬĶ
ĠìłĪ ìłľë
ant ron
Ġëį°ëł¤ ê°Ģìĭ¤
ple en
ĠìĿĺë¢°ì ĽĲìĹĲìĦľ
Ġì²łìłĢ íķľ
Ġìĥīê¹Ķ ìĿ´
Ġcd m
dis charge
chym al
ĠíĿīê´Ģë °°ìķ¡
ropri ate
ë ķĢ
Ġc uff
ĠëĤ łë
ic king
ĠìķĪë §ŀ
Ġëį §
Ġë°Ľ ê¸°
ĠëĤ¨ íİ¸ë
Ġëĭ¨ ìĪľë
ĠìłķíĻķ íķĺì§Ģ
Ġintes tines
ëĤłë Ŀ½
Ġíı¬íĶ¼ ìĨĮëıħ
ĠíŀĪ ìĬ¤íĨłë
ê»ĺì ļĶ
ĺìľł ì§Ģ
ĠC DM
ĠH x
Ġìĭłìŀ¥ ê³¼
Ġë§Ĳ íĭ°ì¦Ī
ì°¨ ìłģìĿ¸
Ġur ination
ĭĿ ëıĦ
Ġìĵ ¸
Ġtub eros
Ġëĵ±ìª½ ìľ¼ë¡ľ
Ġê¹Ģ ìłķ
ëĭĪë Ŀ¼ë¯¼
ĠCefotax im
ĠìĿ¼ë¶Ģë Ł¬
Ġec g
: :
F amotidine
¦ ´ë
Ġë§Ī ìĿ¼ëĵľ
ĠëĶ ĶëĶĶ
Ġst aph
Ġì¹ĺì ķ½
ĠëĩĮ ì²Ļ
ĠêµŃìĨĮ ìłģìľ¼ë¡ľ
ìŀ¥ ìĹ¼
ĠíĽĦ ì§Ģì
ĠìĥĿ ê¸
ĠìĿ¸ ìĬĲë
di vid
Ġë¹Ħë ĮĢë
Ġê²°ìĦĿ ìľ¼ë¡ľ
ê°Ģì§Ģ ê³ł
Ġshap e
omple te
Ķëł īìĭł
½ §ë¬¼
Ġ ==
ìĿ´ ëĭ¨
or ic
Ġì§Ħíĸī íķĺìĭ¤
ĠL as
Ġëĭ¨ ê¸°ê°Ħ
ĠëıĻìĿ¼ íķ¨
Ġë°ķ ë¦¬
Ġëĭ´ëĭ¹ ìĦłìĥĿëĭĺ
Ġíķĺìĭľ ëĬĶëį°
b iprofen
Ġë° Ģê³ł
Ġë°ľ ì§Ħ
Ġìŀħ ê¸Ī
ĠR J
im in
Ġìĺ¤ë ¥¸
Ġcl ipping
Ġmass ê°Ģ
Ġas piration
Ġìŀĺì ŀł
ĠPR OM
Ġìĺ¨ë ª¸
ìĤ´ë ł¹
ĠíķĺëĤ ĺëıĦ
ª¨íĥĢë ¶Ģ
°ë £¨
Ħë ķĮ
Ġc f
Ġë¯¸ ìĥĿ
ĠìķĪëĤ ¨
Ġexam ined
ĠìĤ¬ìĿ´ ë¡ľ
ĠìłĦìĭł ìĹ¼ì¦Ŀ
Ġê¸°ê´ Ģì§Ģì
Ġê¹Ģ ê°ķìĤ°
Ġamox i
Ġê³łìłķ ìĪł
cr p
ë¶Īë Łī
ĠìķĪëĤ´ì ĻĦë£Į
ê´ ľì°®
Ġì¤ĳ ìŀĲê¶ģ
ì§Ħ ê²ĥ
Ġê°Ħ ìĭ¤ì§ĪëĤ´
Ġìĭľ íĤ¨
ĠìĿ´ì Ĭ¹
ren omegaly
ĠìķĪì¢ĭ ìķĺìĿĮ
ĠíĤ¤ ìĽĢ
ĠìĨĮë¦¬ ëĬĶ
Ġì¢ħë£Į íķ¨
ĠìłĦíĻĺ íķĺìĹ¬
ĠìĥĪë¡ľ ìĿ´
mezin time
Ġtuberos ity
T ìĶ©
Ġc op
ĠíĻ Īë
Ġì²ĺë°© íķĺê¸°ë¡ľ
ìĥģíĥľ ìĹĲìĦľ
ĠëįĶ ëª¨
Ġëĭ¹ ê²¨ìĦľ
ìľłë ıĻ
Ġsacro iliac
ĵ £
Ġa ffected
ĠP ath
Ġê²ĥ ìĿ´ë©°
ìĺ¤ ìĭľë©´
ĠëĤĺ ê°ĢìĦľ
Ġë°ĺ ê²½
ĠìĤ¼ ê²¹ìĤ´
ĠìķĬëĬĶ ì§Ģ
ĠíĶĦë¡ľ íİľëįĶ
ĠíĺĪê´Ģ ìĿ´
Ġmuc osal
Ġë§¡ ê²¼
Ġë²½ ìĿĺ
ĠìĪĺìĪł íķĺê³ł
ì§Ģë ª»
ë°Ľ ìĿĢ
rop athy
ĠìĿ´ë¬¼ ì§Ī
po quel
ĠíĴ Ģìĸ´ë
ura tive
Ġë¶Ģìľłë ¬¼
L L
Ġs qu
ì¦Ŀ íĽĦêµ°
Ġë°ľ ìĹĲ
ìĿ´ë ¯¼ìŀ¬ìĦłìĥĿëĭĺ
Ġëª© ëĴ¤
ìĹ½ ìĿĺ
Ġlymph ocytes
ĠìķĪëĤ´ë °Ľ
Ġì§§ ìķĦ
Ġhypo kalemia
Ġë³´ë¥ĺ íķĺê³ł
ê²ĥê°Ļ ëĭ¤ê³ł
Ġver tebral
Ġe ct
Ġê²ĢìĤ¬ ëĤĺ
ĠëĤĺ ìĿĦ
Ġtr imethoprim
ĵ¯ íķľ
íķ´ë ´Ĳìķ¼
ĠìĬ¬ëŁ¬ì§Ģ ëĬĶ
olact one
ĠTh is
Ġë³´íĺ¸ìŀĲë¶Ħë ıĦ
ĠëłĪëĤłìĸ´ë ĵľë°´ìĬ¤ëĵľ
ê°Ģì§ Ģë¡ľ
ë³ Ģìľ¼ë¡ľ
Ġì¤ĳ ìĿ´ëĿ¼
ìĿ´ë ĶĶ
Ġinter mittent
ê°ĲìĹ¼ ìĦ±
ĠìĤ¬ìĿ´íĨł íı¬ìĿ¸íĬ¸
Ġì²´ë¦¬ ìķĦìĿ´
Ġsten osis
b ur
ĳ ĺëłĪ
Ġë³ ¸ë
ĠìĿ´ì £¼ë
Ġìĭ¬ìŀ¥ ìĿĢ
Ġfor te
vi r
Ġê³Ħ ìĭľê³ł
Ġq u
Ġus ed
otax ime
Ġë§¥ ë°ķ
ĠíĻķìĭ¤ íķĺì§Ģ
Ġë¹ĦíĭĢ ê±°ë¦¬ëĬĶ
²Ħë ¦¼
ëĭ¤ëħ Ģì
Ġ5 1
Ġë¶Ģì¢ħ ìľ¼ë¡ľ
Ġëģ ĵ
ĠG rade
ĠìĦł íļĮ
Ġêµ µ
ìķĦí ĨłíĶ¼
Ġë¶Ļ ìĸ´
Ġëľ¨ ì§Ģ
Ġspirolact one
íļĮ ìĦ±
Ġê°ľ ìĽĶ
Ġpds ëĬĶ
Ķë ĵ±
ê¸°ì ºĶ
ĠìķĮ ê°±
íĶĦë ¦°
Ġì¢ĮìķĪ ìĹĲ
Ġìĺ¤ìĭ¤ ê²ĥ
Ġpath ology
Ġweak ness
ĠíĺĢë ¥¼
ĠëĪĪêº¼ íĴĢ
Ġì°ĶëģĶì° ĶëģĶ
Ġë ¦¬ë
ëĬĶ ëĵ¯
ĠìĦ ¼
Ġo ur
Ġì§Ħíĸī íķĺë©°
ĠìĺĪë°© ìĿĦ
ĠìĺĪìķ½ ë³Ģê²½
ĠK etamine
Ġas p
ĠëĳĲë ĵľë
ì¸ Ħ
ëĪĪ ìĿ´
ì£¼ìĤ¬ ê¸°
Ġê°ĢìĬ ¤ë¡ľ
ĠìĭľìłĲ ìĹĲìĦľ
Ġë³µë°° ìĥģìĹĲìĦľ
ĨĴ ìĿ´
Ġscra ping
b ar
Ġë°© ìļ¸ë
ĠìĿ´ë ¬¼ë
ëĤ ®
Ġst re
íĮ Ķ
Ġëĵľë ł¤
Ġpol ishing
Ġëĭµ ë³Ģ
ĠChl orpheniramine
ŀĦí İĺ
n r
on am
Ġb o
Ġs ick
Ġre ce
ox antron
Ġë³´ë¥ĺ íķ¨
Ġëĭ¹ìĿ¼ ìĿ´ëĤĺ
ĠìĤ¬ëĿ¼ ì¡Į
Ġëħ¸ì¶ľ ìĭľíĤ´
Ġìº£ íĥĢìĽĮ
ĠìĦ¸ë° Ģ
Ġesome prazole
Ġfemor is
4 9
al ance
Ġìłķ ì²´ë
Ġl os
Ġìĭľ ìĿ¼
Ġê³ł ë°ĢëıĦ
Ġíİ¸ ìĿ´ìĹĪìĿĮ
Ġë³µìļ© ìĭľ
Ġê´ľì°® ìĿĢì§Ģ
ë°° ì§Ģ
ĠìĤ¬ì§Ħ ìĥģ
ĠCh ol
ĠëĨĢë Ŀ¼ëĬĶ
Ġì¤¬ ìĿĮ
Ġproced ures
Ġfasc ia
Ġh ot
Ġíĥ Ħ
ĠëĪĪ ìĹĲìĦľ
Ġê¹ Ģìľ
ĠíĺĪìķ¡ê²ĢìĤ¬ ìĭľ
Ġìłľê±° íķł
ê³µ ê¸°
Ġê¸°ê´Ģ ìĿĺ
ìĦ± ì¢ħ
ĠO intment
Ġst ruct
Ġë¶ķ ëĮĢë
ĠìĿ¸ê³Ħ íķ´ìķ¼
ìĭľìĹĲ ë§Į
Ġë²½ ìĹĲ
ĠëĳĲëĵľëŁ¬ ì§Ĳ
ì¯¤ ìĹĲ
a resis
re qu
Ġw ire
ìĭľë Ł½
Ġì§ĪíĻĺ ìĿĢ
Ġradi ograph
lamm atory
ĠìĻĦìłĦ íķľ
m ine
ì¶© ë¶Ħ
Ġìłĳì¢ħ ê¸°ë¡Ŀ
Ġì´¬ìĺģ ìĿĢ
ord ae
Ġperi anal
ìĿ¸ê³Ħ íķ´ìķ¼
ëª¨ë į
Ġb asal
Ġì²ĺë°© ëĵľë¦¼
Ġê¸Ī ì£¼
Ġra re
Ġad minist
Ġìķłë ĶĶìĬ¨
omy el
ĵ¤ë ¶Ģë
Ġêµ¬ì¶©ìłľ ëĬĶ
Ġíķ¸ëĵľíĶ¼ëĶ© ìĭľ
Ġì°į ê³ł
ĠíķĺìĿ´ íĶĦë¡ľíĭ´
íķĺë£¨ ìĹĲ
gress ive
Ġì§Ģìĸ´ì£¼ ìĦ¸ìļĶ
w w
ìĹ Ħ
Ġf ungal
ê²ĢìĤ¬ ìĹĲìĦľ
Ġì£¼ ìĹĲ
ĠìĿ´ë ¥¼
ĠD ep
Ġíķľ ìª½ìľ¼ë¡ľ
ĠëĤĺ ê°Ģë©´
ì¼ ĦëĦ¬
ud y
ĠíĸīëıĻ ìĿĢ
ëıĻë¬¼ë³ĳìĽĲ ìĹĲ
Ġë¹Ħë¹Ħ ëĬĶ
Ġt ak
Ġìķ½ íĻĶ
ê¼ Ĳ
ĠìĦłìĥĿëĭĺ ê»ĺìĦľ
Ġê°Ģëł¤ìĽĮ íķĺê³ł
Ġë§¡ ìķĦì£¼
Ġì§Īë ¬¸ìĤ¬íķŃ
on as
Ġê°Ģë ¡ľ
Ġìĺ¤ë ©´ìĦľ
Ġê°Ģì ħ¨ìĿĮ
ver tebral
ĠìłĦìĭł ìłģìľ¼ë¡ľ
Ġìŀ¡ ê¸°ë¡ľ
cop y
Ġocc asion
ĠëĨĢ ìĿ´
Ġë©Īì¶ ¤
tre onam
ë £¨
Ġìķ Įì§Ģ
Ġê°Ĳ ê°ģ
Ġëª» íķĺìĹ¬
ëª¨ ëĭĿ
Ġê´Ģ ê³¨
ĠíķĺëĬĶ ê²Į
ĠíĶ¼ë¶Ģì ŀ¬ì§Ħ
Ġëħ¸ ëĬĶ
Ġêµ¬íĨłì¦Ŀìĥģ ìĿ´
Ġì£¼ìĭĿ ìºĶ
Ġê·ľ ì¹Ļ
Ġëª©íĳľë ¡ľ
Ġë°ĺëĤĺ ìłĪ
ĠíĽĦ íıĲ
is ti
ìĿ´ë Ĥ´
ĠC K
Ġ5 6
Ġìłĳì¢ħ ìĭľ
ê°ģ ì§Ī
ĠíļĮë³µ ìĿ´
Ġray ìĥģ
Ġì§Ģê°Ħ ìĬµì§Ħ
Ġë§¡ ê²¨ë
Ġê²¨ëĵľë ŀĳ
Īĺ ìĹ°
ich ia
ŀĦíİĺ ìĿ´íĬ¸
Ġë µĻ
ìĹ Īë
Ġt cc
Ġê²ĢìĤ¬ ê²°
Ġ5 8
íĥģ ìĭ¬
Ġhyd rometra
Ġì¤ĳìļĶ ìĦ±
ĠëıĦë §Ŀ
ĠìĨĮìĭ¤ëĲĺ ìĹĪìľ¼ëĤĺ
Ġì²¨ê°Ģ ìłľ
ìĭ¶ ìĸ´
ĠìŀĦíĮĮ ìłĪ
ĠìĪĺì ĽĲ
Ġìĺ¤ íĽĦë
il in
ê°Ĳ ìĿ´
Ġì°¨ ìĿ´ëĬĶ
Ġê³łëł¤ íĸĪìĿĦ
¥´ë ©°
Ġê·ĢìĦ¸ìłķ ìłľ
Ġast altal
ĠìĺĪë¯¼ íķ¨
Ġìĭ¸ ìĿ´
Ġëª¨ë¥´ ê²ł
ich en
Ġclav ulanate
Ġìī¬ ê³ł
Ġë²Į ìĸ´ì§Ĳ
Ġìĭľê°Ħë Ĳĺì
ĠEN C
Ġb c
Ġh owever
Ġíķĺ ê¸°ëıĦ
Ġë°ĺë³µ ëĲ¨
Ġmal ase
ëĪĪ ìĿĦ
Ġì§Ģì¼ľë³´ì ĭľ
ĠìķħìĦ± ëıĦ
ĠìĹ°êµ¬ ê°ľëħ¸ìŀ¥
Ġì§ĢëĥĪ ìĸ´ìļĶ
Ĳ ĺìĸ´ìĦľ
ĠìĥĿ ìĦł
Ġde generative
Ġìĭłê²½ ìĵ°
ĠìĨĮìĸĳê°Ĳ ëıĦ
Ġíķ´ì£¼ ìĭľëĬĶ
ĠìĽĢì§ģ ìĿ´ë
ĠíĻľë°ľ íķľ
¡°ì ¦Ŀìĥģ
Ġtransf er
ĠëıĻê±°ë¬ ĺë
Ġëĵ¤ëĿ½ ëĤłëĿ½
Ġìŀ¬ë£Į ë¹Ħ
ëª¨ëį ¸ë§ģ
Ġl umen
ĠìĭĿìļķ ìłķìĥģ
ĠìĿ´ ìłľëĬĶ
íĻķ ìĭ¤
Ġê³¼ ìĤ°íĻĶ
ĠìŀĲê¶ģ ê²½
Ġë°©ë²ķ ìĿ´
Ġì¢Įìĭ¬ ì¢ħëĮĢ
ëĤĺì ¿ł
Ġë¹Ħê°ķ ëĤ´
Ġmelan oma
Ġê¹Ģìłķ ëĤ¨
d ob
¶Ģ íĥģ
ìĪ łë¡ľ
ĠíĽĦ ìľł
ĠìķĬ ìķĺëįĺ
Ġì¢ħ ìĿ¼
Ġê³ł ëĭ¨ë°±
Ġì§ĢìĨį ì¤ĳ
Ġcef o
Ġgra m
ov able
Ġë¨ ¸ë
ĠìķĪê³¼ ê²ĢìĤ¬
Ġmyc oplasma
Ġë³´ì±Ħ ëĬĶ
¢ħ ê¸¸
ĠE mergency
ĠíĮĮíĸī ìľ¼ë¡ľ
Ġrec ession
ìĭľê°Ħ ìĿ´
ĠìĨĮìŀ¥ ìĿĺ
Ġë°ĽìĿĢ ìłģ
met rial
ĠAm ikacin
ĠìłĦëĤł ê³¼
ì§ĢìĹŃ ë³ĳìĽĲìĹĲìĦľ
Ġc er
Ġë°ľ ìĿ´
²Ī ìĹĲ
ìĸ´ì §Ģë©´
Ġì£¼ìĤ¬ ë§Īì·¨
Ġ5 7
ĵľëł¸ ì§Ģë§Į
Ġì§Ħ íĺľ
Ġì¡°ìłľìķ½ ìĹĲ
ors al
ĠìŀĺìķĪë ¨¹ìĿĮ
Ġpalp ation
ëĿ¼ë Ŀ¼
Ġì§Ħíĺľ ì£¼
ĠëĤ´ìĽĲ íķĺê¸°
ĠR ab
ìĪĺì ¦Ŀ
Ġ6 5
Ġìķŀ ëĭ¹
Ġê³Ħ ìĭľë©°
ĠK TH
Ġì§ĪíĻĺ ìĿĺ
¶Ģë¶Ħ ìĹĲ
ĠëĽ°ìĸ´ ëĭ¤ëĭĺ
Ġcs r
ë ı¼
Ġì ĮĢë
Ġg re
Ġë¹ Ĺ
ĠA V
Ġk th
Ķë ĵľ
Ġë©Ķ ë¡ľ
ĠìĽĲìŀ¥ëĭĺ ìĿ´
Ġì¹ĺìĦĿ ìłľê±°
Ġê·¸ëŀ¬ ìĿĮ
Ġê¿ Ģë
Ġì¡°ëĭĪìĤ¬ ë§ĪìĿ´ëĵľ
yl in
Ġê°ģ ê²°ë§īìĹ¼
ĠíĹ Ĳ
Ġë°ľë ıĦ
ĠëłĪë ³´í
Ġëĵ¤ìĸ´ ê°Ģì§Ģ
ĠìķĦëĭĮ ê²ĥìľ¼ë¡ľ
ì§Īë ¬¸ìĤ¬íķŃ
ĠíĹ¤íĮĮ íĭ±
ĠìĹ°ëĿ½ëĵľë ¦´
OL A
Ġê³łëł¹ ìĿĺ
ĠíĿĺëŁ¬ë Ĥĺì
Ġë§ĪìĿ´ëĭ¤ ì¼Ģìĸ´
m uc
ĺì ĬµëĭĪëĭ¤
ì§Ģ ê¸Ī
Ġë§İ ìĿ´ì
Ġì¡°ê¸Ī ìłĦ
ê³µ ëıĻ
Ġhg ë¡ľ
Ġres ol
ê¸°ì¹¨ ìĿ´
ĠëĥĦìĥ ĪëıĦ
Ġì»¨ëĶĶìħ ĺëıĦ
Ġëĥīìŀ¥ ë³´ê´Ģ
ĠM ental
Ġë°ĺìĿĳ ìĹĲ
ìĿĦë ķĲ
Ġìľłì§Ģë Ĳĺ
up erf
ĠëıĻê±°ê²¬ ê³¼
Ġìŀ¥ê¸° ìłģìĿ¸
ĠìĺĪìłĦ ìĹĲëĬĶ
ìłĦì² ´
Ġê³łì²´ìĺ¨ ì¦Ŀ
ìĭľ ìĬ¤íħĮ
Ġt ear
ic an
Ġêµ¬íĨł íķ´ìĦľ
ìłģìľ¼ë¡ľ ëĬĶ
Ġëĸ ł
Ġìĸ´ëł¤ ìĦľ
rost omy
Ġê¹Ģíĥľ ìĿĢ
Ġíķ §
al pebral
Ġìļ °ì
ĠìĿ¼ ìłĦìĹĲ
ĠëĤĺ ìĿĢ
yl lin
ĠíĮĲëĭ¨ ëĲĺëĬĶ
ìĦ¸í ı¬ë
ë§Īë ¹Ħ
ĠEn v
Ġax on
ppl ing
Ġdrib bling
Ķ Ħë¡ľ
Ġë´ Ĳë
ĠìĿ¼ì£¼ìĿ¼ ìłĦìĹĲ
ĠíķŃìĥĿìłľ ìĻĢ
Ġìľłì§Ģë ¹Ħ
ĠëĨįìĦ± ìĤ¼ì¶ľë¬¼
ĠëĥĦìĥĪ ëĬĶ
Ġìĵ° ëĬĶ
Ġmobil ity
Tra cheal
ĠìĪĺìłľ ê°ĦìĭĿ
íĥĪë ª¨
íĺ ¸ë¡ľ
ĠI F
Ġë°ľìĥĿ íķĺë©´
Ġë°ľìŀĳ ìķ½
ê´Ģëł¨ íķĺìĹ¬
Ġë§ĲëĿ¼ìĦ¸ ì°ĮìķĦ
Ġdist ension
Ġìĸ¼ë§Ī ìłĦìĹĲ
´ë ¡Ń
Ġì½Ķ íħįìĬ¤
Ġvac c
ir is
Ġìĭłê²½ì¦Ŀìĥģ ìĿ´
ther mia
ĠíĪ¬ë ¹Ħëıħ
Ġë¶ķëĮĢì ĥģíĥľ
M VI
Ġf SAA
ĠC alc
Ġìĭľ ê¸°ìĹĲ
ì¹ Ń
ì§Ī íĻĺìľ¼ë¡ľ
ĵ¤ ê³¼
Ġíĺ¸ ìĿĺ
Ġcon tra
Ġat yp
rom orphone
ê°ĳ ìŀĲê¸°
ĠíĻľëıĻ ëŁī
Ġax illary
ĠíıĲíĮ¨íĦ´ ìĿĺ
Ġì¤ĳìŀĲê¶ģ ëıĻìłķë§¥
í ļį
Ġf act
łë ŀĳ
ĠìĻ ģìĬ¤
ac ute
Ġin dolent
Ġë© Ģìĸ´ìĦľ
ĠìľłìĦł ìĹĲ
ĺģ ìĸĳ
ê´Ģì ĥģ
íĬ¹ ìĿ´
Ġë°±ìĭł ìĿĢ
Ġì¹ĺíĤ¨ ìºĶ
ĠìĤ´ë ł¹
ìķĪëĤ ´ëĵľë¦¼
ĩ Įë
Ġë¨¹ ìĿ´ëĿ¼ê³ł
Ġìłķìĥģ ë³´ëĭ¤
ĠìĪĺìĪł ê³¼
Ġì§ĢìĨį ë³µìļ©
Ġëª» ê°Ģë
ĠD S
ĠíĮ Ģìŀ¥ëĭĺ
ĠU rin
Ġìº ĳ
ê·¸ë ¦¼ìŀĲ
Ġë¶Ģë ĵ¤ë¶Ģë
ĠíķĺëĿ½ íķ¨
ĠëĤ¨ìķĦìŀĪ ìľ¼ëĤĺ
ĠìķĪë© ´ë
Ġì§ĢëĤĺ ê³ł
Ġta urin
d ry
Ġì¹ ¼ë
Ġì£¼ ê¸°ë¡ľ
Ġíĺ¸íĿ¡ ìĸĳíĺ¸
op o
Ġë¶Ģì ĽĲìŀ¥ëĭĺ
ĠëĤĺ ê¸°
ëıĻ ìĿĺìĦľ
Ġcon sid
Ġê²Ģ ê²Į
ê³¼ë ıĦ
ĠíĶ¼ì§Ģì ¢ħ
ł¸ë įĺ
Ġprofil e
Ġchlorph en
ĸ ´ì
th ral
íķĺ ëĭ¤ëĬĶ
ê°ľ ìĶ©
Ġëª» íķĺìħ¨ìĿĮ
ĠìĪĺìķ¡ ìļĶë²ķ
ĠíĽĦì§Ģ ê°Ģ
Ġê±°ë ¦¬ê³ł
ĠìĦ¸íı¬ íĥģìĭ¬
ĠíķŃë¬¸ ìª½
Ġpar ap
Ġtor t
Ġë¶Ħë¦¬ íķ´ëĥĦ
Ġpig ment
Ġë©ľë Ŀ¼
ĠëĨĴìĿ´ ìĹĲìĦľ
opress in
ĠLas er
ĽĲ ìŀ¥
Ġì¤ĳ ìĿ´
ìĺ¤ ìĭł
Ġì¶Ķì²ľë °Ľ
Ġ20 20
ĠNe gative
ĠëĲ ĺë©°
Ġê³łëł¤ íķĺìĺĢìĿĦ
ĠìĨĮë³Ģ ìĹĲ
§Īë ıĦ
Ġë¶Ģìĭł íĶ¼ì§Ī
Ġíĸī ë³µ
Ġìĥī ìĿĢ
Ġìļ¸ ìĿĮ
ichen ification
g o
Ġc ross
ìĬ¤ íĬ¸ë
ë² Īë
Ġíķľë ģ¼
Ġë³´íĸī ê°ĢëĬ¥
Ġì¡ ¸ë
Ġq ues
Ġì¢Įìĭ¬ë°© ìķķ
Ġë¹Ħëªħ ìĿĦ
Hyp er
Ġë³´ì¡´ ìłģ
Ġtime maintenance
Ġìĭľ ìķ¼
ì£¼ ìħ¨ìĿĮ
ĠìĪĺìķ¡ ìĹĲ
Ġì¤ Ģì
ĠíķŃìĥĿ ìłľë¥¼
ì¶Ķ ìĦ¸
Ġì½Ķ ë°ľë
Ġë°ĺìĿĳ ìľ¼ë¡ľ
ĠìĦ± ê²¬
ĠíĻį ì§Ģìĺģ
Ġë¬½ ìĿĮ
ĠëĨĢë Ł¬
Ġê¿ Ģ
V it
p y
Ĵ ¤ë¡ľ
íķ ´ìŀĪ
Ġìľł ìłĦ
íļĮ ì°¨
ĠëĤ´ë³µìķ½ ì²ĺë°©
ê¹ Ŀ
ĠëĮĢ íıŃ
Ġíķĺë£¨ time
ob ronchitis
UN I
ĠìŀĪìĿĦ ìĭľ
Ġê·ĢìĦ¸ìłķ íĽĦ
êµŃ ìĹĲ
ĠìĹĨìĸ´ì §Ħ
ĠìĥĿê²¼ ëĭ¤ê³ł
Ġoste o
Ġbre ath
ĠìĿ´ì§Ħ ìĪĺ
Ħ ëĬĶ
ł ĢìĿĮ
Ġl k
ĠëĤ´ìĽĲ íķĺìĭł
ĠR OM
Ġê¹ İ
Ġë°ľìĥĿ íĸĪìĿĦ
Ġë¹ĦíĽĦ ìĻĢ
ë© Ķë
ĠìĿĳê¸īëĤ´ìĽĲ íķ¨
Ġì¤ĳìļĶ íķľ
Ġíĭ ±
u ary
Ġë³µ ë°©
ķĮ ëıĦ
Ġíķ´ì ķ¼ë
Ġíĺ¼ ìŀ¬
łëķĮ ê¹Įì§Ģ
ĠìľĦíĹ ĺëıĦ
Ġê¹Į ì§Ģë§Į
ĠìĿ´ìĥģìĨĮê²¬ ìĿĢ
Ġê°Ħì§Ī ì¹¨ìľ¤
Ġì§Ģìĭľë Ĳ¨
Ġëıħìĭľ ìĤ¬ìĿ´íģ´ë¦°
s pi
Ġt re
íķĺì ħĶëıĦ
ĠP re
ìĬ¹ êµŃ
Ġì¢ħìĸĳ ìĦ¸íı¬
ray ìĥģ
Ġê¸°ê´ Ģë
ĠêµĲì²´ íķĺìĹ¬
ì¡°ë ©´
Ġê¸¸ ìĹĲ
Ġhemol ysis
Ġëħ¼ ìĿĺ
ĠCOMMENT S
Ġìĥģ ê³µë§ī
Ġë§Ľ ìĤ¬ì§Ģ
Ġê±¸ë ł¤ìĦľ
ĠëªĩìĿ¼ ìłĦë¶ĢíĦ°
Ġpatch y
ĠëįĶëª¨ ìĦ¼íĬ¸
Ġt et
ĠP ink
ĠëĤ´ìĽĲ íķĺë©´
ĠS ub
ep s
ĠìłĦíĻĶ ìĺ´
Ġë¬¼ ìĸ´ìĦľ
Ġëļ Ŀ
Ġpar as
Ġìĸ¼êµ´ ìĿĦ
ĠëıĮìķĦëĭ¤ëĭĪ ê³ł
ĠìĬ¤íģ¬ë ¥ĺ
Ģë¶Ģì ¢ħ
Ġa poquel
ì£¼ ìĭ¤ê²ĥ
Ġìŀ¬ê²Ģ ìĿ¼
Ġì£¼ìĤ¬ íĽĦ
ĠìĬ¤íħĮë¡ľìĿ´ëĵľ ìłľ
ë§¤ ìĿ¼
pg gt
Ġë§ŀì¶Ķë Ł¬
p r
Ġê´ ´ë¡Ń
ĠìĪĺìĪł ê²½ëł¥
Ġì° Įë
Ġw ww
ĠëĦ ĺìĸ´ìĦľ
ì·¨ ìĨĮ
Ġíķ´ì Ļ¸
Ġë¯¸ë ¹Ħ
Ġë¬¼ë ¨¹
Ġì§Ģì¼ľë ³´ë
ĠìĹ°ë³Ģ ìĿĦ
Ġì¡°ì§ģê²ĢìĤ¬ ëĬĶ
ìłĦì ¯¤
ĠíĶĮë £¨ë
ĠìĻ¸ìĥģ ìĹĲ
Ġíķĺìĭľë ©°
ĠìķĪë³´ ìĿ´ëĬĶ
ĠìĻĦë ²½
Ġmultic entric
ëĤĺì¿ł ìĸ´
8 9
Ġm or
ĠìĹĲ ëĦĪ
ìľ¼ ëĭĪê¹Į
ĠìłĦíĻĶ ì£¼ìĭ¬
Ġê°ģ íĻĶ
Ġbe fore
ĠìĻķ ë³µ
Ġclear ity
Ġëī ´í
ìķ Ĭ
ar se
ìľł ìĤ°ê·ł
Ġis ch
Ġcon genital
Ġë§ĮìĦ± ìłģìľ¼ë¡ľ
Ġro tation
ĠNe bul
Ġì³Ĳ ìł¸
ĠìĽĲë ŀĺëıĦ
Ġlab or
ëĺĲ ëĬĶ
ìĽĲ ëĤ´
ĠC o
Ġ8 5
Ġìľłì§Ģì ĥģíĥľ
Ġë¨¹ìĿ¼ ê²ĥ
injection cimetidine
¶Īë Ŀ¼ìĿ´
Ġì¢ħê´´ì ĻĢ
Y L
Ħë ł¥
Ġê² ¸
Ġìŀ¬ ìĭ¤ìĭľ
Ġì¤ĳ ìŀħëĭĪëĭ¤
ĠíļĮ ì°¨
ìĭĿìļķ ìĿ´
Ġìķŀ ìĹĲìĦľ
Ġìŀ¡ íŀĺ
ĠëĩĮ ìĭłê²½
ĠCardi ac
ĠëĤ¨ìķĦìŀĪ ëĭ¤ê³ł
ĠìĤ° ìŀ¬
Ġìŀĺë¨¹ ìĹĪìĿĮ
d ia
ìĺ Ģìľ¼ë©°
Ġíİ¸ ìŀħëĭĪëĭ¤
Ķë ĦĪ
Ġì¤Ħ ìĿ´ê¸°
Ġim pro
Ġê·Ģë ¬¼ìķ½
Ġì¿ł íĤ¤
Ġì§Ģê°Ħ ìĤ¬ìĿ´
ìĦŃ ìĭĿ
ĠìķĪëĤ´íķ´ë ĵľëł¸ìľ¼ë©°
ĠUrin ary
Ġp ole
ıĻ ë¬¼ë
ĠP alpebral
ĠíĮĮ ëıĻ
³´ ê¸°ë¡ľíķ¨
Ġíŀĺë ĵ¦
ĠëĦ¥ì¹¼ëĿ¼ ìľłì§Ģ
ìĬµ ê´Ģ
Ġë©°ì¹ł ìłĦìĹĲ
ĠíĦ° ìł¸ìĦľ
ĠíĽĦë°© ê·¸ë¦¼ìŀĲ
ĠëĨĶë ĳĲë©´
Ġìĭłì¢ħ íĶĮë£¨
ĠíķŃíĺĪìłĦ ìłľ
ĠPim obendan
d ose
Ġìŀ ĺìŀĲ
ĠìŀĲ ì²´ê°Ģ
Ġ5 3
ĠìĿĺë¢°ë Ĳľ
ĠìĭĿìļķë¶Ģì§Ħ ìĿ´
Ġì§ĢìĹŃë³ĳìĽĲ ìĹĲ
ĠìłĦì² ´ë¯¸ìļ©
ëĬĶê²ĥ ìĿ´
Ġëª»ë ¨¹ìĿĮ
ìĨĶë £¨ìħĺ
° ĢëıĦ
ĠëĤ ĺì§Ģ
Ġì¦Ŀìĥģ ë³´
Ġw ould
íĸ ĩ
Ġìŀ¬ê²Ģ íķĺê¸°ë¡ľ
Ġë§Ĳ ì´Ī
Ġë³´íĺ¸ìŀĲë¶Ħ ìĹĲê²Į
ĠìĽĲìŀ¥ëĭĺ ê»ĺìĦľ
Ġë³´ëĤ ¼
Ġìĺµ íĥĢìł¤
ĠìŀĲë Ŀ¼
hex ia
ĠëĦĵ ìĿĢ
Ġhydrox y
¹ ´ì
Ł °ì
íķĺìĭľ ëĭ¤ê°Ģ
ome r
Ġê·ĵ ìĨį
Ġì°į ìĸ´ì
Ġë°ĶìĿ´ëŁ¬ìĬ¤ ìĦ±
Ġê·¸ëŁ¬ ëĭ¤ê°Ģ
8 2
ìĸ ¼ë
Ġìľł ìĦłë
ch ronic
ĠD ent
Ġë³´ì ĭł
Ġph al
ëĮĢ ê³ł
Ġê·Ģì ķĪ
ìĿ¼ë °ľìĨ¡ìĻĦë£Į
Ġac tion
Ġê´ľì°® ìķĺìľ¼ëĤĺ
Ġíķľëĭ¬ ë¶Ħ
Ġhyper tensive
ĠìĪ¨ ìĨĮë¦¬
Ġtroch lear
ĠB acterial
ĠìĤ¬ë£Į ë³Ģê²½
Ġê°ĲìĨĮ ë¡ľ
ì½Ķ íĮĲ
ĠG M
Ĳľ ëĭ¤ë©´
ĠHg ë¡ľ
Ġê·¼ìľ¡ ìĿ´
Ġëª©ìļķ ìĿĦ
Ġìłĳ íķ©
Ġë¶Ģìŀĳìļ© ìĹĲ
ĵ¤ë §ģ
ì°¸ ì¡°
c k
Ġë ¥ĺ
ti z
ĠìķĪë §Ī
íķĺë ¹ĦìĬ¤
ìĬ¤ ì§Ī
ĠëįĶ ìĽĮìĦľ
ter nal
Ġì²´ì¤ĳ ì¡°ìłĪ
ĠíĥĢì ŀħ
Ġmal ass
ëĭĪë ©´ìĦľ
Ġìŀłìłķ ì§Ħëĭ¨
ĠëĤĺìķĦì ¡ĮìĿĮ
ĠëĦ¤ë¸ĶëĿ¼ìĿ´ ìłĢ
ĠíķĺëĤĺì Ķ©
ë ĵ¤ìĸ´
Ġìĺ¤ ê¸Īë
ìĪĺì §Ī
Ġìŀ¥ ìĿ´
ëĭ¹ ëĩ¨
ĠíĶ¼ ì§ĢìĦł
ĠêµĲ íĻĺ
Ġëĵľë ¦°
Ġì¹¨ ìĿ´
Ġjoint s
Ġcv c
ĠëĪĪë¬¼ëŁī ìĿ´
Ġgran ulation
Ĭ¹ ìĿ´
ĠìľĦìĥĿ ê´Ģë¦¬
an uary
ìĺ ¹
Ġê¸°ì ¢ħ
Ġë¶Ħ íĻįìĥī
Ġto oth
ĠíĺĪìķķ ì¸¡ìłķ
¶Ģì ĻĢ
íĤ¤ ê³ł
ĠíĥĪëª¨ ê°Ģ
¨ëĵľë ¡ľ
ëĭ¤ëĭĪ ìĭľëĬĶ
¹ĺë ¥¼
Ġì¦ĿìĦ¸ ëĬĶ
ëłĪë ³¼ë
ìŀĺì §Ģë
Ġt e
Ġìĸĳíĺ¸ íķ´ìĦľ
om yc
Ġì£¼ìĤ¬ ë§Į
Ġst ap
Ġì²ĺì¹ĺ íķĺë©°
Ġìłĳì¢ħ íķĺê³ł
ĠìĿ¼ì£¼ íĽĦ
Ġse g
Ġê±°ë Ŀ¼ê³ł
Ġë³ĳìĽĲìĹĲ ìĦľëıĦ
Ġê°Ħì ĨĲìĥģ
Ġìĺ¤íģĲ íĶĮë
Ġ25 0
Ġë°ĶëĢ ľ
enz a
Ġë°©ìļ¸ë °©ìļ¸
Ĳ ¬
ê³ ½
ëĭ¤ ë¡ľ
Ġf amc
ë¡ľ ëĶĶ
Ġì§Ħíĸī íķĺìĭ¬
Ġëª» ë³´ëĬĶ
ĠëĪĪê¼½ ëıĦ
Ġìĺ¤ë©Ķ íĶĦëĿ¼ì¡¸
Ġë°ĺì »µ
ĠìĤ½ìŀħ íķĺìĹ¬
Ġë¹ĪëıĦ ê°Ģ
Ġdiagn ostic
Ġgreat er
Ġc y
od ium
ĠíķŃ ë¬¸ë
Ġìłľ ì¡°
Ġcc nu
ĠìĤ°ì±ħ íķĺê³ł
ĠìĿĮìĭĿ ìķĮëŁ¬ì§Ģ
ĠìŀĲìľ¨ ë°°ìĭĿ
ìļ°ë įĶ
ĠíĺĪì²Ń íĻĶíķĻê²ĢìĤ¬
Ġê³°íĮ¡ìĿ´ ë°±ìĭł
Ġê¹Ĭ ìĿ´
ĠìķĦë²Ħ ëĭĺìĿ´
° Ń
Ĳ ĺë©´ìĦľ
íķĺ ê°ķ
Ġê°Ħ ìĹĲì½Ķ
Ġì§Ħíĸī ìĹ¬ë¶Ģ
Ġìŀĺë Ĩ
Ġì¶Ķì²ľë ĵľë¦½ëĭĪëĭ¤
ĠíĶ¼ë¶ĢìĹ¼ ìľ¼ë¡ľ
Ġë¨¹ìĺ Ģê³ł
ĠëĤĺìĻĶ ìĬµëĭĪëĭ¤
Ġê¸°ì¡ ´ì
Ġê±±ìłķëĲĺì ĭ¬
Ġp all
Ġa ge
Ġìłĳì¢ħ ìĪĺì²©
ìľĦ ìĹĲ
Ġplt a
Ġíķ´ìķ¼ íķł
Ġë¶ī ê²Į
ĠGL U
Ġì¡°ìĭ¬ìĬ¤ë Ł½ê²Į
Ġremod eling
Ġìłķìĥģ ìĹĲ
Ġst ertor
ë²Ī íĺ¸
¡± ìĿ´
Ġwh ite
Ġì¡Į ëĬĶì§Ģ
Ġëĩ¨ì¹¨ ìłĦ
capsul ated
7 3
Ġl ichenification
azol ine
Ġbg time
ĠíıĲìĪĺì¢ħ ìĹĲ
ĠìļĶëıħ ì¦Ŀ
Ġamit ript
b oth
Ħ Ľ
Ġm ue
ar ab
ì§Ħ ëĭ¤ê³ł
ĠëĤ´ìĽĲ íķĺìĦ¸ìļĶ
ĠV AC
Ġì¡°ì§ģ íķĻ
Ġë¬´ ìĹĩ
Ġë²Ķ ìľĦë¡ľ
ĠìĹĨìĸ´ì §Ģê³ł
ĠìŀĲë°ľìĿĮ ìĪĺ
ĠíĻľëıĻìĦ± ìĿĢ
I BD
r um
ĠT BIL
ĠìĪĺìĪł íķ¨
Ġê¸°ì¹¨ ê³¼
Ġë² Īë
ìķĦì ¤Į
mer ican
ëģ Ĭ
Ġê°ľë ħĲ
ĠìĭĿëıĦ íĬľë¸Į
Ġê°ķíĻĶ ìļ´ëıĻ
b ucil
² ĺ
ìĥĿ ê²Ģ
ĠëĤĺì ¤ĳ
ë§Į ìľ¼ë¡ľ
ĠìŀĲë°ľ ìłģìľ¼ë¡ľ
Ġì¤ĳëĭ¨ ìĭľ
ĠíĸĪ ìĹĪëĬĶëį°
Ġtr iz
ìķĪë Ĥ´ë
Ġë°Ķë ¥´ì
ĠíĴ į
ë°¥ ìĿĢ
Ġsk ele
pro tein
Ġthromb oembolism
iw alking
Ġì§Ħíĸī íķĺìĺĢê³ł
Ġìĭł ê¸°ëĬ¥
ìĪĺì ĨĮ
ìłĦë §Īë¹Ħ
ĠíķŃìĥĿìłľ ìĹĲ
ĠìĿĺ ê²¬
Ġìĭ¬íķ´ì §Ģì§Ģ
ĠíĮĮíĸī ìĿĦ
Ġë¶Īë ł¤
ĠìĬ¤íĬ¸ëłĪìĬ¤ ìĹĲ
ĠìĻ¸ìĥģ ìĦ±
ĠêµĲìľ¡ íķ¨
Ġrece iv
e pi
Ġì§ĢëĤ ĺë©´ìĦľ
Ġ20 19
ĠìĥģìĿĺ íķĺìĹ¬
Ġsubcutaneous maropitant
Ġë³´ìĿ´ ê±°ëĤĺ
Ġë°Ľìķĺ ê³ł
Ġë¶ĢíĨł íĮĲ
7 7
ìĿĺ íķľ
ĠíĽĦ ê·¹
ĠìŀĲ ìĹ°ìĬ¤ë
Ġì§Ħíĸī íķĺìĭľëıĦë¡Ŀ
ĠT Dx
Ġì§Ģ ìĿ¸ë¶Ħ
Ġëĭ¹ ê³¡ìĦł
Ġë²Ī íĺ¸
ĠíļĮë³µ ì¤ĳ
ĠíĺĪëĭ¹ ê´Ģë¦¬
ĠìķĪë¨¹ ìĿ´ìĭ¬
Ġíı¬ë ĮĢ
ìĭ¤ë £¨ìĹ£
s mecta
Ġê³Ħì ¢Į
Ġë¶Ģë¶Ħ ìĿĺ
Ġëĸ¨ìĸ´ì §Ģê¸°
¶ĢìľĦ ìĹĲ
ëĭ¤ëĭĪ ìĭľëįĺ
Ġë¶ī ìĿĢìĥī
Ġìĸ´ëłµ ê³ł
ĠìĭľìłĲ ìĹĲ
Ġë¶ĢëĶª íŀĺ
iss ion
Ġì£¼ìĽĮë ¨¹
Ġì¢ģìķĦ ìł¸
ĠìĬ¹ ìķķìłľ
Ġê³łìķĶëª¨ëĭĪìķĦ íĺĪì¦Ŀ
Ġë¾ °ë£¨
Ġinapp ropriate
i ary
m L
Ġt eca
ĠìĿ´ì ¢ħê¸¸
ĠìŀħìĽĲ íķĺê³ł
ĠëĤĺì Ħľë¶ĢíĦ°
ĠìķĪìķ½ ì²ĺì¹ĺ
ĠìĻ¼ìª½ ê·Ģ
ĠíĹ¥íĹ¥ ê±°ë¦¬ê³ł
Ġê°ĢìĬ ´ë¶ĢìľĦ
ĠìĤ¬ëĤĺì ĽĮìĦľ
Ġìĺħ ìĿĢ
ĠìĬ¤ì¹´ ê²Ĳ
ĠìĭľìłĢì ºĶ
u tis
Ġs ingle
ìĻ ¸ë¶Ģ
Ġì§Ħíĸī íķĺë©´ìĦľ
ĠìĿ´ìĥģ ìĹĨ
ìłĳì¢ħ ìĿĢ
ĠëĤĺë ¦Ħ
ì¦ Īë
Ġìĭ¸ ëĬĶ
Ġë¶ĵ ê¸°
Ġê°Īë¹Ħë ¼Ī
H s
y le
ê¸° ì§Ģ
am sul
Ġê°Ħ ê³¼
Ġre ct
ĠíĻķìĿ¸ ìĿĢ
Ġìľłì§Ģ íķĺìĹ¬
ê°ľ ìĦłë
ĠìĹ¬ ë¶Ģë¥¼
ĠëĤĺ ê°ĢëĬĶ
íĸĪ ëĬĶì§Ģ
tic ide
ĵ± ìĿĦ
ìŀ¡ ê³ł
Ġê¹¨ ìĸ´ìŀĪ
ĠìłĦíĻĶì£¼ ìĭľê¸°ë¡ľ
ĠëıĻê±°ë¬ ĺìĻĢ
Ħ ´
íĺ¸ ì¤Ģ
ĠìĹĨ ëĭ¤ê³łíķ¨
Ġë¶Ħë ¹Ħ
de f
Ġíĺ¸ìłĦ ìĿĢ
ìŀħìĽĲ íĻĺìŀĲ
ĠìķĪëĿ½ìĤ¬ ëıĦ
ĠìĨĮìĭ¤ë Ĳĺê³ł
Ġìłķë§¥ ìĪĺìķ¡
Ġìłķìĥģìłģ ìŀĦ
An emia
Ġê¸°ëł¥ìłĢ íķĺë
% ),
t ach
in king
Ġp neum
Ġe st
ĠìĹ° ìłĳë¶Ģ
Ġì·Įìŀ¥ìĹ¼ ìĿĢ
Ġìĸ´ìłľë °¤ë¶ĢíĦ°
Ġëľ¯ ìĸ´
Ġextra hepatic
ĠíĻľ ì°¨
Ġmac roph
ĠìķĦíĮ łëįĺ
Ġques tions
er ally
ìĿ¸ ê²ĥ
Ġê°Ģë ıĻ
Ġìłģ ìĸ´ìĦľ
Ġìĭłê²½ ë°ĺìĿĳ
CA TION
ĠíĻ© íĺ¸ì¤Ģ
ĠìķĦëĭĪ ìĹĪìĿĮ
ĠìĥģìĻĦ ê³¨
Ġë¶Ģëĵ¤ë¶Ģë ĵ¤
f lu
v l
Ġb rad
ìłľ íĮľ
ìĺ¤ ìłĦìĹĲ
ĠìĤ°ìĨĮ ë°ľìĥĿ
Ġsp ind
Ġlymph oid
Ġìĵ°ëŁ¬ ìł¸
Ġsti ppling
Ġav ailable
Ġf o
Ħí ĸĪ
ìĿ¼ íķľ
Ġìĺ¤ ìĹ¼
yc le
ym ix
ĠíĥĪêµ¬ ëĬĶ
ĠìłĢë²Ī ìķ½ê³¼
į¼ë §ģ
we en
Ľ ĥ
Ġh el
ĠìŀĲ ì£¼ë
ĠëĤ´ìĽĲ íĽĦ
Ġì²ĺë°© íķĺë©°
Ġìĭłìŀ¥ ìĹĲìĦľ
Ġê·¸ ìłľë¶ĢíĦ°
Ġë¨¹ëĬĶ ëĭ¤
Ġse leg
ast ro
Ġhigh er
Ġë§Ĳë Ŀ¼ê³ł
ĠìĦłì²ľ ìłģìĿ¸
UNI CATION
´ì ĨĶ
Ġh az
ĠëıĦ ëĬĶ
ĭ¤ ê¸Ī
ĠìĤ¼ íĤ´
ĠëĽ ¸ë
Ġíĺ¸ë¥´ëª¬ ê²ĢìĤ¬
ĠíĥĢ íŀĪë
Ġmarb o
Ġrespon sive
Ġchang ed
ł¸ë įĶëĭĪ
ĠíĴĪ ì¢ħ
Ġìºĳ ìºĳ
ë¡ľëĶĶ íķĢ
ĠI tra
ê°Ĳ ê¸°
Ġìŀ¥ ê¸°ë
ì¹´í İĺ
ĠìŀĲê¶ģ íĻķìŀ¥
ĠìĬµ ìĦ±
ĠíĹĪë¦¬ íĨµì¦Ŀ
Ġcompl ication
Ġbulla e
ĠìłĦìłķ ê³Ħ
í ĽĦë¡ľ
ıĦë ¥¼
oc l
ĠL IU
Ġë¶Ħë ¹Ħë
Ġë°ľë ¡ľ
ê±´ì ¡°ì¦Ŀ
Ġíĺ¸ë °ķ
ĠíĨµì¦Ŀë°ĺìĿĳ ìĿĢ
Ġìĭ¬íĻĶ ëĲĺìĸ´
ë§ĲëĿ¼ìĦ¸ ì§ĢìķĦ
ĠìĦ¸íĮ Ķëłīìĭł
ĠCOMM UNICATION
ìķ ¤
Ġc enter
íĺĪ ìĨĮíĮĲ
Ġtra chea
Ġê³¼ ìĪĺíĻĶ
Ġhyper kalemia
ê·¸ë ıĻìķĪ
ĠëĪĪê³± ìĿĢ
ĠíĿ¬ìĦĿ íķĺìĹ¬
ìķŀ ëĭ¤ë¦¬
Ġë³´ìķĺ ìĿĦ
ĨĮ ë¦¬
ìĬ Ī
Ġl vd
Ġë¹ Ļ
Ġê°ĢëĬ¥ íķ©ëĭĪëĭ¤
ĠëįĶ ìĽĮ
Ġê³¼ ê±°ë³ĳëł¥
Ġê³Ħíļį íķ¨
Ġop tim
ĠíķĦìļĶíķł ìĪĺ
ĠëģĻëģĻ ê±°ë¦¬ëĬĶ
ĠëĤĺìĿ´ ìĹĲ
Ġê°Ħíļ¨ìĨĮ ìĪĺì¹ĺ
ëĶ¸ ê¸°
Ġì¼Ģìĸ´ì Ħ¼íĦ°
divid ual
) ;
A A
p u
ľ ìĭľ
ìķĦ ìļĶ
ec ity
íĺĪ ìŀ¥
amo us
Ġìłľê±° ëĬĶ
ë°Ľ ìľ¼ìĭ¬
íĻ© ëĭ¬
ĠìķĪì¢ĭ ê³ł
ĠíĶ¼ë¶Ģì ĻĢ
Ġë¶Ģìŀĳìļ© ìĿ´
Ġdob utamin
ìĭłê²½ ì¦Ŀìĥģ
Ġìĭ¬íĻĶ ëĲ¨
Ġond an
Ġìŀ¥ë¬¸ ìłķ
S e
p id
Ġì§ĢìĨį ëĲľ
ĠìĪĺìķ¡ ì¤ĳëĭ¨
Ġëĵ¤ ìĹĪëĭ¤ê³ł
Ġë¨¹ê³ł ëıĦ
Ġëĩ¨ ëĭ¹
Ġcl os
íģ °
Ġìŀ¥ì°© íķĺê³ł
Ġê·ĢìĦ¸ìłķ ìĭľ
Ġë¶Ģìŀĳìļ© ìľ¼ë¡ľ
ê°Ķ ëĭ¤ê°Ģ
Ġelect ro
ĠìĪĺì ¹ĺëıĦ
êµ¬ ì¡°
ĠìĻ¸ ìĿĮ
Ġê°ĲìĨĮ ëĬĶ
ê» ĺë¶ĢíĦ°
ĠìĹ°ê³ł ë¥¼
Ġë¨¹ìĹ¬ ìĦľ
Ġlip osic
16 0
Ġman y
Ġì°į ìĸ´ìĦľ
Ġmedi ated
ìĭŃ ìŀĲ
Ķëĵľ íİ«
ĠìĺĪìłķ ìĿ´ëĤĺ
ĠíĬ¹ ë³Ħ
op ol
Ġê·Ģ ê°Ģì
¯¼ ìĦľ
Ġë³´íĸī ëıĦ
ĠëĦ£ ìĿĮ
Ġë²ł íĬ¸ë©ĶëĶĺ
ì¹¸ ìľ¼ë¡ľ
ìĥģíĶ¼ ìĦ¸íı¬
Ġtak en
F R
Ķ °
ĠìĿ Ģë
Ġëĵ Ģì
ĠS ept
Ġë¬¸ ìłľë¥¼
Ġat ten
íĩ´ìĽĲ ìĭľ
¶Ģë °ĺìĿĳ
hep ati
ìĿ´ëıĦë Ĥ´
ìĦ±ì¢ħ ê³¼ìŀ¥ëĭĺ
Ģì ©¡
Ġìĺ¤ ê³ł
ìĿ´ì ķ½
Ġê³ł íĻĺì
Ġíıī ê°Ģìĥģ
ĠE CG
Ġceph alothin
ìħ¨ ìĹĪìĿĮ
ìŀħìĽĲ ì¤ĳ
Ġìľłì§Ģë Ĳł
Ġhypere mi
Ġê¸¸ ìĸ´ì§Ī
Ġê³³ ìĿĢ
ĠPH YSICAL
ĳ¥ ìĿ´
Ġë°ľëģĿ ë¶Ģì¢ħ
ìĿ´í į¼ë§ģ
f ib
ìĪ Ń
ìĸ µ
ĠìĪĺìĪł ìĻĦë£Į
ë§¤ ìĭľê°Ħ
ĠëĬĺë ¦¬ê³ł
Ġíıīìĥģ ìĭľìĹĲ
ĠìķĮëł¤ ìł¸
Ġìłķì¤ĳ ìłĪê°ľ
ĠíĺĦìŀ¬ë¡ľ ìĦľëĬĶ
s ame
į °ì¹
łë ĵ¯
Ġì§Ħíĸī íķ´
Ġë°°ë³Ģ ê³¼
ë³Ģ ìĿĢ
ĠìķĦ ëĬĶ
Ġì¡°ì§ģ ìĿĢ
Ġìŀ¬ë°ľ íķĺëĬĶ
ĠìĭĿìļķë¶Ģì§Ħ ìľ¼ë¡ľ
Ġì¶Ķìłķ ëĲĺë©°
ìľłë ¬´
Ġë¯¸ë§Į ìľ¼ë¡ľ
Ġê±±ìłķëĲĺì ħĶìĦľ
ĠíĽĦì½Ķ ìĿ´ëĭ¨
Ġê´Ģì°°ëĲĺì §ĢìķĬìĿĮ
Ġbiot ype
N PH
ìķ ĺìĸ´ìļĶ
´í ģ
Ġêµ¬ ë
Ġìłĳì¢ħ ìĻĦë£Į
ĠíĪ¬ìĹ¬ íķĺë©´ìĦľ
Ġëª©ìļķ íķĺê³ł
ence phal
Ġê¹½ ê¹½
Ġd uring
Ġf ig
ìĿ´ì ŀĪ
ĠìķĪ ì¤Į
ĠìĿ´ì ĪĺìĹ°
ĠìĦ¤ìĤ¬ íķĺê³ł
Ġëħ Ħ
ys i
Ġì§Ħëĭ¨ ëĲĺìĹĪìĬµëĭĪëĭ¤
Ġê²°ìĦĿ ìĤ¬ë£Į
Ġìĸ´ëł¤ìĽĮ ìĦľ
anti histamine
Ġì¤ĳìŀĲê¶ģëıĻìłķë§¥ ìĿĦ
re duced
Ġìŀ¬ ì°¨
ĠìļĶ ë²ķ
Ġìµľ ìļ°ì£¼
Ġì´ĪìĿĮíĮĮ ê²ĢìĤ¬ìĥģ
Ġìĸĳì¸¡ ìĬ¬ê°ľê³¨íĥĪêµ¬
ĠìĪĺì¹ĺ ìĹĲ
Ġê¸°ê´Ģì§Ģ íĻķìŀ¥ìłľ
ĠìłĦì ¡°ì¦Ŀìĥģ
Ġê°Ģëł¤ ìĽĢ
ĠCRT sec
Ġì¹¸ ìľ¼ë¡ľ
================ ================
**** ****
Ħ¸í ı¬
Ġìį ¨ë
ĠìĤ¼ì¶ľ ìķ¡
Ġs ys
ê°Ģ ê¸°
ĠëįĶ ë§Īê²Ķ
ĠëĤĺ ê°Ħ
Ġíģ °ì
Ġê²°ìŀ¥ ëĤ´
Ġver tebra
¤¬ ìĿĮ
tinu ous
och rom
Ġbet ween
ĠTumor s
Ġmoder ately
į°ì¹ ´ìĨĶ
ĠíĿī ìĪĺëŁī
Ġìľłë Ĥľ
Ġë³´íĸī ìĭ¤ì¡°
Ġê³Ħ ìĭŃëĭĪëĭ¤
Ġê²ĢìĤ¬ìĥģ ìĹĲìĦľ
Ġê´ĢìłĪ ìĹ¼ë
ìķĪë Ŀ½ìĤ¬
ĠX ylazine
ĠëĦ¤ë ¶ĪëĿ¼ìĿ´
amsul osin
o hyd
Ĭ ¸ë¦¬
į ±ìĬ¤
Ġìŀ¬ ê²Ģë
le ge
ĠìĤ¬ë£Į ëŀĳ
Ġê¸īìĹ¬ íķĺìĭ¬
ĠìĥĪë ¡Ńê²Į
ĠíĸĪ ëĬĶì§Ģ
Ġìŀ¥ì°© íķľ
Ġhypo adrenocorticism
Ġì¡°ìĺģ ì´¬ìĺģ
¶Ī ê°Ģ
ĠëĤ¨ìķĦìŀĪ ìĸ´
ĠìŀĲê°Ģ íĺĪì²Ń
CH F
ĠìĨĮìĸĳ ì¦Ŀ
ìĿ´ì Ĥ¬
Ġë¨¹ìĿ´ì ħĶìķ¼
ĠìľłìĤ¬ íķĺë©°
ì¹ĺì £¼
Ġë°ĽìķĦ ìķ¼
Ġìĺ¤ë¦¬ ì¡´
Ġê±¸ì³Ĳ ìĦľ
Ġti tration
ë¡ľìĸ ĦìºĲëĭĮ
- ,
ĠìĺĪìłķ ëĲľ
rop enia
ĥģíĥľ ëĬĶ
Ġìŀ¬ë°ľ ê°ĢëĬ¥ìĦ±
rh yth
Ġê´Ģì°°ëĲĺ ëĬĶëį°
ĠëıĻë°ĺë Ĳĺì§Ģ
ë¹Ħìļ© ìĿĢ
ìĤ¬ë ŀĳ
Ġperit oneal
Ġìķłë§¤ íķ¨
Ġë¶ĢìĬ¤ ì½ĶíĮĲ
Ġpapill oma
ĥģíĥľë ıĦ
¯¹ ìĬ¤
ĠíŀĪìĬ¤íĨłë ¦¬
Ġì½Ķë°ľë Ŀ¼ë¯¼
ī ¬
Ġì§ Ħëĵľ
ey elid
Ġë¬¼ ê¸īìĹ¬
ĠìĿ´ë¬¼ ìłľê±°
Ġë§ĲëĿ¼ ìİ
ì°½ ë°±
ok et
¦ °ìĬ¤
Ġìĺ¤ë ¥
Ġëĵ¤ ìĿĢ
Ġì½Ķ ê³łëĬĶ
Ġë¶Ħë¹Ħë¬¼ ìĿĢ
Ġdec omp
Ġlimit ed
Ġë¬´ìĦľ ìĽĮ
ĠìĨĮ ìĥĿ
Ġìĭľ ëĭĪìĸ´
Ġan f
Ġëª¨ ìĸĳìĿ´
Ġgl argine
Ġcol i
Ġê¸°ëĬ¥ ìłĢíķĺì¦Ŀ
ìŀĩ ëª¸
Ġvag inal
ĠìķĪë ĵ¤ìĸ´
Ġíĺ¸í ħĶë
Ġíĩ´ìĽĲ ìĿĦ
Ġë© Ģì©¡
Ġë°©ê´ĳ ìĿ´
Ġì¦Ŀê°Ģ íķĺìĺĢìľ¼ëĤĺ
ì¶Ķ ì²ľ
Ġì§ĢëĤ ¨
Ġìķ½ë¨¹ ìĿ´ê³ł
ex t
ĠëĮģ ìĹĲ
ocol itis
Ġlevel s
ĠìķĦì¹¨ìłĢëħģ ìľ¼ë¡ľ
S F
£ ¸
or am
Ġê²ĢìĤ¬ íķľ
Ġr f
ìłĲ ìĿ´
Ġë¹Ħí Ĭ¹ìĿ´
C o
Ġê° ¯
ìķ½ ë¨¹
at emia
Ġsid days
Ġk vl
ħ¨ ìľ¼ëĤĺ
Ġìĭľìŀĳ íķĺë©´
ĠìĥĿë¦¬ ìĭĿ
ĠìĦľë ¡ľ
ĠíħĮ ìĿ´íį¼ë§ģ
Ġê°ķìķĦì§Ģ ê°Ģ
Ġtrauma tic
R S
ĠíĻ ĺì
ìĿ´ì ħĺ
Ġìŀħ ê³ł
Ġìľłì§Ģ íķĺëĬĶ
ì° ¾
Ġë°Ľ ìľ¼ë©´
Ġìłĳì¢ħ ìĺĪìłķ
Ġë¶Ī ìĻĦìłĦ
ĠìĿ´ë¬¼ ìĿĦ
Ġëĵ¤ìĸ´ ê°Ģì
Ġìĺ¬ëĿ¼ ê°Ĳ
Ġê´Ģì°°ëĲĺ ìĹĪìľ¼ëĤĺ
ìľ¼ëł¤ íķ¨
ĠìłĦì¯¤ ìĹĲ
PD H
ë¨ ¼
Ġê±´ìĤŃ íĮĮìĹ´
ìĭľìĬ¤íħĮ ìĿ¸
ĠìŀħìĽĲ ì¡°ì¹ĺ
ĠìļĶ ì¦
ë¬ ½
Ġë§Ĳ ê¸°
ë³´ ìĿ´ì§Ģ
ĠíĪ¬ìĹ¬ íķł
Ġì²Ń ëĿ¼ëĿ¼
ast olic
Ġê²°ë§īìĹ¼ ìĹĲ
Ġë²łë ŀĢëĭ¤
hyp er
Ġê°Ħìĭ¤ì§Ī ìĿĺ
ĠìĽħíģ¬ë ¦¬ê³ł
Ġindis tinct
C a
H ep
ìķ½ ë¨¹ê³ł
Ġ( )
Ġv x
Ġëį°ëł¤ìĺ¤ ìħĶìĦľ
ìķĮ ìĤ°
Ġë´¤ ëĭ¤ê³ł
Ġíĭ °ì
íķĺì ŀĲ
Ġë³´ ëĭĪê¹Į
ì§Ħ ìĪĺìĦłìĥĿëĭĺ
ìħ ¨ëįĺ
Ġìłģ ê³ł
Ġì°¨ ê°Ģì
ĠíĮĮ ëĤĺì¿łìĸ´
ip rofloxacin
ĠìłĢì ¡°
Ġìĭłì²´ê²ĢìĤ¬ ìĭľ
Ġìĭ«ìĸ´ íķĺê³ł
ì¹ĺë ³ĳ
ĠìĿ¼ìĸ´ëĤ ĺë
Ġë¨¹ìĹĪ ëĬĶì§Ģ
Ġtw o
Ġpelv is
Ġdk a
ĠìĺµíĥĢë ĤĻ
ĠìľłëĤľ íŀĪ
¸ ì¡°
Ġë¨¹ ìĸ´ìļĶ
ĠP ulmonary
Ġíĩ´ìĽĲ ìĿĢ
ĠëĳĲ ê°Ģì§Ģ
Ġad renomegaly
ĠìŀĦìĥģì¦Ŀìĥģ ìĿĺ
ĠìķĶ ë¡ľëĶĶíķĢ
Ġê²°ìłĪ ìĿĢ
ĠSe vere
Ħ¥ ìĤ¼
oxantron e
° ľë
Ġë¨¹ ê±°ëĤĺ
ê±°ë ł¤ìĦľ
Ġìĥģëĭ´ ìĿĢ
Ġë¹Ħë ¹
êµĲ íķ©
end ent
ëĵ¤ ìĿĦ
ĠëĤĺìķĦ ì§Ģê³ł
Ġkerat ectomy
ĠíĨłë§Ī íĨł
Ġhor izontal
¦ ´ë¦¬
ìķ½ ìĹĲ
Ġl h
ìĺ µ
ĠíĻķìĿ¸ ìĺĪìłķ
Ġì§ĳ ê·¼ì²ĺ
ŀĺë ģ¼
Ġon f
Ġìŀ¬ë°ľ íķľ
Ġë¯¸ë Ħ¤ë
Ġìµľë ¯¼ìĦľ
Ġsub mandibular
Ġì²ĺì¹ĺì ¤ĳ
sm s
Ġí Ģ
ĠìĹĨ ìĸ´ìļĶ
Ġìĥģ ìĿĺë
ê¸° ê°ĦëıĻìķĪ
ķĮ ë¶ĢíĦ°
ĠëĪĪ ìĿĺ
ĠëĬ ĺìĸ´
tic al
Ġë³ĢíĻĶ ìĹĨìĿĮ
Ġë¶Ģ ëĭ´ì
Ġë°ĺë³µ ëĲĺëĬĶ
¬¸ ìĹĲ
ĠìĽĢì§ģìŀĦ ìĿĢ
Ġë³´í Ĺ
Ġì§ģìŀ¥ íĥĪ
Ġë°Ľìķĺ ìĹĪìĿĮ
C at
T P
a v
s k
ê³ł íķ¨
ê³ł ìĸĳ
Ġë§ ¨
ìĺ Ģ
¬ë ¥¼
íĮ Ģìŀ¥ëĭĺ
Ġpro f
ĠíĪ¬ìĹ¬ íķĺëĭ¤ê°Ģ
Ġëª© ìĨĮë¦¬
Ġop erated
ĠìłĲìĭ¬ ìĹĲ
Ġë¶Ģëĭ´ ìĿ´
íĿĶ ìłģ
iat al
ìľĦíĹ ĺìĦ±
Ġì¦ ĪìĿĮ
Ġêµ¿ ëª¨ëĭĿ
Ġë ĩĮë
Ġíĺ Ħì
§Ī ìĤ¬ì§Ģ
Ġì§Ħ ê·ł
ê²ł ëĭ¤ê³łíķ¨
Ġìŀ¬ë°ľ íķĺìĹ¬
Ġchem i
ĠëĬĲ ë¦¬
ĠëĩĮ ìĭ¤
ìĺ¤ë ¦¬
ĠìĦ±ê²© ìĿ´
ê·¸ ìłĢ
Ġìĸ´ë¨¸ëĭĺ ê»ĺìĦľ
Ġìľłë¦¬ë Ħ¤
ĠëıĮì¶ľë Ĳľ
Ġantib iotics
Ġìĺ¤íĶ Ī
ìĥģ ìķħ
ur itis
ì£¼ ìĭł
ëĬ¥ ëł¥
Ġì²ĺì¹ĺ íķĺë©´ìĦľ
ĠL T
Ġì¹ĺì Īĺ
Ġwith dog
ĠV x
Ġë¹ĦìĬ· íķĺëĤĺ
ĠêµĲìłķ ìĿĦ
Ġë¬´ ìĹĲì½ĶìĦ±
Ġdef ined
Ġê·¼ì²ĺ ìĹĲ
Ġê´Ģìĭ¬ ìĿĢ
Ġtoxic ity
Ġëĥīìŀ¥ ê³ł
Ġì¡± ë°ľ
ĠTr imethoprim
8 7
Ń ĩ
Ġd en
Ġìŀ¥ ìĹĲ
Ġì°¨ ìŀĪìĿĮ
Ġmed ia
Ġbl ack
Ġìŀ¬ë°ľ íķ¨
ĠìķĦëĭ ĻëĭĪëĭ¤
ĠìĪ¨ ìī
ìµľ ìĨĮ
íĶĮ ë¡ľ
ĠíĶ¼ë¶Ģìĥģíĥľ ëĬĶ
ĠëĨĵ ê³ł
Ġë³¼ë ¡Ŀ
Ġì»¨ ìĦ¤
Ġaut o
ĠìĿ´ë©Ķ ìĿ¼ë¡ľ
c er
ê° ĦíŀĪ
Ġm as
Ġw alking
ĠìķĦí Ĩł
Ġì»¤ ì§Ī
Ġì§ģìłĳ ìłģìĿ¸
Ġì¢ĭìķĦì¡Į ëĭ¤ê°Ģ
íĺ Ħì
Ġp ub
Ġíķĺì ŀĲê³ł
ê±°ë ¡ľ
ĠëĤ¨ ê¸°ë
ĠìķĮëŁ¬ì§Ģ ê°Ģ
Ġì§§ ìĿĮ
ite al
Ġì§Ģì¼ľë³´ì ĭľê¸°ë¡ľ
Ġic u
Ġìľłê¸°ë Ĩį
Ġìĸ´ìłľë°¤ ìĹĲ
Ġê·¹ìĨĮëŁī ìĿĺ
Ġatov aquone
íĶĦë¡ľìĬ¤ íĨ¨
1 38
S t
ĠìĦ ¤ë
os copy
ìĥģíĥľ ìĸĳíĺ¸
ĳĲ ê³ł
ë³´íĺ¸ìŀĲ ê°Ģ
ĠíĨł ìĤ¬
Ġco oling
ĠíĸīëıĻ ìłľíķľ
Ġê·¸ëłĩ ëĭ¤ê³ł
Ġì§ĢìłĢë¶Ħ íķ¨
Ġê¸°ëł¥ìłĢ íķĺë¡ľ
Ĩ¨ ìĿĮ
ĠëıħìĦ± ë³ĢíĻĶ
ĠëĳĲê°ľë Ĥ´
Ġflur biprofen
´ë³ ´ìŀĦ
ëį ķ
Ġìŀ¬ì§Ħ íķĺê¸°ë¡ľ
Ġëĸ °
de ep
Ġíķ¥ ê±°ëĤĺ
ì¸ ł
ĠìĦ¸ìłķ ìłľ
bul atory
Ġpentoxy phylline
ëħ¸ë ł¥ìĦ±
Ġë³µë°° ìĥģ
Ġcereni asid
Ĥ °ë
ĠìĨĮ ë¶Ħ
Ġê²ĢìĤ¬ ìĺĪìłķ
Ġìłľ íĭ°
ĠIV taurine
Ġì²´ìĺ¨ ê³Ħ
ĠëĤ® ë¶ĢíĦ°
Ġbl ind
ĠíĥĪëª¨ ëĬĶ
Ġì§Ħìłķ íĽĦ
Ġpod S
ĠëĬĺ íĳ¸ë
ĠëĬĺìĸ ´ë
ĠëĦĺìĸ´ì §Ĳ
Ġíĭ°ëª°ë łĮ
Ġs ulfamethoxazole
ĠN on
Ġíķĺë£¨ íķľë²Ī
Ġë© ´ë°Ģ
Ġê´Ģì°° íķĺê¸°ë¡ľ
ìķĶ ì¢ħ
ĠíĿīê°ķ ëĤ´
ĠìĦłíĥĿ íķĺìĭ¬
Ġê²½ê³¨ ì¡°ë©´
Ġplu cking
ĠìĨĮìŀ¥ë¶ĦìłĪ ìĿĺ
( /
P RE
Ġc ampylobacter
íķĺ ëĭ¤ê³łíķ¨
Ġê²ĢìĤ¬ íķĺê¸°ë¡ľ
ĠíĶ¼ë ıĦ
Ġìŀ¬ê²Ģ íķł
Ġne w
ĠìķĮ ìķĦìĦľ
ĠìĬ¤íĬ¸ëłĪìĬ¤ ê°Ģ
ĠíĨł íķ´ë
ĠìĤ¬ìĥģì¶© ê²ĢìĤ¬
Ġë°ķ ìĬ¤
hex idine
ĠìºĲëĭĪ ìĬĲë¦°
s poon
u L
ļ ´ëıĻ
ì§ ĪëıĦ
ê°Ģ ëĭ¤ê°Ģ
Ġì² ´ë
íķŃ ê²½ëł¨
íķĺë įĶëĭĪ
Ġíķĺë įĺ
ì§Ģë §Ī
ê¹Į ìļĶ
Ġê·¸ëŁ ´ì
íĶĦë łĪ
Ġag onal
Ġsm s
Ġë§ŀì¶ °ì
ĠìĪłìĭĿ ìĿĺ
ĠìľĦíĹĺ íķł
Ġureth rostomy
ëį°ë ł¤
Ġë©´ë´ī ìľ¼ë¡ľ
²¨ë Ĩįìĸĳ
v ol
´ ëĭ¤ê³ł
id a
re check
ĠìĹĨ ëįĺ
ĠìķĬ ëĬĶëį°
ĠìłĲ íĶĦë
ì¹ĺë£Į ë¥¼
êµĲ ìĥģ
Ġê°ģë§ī ë´īíķ©
Ġê±°ë ĮĢì
Ġë¨¹ìĹ¬ ë³´ê¸°ë¡ľ
Ġech ocardi
Ġìĭ¤ì§Ī ìĹĲ
Ġserv ice
m o
Ġìĸĳ ëıĦ
Ġìĥģ ìĥģ
Ġì§Ħíĸī íĸĪìľ¼ëĤĺ
Ġìĸĳìĥģ ìĹĲ
oma tic
vi ral
ane phrine
Ġë³µë¶Ģì´ĪìĿĮíĮĮ ê²ĢìĤ¬
Ġê¸°ê´Ģì§Ģ íĮ¨íĦ´
ĠìĨĮìļĶ ëĲł
Ġê¹ľë °ķ
ĠìłĦíĻĶë ĵľëł¸ìľ¼ëĤĺ
Ġì¹ĺìļ °ì
bur ary
D ys
ĠìĿ ĺì§Ģ
an mail
Ġch op
ìķĦë ŀĺì
ĠìķħíĻĶ ëĲĺê³ł
¦¬ë Ķĺ
Ġê¶¤ìĸĳ ë¶ĢìľĦ
ĠìĿ´ìķ¼ ê¸°ë¥¼
phor a
Ġregard ing
Ġë¯¸ìĥĿ ë¬¼
ĠìĹĲëĦĪ ì§Ģ
ë³ ĢëıĦ
Ġh etastarch
Ġin gestion
ł¤ íķ¨
ì§Ģë Ĥĺ
ĠëĦ Ī
Ġë¯¸ ëĭ¤
Ġíģ ¬ë¦¬
Ġë§Īì·¨ íļĮë³µ
Ġê´Ģ íķľ
und ant
Ġë§Īë £¨
Ġgl yc
Ġíķ´ ê²°ë
Ġic e
ì¢Įìĭ¬ ë°©
D ia
ìĤ¬ ë©Ķë
ê· Ģì§Ħëĵľê¸°
ĠìĿ´ë Ĥ´ë¡ľ
ĠíıĲ ìĭ¤ì§Ī
ĠìĹ° íķľ
ê¸°ì ´Ī
íĨµ ìĽĲ
ë³´íĺ¸ìŀĲ ëĭĺìĿ´
Ġhep amelz
Ġë¨¸ë¦¬ ìª½
Ġìŀ¦ ìķĦ
Ġred ness
Ġdig it
Ġê´Ģê³¨ êµ¬
Ĳ ĺìĸ´ìŀĪìĿĮ
Ġin st
ĠíĬ¹ ìĪĺ
Ġê³łëł¤ íķ´ìĦľ
ĠëĨĴ ìľ¼ë¯Ģë¡ľ
ĠìĭĿìĿ´ ìĹĲ
Ġë¹Ħí ĭ
Ġíķĺìĺ Ģ
Ġë¬½ ê²Į
Ġêµ¬ì¡°ë¬¼ ìĿ´
íķ´ë³´ì ĭłëĭ¤ê³ł
Ġê°ķìłľê¸īìĹ¬ ìĭľ
Ġê¹Į ëĭ¤ë¡ľ
Ġìĺ¬íķ´ ëĬĶ
Ġhist ologic
ĠíĥĢíŀĪë ³´
m m
Ġf acet
Ġl at
Ġë³´ ëĬĶëį°
ìĪĺ ìĿĺìĤ¬
Ġì§Ģê¸Ī ì²ĺëŁ¼
Ġrer ë¡ľ
Ġcomple tely
Ġê¸¸ë ĥ¥
ìĭ¸ ê³ł
ìľłëıĻ ìĭĿ
9 1
ìĹ ĳìĬ¤ë
íķĺì §ĢìķĬ
Ġì²ĺë°© ëĤ´ìĹŃ
Ġìĭ¬ìŀ¥ ìĭ¤ë£¨ìĹ£
ĠíıĲ ìłĦ
Ġëį°ëł¤ìĺ¤ ìĭł
Ġleuk openia
Ġvariant s
) /.
Ġìĭľ ìĭłê²½
ĠR T
ĠìĿĮ ê²½
Ġì¶Ķê°Ģ íķĺê³ł
Ġì·Įìŀ¥ìĹ¼ ìĿ´
Ġë°ķ ì¹ĺë³ĳ
íķ´ë³´ì ĭľê¸°ë¡ľ
Ġì§ģê²½ ìĿĢ
Ġcar ved
Ġë¹Ħìłķìĥģ ìłģìĿ¸
Ġë ¸Ķ
Ġë³ ´ìŀĲê³ł
ê°Ģ ìĹĲ
ĠìĪĺìĪł ì¤ĳ
ĠL K
Ġë¬¸ìłľ ìĹĲ
ĠìĥģíĻ© ìĿ´ë©°
Ġì§Ģì¼ľë ³´ìŀĲê³ł
Ġë¬´ë¥¸ë³Ģ ìĿĦ
Ġë¶Ģë¶ ĦëıĦ
Ġíķľë´ī ì§Ģ
ì§ĢìľĦ ìķ½
ĠëĩĮì²Ļ ìĪĺìķ¡
arab ine
g i
ìĥģ ì²ĺ
Ġg rid
¢ħ ê²©ëıĻ
ĠL a
ĠëĤ® ê³ł
Ġhem iwalking
ĵľë¦¬ ê²łìĬµëĭĪëĭ¤
ĠëıĮìķĦì ĺ¨
ĠìĻĶ ìĿĦ
Ġsily bid
Ġcorrug ated
Ġtria ditis
Ġìľ¼ë ¥´ëłģ
Ġìłķ ë§Ĳ
¹Ħ ìĹĲ
Ġì°¨ ìłģìĿ¸
ĠëĤĺ ê°Ģì
ĠëĤ¨ ìķĺìĿĮ
Ġcom b
ĠBG time
íķ´ë³´ì ĭľëĿ¼ê³ł
íķĺìĺĢ ëĬĶëį°
ĠìŀĪìĹĪ ì§Ģë§Į
Ġë§Ĳëĭ¨ ë¶Ģ
Ġëĩ¨ë°°ìĸĳ ê²ĢìĤ¬
Ġb ow
íķĺ ê¸°ë¥¼
ĠìłĦ ê·¹
Ġìĭłìŀ¥ ìķ½
ĠìķĦë ¯¸
Ġì¹ĺì ķ
Ġê°ģë§ī ìĹ¼
Ġ9 4
Ġcorona virus
ĠIm ipenem
Ġë±īìĸ´ë ĥĦ
Ġê³¼ìĤ°íĻĶ ìĪĺìĨĮ
Ġbrad ycardia
ìĹ ´ë¡ľ
ĠR F
ê°ķ íĻĶ
ov ol
ĠìŀĪìľ¼ ìĭľëĭ¤ê³ł
Ġê´Ģì°°ëĲĺ ìĹĪê³ł
Ġìĸ¼êµ´ì ª½
odic osis
ĠëĤ¯ ìĦł
e tin
ìŀĪ ìľ¼ë©°
Ġex udate
ë§Ī ìĤ¬ì§Ģ
Ġê°Ħê²© ìĿ´
ĠëĤ´ê³¼ ìĹĲìĦľ
ĠìĨĲ ë°Ķëĭ¥
íıĲ ìĩ
RI P
íĨ± íĭ±
ĠëĤł ìĿĢ
Ġ+++ ,
ĠíķŃíŀĪìĬ¤íĥĢë¯¼ ìłľ
6 9
Ġìŀ¬ íĪ¬ìķ½
Ġì¶ ľëł¥
Ġê°ľ ìĶ©
ĠìĻ¸ìĿ´ìĹ¼ ìľ¼ë¡ľ
Ļ¸ ìļ©
ĠíĿ¥ë¶Ħ íķĺê³ł
Ġì§Ģì¼ľë³´ ê¸°ë¡ľíķ¨
³¼ë ¦Ń
ĠíĥĢë °ķ
medi ated
Ġëĭ¬ëĿ¼ ì§Ī
TA TION
L s
Ĥ ĺìĦľ
Ġì£¼ ê°ĦëıĻìķĪ
Ġê°Ħ ê°ĦíŀĪ
ĠëĤ´ë³µìķ½ ê³¼
ĠíķĦìļĶ íķĺëĭ¤
Ġì¢ĭ ìķĺìľ¼ëĤĺ
ĠìĬ¤ íĶĮë
ê²ĥ ìĹĲ
oc ellular
Ġch roma
Ġë¹ĦìĬ· íķĺê±°ëĤĺ
ĠíĶ¼ë¶Ģë °ľìłģ
Ġêµ¬ê°ķ ìĥģíĥľ
Ġêµ¬íĨłì¦Ŀìĥģ ìĿĢ
Ġê½ ī
Ġduoden um
Ġf requ
ë¬¼ ìĹĲ
ĠìłĦíĻĶ ìĥģ
ìĪł ìłĦ
ìķĪë ıĦ
ìķĦí ħ
Ġì¦Ŀê°Ģë Ĳ¨
íķĺìĺĢ ëĭ¤ê³łíķ¨
tch ing
Ġìĺ¤ê¸Īë ¦¼íĶĦìłĪ
P SS
T t
ìĭľ íĤ¬
Ġìĸĳíĺ¸ íķĺìĺĢìľ¼ëĤĺ
ac ornea
ĠS ilymarin
ĠìĻ¸ ìĹĲëıĦ
ĠM UE
ĠíĶ¼ ê°Ģë
Ġë¹Ħë ²¼
Ġê±´ê°ķ íķ¨
ĠíĻ© ìĽĲìŀ¥ëĭĺ
Ġê·Ģì§ Ħëĵľê¸°ëĬĶ
Ġì§Īë ıĦë§Ĳ
Ġê·¸ëķĮ ë¶ĢíĦ°
ĠìĿ´íĬ¸ëĿ¼ ì½ĶëĤĺì¡¸
ĠìłķëŁī ê²ĢìĤ¬
íİĺ ëĭĪ
Ġë®¤ ì½Ķ
ìµľë ĮĢ
ĠíĤ¤ìļ°ë įĺ
Ġlvd ëĬĶ
S ulfamethoxazole
Ī Ħë
ì² «
ĠìŀħìĽĲ ìĹ°ìŀ¥
Ġê¹ Ģë
ĠëĤĺ ìĿ´ëĬĶ
ĠëĦ£ ëĬĶ
į° íĦ°
ĠìķĪì¢ĭ ëĭ¤ëĬĶ
ĠìĽ °ì
ĠìłĲìķĪ ì¤ĳ
til l
Ġag gressive
ĠëłĪëĤł ìºĶ
ĠRER ë¡ľ
Ġë¬¼ìĸ´ë³´ì ħĶìĦľ
M m
Ġl icking
ĠìŀĲ ëĭ¤
ìĸĳ ìĿĢ
Ġth ey
ĠD HP
Ġst ran
ĠìĪĺìķ¡ ìľ¼ë¡ľ
Ġì¢ħëĮĢ ëĬĶ
Ġech ogen
Ġê³łê´ĢìłĪ ìĿĺ
Ġhyd romorphone
ĠëķĮë¬¸ ìĿ¸
Ġê°ĳìŀĳìĬ¤ë Ł¬ìļ´
Ġì¹¼ìĬ ĺì
PRE TATION
end icular
Ġìľłë°ľ íķłë§Įíķľ
Ĥĺë §Ī
ê°ĻìĿĢ ê²Į
ìĺ¬ íķ´
US G
pim o
Ġì°Į êº¼
Ġê°ķëł¥ íŀĪ
ĠíķµìĨĮ ì²´ëĬĶ
ĠìĪĺíģ¬ë ŀĦíİĺìĿ´íĬ¸
ĠëĤ¨ê¸°ë ²Ķ
ê ½
Ġf rag
Ġa ortic
Ġìĭľ íĿ¥
Ġì§Ħíĸī íķĺê¸°
Ġì§Ħíĸī íķ´ì£¼ìĦ¸ìļĶ
ĠìĽĲ ìŀ¥
Ġíķĺ ê¸´
ĠìĪĺìķ¡ ëŁī
ĠìķĪëĤ´ íķ´
Ģë¡ľ ë¶Īë¦°
ĵ± ìĿĢ
Ġê´ľì°® ìķĺëĭ¤ê°Ģ
ĠíĿ¥ë¶Ħ íķĺìĹ¬
ìĹ¬ë¶Ģ ëĬĶ
ĠìĿ´ë²Ī ìĹĲëıĦ
Ġë§Īë į°ì¹´ìĨĶ
ìķł ê²¬
Ġê³łìĸĳ ìĿ´ì
Ġì¹´ëĵľê²°ìłľ ìĻĦ
íķ¨ ê»ĺ
Ġìĥģ ìĹĲìĦľëĬĶ
ìĦ± ì¤Ģ
il aminectomy
ĠìĪĺìĪł ìĿ´íĽĦ
Ġê³µ ìº¡ìĬĲ
Ġìŀ¬ê²Ģ íķĺìĹ¬
ĠìŀĪëĬĶ ê²ĥìľ¼ë¡ľ
ĠìĤ°ì±ħ íĽĦ
ĠìĦ¸ ì¹¨
-> /
ĠëĿ¼ ìĿ´
Ġë³´ë ¦¬
ĠìĽĢì§ģ ìĿ´ê³ł
Ġpost ure
Ġë§¡ ê¸°ì
Ġëº ı
ĠíĿĲë ¦Ħ
Ġarter y
ĠìĬ¤íħ Ŀ
Ġ Y
Ġ _
Ġm ale
Ġt ension
Ġë³´ ìĿ´ë¯Ģë¡ľ
ì£¼ ìĭľëĬĶ
ĠT CC
Ġì¤ĳëĭ¨ íķł
Ġì²´íģ¬ íķł
Ġìļ´ëıĻ ìĿĦ
Ġar rhyth
Ġdist emper
Ġìŀĺì§Ģë ĥĪ
ĠíĶ¼íķĺë ¶Ģì¢ħ
ìĹ¬ë ¦Ħ
ĠINTER PRETATION
ĺ Īë°©
ĠP S
ĠìķĪ ìĸĳ
Ġìłľ ì£¼ë
ĠíĺĪìķ¡ê²ĢìĤ¬ ìĹĲìĦľ
Ġë§Į ìĿ¼
ì¸ Ħë
Ġë¨¹ìĺ Ģìľ¼ëĤĺ
Ġê±°íĴĪ ìĦ±
êº ½
ĠìłĲìĭ¬ ìķ½
ĠëĬĺìĸ ´ì
Ġì£¼ì¹ĺìĿĺì ĦłìĥĿëĭĺ
ĠíĻĪ ì¼Ģìĸ´
RIP TION
: "
Ġê²ĢìĤ¬ ê¸°ë¡Ŀ
íĸ ĪëįĶëĭĪ
Ġê¸°ì¹¨ ìľ¼ë¡ľ
rom al
Ġëª¨ ê²¬
Ġchem o
Ġìļ°ëł¤ë Ĳĺìĸ´
Ġcac hexia
¤ ĺëıĦ
ë¡ľ ìĿĺ
Ġin let
ĠìłĢ íķĺëĬĶ
ĠìĻ¼ìª½ ìĿĢ
ìŀĪëĬĶ ì§Ģ
ĠìĥĿìĭĿ ê¸°ë¥¼
ìĸ´ëĤ ¨
Ġëĭ¹ìĿ¼ ìĪĺìķ¡
ĠêµĲìĥģ ìľ¼ë¡ľ
ê°Ģìĭľ ê¸°ë¡ľ
Ġcir c
Ġëħ¸ëŀĢë ¬¼
eca use
ĠDE SC
Ĳ ĺìĦľ
Ľ ł
íĥ Ģë¦¬
ut er
azol in
Ġìļ´ëıĻ ìĿĢ
ĠìĬ¤íħĮë¡ľìĿ´ëĵľ ëĬĶ
ì²Ļ ì¶Ķ
ĠëĩĮ ìĻ¸
Ġìĺ¬ëĿ¼ ìĺ¨
Ġëħ¹ëĤ´ìŀ¥ ìľ¼ë¡ľ
Ġê°Ķ ëĬĶëį°
į°ë ¦¬ê³ł
Ġë® ¤ë¡ľ
ĥģ íĻĶ
ĠíĻķ ë³´ë
ĵľë ²¤
Ġë²ł íĥĢëĶĺ
ag es
Ġbronch o
ĠìľĦìŀ¥ê´Ģ ìĹ¼
ìĿĢì ĭ¤
ëĮĢì ĪĺìĪł
Ġìª ¼
Ġìľłë¦¬ëĦ¤ ìĿ´ëĵľ
Ġd eter
er at
Ġë³µ ìĪĺëŁī
Ġëĸ Ħ
Ġê°ķ ìłľë¡ľ
ost omy
ĠìľłëıĻìĭĿ ìľ¼ë¡ľ
ĠëĳĲë ²ĪìłķëıĦ
Ġê°ĢìĬ¤ ê°Ģ
ĠìĹĨìĸ´ì ¡ĮìĿĮ
Ġresol ved
ë ¦¼íĶĦ
on us
Ġn androlone
od ermatitis
Ġì§ĢìĨį ëĲĺë©°
Ġë¬¼ ìĸ´
Ġcon tinuous
Ġì·Įìŀ¥ìĹ¼ ê³¼
ë¹Ħ ê°ķ
Ġë¦¬ ëª¨ëį¸ë§ģ
Ġel ec
ëĶĶ ìĬ¨
ĠLVID d
Ġ: (
Ġt amsulosin
Ġê²ĢìĤ¬ íķł
ê°Ħ ìĿ´
ĠN P
ĠR od
ĠìłĦë ĤŃ
ĠëĲ ĺëĤĺ
Ġê¸ģ ìľ¼ëł¤ê³ł
Ġëĭ´ëĤŃ ìłģì¶ľìĪł
ĠìłĦìĿ´ ê°Ģ
ĠìłĲì°¨ ìłģìľ¼ë¡ľ
ĠíĻľë°ľ íķĺê²Į
Ġê³łìľł ìŀĲìĦ¸
ie tin
Ġíķłë ¨¸ëĭĪ
p rednisolone
le ft
ìĿ¼ë ¶Ģ
Ġê¸ģ ìĹĪìĿĮ
Ġìĭ¤ë Ĥ´ì
ĠìķĦíĮĮ íķ´ìĦľ
Ġíĺ¸ìĨĮ íķ¨
ìĹ°ë ł¹
ĠëĦ£ìĸ´ì£¼ ìĭľê³ł
Ġíĭ Ģìĸ´ì
Ġë°ĢëıĦ ìĿĺ
Ġic ce
ê¸¸ë ŀĺ
½ĺ íĭ´
ĠìĽ¨ìĬ¤ íĦ´
ëĬ ¦
Ġíĺ ¼ë
Ġìĭ¬ ë¹Ħë
ĠëĤ´ë³µìķ½ íĪ¬ìķ½
Ġê¶Įìŀ¥ ëĵľë¦¼
Ġep inephrine
Ġê°ľêµ¬ ë¶Ģ
Ġ17 0
ĠìľĦì¶ķ ìĿĺ
ë¥ł ìĿĢ
Ġë³´íĺ¸ìŀĲë¶Ħë §Į
Ġë§Īëĭ¹ ìĹĲìĦľ
Ġë©°ëĬĲë¦¬ ë°ľíĨ±
Ġì»¨ìĦ¤ íĮħ
íķŃê²½ëł¨ ìłľ
U PC
ì§ ľë
Ġh b
íĨł ìĤ¬ë¯¼
ĠA A
op eration
Ġíķĺë£¨ ìĿ´íĭĢ
ĠíĮ Ķë
Ġê¸°ë³¸ ìļ©ëŁī
Ġì§Ģì¼ľë³´ì ĭľëĿ¼ê³ł
ĠìłĦìĹ½ ìĿĺ
ìĹĨìĿĦ ìĭľ
Ġneoplasm s
Ġë¶Ģìĸ´ìŀĪ ê³ł
ĠìŀĦë ³´
Ġë¶Ģëĭ´ì Ĭ¤ë
ìķĦíħ įìĬ¤
: (
D eposit
Ġb ite
ìĿ¼ ìĭľ
Ġì£¼ ìľĦë¡ľ
Ġë°Ľ ìķĺëĬĶëį°
ĠíĬ¹ìĿ´ ìłģ
ë³´íĺ¸ìŀĲ ìĥģëĭ´
ĠìķĦìĿ´ ìĿ¸ëį°
ĠëĤ´ìĽĲìĭľ ìĹĲëĬĶ
oos ting
ĠìĦŃ ì·¨ë
Ġar terial
Ġmyc ophenolate
Ġpse ud
Ġt es
ĠP ol
Ġê°Ĳ ê¸°ì¦Ŀìĥģ
ul y
ĠE T
ìĤ Ń
Ġìłķìĥģë³Ģ ìĿĦ
oll apse
Ġz one
Ġíĳľ íĺĦ
ìĿ´íĭĢ ìłĦë¶ĢíĦ°
Ġê³łê°ľ ê°Ģ
ĠëĳĲêº¼ìĽĮ ìł¸
ê´Ģì°°ë Ĳ¨
lip id
Ġdisch arg
Ġskele ton
i en
s ildenafil
© Į
Ġ- ),
Ġì§Ħëĭ¨ ìĿĢ
ĠìĪĺë ħĦ
Ġìľłì§Ģì Īĺìķ¡
ì± Ħì
Ġnec ro
Ġwed ge
C alc
ê³ł ì§Ģ
Ġc bd
ĠìĤ¬ ì§Ħë
Ġê²½ ì¶ĶëĶĶìĬ¤íģ¬
Ġë°°ëĩ¨ íķĺëĬĶ
Ġst udy
Ġì§Ħë£Į ìĹĲ
osp ital
ëĪĪ ìĹĲ
Ġpul mon
ĠìŀĲë Ŀ¼ë
ëĲĺì §Ģë§Į
ĠCeph alothin
ĠTra cheal
[...]
