[PAD]
[UNK]
[CLS]
[CLS1]
[CLS2]
[SEP]
[MASK]
!
"
#
$
%
&
'
(
)
*
+
,
-
.
/
0
1
2
3
4
5
6
7
8
9
:
;
<
=
>
?
@
A
B
C
D
E
F
G
H
I
J
K
L
M
N
O
P
Q
R
S
T
U
V
W
X
Y
Z
[
\
]
^
_
`
a
b
c
d
e
f
g
h
i
j
k
l
m
n
o
p
q
r
s
t
u
v
w
x
y
z
{
|
}
~
®
·
™
↔
∼
▶
♀
♂
♥
♨
ㄱ
ㄲ
ㄳ
ㄴ
ㄵ
ㄶ
ㄷ
ㄸ
ㄹ
ㄺ
ㄻ
ㄽ
ㅀ
ㅁ
ㅂ
ㅃ
ㅄ
ㅅ
ㅆ
ㅇ
ㅈ
ㅉ
ㅊ
ㅋ
ㅌ
ㅍ
ㅎ
ㅏ
ㅐ
ㅑ
ㅒ
ㅓ
ㅔ
ㅕ
ㅖ
ㅗ
ㅘ
ㅚ
ㅛ
ㅜ
ㅝ
ㅠ
ㅡ
ㅢ
ㅣ
ㆀ
ㆍ
㈜
㎍
㎎
㎏
㎕
㎗
㎜
㎝
㎡
三
中
乳
人
他
件
佇
低
傷
兪
前
化
匡
又
右
同
喪
嚴
土
外
多
大
天
好
娥
字
完
小
常
帽
平
强
後
必
念
性
態
我
抉
日
時
晥
曰
會
月
有
木
柰
桓
樣
死
氏
水
求
泉
活
淄
湧
澯
火
炳
無
煐
煞
燒
牛
犬
猪
珦
琯
環
生
用
男
症
百
的
眼
硫
社
種
箚
系
耳
胃
腎
腫
腰
自
萱
藥
襲
計
講
足
跳
里
門
陵
陽
頭
風
食
駕
高
가
각
갂
간
갅
갇
갈
갉
갌
감
갑
값
갓
갔
강
갖
갗
갘
같
갚
갛
개
객
갠
갣
갤
갬
갭
갯
갰
갱
갷
갸
갹
갼
걀
걈
걌
걍
걔
거
걱
걲
걳
건
걷
걸
걺
검
겁
겂
것
겄
겅
겆
겈
겉
겊
겋
게
겍
겐
겑
겒
겔
겜
겟
겠
겡
겤
겨
격
겪
견
겭
겯
결
겱
겴
겸
겹
겻
겼
경
겾
곁
곃
계
곗
곘
곟
고
곡
곤
곧
골
곩
곪
곭
곮
곯
곰
곱
곳
공
곶
곸
곹
곺
곻
과
곽
관
괁
괄
괌
광
괒
괘
괙
괜
괝
괞
괭
괯
괴
괸
굄
굉
교
굑
굘
굥
구
국
군
굳
굴
굵
굶
굷
굼
굽
굿
궁
궂
궃
궅
궈
권
궐
궛
궜
궝
궞
궤
궬
궹
귀
귄
귈
귓
귕
귖
귗
규
균
귤
귱
그
극
근
귾
귿
글
긁
긂
긄
긇
금
급
긊
긋
긍
긎
긐
긑
긔
긘
긜
기
긱
긴
긷
길
긹
긺
김
깁
깃
깄
깅
깆
깇
깉
깊
깋
까
깍
깎
깐
깔
깗
깜
깝
깠
깡
깢
깥
깧
깨
깩
깬
깰
깸
깹
깻
깼
깽
꺄
꺅
꺙
꺠
꺤
꺨
꺰
꺳
꺴
꺵
꺶
꺼
꺽
꺾
껀
껄
껌
껍
껏
껐
껑
께
껙
껜
껨
껩
껫
껭
껴
껶
꼄
꼇
꼈
꼐
꼔
꼖
꼬
꼭
꼮
꼰
꼴
꼼
꼽
꼿
꽁
꽂
꽃
꽅
꽈
꽉
꽝
꽤
꽥
꽹
꾀
꾁
꾝
꾱
꾲
꾵
꾸
꾹
꾺
꾼
꾾
꿀
꿇
꿈
꿉
꿍
꿎
꿔
꿕
꿘
꿧
꿨
꿩
꿰
꿱
뀌
뀐
뀔
뀜
뀝
뀟
뀡
뀨
뀰
끄
끅
끆
끈
끊
끋
끌
끍
끎
끓
끔
끕
끗
끘
끙
끝
끟
끰
끼
끽
낀
낄
낌
낍
낐
낑
나
낙
낚
난
낟
날
낡
낢
남
납
낫
났
낭
낮
낯
낱
낳
내
낵
낸
낻
낼
냄
냅
냇
냈
냉
냊
냏
냐
냑
냔
냘
냠
냥
넀
너
넉
넋
넌
넎
널
넑
넒
넓
넖
넗
넘
넙
넚
넛
넜
넝
넞
넢
넣
네
넥
넧
넨
넫
넬
넴
넵
넷
넹
녀
녁
녂
녃
년
녈
념
녑
녓
녔
녕
녖
녘
녛
녜
노
녹
녺
논
녿
놀
놂
놈
놉
놋
놌
농
높
놓
놔
놧
놨
놯
뇌
뇐
뇨
뇩
뇬
뇰
뇸
뇻
뇽
누
눅
눈
눌
눔
눕
눗
눙
눚
눞
눟
눠
눤
눨
눳
눴
눵
뉘
뉜
뉠
뉨
뉴
뉵
뉸
뉼
늄
늉
느
늑
늒
는
늕
늗
늘
늙
늚
늟
늠
늣
능
늦
늧
늪
늫
늬
니
닉
닊
닌
닏
닐
님
닙
닛
닜
닝
닞
닟
닡
닢
닣
다
닥
닦
단
닩
닫
달
닭
닮
닯
닰
닳
담
답
닶
닷
닸
당
닺
닻
닽
닿
대
댁
댄
댇
댈
댐
댑
댓
댔
댕
댛
댜
댝
댠
댤
댯
댱
댸
더
덕
던
덜
덝
덞
덟
덤
덥
덧
덨
덩
덪
덫
덮
덯
데
덱
덴
덷
델
뎀
뎁
뎃
뎄
뎅
뎌
뎐
뎓
뎜
뎟
뎠
뎦
뎨
도
독
돈
돋
돌
돍
돎
돐
돔
돕
돗
동
돚
돛
돝
돟
돠
돤
돨
돰
돼
됀
됌
됍
됏
됐
되
됙
된
됟
될
됡
됨
됩
됫
됬
됭
됮
됴
둉
두
둑
둒
둔
둗
둘
둚
둟
둠
둡
둣
둥
둬
둰
둴
둿
뒀
뒅
뒤
뒥
뒫
뒬
뒵
뒷
뒸
뒹
듀
듁
듈
듐
듕
드
득
듟
든
듣
들
듥
듦
듧
듬
듭
듯
등
듵
듷
듸
딂
딈
디
딕
딖
딘
딛
딜
딞
딤
딥
딧
딨
딩
딪
딫
딭
딯
따
딱
딲
딴
딸
딹
땀
땁
땄
땅
땉
땋
때
땐
땔
땜
땝
땠
땡
땨
떄
떈
떗
떙
떠
떡
떢
떤
떨
떪
떫
떯
떰
떱
떳
떴
떵
떻
떼
뗀
뗄
뗌
뗏
뗐
뗑
뗒
뗠
뗴
또
똑
똔
똘
똠
똥
뙈
뚜
뚝
뚞
뚠
뚤
뚥
뚫
뚯
뚱
뚷
뛰
뛴
뛸
뜀
뜁
뜅
뜡
뜨
뜩
뜬
뜮
뜯
뜰
뜷
뜸
뜹
뜻
뜽
띁
띄
띈
띋
띌
띔
띕
띠
띡
띤
띨
띰
띱
띵
라
락
띿
란
랂
랃
랄
랇
람
랍
랏
랐
랑
랓
랔
랗
래
랙
랜
랠
랣
램
랩
랫
랬
랭
랮
랰
랲
랴
략
랸
랼
럄
럈
량
럤
러
럭
럯
런
럱
럴
럼
럽
럿
렀
렁
렂
렃
렆
렇
레
렉
렌
렏
렐
렘
렙
렛
렜
렝
렢
려
력
렦
렧
련
렪
렫
렬
렴
렵
렷
렸
령
렺
렿
례
로
록
론
롣
롤
롫
롬
롭
롯
롱
롲
롶
롷
롸
롹
롼
뢀
뢓
뢰
뢴
룀
룁
료
룍
룐
룔
룜
룝
룟
룡
루
룩
룬
룯
룰
룲
룸
룹
룻
룽
룾
뤂
뤃
뤄
뤘
뤼
륄
류
륙
륜
률
륨
륩
륭
르
륵
른
륻
를
륽
륾
름
릅
릇
릉
릊
릍
릎
릐
릘
릠
리
릭
릮
릯
린
릱
릳
릴
릶
림
립
릿
맀
링
맃
마
막
맊
만
맍
많
맏
말
맑
맒
맗
맘
맙
맛
맜
망
맞
맟
맡
맢
맣
매
맥
맨
맬
맴
맵
맷
맸
맹
맺
맻
맿
먀
먁
먄
먐
먕
머
먹
먺
먻
먼
먾
먿
멀
멈
멊
멋
멌
멍
멎
멏
멑
멓
메
멕
멘
멚
멜
멤
멧
멨
멩
멬
멭
며
멱
면
멵
멷
멸
몀
명
몆
몇
몊
몌
모
목
몫
몬
몯
몰
몱
몸
몹
못
몼
몽
몾
뫂
뫄
뫘
뫼
묘
묙
묜
무
묵
묶
문
묻
물
묽
묾
묿
뭁
뭃
뭄
뭅
뭇
뭉
뭊
뭍
뭎
뭏
뭐
뭑
뭔
뭘
뭠
뮈
뮤
뮨
뮬
뮭
뮴
뮷
므
믄
믇
믈
믉
믐
믕
믚
미
믹
민
믾
믿
밀
밂
밈
밉
밋
밍
밎
및
밑
밒
바
박
밖
밗
반
밙
받
발
밝
밞
밟
밠
밡
밢
밣
밤
밥
밧
밨
방
밪
밫
밬
밭
밮
밯
배
백
밴
밷
밸
뱀
뱁
뱃
뱄
뱅
뱉
뱌
뱍
뱐
뱓
뱔
뱝
뱡
뱨
버
벅
번
벉
벋
벌
범
법
벗
벙
벚
베
벡
벤
벨
벳
벵
벹
벼
벽
벾
변
볁
볃
별
볅
볆
볋
볌
볍
볏
볐
병
볒
볓
볔
볕
보
복
볶
볷
본
볻
볼
봀
봃
봄
봅
봇
봈
봉
봊
봌
봍
봎
봏
봐
봑
봠
봣
봤
봥
봬
뵀
뵁
뵈
뵌
뵐
뵙
뵛
뵤
뵥
뵨
뵹
부
북
분
붅
붇
불
붉
붊
붍
붎
붏
붐
붑
붓
붕
붖
붗
붙
붚
붜
붠
붰
뷔
뷰
뷴
뷸
뷹
븅
브
븐
블
븕
븜
븡
비
빅
빆
빈
빋
빌
빔
빕
빗
빙
빚
빛
빝
빠
빡
빢
빤
빨
빩
빫
빯
빰
빱
빳
빴
빵
빶
빻
빼
빽
빾
뺀
뺃
뺄
뺌
뺍
뺏
뺐
뺑
뺘
뺨
뺴
뺵
뺸
뺼
뻄
뻇
뻈
뻐
뻑
뻔
뻗
뻘
뻠
뻣
뻤
뻥
뻬
뼈
뼉
뼌
뼘
뼛
뼤
뽀
뽁
뽂
뽈
뽐
뽑
뽕
뾰
뾱
뿅
뿌
뿍
뿐
뿔
뿕
뿜
뿝
뿡
쀼
쁘
쁙
쁜
쁠
쁨
쁩
삐
삑
삔
삘
삠
삣
삥
사
삭
삮
산
삳
살
삵
삶
삷
삺
삻
삼
삽
삿
샀
상
샂
샅
샆
샇
새
색
샊
샋
샌
샐
샘
샙
샛
샜
생
샡
샢
샤
샥
샨
샬
샴
샵
샷
샹
샾
섀
서
석
섞
섟
선
섡
섣
설
섦
섨
섬
섭
섯
섰
성
섲
섵
섶
세
섹
센
셀
셈
셉
셋
셌
셍
셐
셒
셔
셕
션
셜
셤
셥
셧
셨
셩
셰
셸
소
속
손
솓
솔
솜
솝
솟
송
솥
솦
솧
솨
솩
솽
쇄
쇅
쇗
쇙
쇠
쇡
쇤
쇳
쇼
쇽
숀
숄
숍
숏
숐
숑
숔
숖
수
숙
순
숟
술
숣
숤
숧
숨
숩
숫
숭
숮
숯
숱
숲
숴
쉄
쉈
쉐
쉑
쉔
쉘
쉬
쉭
쉰
쉴
쉼
쉽
쉿
슁
슃
슈
슉
슌
슐
슗
슘
슙
슛
슝
슢
스
슥
슨
슬
슭
슮
슴
습
슷
승
슼
슽
슾
싀
싁
싄
시
식
싞
싟
신
싢
싣
실
싥
싦
싧
싨
싫
심
십
싯
싰
싱
싲
싳
싴
싵
싶
싷
싸
싹
싼
싿
쌀
쌂
쌈
쌉
쌋
쌌
쌍
쌓
쌔
쌕
쌘
쌜
쌤
쌥
쌧
쌨
쌩
썍
썜
썡
써
썩
썪
썬
썰
썸
썹
썻
썼
썽
쎄
쎅
쎈
쎌
쎔
쎕
쎠
쎳
쎴
쎼
쎽
쏀
쏘
쏙
쏜
쏟
쏠
쏨
쏭
쏴
쏵
쐇
쐈
쐐
쐠
쐤
쐬
쐰
쐴
쐼
쑀
쑈
쑝
쑤
쑥
쑨
쑴
쒀
쒸
쒼
쓰
쓱
쓴
쓸
씀
씁
씃
씅
씈
씌
씨
씩
씪
씫
씬
씯
씰
씸
씹
씻
씼
씽
앂
아
악
앆
앇
안
앉
않
앋
알
앍
앎
앏
앑
앓
암
압
앖
앗
았
앙
앚
앛
앝
앞
앟
애
액
앤
앧
앨
앰
앱
앳
앴
앵
앹
앻
야
약
앾
앿
얀
얃
얄
얅
얆
얇
얉
얊
얋
얌
얍
얏
얐
양
얕
얖
얗
얘
얜
얬
어
억
얷
언
얹
얺
얻
얼
얽
얾
엃
엄
업
없
엇
었
엉
엊
엌
엎
엏
에
엑
엔
엕
엗
엘
엠
엡
엣
엤
엥
엦
엧
엫
여
역
엮
연
열
엶
엷
엹
염
엽
엾
엿
였
영
옂
옅
옆
옇
예
옐
옙
옛
옜
옞
오
옥
온
옫
올
옭
옮
옯
옳
옴
옵
옶
옷
옸
옹
옺
옻
옿
와
왁
완
왈
왐
왑
왓
왔
왕
왜
왝
왠
왤
외
왹
왼
욀
욈
욉
욋
욍
요
욕
욘
욜
욤
욥
욧
용
욪
욫
욯
우
욱
운
욶
욷
울
욹
욺
욿
움
웁
웃
웄
웅
웇
웉
워
웍
원
웑
웒
월
웖
웜
웝
웞
웟
웠
웡
웥
웧
웨
웩
웬
웰
웹
웻
위
윅
윈
윌
윔
윗
윘
윙
윟
유
육
윤
윧
율
윰
윱
윳
융
윶
윷
윺
윻
으
윽
은
읁
읃
을
읆
읈
음
읍
읏
읐
응
읒
읓
읔
읕
읖
읗
의
읙
읜
읠
읨
읫
읭
읮
읳
이
익
인
읹
읺
읻
일
읽
읾
읿
잀
잂
잃
임
입
잆
잇
있
잉
잊
잋
잌
잍
잎
잏
자
작
잔
잕
잖
잗
잘
잙
잚
잛
잞
잠
잡
잣
잤
장
잦
잩
잫
재
잭
잰
잴
잼
잽
잿
쟀
쟁
쟃
쟈
쟉
쟎
쟐
쟝
쟤
쟬
쟸
저
적
젂
젃
전
젅
젇
절
젊
젋
젌
젍
젎
점
접
젓
젔
정
젖
젛
제
젝
젠
젣
젤
젬
젭
젯
젱
젲
져
젹
젼
졀
졈
졉
졋
졌
졍
졎
졑
졓
졔
조
족
졲
존
졵
졷
졸
졺
졿
좀
좁
종
좆
좇
좊
좋
좌
좍
좎
좐
좔
좟
좡
좢
좣
죄
죙
죠
죡
죤
죵
주
죽
준
줄
줅
줆
줋
줌
줍
줏
줐
중
줒
줕
줗
줘
줜
줨
줫
줬
줴
쥐
쥠
쥬
쥰
쥴
쥼
즁
즈
즉
즋
즌
즐
즘
즙
즛
증
지
직
짂
진
짅
짆
짇
질
짊
짍
짎
짐
집
짓
징
짖
짗
짙
짚
짛
짜
짝
짞
짠
짢
짣
짤
짥
짦
짧
짫
짬
짭
짯
짰
짱
째
짹
짼
쨈
쨋
쨌
쨍
쨔
쨩
쨰
쩀
쩃
쩌
쩍
쩐
쩔
쩗
쩜
쩝
쩠
쩡
쩨
쪄
쪗
쪘
쪚
쪼
쪽
쪾
쫀
쫄
쫌
쫍
쫏
쫑
쫒
쫓
쫗
쫘
쫙
쬐
쬬
쬭
쭁
쭈
쭉
쭌
쭐
쭘
쭙
쭤
쭸
쮸
쯉
쯏
쯔
쯕
쯤
쯩
찌
찍
찐
찔
찜
찝
찟
찡
찢
찧
차
착
찬
찭
찮
찰
찱
찴
찶
찷
참
찹
찻
찼
창
찾
찿
챀
챂
챃
채
책
챆
챈
챊
챌
챔
챕
챗
챘
챙
챠
챡
챤
챦
챶
챼
처
척
천
첞
철
첨
첩
첫
첬
청
첮
첯
체
첵
첸
첼
쳄
쳇
쳉
쳊
쳌
쳐
쳑
쳔
쳘
쳣
쳤
쳥
쳬
초
촉
촌
촏
촐
촘
촛
총
촞
촠
촣
촤
촥
촨
촬
촹
쵀
최
쵤
쵸
쵹
춈
추
축
춘
춛
출
춝
춞
춟
춣
춤
춥
춧
충
춪
춫
춮
춯
춰
춴
춸
췃
췄
췅
췌
췍
취
췩
췰
췻
췼
츄
츅
츈
츌
츕
츙
츠
측
츣
츤
츧
츨
츰
츳
층
츷
츻
츼
치
칙
친
칠
칡
침
칩
칫
칭
칮
칯
칰
칲
카
칵
칸
칼
캄
캅
캇
캉
캍
캐
캑
캔
캕
캘
캠
캡
캢
캣
캥
캩
캬
캭
캰
캴
컌
컙
커
컥
컨
컫
컬
컴
컵
컷
컸
컹
컼
케
켁
켄
켈
켐
켑
켓
켔
켕
켘
켜
켞
켠
켤
켬
켭
켯
켰
켸
켹
코
콕
콗
콘
콜
콤
콥
콧
콩
콬
콰
콱
콸
쾅
쾌
쾍
쾡
쿄
쿠
쿡
쿤
쿨
쿰
쿱
쿵
쿼
퀀
퀄
퀘
퀙
퀠
퀫
퀭
퀴
퀵
퀸
퀼
큄
큇
큌
큐
큘
크
큭
큰
클
큼
큽
킁
킄
킅
킌
키
킥
킨
킬
킮
킴
킵
킷
킹
킻
킼
킽
타
탁
탃
탄
탇
탈
탉
탊
탋
탐
탑
탓
탔
탕
탗
탙
태
택
탠
탤
탬
탭
탯
탱
탵
탶
탸
탹
턀
턏
턔
터
턱
턴
털
턺
텀
텁
텃
텄
텅
텉
텋
테
텍
텐
텔
텗
템
텝
텦
텨
텩
텻
텼
토
톡
톤
톧
톨
톰
톱
톳
통
톷
톹
톻
톼
퇄
퇘
퇴
툉
툐
툠
툡
툥
투
툭
툰
툴
툶
툼
툽
툿
퉁
퉈
퉜
퉤
튀
튄
튈
튐
튑
튕
튜
튤
튬
트
특
튻
튼
튿
틀
틈
틉
틋
틍
틎
틑
틔
틤
티
틱
틴
틷
틸
팀
팁
팃
팅
팆
팇
파
팍
팎
판
팓
팔
팜
팝
팟
팠
팡
팥
팦
팧
패
팩
팫
팬
팰
팸
팹
팻
팽
퍄
퍅
퍈
퍙
퍝
퍠
퍼
퍽
펀
펄
펌
펍
펏
펐
펑
페
펙
펜
펠
펨
펩
펫
펭
펱
펲
펳
펴
편
펼
폄
폇
폈
평
폐
폗
폣
폥
포
폭
폰
폴
폼
폿
퐁
퐄
퐈
퐉
퐌
퐐
표
푝
푱
푸
푹
푼
풀
품
풉
풋
풍
풑
풒
퓌
퓨
퓩
퓰
프
픅
픈
플
픔
픕
픙
픞
픠
피
픽
핀
핃
필
핅
핉
핊
핌
핍
핏
핑
하
학
핚
핛
한
핝
핞
핟
할
핡
핢
핣
핥
핦
핧
함
합
핪
핫
핬
항
핮
핱
핳
해
핵
핸
핻
핼
햄
햅
햇
했
행
햊
햋
햏
햐
햔
햘
햙
햚
햛
햝
햟
햠
햡
햣
햤
향
햩
햫
햬
헀
헁
허
헉
헌
헐
헒
헕
험
헙
헛
헝
헞
헣
헤
헥
헧
헨
헬
헴
헵
헷
헸
헹
혀
혁
현
혅
혇
혈
혉
혊
혋
혍
혐
협
혓
혔
형
혖
혛
혜
혝
호
혹
혼
혿
홀
홈
홉
홋
홍
홎
홑
홒
홓
화
확
홖
홗
환
홛
활
홞
홟
홡
홤
홥
홧
황
홪
홯
홰
홱
횃
횅
회
획
횐
횔
횜
횝
횟
횠
횡
횤
효
횬
횰
횻
횽
후
훅
훈
훌
훑
훔
훕
훗
훙
훚
훠
훡
훤
훨
훵
훼
훽
휀
휄
휑
휘
휙
휜
휠
휨
휩
휫
휭
휴
휵
휸
휼
흄
흅
흉
흐
흑
흔
흘
흙
흝
흠
흡
흢
흥
흦
흩
희
흰
흼
히
힉
힌
힏
힐
힕
힘
힙
힛
힜
힝
##모
##지
##현
##상
##생
##검
##시
##포
##될
##9
##1
##4
##0
##S
##o
##n
##t
##a
##m
##i
##u
##b
##c
##e
##s
##A
##주
##와
##장
##서
##f
##x
##y
##g
##v
##l
##하
##려
##면
##이
##게
##납
##부
##탁
##드
##렸
##는
##데
##다
##케
##어
##인
##과
##차
##예
##정
##며
##음
##달
##약
##에
##식
##보
##체
##가
##성
##은
##양
##을
##싸
##고
##재
##평
##h
##H
##C
##T
##었
##대
##등
##연
##입
##니
##토
##처
##r
##울
##해
##나
##욕
##단
##위
##세
##요
##G
##B
##꼬
##리
##매
##진
##호
##자
##님
##일
##촬
##영
##루
##농
##발
##된
##듯
##덕
##거
##림
##p
##롱
##추
##분
##2
##5
##의
##절
##경
##화
##피
##안
##순
##막
##복
##술
##좋
##았
##함
##3
##라
##치
##료
##중
##혈
##만
##K
##젠
##d
##z
##른
##편
##임
##초
##파
##도
##사
##했
##네
##살
##신
##있
##던
##뎀
##로
##색
##비
##물
##증
##병
##태
##합
##전
##흔
##적
##량
##심
##때
##문
##들
##길
##소
##회
##알
##러
##걸
##스
##럽
##슬
##아
##렌
##방
##설
##남
##기
##출
##배
##릴
##조
##E
##q
##텔
##링
##락
##야
##염
##묘
##존
##육
##종
##취
##당
##녀
##동
##제
##한
##용
##행
##접
##으
##셨
##져
##밑
##젖
##7
##반
##톱
##깍
##침
##않
##특
##견
##없
##크
##I
##O
##같
##착
##수
##M
##판
##잘
##뛰
##담
##청
##관
##벽
##셔
##결
##구
##품
##밥
##온
##캡
##슐
##할
##엘
##였
##랑
##여
##름
##령
##통
##르
##겠
##켓
##트
##췌
##공
##우
##유
##를
##섞
##변
##것
##잇
##몸
##계
##습
##본
##베
##석
##개
##블
##내
##땐
##원
##말
##씀
##두
##간
##난
##번
##슷
##됩
##골
##형
##속
##마
##째
##D
##터
##럼
##줄
##맥
##무
##렴
##력
##확
##되
##능
##꺼
##향
##십
##k
##직
##얄
##켈
##측
##귀
##U
##R
##L
##련
##엔
##감
##작
##떄
##깨
##쪽
##낭
##뻐
##줌
##점
##궤
##뜯
##6
##테
##언
##급
##산
##날
##린
##w
##휴
##졌
##뼈
##W
##열
##후
##람
##까
##외
##선
##녁
##엿
##균
##응
##셧
##충
##격
##므
##투
##딛
##켰
##냐
##많
##봄
##바
##실
##립
##녹
##N
##P
##밀
##질
##뜰
##독
##오
##됨
##냥
##너
##및
##패
##강
##카
##8
##먹
##팩
##법
##책
##흡
##잼
##펙
##찌
##별
##좌
##더
##운
##란
##올
##받
##볼
##희
##송
##타
##젤
##뇨
##폐
##불
##티
##표
##압
##박
##씩
##레
##싱
##철
##늄
##플
##극
##볕
##민
##류
##움
##잡
##히
##밤
##새
##갈
##봉
##든
##승
##슗
##늘
##논
##즈
##프
##센
##겐
##역
##긴
##눈
##묽
##맞
##넣
##곡
##미
##탄
##릇
##덜
##틴
##꺽
##벌
##께
##짐
##앗
##권
##꾸
##몰
##탐
##틀
##춰
##칵
##효
##늉
##껍
##캣
##끝
##왔
##덱
##집
##누
##댄
##뿌
##폭
##봐
##액
##릉
##저
##ㆍ
##뀐
##금
##뷸
##탕
##F
##탈
##필
##찰
##따
##친
##딪
##놔
##빈
##V
##팥
##참
##뚝
##흘
##놓
##뻗
##메
##섭
##핵
##족
##키
##삼
##녘
##황
##천
##버
##끔
##갖
##갔
##빨
##디
##명
##콧
##혔
##록
##익
##꼽
##학
##교
##닌
##획
##환
##목
##욱
##앉
##항
##홉
##렷
##각
##엠
##캔
##랩
##콩
##괄
##근
##척
##랙
##홀
##듣
##궁
##축
##건
##딘
##됐
##국
##느
##솝
##브
##깁
##펫
##택
##뒤
##완
##렁
##그
##워
##률
##콜
##릿
##Z
##밮
##왕
##풍
##큼
##닭
##X
##츠
##튼
##험
##믹
##튜
##냉
##코
##켜
##놨
##냈
##떠
##뢰
##런
##깝
##첵
##왈
##겨
##애
##랜
##엽
##퀴
##광
##찔
##횟
##맨
##힘
##돈
##떻
##괴
##잔
##랄
##싹
##앙
##페
##론
##홍
##채
##팟
##끼
##털
##노
##쳤
##껌
##묻
##뻣
##팅
##펌
##곤
##캑
##닝
##벨
##킬
##렛
##찡
##끙
##클
##띄
##싶
##줘
##못
##혜
##옴
##핑
##났
##층
##낼
##높
##됬
##준
##봤
##엇
##킨
##잉
##윤
##떤
##래
##긋
##땀
##헉
##손
##Y
##좀
##혀
##답
##섬
##ㅎ
##꼐
##쇄
##흉
##혹
##겔
##갱
##댈
##훈
##징
##칭
##쇠
##최
##떨
##퍼
##킹
##폼
##백
##쳐
##챙
##놀
##잤
##쓰
##꾹
##셉
##써
##벤
##퐁
##셋
##욜
##덩
##뵤
##군
##즘
##눠
##ㅇ
##섯
##숟
##ㅣ
##숙
##샘
##갑
##읙
##득
##찼
##츄
##럴
##닉
##맡
##꾼
##팽
##촉
##굽
##춤
##줬
##또
##괜
##찮
##덮
##힌
##캐
##핀
##뜬
##퇴
##넷
##j
##딩
##틱
##규
##슴
##램
##칩
##곱
##팔
##놧
##억
##널
##짖
##컹
##렵
##즙
##념
##례
##활
##잃
##ㅓ
##ㄴ
##턴
##허
##빌
##망
##첩
##몬
##쿨
##율
##굴
##딱
##쁨
##짬
##총
##갯
##흐
##커
##떡
##찬
##낌
##슈
##앤
##꼭
##뒷
##씁
##값
##죽
##숭
##딤
##킷
##릭
##멸
##칠
##펨
##넴
##션
##년
##퓨
##룻
##헤
##밖
##쉬
##김
##랬
##푸
##똘
##멘
##컬
##둥
##쿠
##뜀
##협
##췄
##팬
##돌
##촌
##슨
##렇
##샵
##룩
##낸
##졋
##뚱
##툼
##컵
##머
##꿔
##뽑
##찾
##씻
##뜸
##똑
##업
##밍
##쁘
##뿐
##낑
##돗
##암
##뜨
##떼
##릎
##챦
##졸
##얗
##맛
##흥
##겉
##씨
##북
##낙
##끄
##쭤
##펠
##헐
##푼
##늬
##넘
##글
##켁
##샴
##멜
##낮
##헀
##쩡
##닫
##얘
##깐
##썼
##빠
##쐴
##옆
##뮤
##얬
##툴
##찍
##악
##략
##캘
##눅
##큐
##쎽
##ㄱ
##엑
##델
##솔
##팜
##얼
##돋
##숲
##딜
##룬
##뇌
##댐
##칙
##칼
##슘
##템
##픈
##붙
##렙
##싣
##빛
##혁
##렉
##쌀
##떈
##냄
##팡
##륨
##싵
##롤
##짱
##깩
##곳
##놈
##깔
##뜩
##찐
##깥
##똥
##앞
##뭉
##밭
##쌤
##삿
##깜
##빡
##닿
##웜
##뻑
##껑
##범
##컨
##폴
##J
##닦
##흑
##옷
##쁜
##쪾
##읍
##끌
##창
##댕
##꿀
##벡
##둔
##멈
##렀
##샾
##ㅁ
##ㅅ
##벳
##겟
##셀
##얇
##펜
##롭
##멍
##쐬
##짝
##쫌
##틸
##컷
##숴
##뽀
##닥
##낀
##붕
##뻔
##몇
##킁
##닐
##쭈
##댁
##삭
##헥
##ㄵ
##멕
##팠
##냅
##냇
##ㅊ
##ㅏ
##쌋
##넀
##윌
##킵
##쩔
##넓
##둑
##풀
##렘
##먼
##짢
##톡
##젭
##빗
##낳
##월
##룡
##솜
##렐
##겁
##뺀
##콕
##씌
##짓
##븐
##넛
##퀸
##얀
##둠
##ㅐ
##첨
##쓴
##걷
##칸
##깽
##셈
##꿈
##폰
##겹
##킴
##끈
##텐
##빼
##켄
##봣
##벼
##웠
##융
##긁
##럭
##뒀
##갰
##냠
##쯤
##깄
##눗
##섰
##춫
##땡
##즐
##룹
##벅
##옹
##쨰
##쿤
##혼
##듦
##뻘
##힐
##빙
##돠
##밴
##듬
##잠
##팀
##객
##쎔
##땜
##옇
##끗
##겼
##끓
##윗
##벙
##넬
##쇼
##랐
##뺐
##웅
##텍
##돼
##잊
##곰
##룽
##ㅂ
##짜
##뭇
##뎠
##죠
##븡
##멩
##ㄹ
##껴
##덨
##핍
##ㅠ
##숫
##젝
##귓
##햇
##눴
##셍
##팸
##귤
##짠
##핛
##륵
##몽
##딕
##캄
##퉁
##톨
##삽
##핸
##탓
##핮
##헵
##탱
##씬
##줫
##씹
##쉼
##듭
##쑤
##벗
##쳔
##잎
##킥
##뷴
##쉽
##휘
##맣
##헌
##삳
##쩝
##덴
##칫
##렬
##쌈
##엉
##껏
##쫙
##갓
##앵
##꿨
##찜
##빵
##쉴
##딴
##튀
##핃
##ㄸ
##Q
##뵙
##걱
##쾍
##뤄
##꼈
##깎
##밉
##녔
##꼴
##랍
##짧
##겸
##앰
##왼
##삶
##랫
##뭄
##톰
##맹
##갛
##굼
##돔
##쥴
##눔
##줍
##옥
##볍
##넌
##둘
##졍
##쩃
##톤
##싼
##첫
##썩
##끘
##탔
##쿵
##웰
##ㅑ
##쁠
##슥
##돕
##궈
##㎜
##쯔
##웨
##껄
##쾌
##욥
##롷
##찹
##햊
##ㅖ
##둬
##늦
##굳
##붉
##뀜
##룔
##콤
##눌
##ㅆ
##팻
##랴
##곽
##틈
##퀘
##쌌
##흰
##멀
##뎌
##퀠
##쓸
##똠
##쭐
##덯
##꿍
##쿱
##앆
##쌍
##붑
##앾
##콥
##볶
##깡
##딭
##츙
##ㅜ
##엣
##핚
##펩
##긱
##젓
##낫
##뺴
##ㅡ
##왓
##홤
##긍
##컴
##넥
##쏠
##㎕
##삷
##챔
##릐
##댔
##쎄
##둰
##컥
##햐
##딸
##롯
##춘
##펴
##턱
##끊
##쭙
##빤
##솨
##쒀
##겡
##쪼
##삐
##빱
##랠
##됌
##룸
##홈
##랗
##ㅌ
##ㅕ
##쨩
##뮨
##삥
##헬
##죄
##렺
##깊
##횡
##뱅
##썹
##쌉
##풉
##덤
##듈
##덫
##껀
##틑
##뷰
##켠
##텅
##녕
##쩜
##롸
##웃
##쭉
##곶
##늑
##핟
##웡
##샤
##탑
##깅
##봅
##앚
##픽
##맷
##샌
##콘
##뀌
##®
##탭
##읃
##ㅗ
##쿡
##헙
##앏
##끰
##쨈
##뱃
##맘
##텀
##쿼
##줗
##젯
##땅
##겅
##묿
##핥
##깃
##젼
##듐
##숨
##팝
##놉
##ㄷ
##떴
##릅
##쩍
##섹
##쑥
##탠
##숱
##옵
##꼼
##뱉
##롬
##텨
##뀔
##겻
##잴
##짚
##봇
##믿
##뎅
##혐
##有
##씽
##뤘
##괭
##붜
##탬
##쎼
##햝
##썰
##삑
##랔
##ㅋ
##뚜
##뵥
##둿
##ㄶ
##챌
##뿜
##솥
##윽
##쏘
##뚤
##륜
##쥐
##눕
##숏
##옸
##웇
##낟
##먄
##쉘
##뜻
##읒
##즌
##꼇
##닙
##텁
##삣
##츧
##쟁
##뇽
##쌕
##읿
##꽃
##튿
##쨌
##떙
##큰
##퀼
##숑
##닏
##힉
##짤
##읽
##낄
##휠
##쫓
##퓰
##츰
##읕
##덧
##볔
##먕
##뻬
##됏
##팁
##쪄
##싫
##툰
##쉭
##샅
##딧
##즉
##꽉
##빅
##꺾
##쩌
##쩐
##썬
##큭
##겪
##짅
##셩
##챘
##뿔
##풋
##맑
##엎
##잌
##쯕
##룰
##퍽
##팰
##꿉
##ㄽ
##딫
##썜
##흠
##깻
##뀰
##쫍
##팎
##떪
##덟
##룁
##셜
##엌
##숍
##ㅔ
##썽
##쉰
##썍
##쫄
##츨
##빴
##휜
##쌓
##엄
##픠
##ㅍ
##꽝
##켯
##뗀
##잖
##릮
##쌩
##뉼
##뺄
##쵸
##룟
##샷
##件
##닷
##텝
##캅
##줆
##앓
##켭
##굥
##쥬
##쟈
##츌
##룍
##띠
##쳌
##횠
##쮸
##뭐
##횜
##꽂
##앨
##숀
##넉
##걀
##뚫
##렫
##꽤
##볐
##헛
##왜
##햄
##볁
##빳
##꿧
##엥
##붗
##긊
##떰
##맸
##랭
##걍
##뎄
##됍
##롲
##쪘
##욘
##싀
##딥
##욧
##ㅉ
##잦
##툭
##좁
##밸
##룐
##겍
##뛴
##슙
##뉴
##뵨
##죤
##꽈
##쭁
##얍
##뽕
##兪
##됟
##윙
##왑
##캥
##탙
##궜
##탤
##푹
##띰
##뻤
##듀
##혓
##괘
##컸
##웩
##밈
##뉘
##폿
##쎅
##빔
##뭏
##앱
##꺠
##팍
##젍
##햘
##뤃
##샨
##끅
##헝
##멤
##겋
##뮬
##깼
##핳
##싿
##곹
##묶
##믈
##횻
##듸
##좆
##캠
##澯
##珦
##燒
##萱
##犬
##럿
##멎
##씰
##곯
##붓
##웒
##릠
##귱
##뿡
##뭔
##셕
##빽
##튬
##믇
##뷔
##횤
##홗
##껜
##샆
##멧
##힙
##줏
##빋
##깸
##뮈
##樣
##촤
##궹
##싯
##얻
##껭
##킽
##촘
##톻
##봀
##多
##짂
##랼
##챈
##묙
##겑
##졷
##엊
##왹
##옮
##ㄲ
##늠
##잀
##챊
##놂
##찝
##놌
##멌
##쨋
##녂
##펄
##촐
##㎍
##홓
##륭
##뭅
##뭊
##헨
##눨
##샬
##멬
##곁
##찻
##랸
##앳
##곻
##ㅈ
##솟
##뚞
##갉
##슢
##ㅝ
##갤
##뤂
##됫
##힛
##뺏
##튄
##둡
##슁
##튐
##性
##띵
##밝
##흙
##잭
##췃
##쾅
##샜
##훨
##씪
##챠
##깰
##핡
##샊
##떳
##랏
##묵
##졀
##믄
##큘
##깬
##겊
##앿
##핫
##쫀
##찢
##眼
##밧
##훕
##뱡
##텼
##렝
##핻
##쭘
##칲
##씅
##헸
##넜
##첮
##꽁
##밋
##쪗
##쟀
##땠
##낵
##탵
##첸
##핏
##횅
##뇰
##늒
##옿
##캬
##뮴
##웹
##힝
##댓
##륙
##뼘
##꼄
##큄
##훼
##튤
##쥼
##귈
##藥
##둣
##햡
##봏
##댇
##쎕
##핧
##벉
##빝
##띁
##훌
##숧
##넹
##멱
##햠
##쌥
##쩨
##뭃
##굵
##믉
##캉
##샐
##헹
##샹
##윰
##젲
##ㅛ
##냘
##잣
##햤
##켕
##뎜
##찿
##뛸
##귄
##앴
##닛
##욤
##둗
##ㅒ
##엾
##멓
##툶
##잰
##찷
##앻
##켞
##밷
##춧
##됭
##섣
##댜
##솦
##찱
##넵
##젬
##촏
##탃
##듟
##앹
##뱓
##펀
##춯
##쎴
##졈
##앟
##띔
##ㅚ
##갭
##숔
##뜽
##냔
##햅
##곘
##쭸
##픔
##돐
##읨
##닢
##먺
##삵
##렆
##윈
##퀄
##튕
##핣
##뎐
##춸
##텉
##곧
##좍
##쎈
##섶
##괌
##쇙
##녖
##읖
##뽁
##얕
##갹
##덪
##덥
##쉐
##괁
##굑
##샇
##뺑
##퉈
##낻
##겭
##뿍
##탶
##룀
##켔
##뵈
##ㄻ
##ㅀ
##뜹
##씼
##쿰
##짹
##믐
##ㅄ
##륾
##툽
##낱
##뺨
##텃
##둉
##쌔
##잆
##쥰
##봊
##맺
##맬
##뾰
##짇
##쬐
##읁
##휭
##샛
##픅
##좇
##얏
##첞
##볓
##깉
##홖
##늣
##톧
##쓱
##홧
##댱
##낡
##쟝
##읜
##춥
##혛
##뒹
##혋
##툡
##썻
##뗐
##♥
##앑
##왁
##읭
##늕
##끕
##땔
##럄
##숖
##윳
##먀
##륩
##굉
##챗
##랮
##웬
##꿱
##갠
##핌
##뱀
##三
##里
##뻥
##뢓
##둴
##녑
##묜
##붖
##맃
##찶
##됴
##긎
##얌
##꺵
##짙
##끍
##펐
##펏
##뎟
##춴
##걔
##탇
##먁
##쫑
##훽
##젃
##퉜
##몹
##팆
##몫
##겯
##꺶
##읆
##ㅘ
##졲
##읓
##볌
##섟
##첯
##뜷
##펼
##룯
##붠
##겄
##뼤
##렿
##ㄳ
##휙
##잏
##뭍
##얐
##먻
##켬
##먿
##갼
##맙
##캭
##짛
##웟
##굄
##밨
##셐
##멨
##릳
##욈
##뺌
##뇬
##씸
##뿅
##펭
##툿
##숯
##렃
##햫
##펑
##툐
##갷
##훅
##굿
##샀
##씃
##렦
##쫒
##궬
##홎
##벵
##헁
##뽈
##싞
##깧
##읐
##잿
##湧
##붚
##앖
##匡
##눟
##꾲
##꾵
##땁
##끟
##걳
##퍙
##大
##퀀
##딯
##멋
##늗
##∼
##룜
##桓
##훙
##겤
##읫
##슉
##低
##後
##高
##윔
##렏
##켐
##뀟
##탹
##촹
##썸
##쐐
##텩
##딈
##돚
##밟
##붐
##졔
##툥
##릯
##킮
##띈
##륽
##냏
##뢴
##얖
##죵
##맏
##랲
##븜
##無
##톹
##쏙
##줴
##앧
##섦
##잗
##꽥
##몀
##릘
##쏭
##쳘
##눤
##닞
##캇
##쉿
##굶
##릱
##댑
##렧
##웖
##춟
##녈
##곮
##홰
##윘
##넫
##욷
##륻
##눙
##흦
##系
##엦
##켤
##킄
##쁩
##슌
##홥
##엏
##휨
##뉠
##깢
##밙
##퀫
##챃
##힜
##밫
##꿰
##셒
##잚
##넨
##헣
##퐄
##웍
##봈
##짆
##짭
##돰
##찴
##랇
##닰
##쭌
##츤
##빻
##갚
##멵
##켹
##폈
##넞
##챂
##틉
##벹
##曰
##ㅢ
##궂
##춞
##닸
##쉈
##웁
##땨
##㎡
##쳥
##젹
##줅
##念
##水
##춛
##맿
##쳄
##쯉
##웧
##쬭
##댤
##챤
##셤
##됙
##폄
##맊
##잍
##핢
##뚠
##깋
##츕
##밠
##킻
##핪
##읠
##읗
##듧
##쇽
##릍
##맟
##촥
##웝
##즛
##社
##빕
##굘
##닟
##淄
##駕
##윱
##求
##我
##的
##녛
##랓
##츳
##옶
##짎
##뺘
##캕
##걌
##밪
##낚
##옫
##化
##윅
##캍
##몯
##빢
##짰
##쑈
##럤
##時
##곗
##릶
##챡
##뇩
##늚
##롼
##닡
##삔
##뺵
##쑝
##갗
##뼛
##슽
##밣
##샂
##섡
##츣
##맴
##떱
##갸
##콱
##긔
##百
##會
##젱
##팇
##炳
##帽
##態
##츼
##닺
##뗴
##얹
##밎
##죡
##풒
##홞
##췼
##틷
##핼
##쵹
##뉨
##딨
##퍠
##젂
##첼
##끋
##돤
##떵
##텋
##맵
##췰
##곭
##찭
##졉
##젇
##™
##탉
##됮
##갂
##뱍
##엕
##젔
##딂
##틍
##긘
##묾
##쐰
##횐
##앋
##볻
##뱔
##風
##門
##퀵
##줒
##옜
##욯
##삠
##뽂
##샥
##쟎
##싄
##컫
##슭
##캴
##괞
##곪
##뵹
##쳣
##븅
##닳
##읮
##봬
##껐
##頭
##腫
##겆
##좡
##춪
##넝
##렂
##롶
##륄
##띨
##됀
##뺸
##윷
##즁
##챆
##쎳
##잫
##껩
##꺰
##픞
##홟
##햔
##팓
##켸
##퍝
##곃
##줐
##숤
##늫
##씈
##럱
##럈
##츻
##헧
##챶
##빆
##퍅
##숩
##뀝
##뱐
##슃
##콬
##뫼
##뉜
##빰
##갇
##낯
##촣
##돝
##쀼
##혿
##꿘
##셥
##돍
##月
##㎝
##씫
##홪
##솽
##쇡
##듷
##츅
##쏟
##멷
##핬
##쳬
##좟
##촨
##뵛
##웑
##읹
##쇅
##읏
##돨
##엧
##흢
##꾺
##찧
##촛
##붇
##썡
##셰
##뒅
##엤
##긇
##낍
##活
##抉
##柰
##常
##뵐
##랂
##눚
##볷
##햋
##컌
##뢀
##뎃
##쫗
##用
##뼌
##괒
##슼
##食
##섵
##꾀
##됡
##얷
##쫏
##옅
##끽
##닮
##뻇
##숮
##ㅃ
##뎓
##윧
##벋
##췅
##룝
##퓩
##킌
##턔
##닣
##엡
##햏
##젛
##볅
##띡
##뜁
##믕
##팃
##괙
##춝
##홱
##좎
##팫
##밗
##줨
##폥
##右
##腎
##症
##힏
##얃
##녃
##냊
##큇
##꼔
##뉸
##헷
##댝
##퍄
##렜
##꼖
##꾱
##딞
##쁙
##箚
##講
##煐
##煞
##晥
##룾
##픙
##갬
##↔
##쾡
##깆
##롣
##슾
##낐
##붅
##웥
##녓
##읻
##렪
##밒
##맢
##ㄺ
##긂
##닊
##봌
##뚯
##챼
##읾
##숐
##릊
##걈
##跳
##쨍
##볋
##낢
##랃
##햩
##싦
##롫
##톷
##ㆀ
##춣
##뱁
##욿
##턏
##껨
##쟬
##짦
##퉤
##믚
##훡
##뇻
##쳑
##왝
##쟤
##젣
##댯
##팦
##퇘
##싥
##핱
##햣
##쯩
##陵
##泉
##핝
##겂
##귾
##傷
##싷
##샙
##뼉
##츷
##샋
##쩀
##꿕
##땝
##퐉
##콸
##랣
##띕
##켘
##텦
##꼿
##껫
##홋
##밬
##긷
##봥
##死
##겾
##뤼
##벚
##섲
##平
##틋
##괸
##맒
##욉
##긑
##탸
##큽
##횝
##꺤
##볃
##훔
##톼
##엫
##욪
##궐
##日
##춈
##줜
##뇸
##녿
##쿄
##맍
##옙
##텻
##짼
##뭎
##냑
##웻
##짗
##좔
##캰
##짞
##웄
##눵
##쑴
##듕
##겒
##겱
##늟
##퇄
##엗
##렢
##人
##겜
##펳
##쳇
##룲
##中
##쐠
##픕
##혊
##둚
##훗
##첬
##댠
##읈
##옺
##슮
##햛
##땉
##뾱
##졵
##솧
##읳
##싴
##싧
##小
##푝
##퐌
##슝
##팹
##퀙
##쉑
##윺
##듁
##녜
##췩
##궃
##뫄
##욶
##띿
##氏
##me
##ime
time
##on
##in
##id
kg
##th
mon
##al
month
##ti
##er
##or
##으로
##en
bid
##ar
양호
확인
##ro
##니다
##am
식욕
##에서
##ine
##ol
##es
##an
##at
검사
##ic
##다고
##ay
##ec
없음
##il
##ati
po
##ac
##ur
##is
구토
##검사
##as
내원
##it
##ing
in
상태
예정
##었음
##od
##et
있음
##em
##ed
수술
증상
##ph
##us
##호자
처방
진행
정상
보호자
호흡
##re
##으나
##ation
##ul
##하여
##부터
##복약
내복약
유지
day
활력
##습니다
배뇨
##ia
피부
정도
입원
가능
##사항
##os
##기로
##ad
배변
##사선
##el
않음
sid
##하고
이후
필요
th
##적인
##니터
치료
##om
##ent
특이
추가
확인되
##le
##드림
##op
어제
우측
##상태
##amo
##음파
관찰
많이
ce
##nd
사료
tr
방사선
##ood
iv
좌측
오늘
famo
cc
퇴원
심장
재진
가능성
rx
설사
al
##st
tx
##ey
##nt
재검
지속
모니터
처치
##ap
안내
##적으로
혈액
상담
금일
##ep
없었음
##ox
##az
기침
##으며
신장
##됩니다
전화
by
모니터링
감소
##tis
약간
주사
##oc
st
##증상
오전
##병원
money
##ron
##lu
급여
현재
##어서
##ve
수액
##pi
투약
##사료
##ut
##해서
##ds
##하게
이상
sc
##는데
먹이
하심
##관리
am
##수치
##하심
자발
##yp
양측
cr
이전
ch
개선
초음파
하루
##ess
오후
관리
of
##까지
##소견
for
and
##og
##un
고려
##time
##완료
##되어
##ge
PO
##ig
##uc
저녁
##tion
##ild
실시
##면서
공급
##one
##tid
복부
있는
##im
##um
소견
다시
방광
##다가
en
##kin
met
pk
다음
##셔서
##에는
##orm
환자
pds
접종
##tidine
##ment
양상
##지는
증가
조금
보임
##azol
##라고
의뢰
확인됨
##ate
##하는
##ist
hr
od
ph
경우
아침
설명
tid
체중
간식
Tx
병원
##ear
##day
##yst
ceph
혈액검사
결과
os
##치료
##접종
hyp
##하시
ur
##days
##bc
보이
de
상승
확인되지
제거
통증
IV
진료
일주
##처치
##하지
##ab
음수
food
##ch
##pl
보호자분
10
the
일주일
최근
##act
먹음
##관리사항
##tr
발적
체온
식이
혈압
##ion
to
의심
복용
nr
확인됩니다
pl
것으로
##yl
Rx
mild
##uro
no
##ID
관련
##ory
말씀
##으면
기력
산책
nrf
vit
후지
re
##eces
##ous
##도록
pro
종괴
일반
##송완료
흉부
##ide
양호함
신경
skin
염증
다른
CC
##먹음
계속
##ver
##ip
항생
##하였
##ob
famotidine
NR
##ular
ex
시작
소화
먹고
한번
특이소견
CR
항생제
##tic
1회
##ial
전부터
##드렸
cl
부종
##ith
NRF
술부
전반
##되지
##이나
##에도
##성화
##부위
##ow
##urg
ac
피하
##tc
##ormal
호전
##dx
특이사항
##리고
내일
ne
중성화
furo
안정
year
예방
안약
##보다
##세요
flu
집에서
추천
소량
##adol
마취
##러지
투여
##amadol
rec
etc
ind
췌장
소독
식사
OD
pin
##itis
대한
##ain
ray
OS
##정도
##ne
중단
수치
떨어
소화기
hyper
부위
##되는
급식
##상충
컨디
약물
##ce
##ys
tramadol
##하기로
##fl
전에
컨디션
##시고
##ter
##지만
##ure
##ax
##ym
##yc
거의
변화
호흡수
##ary
##di
mm
pr
cef
##ex
##ass
con
발생
소변
is
##개골
##age
산소
ddx
##eck
보행
##ot
##초음파
체크
pink
보호자님
완료
##ell
부분
##병원에서
매우
연고
괜찮
##ct
##azole
익일
##양감
urine
##저하
at
##예정
##ead
식욕상태
##cc
슬개골
않습니다
su
with
##방법
진단
좋음
##거나
##종류
반응
##ir
적용
심해
##관절
소양감
or
크기
##되었
##아서
##장님
측정
##oor
##all
##ant
dx
문제
fluid
##하며
med
feces
동거
cor
##emia
cepha
##itor
출혈
결정
아직
cre
판단
com
식사종류
급식방법
##cre
normal
##eral
본원
head
시간
##다리
##itoring
##해주
아이
ab
bun
위해
##est
부터
20
##urm
cat
38
##rop
hpi
기관
##urmur
##iet
평가
##으심
##해질
##있음
##수액
사용
지난
각막
murmur
비용
하고
외이
좋아
##istory
2회
##urgor
미용
경과
원인
##입니다
따라
##셨음
##ign
건사료
le
감량
한달
indoor
turgor
##ystem
전해질
없어
##식욕
음수욕
있어
##iz
cbc
monitoring
빈혈
##전히
의한
관찰됨
계획
간격
발송완료
##DS
신장수치
평소
##inal
변경
심한
##문에
촬영
##ens
##oma
일단
##레싱
없이
##처방
bil
##ma
##ase
이물
min
예약
결석
정상변
##부전
##sem
##osis
pim
회복
다리
발작
##ination
##semide
an
##았음
간수치
BID
hg
심박
##te
오후관리사항
저하
대해
mass
##출물
##gen
##enal
췌장염
##oxac
sp
내과
12
##ity
주변
##igh
먹는
fordays
유사
Hg
응급
자발식욕
악화
혈당
항문
##ical
##므로
##enia
종양
##지고
##ath
있었음
ud
##vi
##ral
##하면
##없음
말씀드림
권유
여부
왼쪽
요도
경미
dr
파행
##atitis
전반적인
##모니터
확인되어
병변
exam
##ane
삼출물
가끔
rech
다량
##ect
##반응
비슷
PH
오전관리사항
car
##BC
있었
enro
종합
##있는
동일
res
##EN
days
##end
생각
##able
##테터
##ome
상황
증량
##합니다
##이드
##ill
##oph
모두
유선
자주
사이
안먹
ou
recheck
##cular
##상담
##사상충
인한
운동
해주
##ou
##ness
all
나타
##리는
조직
##ystemic
bl
##기계
심함
재발
관절
cer
심장사상충
사진
crp
##ril
예방접종
##cm
피하수액
##ib
림프
se
##ca
SC
식욕은
검사상
##도로
pm
같이
드레싱
있다고
파모
RE
##rom
##ace
간헐
MM
##하면서
##호흡
cime
##int
op
##val
30
ad
sh
임상
콧물
오른
##rol
Food
미약
##방사선
##되고
결막
##ronid
##동물
진통
##ative
cm
여전히
dis
있으나
탈구
ther
##ymph
##했음
카톡
초진
##ection
비장
심박수
##기록
같음
inj
##이며
##oxacin
##po
pc
오른쪽
새벽
hep
##해보
관찰되지
mod
as
장착
##ub
on
##ronidazole
않고
심장약
##생님
원래
집에
고지
##ight
교정
면회
11
원내
sign
##호소
##line
없는
기왕
##이라
외이염
history
udca
지켜
하는
15
전신
vac
corne
간모니터
감염
##ra
##if
문진
##려고
##레스
##하나
잘먹음
복수
##amine
##칼라
음식
조제
기력저하
발사
##수술
##곤란
병원에서
자궁
PDS
안좋
##yd
전지
내용
##내용
##부진
##ll
기타
furosemide
않아
##tive
##rad
너무
스트
다음주
metro
##ateral
##rine
##ind
경련
##pr
##조제
##양이
넥칼라
현증
자율
또는
##하셔서
ey
연락
경미한
필요함
소실
im
renal
지속적으로
식욕부진
##내장
18
##fil
귀가
##가능
추후
##PI
##cl
##시도록
crea
##pp
받아
ed
증상은
##발송완료
##atic
cerenia
예후
##대로
metronidazole
데려
##ast
therap
수혈
fl
##배뇨
어려
확장
스트레스
enal
아니
귀지
원하심
정상뇨
촉진
##세정
##이지
기왕력
담낭
##로이드
##들어
임상증상
##부분
특별
들어
pan
##se
비뇨
설명드림
비해
혈뇨
##기는
노란
##신다고
유동
##ased
처음
스테
stage
can
##시는
##CA
##종양
##oxic
나오
안정적
때문에
##검진
##he
##체가
##을때
내원하여
먹이고
영상
##치의
점안
##and
다소
증상이
바로
spi
흥분
##las
pain
qid
같다고
이전과
##내원
우선
##다면
없었
상태로
아파
##체검사
원장님
뒷다리
발견
per
hct
없고
림프절
있습니다
스테로이드
알러지
##양호
내원시
low
##fol
발치
pat
충혈
안됨
lymph
만성
##UN
노력
##oth
##eth
tra
##ost
##시라고
신경증상
탈수
있으
함께
안내드림
건강
diet
구강
사망
세파
기본
일부
골절
AL
##카테터
약을
구충
요청
연변
cri
의뢰병원
세균
받으
lt
##oint
이틀
유동식
계심
주치의
보여
신경계
CRI
##ema
복강
좌안
##슐린
귀세정
사항
동반
있을
##질환
항암
##enic
봉합
##생충
##결석
24
종대
##yt
out
dog
흉부방사선
동안
아래
검진
먹지
##erv
드림
했음
노력성
rt
ill
39
Lt
HPI
gi
ear
##ov
##먹고
측정됩니다
에코
동물
지금
Urine
용량
##unc
##illin
pre
스케
##드리
##ena
전화상담
있어서
보이지
하지
못함
##arb
외과
##urine
##지막
생식
먹여
##alc
마지막
미약한
wbc
호흡곤란
이전에
복부초음파
##ly
but
BUN
amp
Feces
포함
up
pcv
까지
안구
UD
therapy
배제
Rt
##floxacin
교체
sus
##사이
##자료
##iver
##ah
##oxy
##uction
Skin
##다고함
##ated
하였
바이
남아
14
plan
##되며
매일
ct
음성
sever
illness
있고
통화
어제부터
비후
세포
오늘은
##nter
지켜보
기존
##전에
아침에
##동안
돌아
##결과
corneal
우안
##에코
조직검사
##arin
##양상
##ronic
이번
##ody
ca
위장
##cination
tub
3회
sild
붕대
##cy
나옴
##이고
done
##obend
재채
##obendan
##시면
방광염
we
##하기
다수
##께서
비교
##해야
##되면
작년
pancre
있으며
사상충
alone
##ack
are
##여부
bar
안먹음
등의
abd
안과
경구
줄어
##ame
##일링
cardi
13
이뇨
불편
인슐린
PL
질환
눈물
하나
필요할
##kg
근육
혈압time
##orph
차트
##혈증
ag
sur
상처
TR
##ENT
##oplas
##esent
이뇨제
##자기
inf
기관지
으로
##시간
##이상
먹은
##거림
col
severe
감별
ref
CRP
스케일링
고양이
##erm
않았
##atory
body
##ervous
##pir
##보임
심하게
alb
방법
치아
sil
야간
갑자기
##worm
##AC
##PL
소리
##는지
속도로
##지면
gl
눈꼽
외부
pimobendan
##erate
개인
##변화
##어주
pal
##ten
##ysical
ech
금식
PC
조금씩
calc
##titis
##anting
광견
##ication
재채기
분양
수액처치
이도
##ri
##평가
neg
pe
##aract
chem
항체가
##enafil
##bid
##aurine
추정
##tra
pimo
처방식
지역
GI
##액성
##하셨
도말
것은
이후로
흉수
##ED
##ode
형태
##탈구
##ylline
##ert
피부병
tube
수술적
광견병
##idn
구조
##usion
치석
1T
##mon
##UR
##어나
##idney
주의
걱정
##AR
CBC
panting
진통제
##가드
캡슐
##하다고
UDCA
먹었
지연
안압
37
말라
음수량
가루
##ft
blood
##rade
##CT
##alex
동거견
활력은
##져서
##하시는
##rox
moderate
##급여
등쪽
stable
ns
목욕
DD
것이
##니아
분변
백내장
chronic
##asis
주사기로
##감소
보조제
##확인
밥을
sup
##april
선생님
##드보
##가슴
구토는
##arg
합니다
양호한
##ural
sildenafil
ul
이용
##til
판단됨
강급
없으나
탈모
정확
dex
mel
int
Diet
신체검사
##드보킷
joint
##ose
##없이
comment
##ss
일반사료
같은
##시기로
##ization
보고
지간
vital
susp
systemic
데리고
입양
fat
##하실
움직
##부종
높음
hr로
##OP
##스로
주로
##opath
##진료
##RI
작은
양쪽
##up
##ence
##가슴살
특별한
be
##고기
##na
종료
##gh
좌심
자세
CT
항문낭
방사선상
cv
##ux
고관절
애드보킷
요구
##막염
닭가슴살
상담내용
##alf
##zle
##creased
##구토
cataract
CV
##enace
##ag
app
혈변
plt
mg
bp
##ue
##드렸습니다
##viron
검사자료
조제약
##vironment
주호소
phi
NS
##tiv
분배
##ress
PHI
post
##제거
ir
gen
##기도
bilateral
나서
레날
##ents
유의
소장
과정
hem
사람
ck
오심
##azzle
않는
az
EENT
eent
cell
피부염
grade
주간
##등도
양안
##팡이
##tal
chol
식욕이
보였
가능성이
deworm
25
MED
##혈관
bg
##었으나
present
par
##조직
따로
deworming
crt
kidney
약처방
##범위
후에
SUR
지방
##주세요
##cs
##해드림
지냈
술후
하기로
En
##sul
bw
BAR
##ech
곰팡이
먹었음
저녁에
cephalex
하셔서
추가접종
##전부터
도포
소화기계
##하였으나
fr
##종괴
lux
##레이
약은
enalapril
갈색
##valu
##검사상
##ry
36
심해짐
##아지
전이
##ascular
##제한
increased
지난번
##umor
##아짐
##iv
CK
##처럼
빈호흡
차트발송완료
BG
##드기
모르
##비물
여러
처방받
evalu
간헐적으로
ms
##junc
##ung
기생충
##인지
쿠싱
상태는
##ogenic
us
모습
호흡기
##체크
발톱
##러스
ckd
##CS
재활
일수
MS
##스크
받음
##asal
##ronch
상의
##셨다고
##cer
16
##세포
침윤
시도
##omy
bo
다니
##수종
Systemic
하여
부신
##혈압
지속적인
taurine
mal
cefa
심장초음파
##piratory
좋지
kit
##ber
##겠다고
##olic
reg
압박
##ach
##ease
전화완료
전반적으로
대해서
해서
정도로
##했으나
일반상태
##amide
##이는
문의
##otax
중등도
40
##가락
BP
##이경
enrofloxacin
CKD
슬러지
##ominal
바이탈
fol
##eter
tru
##하였으며
검이경
당시
반복
##구마
대증
##어요
##환경
없을
DDx
담당
가루약
장염
TRU
명확
않은
pancreatitis
spiron
강제
##ior
alt
떨어짐
surg
대퇴
최근에
##로나
##essment
실질
##amm
시력
cimetidine
##다는
inter
##에게
test
lip
양성
진행함
cefazol
##상선
인해
cyst
혈관
mus
##NA
tumor
##관련
요도카테터
##작용
꼬리
하루에
전일
뚜렷
##보고
Ab
가려
eh
examination
호소
##시딘
sy
이외
고구마
없으면
오전에
대변
먹이심
##ycin
SID
아목
##ull
##ainten
생식기
사육
자극
##마리
실시함
##ros
phen
calcul
ser
alp
Dx
evaluation
의식
##드렸으나
sec
##것으로
agents
EH
##olog
사육환경
##arge
##락사
전혀
##ud
##되나
요구사항
안락사
밤에
##roph
환경
edema
힘들어
##ak
##위해
조절
장기
propo
폐수종
건강검진
plas
각질
propofol
##항목
않으나
폐야
않았음
dep
##amin
현재는
##가능성
hyperemia
동거묘
VAC
##격계
##ofl
로얄
분비물
아님
##olact
##거리는
인계
##ye
없어서
##봉합
half
식도
참고
##라도
##ration
문진사항
갑상선
##ore
고려됨
심혈관
개선됨
rep
먹임
##ang
추가적인
한번씩
##주변
원하시는
예정입니다
neoplas
보이는
화장
급여자
투약자
것을
##트라
##었다고
요관
suc
##해주세요
##켈링
phos
최소
atrop
혈검
스켈링
호텔
IM
##lex
glu
##에서는
처방함
gab
##essing
내원하시
##드리고
절제
tap
시작함
##oflur
며칠
사료는
##osp
위장관
bronch
##oflurane
섞어서
안검
2차
부작용
negative
hw
이전보다
##TI
필요한
##opid
밤사이
##low
na
문자
##ophylline
신부전
중간
사료를
ob
전환
##ound
##달라고
무른
##혈구
혹은
청진
의뢰만
아래항목
원치
##티딘
지냈음
spironolact
##icillin
##졌음
혈청
good
menace
확인되며
참조
##inding
##려서
환자로
초진일
병력
##normal
##연고
PCV
acid
##비대
##ery
atropine
코로나
dressing
프로
pul
크게
수준
##침윤
CRT
##ange
hyd
dry
과정과
켁켁
deep
앞다리
iop
아목시
고기
약간의
위험
History
유선종양
In
##진단
##때문에
##atio
근골
te
##ule
inc
수도
PE
트라
운동제한
드렸
준한
##복부
##rel
근골격계
말라세
##까지는
누워
IOP
plasma
배양
##소판
진정
bcs
없다고
결절
되어
##더니
검사결과
하악
정기
finding
위치
##인후
clopid
##트롤
데려오
##art
디스크
max
pod
공복
##erative
##ovascular
##ium
##잡음
ket
weight
면역
kcl
잇몸
dia
호흡기계
cephazol
ulcer
아주
불량
physical
OU
py
스스로
혈소판
점막
Th
##ism
##혈당
소폭
##ans
##시경
좋아짐
Cl
초기
dazzle
효과
alert
cefotax
##ord
##출혈
##luid
##cal
초음파상
안내함
hepatic
##이라고
않으
소염
##마취
속도
mmc
기침은
##eration
복약
가량
강아지
lung
마다
챙겨
유산
##들이
##anol
##비인후
BCS
외이도
teeth
새벽에
##ering
간격으로
##바닥
##adi
##ick
##lud
##erial
##ance
구조물
sal
##알러지
상태임
sd
##oid
17
##었고
보내
심혈관계
받고
##ogrel
오실
느끼
올라
오래
cys
유산균
앞으로
절개
관련하여
##oxicam
##opathy
##트로
위내
##이후
sucral
sm
##qu
화장실
vaccination
##진행
##rou
lact
GEN
충분
유발
calculi
구충제
행동
50
##asia
##hing
궤양
불편해
방광결석
심잡음
##유지
눈곱
eye
ar
CE
나타나
진료후
##정상
보호자분이
def
키우
##mer
##ple
아닌
patell
##orax
silym
WBC
유연
doxy
파열
신우
위한
실리
##ual
않을
##보다는
##EA
##to
mri
intest
먹였
꾸준
##었는데
##imb
카테터
추천드림
ampicillin
들으심
##ardi
suppl
##monary
하락
min으로
단백
슬개골탈구
베아
설사는
hypo
iris
##VI
일시
재내원
이비인후
뇨량
##선생님
injection
##덩이
사지
핸드
##수성
지도
clopidogrel
지시
미만
구토를
슬관절
##roid
##imer
포비
##되었으나
생각됨
소량의
당부
##사지
##HS
disease
섭취
완화
이용하여
세정
##ff
mainten
str
백신
##청소
결막염
##bl
muc
변이
##ez
HW
눈을
##astr
내원함
양호하여
##경련
동일하게
##erve
따른
전체
sdma
치과
병원에
메타
##tial
##쪽에
##ely
파모티딘
내원하심
포비돈
##쪽으로
저녁약
진료전
##ental
meloxicam
천자
findings
없으며
HCT
##중에
하면서
밥은
귀청소
##ective
##ther
오셔서
tel
RES
##도말
음식물
spironolactone
##ital
##fate
입원치료
dimer
오메
##hs
심하지
##원장님
MRI
냄새
주의사항
##ient
저녁부터
##여서
##arc
최대
유지속
##etic
echogenic
##한다고
sol
##rh
luxation
pd
식이성
ast
cpl
보류
수술명
##iss
손상
tor
불안
##VD
##anial
##gt
##기간
##하다가
##호제
이하
cefazolin
메일
경력
그러
내시경
##otemia
켄넬
의뢰병원에서
##yroid
##르몬
제외
vhs
##부전화
##염색
##으려고
##궤양
##tein
생리
US
싫어
abdominal
##루션
##oic
받은
##vd
재진시
##마린
중성화수술
거품
높은
##cop
안함
좌심방
##ust
##시트롤
4회
내측
tapering
##드리기로
##king
##ivering
##ycl
유치
좋은
비뇨기
ass
통해
Ch
가려워
##보호자
##비용
li
##ally
##ute
공급중
이후에
muscular
카톡발송완료
sub
##Cl
##동물병원
##캐닌
폐색
nod
meth
##tens
fe
점액
에서
VHS
dox
헥시딘
비슷한
엉덩이
폐렴
변을
el
##용량
conjunc
##eart
기운
존재
##trac
정도는
넥스
원인으로
검사는
로얄캐닌
##피딩
##eding
##amycin
지금은
##sulin
오줌
실리마린
shivering
##hyd
##uria
##농증
발가락
부탁
넥스가드
UR
당일
ofl
폐침윤
silymarin
##ushing
60
##보기로
느낌
ratio
##촬영
##vious
주심
암피
혈액검사상
동물병원
##ek
##이가
##elid
##드렸고
검은
기립
120
있으므로
다리를
##후지
안부전화
##촉진
그런
##는것
어려움
TP
##튜브
pale
ram
##시기
식욕저하
포도
받았
previous
supply
거부
요즘
##드렸음
##환자
Ear
염색
BW
2번
않으심
##ipural
cefotaxime
dl
##립니다
##pe
음영
가지고
많음
##jective
되지
##실것
##ond
약욕
100
외측
respiratory
하트
대부분
##ail
cardiac
##경우
derm
nervous
본원에서
노란색
##주사
맥시트롤
##tif
촉진시
##ors
saline
##ature
현처치
table
정확한
##ocyt
REP
고에코
##소독
##echoic
##out
azotemia
오메가
cephazoline
Nervous
횟수
##PC
핸드피딩
영양
##병력
상태에
마리
직접
cont
##si
급성
##나서
##제제
보이고
##가지
호르몬
소견은
가능성도
메타캄
노출
##nea
당뇨
##node
##fen
나왔
술전
간식은
dob
##br
##apent
보인
추가검사
##DM
ah
##상승
ggt
검사를
##edrop
dec
##하시고
지내
발라
##nterior
##담도
##are
ap
ha
호흡이
진행하기로
upc
protein
##기가
각막궤양
##ug
넣어주
cycl
다량의
##cr
##ency
##시에
##볼루션
대소
refer
##하였습니다
##기능
##accination
##umb
특히
##스푼
변은
cou
19
from
45
mid
##sec
레볼루션
kcal
Ph
slud
감소함
캔사료
medication
##가서
7days
새로
No
##증가
꾸준히
lens
##plasia
marg
##와서
##하시도록
##되었습니다
##분간
피가
구제
농성
total
발바닥
습식
##apentin
##gency
##반사
통증반응
기록
fx
##yte
원함
ome
치주
not
radi
##uct
통증호소
##ucle
##raph
영향
##셔야
비강
sludge
man
##mergency
infection
depress
당분간
Na
##ard
Vaccination
간담도
sucralfate
##확장
coll
클로
하지만
##amol
살짝
##orphanol
change
통원
##지지
##ucation
점점
##비약
그대로
들고
##aneous
하셨
1차
##공급
경구제
##ite
metac
노령
##자고
##ono
알려
지역병원에서
방향
안검사
lef
권장
reflex
##erg
물을
disch
##주심
로우
먹으면
##AM
fi
small
d캔
잠을
201
##ograph
후엽
##경과
피부병변
보호자가
##ocarb
##이져
ALT
##av
##었습니다
눈이
점심
bi
kgtime
dil
##emor
##tern
##ock
##축농증
발현
두번
plr
리셉
어릴
##주위
##ystolic
##ise
mul
얼굴
자궁축농증
anemia
닭고기
##드릴
간보
margin
Dog
tp
소량씩
움직임
PLR
so
vitamin
##그릇
하이
못하고
prn
##reat
재활치료
##occ
동거동물
세균성
혼합
##피스
##약은
감수성
어머
##itrol
pods
발정
활동
타우
기초
리셉션
이소
##먹는
##ari
타우린
gabapentin
fna
##DMA
생김
피모
theophylline
한다고
infl
일반적인
양호합니다
육안
##안검
##하도록
##bil
SDMA
앞발
insulin
2배
기침을
완전히
실내
창상
##마다
지속시
hepat
Tr
acet
environment
요인
유의적인
의심되는
저번
정상범위
pol
주기
나아
cephalexin
보기로
양호하나
##oster
##cor
간헐적인
##dd
강직
21
교상
wall
##크라
기준
##피증
##ef
##메진
나머
예정임
##otil
##드립니다
##prazole
intestinal
강제급여
오큐
높아
##할때
nasal
##ocarbamol
Fluid
other
sk
heart
vi
##agen
surgery
##utaneous
지속됨
상악
Con
left
성격
region
non
Environment
농피증
아모
##학적
소화기증상
pent
기침이
방사선검사
liver
##실시
##ocal
pulmonary
tart
호흡양상
once
동물병원에서
수술기록
동의
##플루
id
일어나
tartar
PR
butorphanol
##맥스
브롬
정도의
아모크라
##되었음
##해짐
##거리
보호자분께서
머리
진드기
##마돌
mis
과민
FNA
진행중
CP
tril
어제는
fel
넣어
##apse
가져
##ult
##하였음
##하신
지난주
라니
mmvd
##ycline
isoflurane
포러스
##음부
주고
응급내원
귀를
기저
비대
악성
퇴원기록
안정화
먼저
자꾸
timebid
##row
##oxicillin
필요시
나쁘
MMVD
조영
##ume
##했다고
enter
back
묽은
ep
##ON
상태가
그래
마사지
##GT
트라마돌
##opr
mo
education
주위
비뇨기계
필요합니다
##림프
지어
lactate
##amber
관절염
##hydration
항경련
양호하며
했으나
뒤에
##ospor
##ostane
##광염색
##절개
유지중
##ipril
##했고
##발성
진행하지
내부
##한지
많은
##omen
정형
올해
무른변
##필요
매달
##있고
maxitrol
괜찮아
##식스
ofloxacin
##ostr
국소
뇨검사
aus
##iasis
ret
안먹고
연부
점차
##하지는
discharge
mic
감기
##었으며
subc
있으면
chamber
neoplasia
라식스
AS
TID
근처
상비약
##증으로
편임
시간이
중간에
부담
check
##sid
##부담
정상배뇨
nucle
힘들
dye
주말
##ycycline
고지함
KCl
아이가
##동물병원에서
lateral
아토
##백신
녹내장
fib
PLT
내외
det
##atient
않으면
보이며
pap
metacam
##인대
체표
##하거나
진행할
##아주
키트
gland
혹시
저혈당
요추
듯함
전달
방광내
접근
##ocl
##리가
특별히
spiro
##적이지
##ator
##ache
##치아
35
오후에
대소변
flare
over
예민
lac
헥헥
##이심
가정
amyl
zon
위주
그때
meto
##cto
들으
NP
남은
cornea
연부조직
systolic
##esth
posi
약먹
pred
##rough
dv
##AH
##드려
의심됨
몇일
해야
##스타
dehydration
완전
##졌다고
##십니다
system
항경련제
lv
고려하여
##재진
lefotil
##후에
입원하여
체중감소
혈액성
사라
assessment
crack
##동맥
right
현증경과
##했을
과민반응
Sp
##reased
추가로
DV
FI
컨디션은
##배양
##약류
수술을
안정적인
PODS
괜찮음
tiss
가능성은
황달
##ew
this
##상태는
aml
ben
액체
ramipril
보호자님이
##unt
booster
요망
methocarbamol
42
피질
##ree
lymphoma
필요성
간헐적
##받으
아토피
##rr
향정
대증처치
##OM
vis
##랑이
cough
##실에서
cephalexine
PD
##적출
##이트
##림프절
부어
thick
##생식
typ
어느
##기생충
bid로
바꾸
귀진
범위
##sc
하면
우심
희석
이소틱
##O2
네뷸
다수의
sono
결과에
엔로
분변검사
##샴푸
##에만
##마약류
##감염
향정마약류
사용기록
22
LV
헤파
##inary
결장
소염제
않아서
##tiva
##ysis
고정
외상
그냥
acute
가라
개구
anti
보일
##적이
##예방
zonis
GB
gb
through
출혈량
힘이
형성
spl
술중
##바퀴
맛있는
trilostane
##ive
##하다
##aly
비뇨생식
일주일에
##하였고
이동
경추
내원하셔서
밥도
##도의
##해보기로
위험성
3차
가스
뛰어
긁는
cyclospor
##생성
후라
cp
분리
##골절
향후
Inj
변위
지역병원
확인되나
로우펫
복압
red
##10
복초
##acet
제한
청구
그린
알약
비뇨생식기계
심비대
##nipural
##assez
털이
되었음
마이
##rome
sound
##어짐
계통
나타남
##투약
가장
pcr
MPL
##체온
원내에서
역류
pattern
Al
##수도
##operative
Pl
유합
통한
예전
바닥
##정맥
Cat
chl
omeprazole
소변을
이상은
dors
불균
등은
##sol
치은
긁음
caud
퇴원시
neck
세척
mpl
##olus
##obarb
지냄
##atin
23
난소
발송
배쪽
생긴
cystitis
현재병력
##oxacine
##ometra
##esthetic
score
무릎
체중부
ALP
Physical
##부민
##비아
적극
##용기
##neum
##clusion
##양성
dogs
고민
##anyl
##종대
##atheter
Ass
1번
설사를
drop
tissue
복막염
외음부
홍용기
술부상태
##ameness
##nis
mar
계통적
##으므로
boost
내원해서
담당자
##ammary
##ER
감별진단
##sa
##anesthetic
##bul
##TION
spec
sme
recumb
sug
남아있음
lev
##으면서
베아제
28
cPL
AC
decreased
간혹
las
##이어
##다니
##르고
POD
치주염
##uma
acetyl
##obarbital
맞추
vent
물은
feeding
##bral
자고
백혈구
그린비아
증상으로
얼마
세레
심화
##자인대
않으며
3번
crackle
떨어져
##프레이
ng
하시
##르는
##tension
##io
##겠습니다
기관지염
##entanyl
비슷함
분무
##radine
spo
reac
cells
농도
흉강
syn
brom
##운동
##cu
##다님
항체가검사
예상
srr
##손상
##der
150
##베린
단백뇨
데려가
##ending
##전송
인공
##orrh
##ort
착용
##inoma
단계
##eph
siz
줄어들
##혈청
후라베린
척추
##ture
##니까
sti
##omeg
나쁘지
보이나
빠른
먹을
##이므로
Abd
##ils
dvm
##ectrol
항구토
있음을
등에
이사
##되었으며
##충혈
##스트
##지도
hyperplasia
##olone
gr
bact
이내
어렸
떨어진
배제할
형광염색
la
복통
Assessment
내려
##하셨음
comp
만져
Am
간질
##umin
##hep
가라앉
DVM
##oul
겨드
##중구
##assezia
dose
눈물량
없습니다
SK
##ipine
##rophy
말라세치아
rer
##교정
##같은
##we
trans
귀진드기
사진전송
##ific
##받음
불가
##omegaly
기관튜브
나머지
abnormal
비용부담
##제로
compl
Vit
주사기
줄었음
boosting
가족
하이포
근위
있었으나
요검사
피부가
처치내용
##ectomy
급여함
phenobarbital
lameness
딱지
양호하게
Plan
follow
dist
##itant
anterior
5배
패드
##된다고
##분비
접종은
Cre
bolus
##np
##ars
throughout
방광벽
스푼
##ble
등을
위해서
구균
유무
간보호제
구내
해주세요
##odipine
설명함
eyedrop
귀는
쓰러
##귀지
recumbency
##인데
uda
보다
원인은
90
eyelid
sut
##DD
ecto
상태에서
Cardi
다녀
원하셔서
##ithiasis
##금니
torsemide
##교체
구조물에서
ster
##셨는데
영양제
식욕없음
핥음
un
##웅찬
나웅찬
##oss
하트가드
안면
낮음
##설사
정주
샴푸
##TT
유동식에
재평가
##blem
##화도
겨드랑이
##istry
peri
오리
식욕도
평상
호중구
경부
허리
가능한
아침부터
##이랑
견갑
유지되고
어머님
dys
경미하게
있으니
나이
##azep
외에
UPC
됩니다
복용중
약먹고
세레니아
감량하여
정주연
충분히
직경
indays
들어가
지켜보기로
보행상태
##이지장
모낭
실신
외부기생충
ocular
때는
positive
중요
가피
##음식
근육량
가끔씩
leve
같아
inflamm
지혈
soft
간식을
##rx
##밀린
먹어
영상검사
LA
##안내
##첨판
##셨고
변화는
떠는
##영상
수술후
포피
NG
정상으로
##unction
##rosis
기능
##entil
##ix
band
pu
##시키
파보
cyt
눈에
##드렸으며
doxycycline
잘지
소양감은
##ler
##ergy
s로
IVDD
프세
건조
평소에
조치
관찰되어
flushing
아파함
비교적
미용후
her
##시던
##onazole
##NP
최대한
귓바퀴
이상소견
eff
등이
amlodipine
느끼심
##ein
##패턴
위액성
확실
##reatment
중에
oto
RER
##ected
소고기
있던
##SI
줄어듬
ev
##20
배변은
high
문제가
요청으로
잔존
되는
##azine
Lymph
II
연결
물체
ivdd
있는지
##esion
통원치료
##erf
가까
서혜
##오심
##cyst
##ology
sugar
받아먹음
Ind
nerve
치료를
##occi
안좋아
Res
교육
##이면
echogenicity
pentoxy
uve
했다고
간담도계
##벤트
그러나
외용
여름
급격
때문
자동
##nisolone
##구리
##했으며
배변배뇨
##entilator
차접종
##RR
mat
이후에도
좋을
늘어
항암치료
##neumon
BL
scal
구내염
과거
염증수치
caudal
약만
##했던
fold
##ele
patellar
cranial
48
크레
suture
먹일
지방종
##과장님
배액
보는
ery
이번주
해당
##모니터링
##필린
분무치료
괜찮았
리첵
maintenence
연장
관련된
##iff
neut
비교시
뇨카테터
예정이며
##BD
##드린
개인사료
후에도
##의심
추가처방
##통화
##rost
그리고
하며
##HE
##하러
장간
종괴는
심부전
vol
hyperechoic
외출
##간식
분으로
중지
ornipural
##받고
지나
laser
흉방
##ellow
스크
물리
80
위액
may
십이지장
괴사
내원하실
배뇨량
##opitant
인플루
zonisamide
증세
induction
##시길
##분이
체중이
##이도
2개
어금니
사이에
장간막
##었던
clav
list
기절
서울
가슴
Ey
acth
나타날
di
두드
##filtr
trache
보호자님께
몸을
항구토제
rate
이미
기초접종
NE
##증상은
항진
retic
깨끗
받으심
교정술
복강내
ocu
외래
이벤트
원위
흔들
AM
ple
view
저에코
##bd
##했는데
신체검사상
##브라
##정체
주사처치
same
##의사
호전됨
중단함
갈아서
##성이
와서
type
es
##hex
##주시고
problem
##exx
마취전
##amp
Ob
새밀린
경향
단단
##기를
##tm
환경변화
보아
subcutaneous
amoxicillin
면역억
하였습니다
상피
yellow
케이지
기력이
구매
했는데
혈전
##ndrome
##고계
##CC
탈장
##ceph
보통
ox
result
##und
mode
##emoral
유기
idexx
귀원
피부는
다음번
물어
이트라
infiltr
남아있
수양성
김솔
##루사
PCR
맑은
에날
pheno
uveitis
어제보다
이개
포도막염
석션
##제는
아포
##급식
추가함
enteritis
스프레이
전염
ocufen
전날
lik
혼자
증가함
생겼
ml
대장
bptime
thicken
중독
같습니다
전후
##iting
defec
의해
적은
주증상
##하에
##조딜
##med
cap
상부
##연정
수술은
##enoc
아미
##reg
과일
먹이지
##ible
##eng
ub
이후에는
에날라
sl
아무
타병원에서
일정
계획임
##드레싱
출렁
약용
##팽만
뚜렷한
##mature
##상에서
급여중
츄르
그외
활발
항상
me
그동안
Eye
홍연정
26
catheter
관리중
##주실
잘먹고
가서
##크로
cocci
##opramide
그렇
고개
bt
식후
diff
##esk
후방
심하고
##멕타
##더라도
할인
호흡마취
##음수
맞고
생기
다음에
halfsol
mir
ker
아조딜
##역질
내복약은
UB
청색
##워서
timepo
크레메진
##입원
심장병
물질
lipase
내분비
있다가
생활
nuclear
##use
BPtime
lesion
변상태
tach
종괴가
습진
mr
불가능
##규칙
자가
##혈액
모르심
다음날
ble
잡아
특이적인
##pm
fentanyl
고환
재검사
곤란
##하신다고
none
빠짐
##피부
불규칙
담당의
서혜부
대해서는
ohe
유지됨
cg
오시면
옆구리
증상을
지간염
MR
구토함
기간
##듯함
hind
##sy
감사
eryth
bronchitis
공기
serum
vari
사람음식
결막충혈
유지속도로
점액성
토브라
##acture
OP
나온
##oclopramide
##neumonia
##ostrils
청색증
acetylcyst
없었으나
드리
단순
폐쇄
##erc
유리
SRR
있지만
보였음
pending
질병
##종료
##acetam
싶어
hemorrh
An
thorax
lob
애견
발생한
병리
##pt
개구호흡
##해도
스멕타
양호하고
##ile
양상으로
나오는
##이어트
있다
eyedrops
##배변
OHE
##관찰
##지아
200
악화시
syndrome
papule
##받은
산책시
size
또한
##이신
배로
부분에
gastr
##하세요
patella
단위
미소
삭모
##uk
나오면
scler
mammary
5회
70
wax
##irus
다이어트
##ta
##크기
FL
##단백
hypertension
au
rup
##소리
술식
superf
##eti
##하기로함
##두번
##저녁
##이저
것도
있는데
##uced
유사하게
Com
##엔자
여전
자발배뇨
##없고
##군데
식욕촉진
보호자분께
언제
##IU
Nasal
epi
##비는
##도포
bacterial
##정지
GGT
##만한
clind
prob
27
귀치료
##정리
##tival
##nit
수술부위
hypoth
##izure
feline
검사와
해보
##도가
중등도의
##주고
만지면
1개
하실
dexa
자는
눈꼽이
위주로
프레
안나
##icial
##당시
##스틱
##있었음
ii
비틀
##였음
IBD
언급
##라서
환자상태
늘었음
##tir
depressed
피부에
평상시
고혈압
##oad
아예
##ologic
shoul
생식기계
관심
crust
인플루엔자
나가
##SS
옵티
dorsal
저류
##시작
Hyp
하셨음
종류
fiel
180
양호했음
자료
##않음
얘기
##rin
##천자
엑스
수축
레이져
##발치
철분
못먹
mmf
##으니
mit
##patient
최종
##하시라고
설명드렸습니다
비용은
##ritis
##형성
수치는
##ich
솔코
잘먹
유지속도
record
동일한
배뇨는
SpO2
##전화
amin
##이었음
제거함
##floxacine
##omiting
먹이시고
material
volume
심해서
##pler
eod
본원으로
좋아졌
##ercise
여자
애기
##year
ins
준해
배뇨곤란
확인하고
patch
했습니다
섞여
##도는
##TM
Induction
##병증
appeti
에코성
trauma
##기에
권유드림
malassezia
##oppler
week
##하지만
ibd
출산
##횟수
##utamine
amc
전과
폐포
##인성
##메일
##염에
urinary
필요하다고
다님
##itr
##regular
EX
다만
rem
client
대퇴골
교배
##ectrolyte
##곳니
골반
소독약
데려오심
알고
먹인
Abnormal
sclerosis
뒷발
솔코린
sily
내에서
동반한
##imary
objective
수의사
##mun
반응이
뒷다리를
많아
##str
free
빈혈수치
특이적이지
##작스
##ength
##발작
hypoall
sw
차이
##음영
밤새
##for
cholang
AST
adr
##12
잠깐
ACT
최근에는
검은색
적출
침대
복부팽만
env
Int
미약하게
배가
##yroidism
패턴
이전검사
##irect
dermatitis
rupture
end
전립
##전지
발목
오늘부터
##증상이
급여시
lymphnode
전화통화
suction
먹던
##좋음
치료반응
pyometra
창백
##copic
육아
주식
문제로
입원처치
이야
##azolam
식욕양호
치은염
##셔도
소견이
##로스
호흡은
my
##으려
##르게
##TE
##dition
##파행
##없으면
##다함
ost
처치시
opac
enrofloxacine
의심되어
Joint
##마겔
발생할
##orphen
##gn
##농성
##마루
##ete
김진
발열
##해야할
Objective
좀더
관찰되며
크기의
loss
동영상
##CAL
Respiratory
김진경
피지
hydro
##것도
산소공급
심초
##roscopic
metast
폐부종
##거리고
Ne
먹이는
안내해드림
##원에서
산책은
bilat
송곳니
gluc
prol
아파하는
전쯤
##1회
v로
브로
식욕촉진제
금일은
없었고
사과
##esis
##arcoma
마른
식전
간이
지내고
개껌
경계
Nerve
고려할
cardiovascular
br
signs
밖에
보여서
정확히
pi
##들은
챙겨드림
직장
패치
##상황
##신경
##tiracetam
##INA
##Tx
alk
점액변
양상은
##azepril
control
잤음
종종
stt
이메일
해마루
면역억제제
exercise
보니
불균형
걸어
이에
##혈액검사
##fold
캔에
적극적인
opacity
괜찮은
변연
팽만
일어
##단계
ketamine
Lymphnode
전립선
##개선
fluor
Is
Cardiovascular
##이었으나
넣고
tdx
안되
##ogen
##요청
정밀
##ocele
##ification
끙끙
##소량
G3
##oprost
##YSI
재검시
집에서는
##소혈증
##cent
현미
primary
낙상
섞어
넘어
metoclopramide
건사료에
##지러
양이
증상발
딱딱
프로포
emergency
##천히
정상적으로
물도
Furo
불안정
##하는데
EXAM
hepatopathy
프로포폴
되면
척수
intra
마비
자연
증식
낮은
##YSICAL
##조치
약이
EXAMINA
Pre
주면
PHYSICAL
천천히
##장애
자발음수
소견서
acv
입력
##보니
EXAMINATION
fracture
collapse
##exia
abdomen
다뇨
strength
선택
fip
한쪽
맡기
있었던
dobu
등으로
##CP
O2
##VIM
tib
##성으로
irregular
Famo
원형
##generative
높게
부분은
##2회
##실질
##zep
사료로
Thorax
안쪽
양치
creatin
수술전
bandage
하였으나
봤음
##베니아
##tiple
add
proteinuria
예전에
ao
않게
##약을
##무게
부위에
SA
살이
사료만
29
##romb
개복
##는다고
못하심
훼로
입원장
개선된
hemorrhage
T4
않도록
##루어
그래도
간단
##ranial
검사시
유사함
ACVIM
##opathic
이력
허피스
컨베니아
터비
하는데
##fat
단약
IRI
따님
##oci
enl
##인계
구토가
##olar
전침
tbil
##ong
Dis
##roc
sam
어떤
말라세지아
##염증
바꿔
Client
alkp
IRIS
##자세
가능성에
옵티뮨
creatinine
code
acvim
clin
Dazzle
뒤로
Isoflurane
##iosis
안좋음
아미노
적이
COM
##zepam
##파열
##하시면
모낭충
크기가
어렸을
##감량
보다는
##IN
##지거나
##nitol
프론
FIP
전엽
묻어
아니라
33
잘라
inflammation
vitre
BT
##diopathic
benazepril
##ulation
##limb
biddays
##astration
HC
sym
어깨
superficial
##aid
##amic
wh
관찰되었습니다
splenic
부족
##sti
##oprostol
수시
전까지
##auc
medial
흔적
m2
시저
##cope
활력양호
bone
##해볼
##에서도
유지하고
##ocytosis
nebul
##other
평가에서
신장결석
점적
##이물
삽입
##증세
증상발현
나빠
다발성
##있어
##격동
##하셨습니다
간략
Emergency
보정
피하수액time
##saa
몸무게
seizure
앉아
##pebral
##항진
염증이
떨어지는
임신
##ik
수납
appetite
낮에
어렵
pH
싫어함
sid로
if
네뷸라
Cor
시점
소리가
32
##티베
##ures
체중은
얕은
정리
거부감
Env
##oy
##외과
거즈
병변은
nv
otitis
##부터는
NV
종합백신
##lev
이차
##하진
침치료
conjunctival
현미경
인지
일시적인
어제와
먹였음
절폐
##이라도
##트라인
levetiracetam
##눈물
##Rx
중단하고
##티베이트
짧게
절식
AD
##고혈압
##실린
철저
iu
timesid
##구니
확인된
본원에
##병변
유사한
##openia
##BP
peak
주저
##셨습니다
##기저
The
##tx
시키
희망
먹으려고
장액성
##성은
내과적
귀에
어느정도
maropitant
사용하여
짧은
나아짐
96
있었고
##emast
베아파
철분제
4번
빨리
위축
이첨판
보이면
엑스레이
##보조제
생길
##essure
갑작스
##OS
확진
별로
감안
cystic
##ameth
영역
##타민
ACTH
경골
gas
퇴원예정
cpli
pah
have
##ening
대체
중이며
귀상태
##복용
프론트라인
다니시던
##았다고
Menace
cle
dz
범백
섞인
외용제
1sec
##ipi
##ilt
시행
midazolam
bromhex
##소염
erythema
소변은
결찰
양호하면
두부
환자의
주변으로
비정상
소실됨
##협착
##ytic
##ificant
괜찮았음
vhs는
##측정
VHS는
개별
##했습니다
##aucoma
##terna
내강
##요법
hwp
콧물이
##타구니
##iramine
PAH
부탁드립니다
##이기
##ies
##것은
echo
관련해서
하얀
약용샴푸
있었다고
크기는
서서
지속될
##genic
bleph
##KP
ax
주세요
5T
요량
노령성
추가적으로
Comment
상태라
##등의
검사에서
Ceph
사타구니
잠복
중환자
fsaa
상황으로
추천됨
clindamycin
##장착
여러번
thickened
CREA
##형제
co
pressure
dilation
34
##ipient
엄청
체중부하
좋고
##비트
##오는
##ping
##행성
안하고
##화장
that
steroid
nph
##한번
##uctos
cir
모름
대증치료
불린
##키로
배뇨상태
##ptom
##장염
##ortic
어릴때
##14
dtm
들었음
##이하
dL
occ
입원중
incipient
부딪
##으로는
smear
##케어
호텔링
장내
##있을
##해주심
leuk
병리학적
응고계
##선화
김성
bul
것에
외에는
itra
##enem
변비
켁켁거림
같아서
방문
gast
tilt
##iment
남자
##tivitis
fluores
증상에
ure
scre
STT
주지
저알러지
파악
probnp
보지
성향
연락주
##ographic
하기
##시켜
##푸랄
mental
##식이
##들과
기운이
corr
##캡슐
##13
##마이신
disc
부위는
문제는
##겨서
##하시기로
##atus
확인함
없어짐
부진
##다른
귀도말
hindlimb
elev
##되었고
second
##있어서
개통
neph
line
이혜
##니푸랄
사라짐
Pan
나올
있지
호스
피부상태
했었음
##코프
direct
알마겔
두개
알부민
부종은
먹여보
##나고
돌출
화농성
##uctosamine
중이
##bp
감사합니다
인공눈물
##ric
##곡선
태선화
limb
가능함
이혜경
##카라
##cle
없었다고
carc
배출
##았으나
물리치료
Met
되고
side
오큐펜
##mentation
어려우
ALKP
infiltration
effusion
야채
카드
아니고
분절
탈락
prednisolone
##첨부
협착
##oxap
심해지면
복막
##방울
보호자님께서
지속적
##안됨
##갔다
##arr
##문부
지속되어
hemat
##포화도
##ygen
than
oste
진찰
담도
침샘
부형제
용량으로
채혈
Alert
PM
전화로
af
말고
##되는지
바닥에
산소포화도
이도내
연고도포
실데
유도
##OL
처방받은
심해진
비명
일주일뒤
operation
##타닐
##해보고
##받아
않았으나
속도는
adrenal
비루
##호흡기
##OR
##예약
아프
이상없음
inv
##arbo
관찰됩니다
석회
적혈구
##센터
tpr
나오고
TPR
권고
##asm
##정렬
defecation
정형외과
5cc
dobutamine
낑낑
넥카라
misoprostol
hern
##약물
hepagen
급이
급하게
결제
##BNP
Abdominal
##착제
##정도로
끊고
부정맥
하시도록
##한테
best
하였으며
##문제
1cc
usg
늘려
감염성
bab
낮아
5cm
##벤단
2T
준해서
neutroph
sep
열상
유착
상당
먹기
호스피스
##마비
mineral
##ling
##량이
NPH
##of
##ging
ug
들음
맞춰
켄넬코프
castration
doppler
걸음
만약
수정체
피모벤단
못하는
프0
##cep
##round
##방향
먹이셨음
vel
트루
##했었음
St
##osit
최고
##ven
diazepam
토함
염증성
COMM
idiopathic
tramadole
##디지
입원관리
##가는
general
금일부터
장난
페노
골정렬
먹어서
cyclosporin
##isory
inpatient
활력도
진통소염
##ha
##brox
인터
참치
l씩
계란
식탐
아픈
침흘
걷는
##셨으나
현재까지
##alt
검사가
glaucoma
##ark
##된다면
진행하고
blephar
인흡
##걸로
syncope
catheterization
##broxol
##었을
mirt
adv
tt
물에
##ized
symptom
eq
자다가
주증으로
was
##bular
관절낭
##ere
치료는
신장의
##지면서
##통증
개선되어
개선되지
##order
treatment
##고환
##리닝
처럼
이상으로
##비중
트루솝
partial
##traconazole
##olol
미리
곰팡이성
multiple
nit
conjunctiva
##undus
5L
하였음
##조절
depression
나중에
직후
likely
가져오
##ession
홍역
##봉지
확인되는
Eq
##orexia
된다고
한달에
##cap
##속도
사진첨부
##ecal
##axia
canine
액티베이트
입술
병원으로
밀도
##urr
먹이실
Ac
G2
무리
ID
경에
하복부
수시로
괜찮아짐
##ites
##rolithiasis
앞니
##변경
다양
시켜
ln
##iohep
이야기
각각
봉합사
비교하여
바로박
최근들어
toxic
일으
궁금
모양
BARH
브라
실밥
기력은
theo
ventral
bronchial
먹이기
전염병
열감
명확한
TC
그제
퇴실
##que
원인이
obstr
vomiting
##저께
병행
비슷하게
cefazoline
혈장
##안약
clemast
조정
##된다
우측은
평소보다
##안방
도중
나감
받았음
##냥이
보행은
##iohepatitis
##otic
##증식
tc
대기
판단되며
신체
정도에
체중감량
환부
심음
다음달
확인시
abdo
금지
##포함
clinical
두드러
상에서
##투여
Famotidine
31
##안에
사료에
제거술
##받으심
##opy
##hea
54
chemistry
chlorphen
MMF
hair
텔비트
##ifit
##바이
영상자료
단백질
성분
이어
barh
nodule
시기
##itt
안연고
##tro
심각
##ylazine
acetylcystein
간균
UG
느껴
안먹어서
석션량
##프록
AMC
따라서
활력상태
스크리닝
활력이
하시고
reaction
구입
튜브
PRN
시술
##icam
한그릇
감소한
보행시
나오지
항암제
gc
##치윤
이유
있도록
exc
area
송치윤
##발생
cefradine
muscle
##때는
숨을
선생님께
보인다고
glucose
종격동
구토증상
Crea
소수
복부촉진
소독솜
두께
##사진
눈물이
명확하지
##가량
ambroxol
##TA
기침약
wet
마이크로
처방하고
먹는약
##안에서
barking
ureth
재생성
##지속
Cef
처방전
통증은
어려운
secondary
##osin
보호자에게
부재
내용물
임상증상은
##피로
복벽
진노
처음에는
solcor
##사신
supp
비만
합병증
##iac
##겠음
##ospasm
십자인대
신경인
색깔
퇴행성
enala
nodular
val
surgifit
빼고
수로
##HA
function
##어볼
MVI
저혈압
도말상
LN
육포
내외부
간지러
정기검진
눈은
##ait
fem
판단되어
어제까지
flap
추정됨
환납
인흡착제
##tivity
중앙
##드시
개선되었으나
퇴원약
##진탕
bestase
도움
pad
절뚝
후처치
처방약
mannitol
##atous
GC
status
##osa
##ision
ataxia
치킨
먹다가
sbp
보행평가
hepatitis
##벡토
thromb
DTM
제대로
##고려
복약지도
##실금
stom
연구
내원하시도록
##밀도
degen
##요추
subm
브라벡토
그저께
미끄
유발할
##주면
상부호흡기
75
있었는데
##ah에서
##week
안에
중순
조작
##사용
##다뇨
##할것
##봐야
치료종료
형태있는
slow
시에
##모니아
복부방사선
클로르
##오틱
tracheal
귀진료
후로
perit
Intra
Renal
수술이
##EX
편이나
##PO
피부약
예정일
없었으며
재수술
질소혈증
보입니다
잠정
preanesthetic
##hist
다음다뇨
##ount
유기견
섞어주
##erma
tachion
근육층
자발음수욕
##치온
어린
##우치
발끝
전안방
ventilator
새로운
입원기간
펜타닐
술전검사
##acin
##idine
아버
solcorin
##roxicam
육아조직
간의
##았는데
color
보조
##신체검사
부분이
miso
보기
hydrox
걱정되
##보는
이전에도
우측귀
당부드림
del
정맥
##차례
fructosamine
##unture
DDX
rod
UDA
##의뢰
타치온
물만
보호자와
불량할
일시적으로
##님이
##되었다고
therapic
고체온
##프릴
norm
육안상
없다면
##acl
##구역질
##있으나
IVS
비후가
##upunture
번째
##할지
산증
처방해
나는
##onic
##ae
##apy
gaba
tur
담석
묽은변
AH
드론
##프로
에피
##럽게
##ropo
##지방
##세척
안약은
##해주시고
##cein
이전검사와
그럴
##시다가
수치가
드론탈
##없었음
intrac
gastro
focal
관리가
after
나고
병발
요함
##aden
심하여
Pancre
##랍니다
pancreas
밴디지
않지만
##ges
buto
바이러스
##트로반
뒤쪽
확인되고
기본관리
pneumonia
##상태로
우루사
좌측은
##ese
gran
요청하심
석회화
차까지
##간격
Preanesthetic
남예
좋았음
편측
하다가
투여함
남예림
리포
견관절
흉요추
##체는
##산화
쇼크
안보임
헛구역질
끝에
marbo
##tifle
lowfat
가까운
치료가
lipid
청진상
기호
작년에
blu
##mia
IS
uop
intraoperative
Head
종이
전화주
라인
수면
##형의
##mt
##추가
각막부종
piroxicam
Intraoperative
dental
hypothyroidism
정도만
##OD
지인
떨고
오예
전체적으로
carcinoma
어려워
세포학
가격
안되어
정상배변
쿠싱약
palpebral
Disease
식이는
오예인
vin
증량하여
degeneration
받을
sap
발을
##EXX
전보다
##ocardi
1cm
폐야에서
complete
##안각
박트로반
IDEXX
itraconazole
했고
##절폐
SAM
IMHA
공격
확보
이전에는
맞음
oxygen
일에
습식사료
aminophylline
blepharospasm
긁고
좋아진
codein
핥는
ampi
##11
##으러
##신장
Conjunc
corrug
귀드레싱
##v로
인테
##담당
입니다
오토
##하므로
tumors
수로란
있으심
헤어볼
##atoph
천공
visible
줄어든
hs
cyclosporine
##시겠다고
##증이
양상이
delay
펜톡
좌측후지
모래
아직도
흉부방사선상
원위부
플루
엎드려
nh
만에
필요하며
conclusion
결정하기로
전십
##것이
##opec
both
이상이
cons
판단됩니다
받아가
##opt
리포직
보호자분은
냄새가
불려서
적응
우측후지
hy
낭종
정체
##낭종
케어
scaling
군데
##per
perfor
퇴근
##해진
##없는
fields
##아침
않았습니다
##미용
안구진탕
폐쇄봉합
받아서
진노랑
proBNP
##aw
##아이
남아있는
나왔음
연구개
##uric
##담당자
Ex
myd
Conclusion
마이크로칩
full
전일과
진통소염제
##opsy
분배담당자
이후로는
물약
힘들어함
인수
##스테
##스티
##ets
인대
form
필요하나
##륨혈증
콧물은
##신지
##ined
##oderma
##오고
어제밤
within
cholangiohepatitis
3days
프레드
SAP
##opecia
작성
##orac
comments
##fluid
vess
두꺼
식욕절폐
둔부
오르
우려
microscopic
##것같
##no
##atell
그래서
##헥시딘
먹이시도록
요도루
나눠
적어
##섭취
피부질환
두달
##없을
electrolyte
아침약
ak
##altep
유래
allergy
gastric
aurine
등등
해소
##제닉
##mus
##arrhea
관찰되
24회
##ris
있었으며
목표
6회
가벼
달라
골수
##기침
칼슘
albumin
고름
대략
##ezing
##어리
정중
##ardia
우유
자궁각
떨어지고
도말검사
10cc
같다
마심
방울
##있다고
받으러
줄여
뚜렷하지
경우가
해주고
기존에
CH
연어
##00
지속되면
날짜
반대
##루엣
##enter
##ography
lobe
귀연고
진행중인
사강
우리
듯한
많지
vessel
mvi
뇌수
흑변
활동성
커짐
잠시
혈액이
평소에도
댁에서
약한
해주심
먹으면서
여쭤
##eal
배양검사
등부위
지속되고
##지기
##공간
98
왔다
##러제닉
concent
가심
것임
tw
propr
진행될
혈당곡선
##stitial
##ram
##러운
걸쳐
anorexia
##ophil
Chem
길냥이
##히려
variation
tl
빨갛
빈뇨
앞쪽
##0g
혈괴
##하니
기저질환
##마진
asc
retinal
##레이트
압박배뇨
절반
##건지
##imarin
스타
유지할
should
다름
안내드렸음
99
오히려
상처가
##obil
TL
사정
##pal
확인해야할
##oxib
##very
##elial
환자가
이루어
좋다고
##ied
aspir
가벼운
역류의
##시지
##ioc
안에서
##ition
##enile
##itrate
serr
##고양이
펜톡시
자리
내원하시라고
더이상
metastasis
긁어서
양측성
기왕증
해주시고
물설사
받으시도록
알아
der
상복부
##othy
MMC
##하려
##내고
훼로맥스
##ergenic
acupunture
##혈성
there
오연
내원예정
dilated
출근
HWP
소요
좌우
##하는지
인수인계
due
##불가
괜찮으면
##ici
지켜볼
전에는
##ice
44
내원당시
Ca
plate
오토맥스
새끼
05
분만
휴약
침습
##taurine
병변이
##ocity
잘못
##roxine
컨디션이
##eteral
VI
##기가루
붉은
##erior
우선적으로
wk
북어
선예
##ont
around
##성분
##alteparin
##com
드렸으나
준하여
##SA
amylase
가만
상위
resp
fecal
##면회
해줌
산책을
##otherapy
락토
이번에
##onitis
환자를
출혈이
##운딩
돌아옴
##라인
##ignificant
##ailure
기대
오늘도
Iris
##과상
##리스
##점안
##ikacin
fluorescein
95
안좋은
intracranial
이빨
입원비
내에
안보
흘러
##현민
##ulose
14days
아침에는
##았던
##ules
##냐고
5차
수회
##버리
흉복부
딸기가루
흉관
체중증가
##co
##rofloxacin
ff
##idence
이상의
다음주에
김성훈
적음
황현민
citrate
USG
외래진료
5번
안내해
##arcinoma
Pul
절개하여
femoral
##히는
##메딘
인테스티
메트로
##증에
오후부터
변경하여
비해서
posterior
후두
mucocele
##동범위
alopecia
주시고
hypermature
필요함을
연속
##을때는
주실
흥분시
돌아다니
심낭
obstruction
메토
kcs
연관
reactive
응급상황
생검
##osal
항체검사
##CK
진행예정
rr
소리를
빠진
clavul
velocity
닥터
108
상안검
##entral
개선되고
##lasma
##arget
##계획
Lens
##aph
밤부터
전방
MO
imha
NH
act
변도
찰과상
떨어져서
효과가
RR
##CR
모든
wn
확인되었으며
sple
아침까지
내일까지
때부터
바랍니다
흉막
##jection
##볍게
cortic
수술한
##riasis
고려됩니다
개선이
마시고
##저분
proc
##플록
소변검사
FH
Cr
보습
턱밑
먹는다고
##이지만
fh
##티존
예후는
물체들
서서히
##rod
초음파검사
고유
static
diffuse
##asone
거리
##알부민
##부위에
증상발현일
##분절
##cling
독시
정상적인
중심
해보기로
##하던
이외에
관장
안정적임
##adder
care
hx
하에
Cornea
WN
##ember
만한
낭성
##알러제닉
원장님과
##rocoxib
진행한
##aintenance
tobr
조심
##슬기
간식도
봉지
평소와
정상적
관절가
가볍게
##ann
PU
clock
##own
##미란
세포검사
이후부터
conj
slight
spleen
##emic
김슬기
오신다고
##ared
pyoderma
라큐
reference
예방은
##oxi
foci
많고
이는
이제
capsul
청소
안내드렸습니다
reduced
xylazine
##오면
샵에서
기침증상
mydriasis
지저분
##파키
DX
가려워함
##ension
하트만
겐티존
##wise
간지러워
주증
하셨습니다
에피오틱
검판
infusion
HCM
받지
발증
양호한편
ears
방향으로
샘플
부분적인
경도의
##하였을
imp
##pper
위해서는
한번도
NRC
66
통증이
face
장애
##crist
pig
때까지
추세
##발적
인근
Conjunctiva
##것을
mobil
pentoxyf
잘라탄
고령
서맥
양은
##하셨다고
nrc
massage
입주변
주관
최원장님
수축기
Ech
##파키틴
dalteparin
Eyelid
cd
##드밴
세번
neutrophil
##너리
양호해
mp
반사
알려드림
Lac
heter
##anex
조작시
광범위
##절제
호흡상태
일주일간
떨어질
FF
휴무
##라는
##cime
촉진상
치료에
eyes
가만히
클로르헥시딘
mature
양상임
##trose
##영양
##폐색
Anterior
겨울
고열
##자극
43
제일
##TH
식욕등
NH3
dyst
tars
결정함
recumbency로
라큐아
##imal
##시다고
##cta
옆으로
임의
diagn
원하지
##ystitis
##때까지
nacl
안정적으로
중임
levothy
귀에서
때도
방금
부러
위염
##혀서
심해질
관찰되나
ureteral
##하셨고
해드림
##졌으나
귀체크
##angi
Half
Pal
달라고
ffp
less
좌측귀
4차
가지
유리너리
##차트
##acom
target
혈액도말
한번정도
clavulan
산동
medi
##처방식
1A
에날라프릴
관계
저에코성
심할
##ocol
##unk
항문주위
ALB
타병원
알러지성
lactulose
찾아
cerv
코막
3cc
걸린
한번에
혈구
hcm
피부봉합
투약후
##neezing
DER
염증소견
접촉
이파키틴
tobramycin
##패드
##건사료
caus
확인되었습니다
vitacom
자율급식
서울대
상당히
간실질
##원성
심해지는
걱정되어
드렸습니다
regenerative
제외하고
부종이
ea
주보호자
##tisol
장기간
COMMENT
##시킴
regular
##되었던
30회
구취
##꿈치
flow
gent
어제에
반드시
kerat
부토
비용부담으로
##epatic
담낭내
오메가3
변화가
우심방
84
동반되어
##EAD
compared
em
cPLI
materials
복용하고
중인
레나
##ish
목에
싶다고
circling
이로
dull
진한
##경화
있었습니다
##cristine
HEAD
tac
딸기
##부에
##사고
##wk
차도
##시면서
##되거나
간식만
종양성
체표림프절
잠복고환
교통
아포퀠
급격히
41
##해줌
duct
몇개
귀지가
##ytosis
한시간
설명드리고
epith
내원한
침흘림
##ropofol
목부위
oral
nsaid
##드리기
나와
이런
gu
면회시
symptoms
##anexamic
cervical
신경계검사
##histamine
sac
screw
72
직전
안하심
##습진
##나필
##왔음
만성적인
##atellar
KCS
박정
친구
poor
radius
##균제
오니푸랄
Chronic
Ears
neoplastic
biopsy
concentration
동반된
문의하심
가려움
수준에서
전십자인대
가능하면
sBP
##mune
##요망
응급처치
레나메진
아물
##imus
amount
헤파멜
##adr
말씀드렸고
maintenous
Bil
흡입
##yline
NECK
stifle
upper
##romycin
110
주기적으로
##oxaparin
관절가동범위
##eyedrop
새벽부터
gro
이불
intestine
Op
마지막으로
##cepha
1마리
몸이
##intment
evidence
##새롬
##pression
최새롬
고에코성
받는
체중부중
FFP
Le
torse
기침반사
Face
chlor
망막
##가심
##피질
##eption
stain
배에서
##량은
말씀드렸습니다
발생시
헤파멜즈
절단
초콜
확인되었으나
ketone
ile
##목스
##ecti
UOP
##재생성
##드밴스
심폐
파우치
##ok
파행도
##oem
Bi
오금
오시라고
등쪽에
봐서
97
km
##met
##injection
탈수교정
neoplasm
##ystag
제거하고
##lyc
성장
약으로
orin
심박수회
turn
5kg
켁켁거리는
##점막
삼출물이
hand
##해달라고
##만큼
후지파행
불구
dextrose
삽관
firocoxib
##ever
##ates
cushing
안녕
diarrhea
clemastine
##란스
##보심
##허탈
caval
누워서
잘때
##uss
발관
발견하심
##inalysis
다리가
가급
미수
찍어
chlorpheniramine
##들에서
##없어
respon
orinipural
묻어나
구토로
##enocortic
발적은
Eyes
개선되는
의뢰됨
어려울
선천
##cephal
간엽
##하셨으나
##목적
공급함
비재생성
저알부민
##itation
좌안의
nyl
##되서
ba
아트로
po제
##원하심
##산소
염증세포
실데나필
보강
심정지
의뢰함
정형신체검사
말씀드리고
fs
nostrils
닭뼈
할것
받아보
투약은
vet
alumin
Nostrils
발라주
levothyroxine
회정도
140
그랬
수신
이전부터
말단
##때문
IN
암포
##분양
##으셔서
헥헥거림
##전이
인테스티날
첨가
##ectious
정량
심인성
##경력
WNL
리커
안녕하세요
##betic
피부종괴
##ystagmus
Nesk
nesk
키우심
손으로
지켜보고
##드름
움직이지
wnl
갑기저
공장
발등
조미란
##AL
계신
먹여주
Plasma
둥근
neovascular
3개
babes
주는
심해져서
빈도
trus
그렇게
fibrosis
당근
##적은
거림
##fr
##비스
증거
초반
##ulf
악화될
Ed
##arrow
aden
장난감
Pulmonary
des
혼탁
##마이드
운동성
drops
닦아주
##았습니다
실마진
condition
한마리
저지방
bromhexine
발적이
김지
##ondyl
아트로핀
생각됩니다
##았고
먹이면
피하주사
hist
externa
##quid
##플록사신
##osarcoma
well
네오
평가됩니다
##러싱
##och
recorded
mesent
안면부
트리
78
리커버리
실시하지
sa
thyroid
##자체
##dible
##어진
진행된
path
##중단
이하로
##enocorticism
유의적
ov
간호
silde
##PCR
55
##atophytosis
하루두번
후지를
해주실
않다고
##AI
results
심낭수
const
atrophy
poly
지름
marbofloxacin
후에는
##fe
proprioc
해피
한달뒤
##izer
cal
##가고
##km
증량함
hypoallergenic
상태이며
liquid
AK
Gi
스피로
일어나서
delayed
교통사고
L2
##스타제
pleural
드리기로
Bl
저체온
ivs
##enocarcinoma
입에
##eline
치료방향
바르는
##내성
##ula
당화
식욕좋음
말라셉
해도
우안의
흉막공간
박정훈
불구하고
##men
##발음
lymphaden
하안검
##근육
##다고하심
Propofol
cage
하지는
미세
양호해짐
아니나
ver
같고
사나
##asion
visual
nylon
기구
##elv
##elimb
##oplasm
hernia
qual
내로
흰색
##NO
추천드렸으나
distal
cox
드릴
수령
상태변화
pentoxyfylline
삶은
발생하여
아니라고
collar
prolapse
corrugation
ts
원활
피하출혈
constant
수중
나와서
수준으로
ging
##약으로
slightly
진단을
senile
뭔가
설사가
임휘
##ved
##이어서
결과는
144
임휘도
길게
프세이
완치
신장에
한달전
apex
Mal
range
취소
cortisol
vincristine
공복성
보존
##비후
정도가
##만간
peritonitis
가래
보시고
46
전일에
대체로
눈곱이
Abdomen
transf
부분적
않으셔서
구강내
interstitial
처방하여
node
경과보기로
load
치매
thorac
##ole
감압
조만간
오전부터
가족분
알디
##uff
습식캔
nsf
드리고
##었다
##사미
심장사상충예방
deposit
neovascularization
고지혈증
##적출술
늘어남
계단
주기적인
gra
##iop
##estasis
일시적
##보행
cn
pss
염발음
보호자님과
거리는
잘안
주셨음
##청진
##etti
##상으로
multif
syl
끌고
뜯어
##opic
부중
냉장
하이포알러지
같아요
sneezing
바깥
폐음
chemosis
주간에
주저앉
흘림
약에
##itus
양측슬
들어감
가온
##arine
HS
##드는
Derm
재진일
돌아다님
Acute
##되면서
분유
Ventilator
##부탁
입이
확인할
없어보임
##etime
나눠서
malign
동네
전처치
후지의
지난번에
집중
##시며
immature
작아
fore
않는다고
##verse
anal
배액관
수는
라운딩
않았으며
##amethasone
도착
코데
데려가심
##gress
피부진료
여전함
cephradine
men
##vity
##cepti
CN
##리지
##췌장염
##apine
폐출혈
눈주변
대퇴동맥
빠르게
##되었을
몸통
Pr
##pnea
반려
##침착
베스타제
술식으로
trusopt
클라
##벨린
##ette
round
scale
mast
네뷸라이져
정상화
소화제
락토벳
virus
소양감이
췌장염에
cholestasis
2cm
##pw
이틀전부터
##같이
##약과
butor
cur
심장질환
Patellar
림프구
##시에는
##소리가
TS
시작됨
Col
패널
HL
##famo
##elling
mgt
Anti
식욕감소
##ogenous
##PW
항산화
야간에
MGT
먹었는데
전반적
먹었다고
NSA
여러개
ran
##건조
심해지고
urinalysis
Tra
##들어서
쓰러짐
##바이러스
spot
림프계
open
지속되는
126
2배로
##osph
하러
##듯이
시원
심초음파
탐색
하신다고
증상도
세포질
갈색귀지
##소실
못하게
##냄새
재진예정
말씀드렸음
증가한
권유드렸으나
사이즈
많아서
lvpw
잘지냈
##ofemoral
전신발작
LVPW
관리는
포도당
NSAID
뇨스틱
##산책
결정할
Hyper
##트릴
B2
cla
##생검
nec
숨쉬
절대
##ithromycin
실루엣
##했다가
권해
담관
먹이시라고
##rolimus
##해야함
가급적
복압항진
blue
##abolic
stomach
동공
만들어
하게
##medi
좌심실
요관결석
enlarge
##ni
##rofen
ing
Ao
이완
##벽의
심장검진
고려되며
기본적인
부위의
통보
주변에
갑상선약
누런
##인한
증가가
hydroxide
cpe
반응은
되는지
킹벨린
stre
핥고
해달라고
##기관
기저귀
coron
잠만
##소화
폐야의
암모니아
##itial
sublu
##ondylosis
##북대
pen
빨개
Dob
까지는
대로
심하면
개별화장
당화단백
47
대하여
주워
섭식
130
loading
forelimb
##monitoring
정기적인
##밖에
먹어도
닦아
##odon
불안해
괜찮다가
##ocytopenia
Radi
커진
집에가서
점안액
##나옴
##키트
##follow
##adrenocorticism
##ting
##비탈
##배추
호흡음
##벅지
132
Furosemide
nystagmus
코가
다니던
mala
headtime
하이포알러제닉
두고
tibia
patient
proprioception
cut
##수혈
##까지만
##유합
감량함
edta
65
tranexamic
여부는
cann
없을시
개통성
단열
##azapine
말씀드렸으나
##부위는
다행
mer
##umber
심각한
한두번
##bo
##otomy
바이트릴
보였으나
pp
##full
prom
옵션
weak
indic
나타난
피딩
PSS
fur
enlargement
대퇴골두
##하셔야
아무것도
페노바
생기는
CPE
benign
##수준
나면
##종합
##회복
ureter
벗겨
##기립
micro
ok
후부터
trial
병변부
foods
##ocyte
recom
음수욕은
모르겠음
담즙
FHNO
##ST
##봐서
붙어
아침저녁
##할수
분양받은
추정되는
hon
기관허탈
overall
colon
cavaletti
##기로함
##occus
상태양호
mem
받으실
##결절
특이사항은
door
구석
##져있음
양배추
응급실
sim
안고
불규칙한
fhno
상피세포
환자는
종합혈액검사
##pret
견치
these
장염에
##는게
ratio는
##achment
암포젤
긴장
늦게
대동맥
비염
유루
어머니
간기능
금방
ulceration
오시기로
tacrolimus
Amoxicillin
coxofemoral
##해보임
이틀전
cephazolin
싶어하심
quality
바꾼
비공
유치발치
clear
morph
대신
초에
rh
주신
침을
안내드렸고
CRE
중으로
##지로
##피도
관찰되는
uter
당장
늘리
##시라
오늘아침
먹었을
비상
이틀에
나이가
부분적으로
않았고
어떻
##ts
##하다면
##ater
보호자분과
검출
##성술
AKI
##xation
##소산
Pancreatitis
허벅지
##아래
##놓음
나타나는
swelling
femur
내원상담
췌장수치
NaCl
##aque
두꺼워
eosin
점프
때만
별다른
종괴의
호흡수는
adenocarcinoma
##영양제
첫날
##동물병원에
##야함
단단한
듣고
famotid
아미노필린
걷지
증가되어
깊은
지금까지
elevation
ond
간비대
##안정
먹이면서
##chym
##재검
##구치
재활치료시
높지
캐니
핵경화
필수
##ropr
##gan
##디오
내안각
외과적
비타민
##내외
maintenance
몇달
실시하고
sample
늑골
##의학
##유치
상태이나
glob
##프록스
##프라
mildly
##ytes
밀어
MP
테이
양호할
처방해드림
##amox
풀어
##tch
##inemia
먹이시는
검사에
종양의
##삼출물
##때부터
##적용
##채로
##ophanol
폐성
##mend
지방간
maxon
안했음
유지하며
체중관리
palp
block
tlk
빵빵
진단받고
자기
##나면
##되어서
##데스타
오연성
뇨비중
Treatment
level
여러가지
여자보호자
김태
Lact
pup
흉막공간에서
중엽
mirtazapine
약도
핥지
장착중
상태를
가는
열이
괜찮다고
TLK
오줌을
cs
덩어리
panel
노령견
오큐프록스
vitreal
종합검진
##하십니다
안좋아서
Alb
연하
##신부전
anis
하시라고
##phrine
이번에는
저하되어
감소하여
App
낮게
##과의
다니시는
npo
##ina
수제
##칼륨혈증
Kidney
만져짐
FS
사료와
베데스타
##tras
neuro
Operation
어떻게
빨라
플레이트
infectious
안되면
혈압약
추천됩니다
##지선
##반점
##원형
건침
특이변화
특발성
##TIV
##화학
##원인
##UT
##ophilic
Inter
갖고
##었다가
##종일
shock
dm
##한치
##까진
TVI
감자
단일
들으셨음
##usside
테오
재장착
##ococcus
길어
영상검사상
##ophag
딱딱한
valve
약하게
##대는
proteinuric
dexamethasone
뇨팩
염증으로
왔다갔다
##uod
##uls
number
섬유
요새
소리지
Med
거친
##ump
##wo
##너스
##iderm
large
나타났
발목관절
performed
##했을때
##부분에
실수
np
multifocal
chang
걱정하심
암피실린
추접
tg
##inu
##성의
##클로
주사제
전북대
지켜보시고
audible
##갈색
실시하기로
##ensory
클로람
간보조제
##ocardiography
pelv
timeiv
치료부위
##지연
##시아
##esti
예민한
lymphadenopathy
El
EOD
##생술
약간에
떨어지
음수량은
pulse
MI
택배
보이기
특이사항없음
주간모니터링
습관
##중이
##iral
처방받아
III
56
felv
aki
##con
##해주실
재발시
클로피도
전에도
##명한
##임을
mitral
기준으로
##roprusside
detachment
저알부민혈증
##라민
##ET
헤파카
##였으나
dent
##불능
자발로
우소산
##ove
brain
먹고나서
Low
환자입니다
##렸음
수의사입니다
연간
진료를
##rap
##V로
diabetic
##ostrid
62
date
비율
상기
심근
할때
유지하기로
가능할
저녁까지
##oxych
cholec
DM
tvi
다양한
고려해
태아
##색이
metabolic
나누
크지
수술적인
있기
좋아지고
B1
입구
##bi
##거라고
gv
rbc
활력저하
생각되며
계산
매년
아닐
##zy
의뢰원
기본정리
고혈당
intact
고개를
vascular
항산화제
xal
잡고
못뜨
아루사
내복약만
ascites
Pro
사사미
피부절개
##rown
##oxycholic
단독
많아짐
질문
##소견은
내일도
##은거
index
##형태
삼출물은
급격한
RA
하십니다
다리에
3cm
신규
##명확
##사상
##오셔서
##CO
##enchym
##weeks
간혈청
##이를
치과치료
##pto
뚜렷하게
심장이
cats
결석이
spondylosis
충분한
하얗
thr
shunt
##루민
좋아졌음
tro
##venia
그런지
AU
fundus
김현
물체가
에는
##our
##lr
##내에서
노란귀지
##나졸
##심함
변화로
렌즈
fibrin
##menace
rel
핥아서
##동의
아루사루민
진입
Post
확연
항문주변
적게
##증은
##압박
chx
um
보호제
amikacin
regurg
거칠
SAMe
Ur
눈주위
이마
1s
##T4
기관협착
recommend
부모
부근
좋아함
gait
dystrophy
내일부터
까만
걸로
전신적인
기존약
interval
1스푼
과증식
##르테
##효소
왼쪽눈
##담관
##노퀸
##idoc
부스
##하려고
포함한
연령
준비
자발기립
공급시
##tick
항체
술부소독
기본혈청
강아지용
밥먹
114
##염으로
경우에는
pancreatic
dig
재확인
안먹는
##icus
캡슐약
##echia
어렸을때
##enteritis
Chemistry
##츄럴
ED
##2차
보습제
시에는
##레인
bulging
##asc
실밥제거
레이저
구토도
파행은
dem
터비졸
tend
케토
##지가
##시는데
##루밍
뛰어내
5days
Im
김원장님
배농
##운데
케톤
##eine
##ubic
IMT
헤파카디오
뇨배양
##섞인
병원에서는
rami
85
귀약
불분
홍채
##lob
##기고
##보여
##결정
##스타민
##내역
##osed
주말에
한방
##상의
##주는
##이라면
위로
침대에서
##히고
아버님
hypert
smecta
aten
includ
황태
신장수치는
antihistamine
음식을
tibial
못했음
확장된
빨갛게
##vement
##dibular
DI
dpo
심하지는
##그렐
증가하여
두드러지
##두증
누워있음
##콜리
2cc
없지만
##리루
돌아오
Py
하시기로
merop
home
오리고
먹여주세요
사료도
vacu
기호성
##ilep
근위부
처방은
확실히
##리루빈
ls
사메
indoors
call
##aine
힘을
오플록사신
##pes
##코나졸
한달정도
Feline
한약
헐떡
##oose
아니면
##락톤
김현욱
부착
차후
hepatomegaly
keratitis
유지되는
여행
쪽으로
##furo
동물병원에
activity
확장이
바베
##은것
근막
보름
턱드름
##vel
##tics
감소가
앞다리를
cytology
swab
축동
높을
있게
격리
##ulin
하루종일
Rec
가빠
vitbc
한동안
cortical
##대한
불편해함
mobilization
색소
뜨고
장례
초자체
구토나
spinal
술부양호
leukocytosis
##내에
집에서도
heartworm
vitreous
혈관화
NPO
클로피도그렐
몸에
찡그
상승되어
간호사
##겠다
##움직
otherwise
Mic
##thal
대비
extr
끼고
PDH
52
il
없다
##했지만
뭐가
비위
원액
경향이
락툴
반정도
##결제
##atan
failure
괜찮았는데
spp
종이컵
04
rest
granul
대사
##alb
regurgitation
쓰고
줄이
##WO
클라바
Normal
기흉
##레기
내원목적
안될
##무스
프로하
mosa
팔꿈치
떨어졌
브롬신
도와
pdh
갑작스런
L1
orig
의식은
report
stime
고려되는
배지
번씩
##AN
##번째
##류가
수술시
급여량
구역질
먹는데
##ury
ctwo
cpa
ST
##nal
##니어
##후군
저번주
##해요
##uman
복수가
Vis
Otitis
주관절
##듯한
##obal
플랩
고려중
stim
김지현
ol
바르
산소처치
바베시아
debr
것처럼
##30
확인후
타원에서
양상이나
말린
생겨서
클리
포화도
실질의
그루밍
빨간
##았을
##ednisolone
움직임이
추석
배뇨를
공급하다
Dep
위에
오는
캔사료에
코타
담도계
페노바비탈
##ulitis
사정으로
##색깔
확인이
기타사항
##어져
성형
플러싱
식이관리
ds
##les
##문의
변동
##캔에
연간접종
비위관
진행하는
cT
감소하고
##감소증
G4
불편한
Visual
##디스크
상황이
완료함
부터는
혈뇨는
melena
주셔서
산책횟수
안되는
지사
##예린
처치는
aspirin
해피콜
vd
호기
##보실
아직은
발견되지
##TIVE
코타방
2스푼
간종괴
항진균제
##등은
특이증상
convenia
편으로
##tebral
먹지는
분포
채로
Lactate
애매
힘든
##ands
urin
먹여도
사메탑
엄마
드레싱시
부담으로
CTWO
오신
epiderm
내원해주세요
증상과
therapyfull
##많이
간종양
유의적으로
##ppl
수술비
진행되어
tug
옵타
이예린
평균
관리를
you
레퍼
일뒤
좌신
며칠전부터
소개
총담관
fpl
##이의
##oneph
spironolacton
전체적인
이것
위장염
방법으로
lig
##해주셔서
저녁에는
최소한
특성
##않고
nebulizer
##검사는
가득
Kg
양재
복합
occur
변성
처방받으
브로콜리
Bilateral
whe
기름
뿌려
rab
나갔
청진시
아탈구
##있으면
##퇴원
time내외
발작은
early
##umbar
치즈
##arch
##거리면서
반응성
미끄러
##소생술
##실때
못한
처방사료
Fe
귀지는
추가하여
NSF
명확히
객혈
안충
detail
##로는
##속도로
##ensive
전일보다
몇년
##보호제
출혈은
shoulder
lipidosis
없으므로
102
원인을
결막부종
바꾸고
LVD
myc
몇번
가능하다고
간은
사식
해결
mild한
DPO
한개
##omend
##확인됨
VD
bull
의미
감소하였으나
meropenem
골성
구진
구분
atenolol
##ologist
수령예정
테오필린
일당
##dex
아니지만
foy
치근
##바몰
##용량으로
one
높고
높다고
왕성
##히스타민
검판봉합
좁아
여부에
##alexin
Cefotax
bre
cut당
빠져
안로
커지는
한다
every
f1
녹색
잡음
상완
실시한
menance
av
has
결석은
##편임
thoracic
재촬영
젠토
##리카
tugor
하시는
흉추
##보이
아이를
주변부
경구약
serratio
결손
내역
##문제로
나아진
##omendation
##ues
EDTA
##abid
건성
양상의
Dogs
유문부
다시한번
호전중
##기능저하
도움이
capsule
49
DO
시럽
##scess
간부전
현저
##되지는
일간
##플랩
잔존유치
심폐소생술
##치는
호전이
주간입원
하프
disorder
DR
잠도
##매개
기립불능
양재원
비비
##나는
##ins
##으로의
다른병원에서
adenoma
##불안
calculus
삼첨판
하강
힘드
진행됨
림프종
처음으로
젠토닐
##았으며
##물질
##utation
58
NA
##지를
time사용
nebulization
실시할
점이
떨어지면
imt
insignificant
interpret
pagen
comm
velocity는
민감
개선여부
azithromycin
##ostridium
##페론
원인에
안먹으려고
코타방스
Ddx
160
수술차트
##ching
없거나
cbc상
불린사료
Hisory
hisory
##린다고
##불량
개선중
기다
어미
vitBC
extrac
오리고기
3L
##omas
발생함
적절
부위가
gastritis
공간
브로드
2마리
Def
bet
artif
pigmentation
submitt
##cimetidine
내드림
지루
##셨으며
상태입니다
먹으려
임상증상이
공막
실패
안먹으면
##udate
심청진
확인하기
마당
하프솔
##face
로우펫캔
인수치
##만에
common
거품토
튀어나
흉골
쓰레기
##기준
##kn
처치를
형태의
polyp
부드
혈종
##점액
bladder
인터페론
메토카
가을
##log
##부동
심장약은
선생님과
흡수
clavulanic
천식
##국에서
##포르테
##다음
##dog
복용하면서
malignant
AO
침착
예방의학
nitro
잘함
농포
하기로함
supple
퇴원조치
프로하트
요배양
tremor
간접
프루
##서는
##쪽을
##투과
Dia
그날
비닐
이송
임보
휘청
세균배양
기도
원발
악화되어
추가약
##acter
nd
##idental
오전까지
##물이
##은지
subluxation
곳에
박선
놀다가
대퇴동맥압
않는다면
nc
##23
Act
주입
이질
증상개선
상승은
##arged
수령예정시간
##ating
recommended
브로드라인
vii
hypoallergy
##iciency
VII
컴플
Ket
복부초음파상
ic
cardiogenic
most
트릴
후코
흘리고
호전되지
반대쪽
박선진
sed
코데인
Dox
##bra
##ately
heterogenous
suspected
뇨침
실외
항히스타민
##lic
연락드리기로
Ad
Od
내원해주
##심한
가능하나
영향을
하얗게
아드
식이급여
이주
##시나
투약중
calcium
드렸음
번정도
##일에
##설명
membr
높으나
퇴원함
지연됨
naver
귀털
들어서
터비덤
증상의
처음에
내원하시기로
duod
periodon
독성
바뀐
구토와
유지함
##owing
경과를
비심
우신
조유
심장사상충은
조유재
more
허니아
##염수
진료실에서
mineralization
노장
##권유
##디아
검사진행
cryst
사항이
움직이
오셨음
##활동
##시키고
술식에
##포린
먹었고
tem
und
were
##opping
KC
##칼슘
처치함
hematoma
##인지는
excision
주관적으로
QID
곳에서
PO제
약물에
수준의
arth
ileus
bnp
농양
##렇게
##붕대
hemol
길고양이
##load
##aria
나서는
dyspnea
18회
##호박
해보고
##air
extens
오면
##ised
중증
림프절의
surgical
##전화요청
지사제
선납
##MS
##타딘
경과에
##ocytes
더욱
##ough
받았으나
고유자세
첩모
##illary
Blood
famotidin
무정
##조은
##졌다가
설명드렸으며
과정에서
음영이
사고
폐동맥
pow
아이들
안좋다고
##확장제
밖으로
여조은
##odyl
organ
##ubicin
CI
##alemia
자세로
전후로
sn
통증을
LVID
내복약으로
계속해서
lvid
유의적이지
parv
가셔서
늘어나
약전화요청
##rally
##its
카톡완료
흥분하는
미용관련
approx
먹긴
##리시
사망기록
calcification
53
PP
때마다
다행히
김하나
네블
dayfluid
체온이
달에
tram
##veolar
질환에
줄어들었음
por
섞여서
differ
골절부
내일은
ncpe
어제까지는
Enrofloxacin
field
ointment
음식은
urethral
오늘까지
프루너스
##estinal
clavamox
산화
##혈전
보내주
드렸고
그전
떨림
##내복약
##amc
예정대로
수술에
관찰된다
마취종류
timesc
phac
conjunctivitis
##weight
보관
rim
##상피
fluids
상황은
##PH
개선양상
##tions
20cc
이물은
과도
쉽게
아세
##만으로
##검사를
exp
lim
있다는
##oconazole
출렁임
면봉
##uv
아목시실린
미용관련내용
part
재상담
##쪽은
변경함
##ophosph
kg로
판막
##entric
##ergic
##mediate
저항
induced
눈상태
##하길
Trauma
##idocaine
생성
##렉신
양측귀
호전된
Chl
64
차례
event
폐성고혈압
##났음
나타나면
fine
둘다
epilep
목적
잦은
했으며
임의로
란에
##마자
일주일정도
먹었으나
알약으로
##lycemia
ua
투여중
##발송
우측전지
clot
##LV
안약을
##cephalus
ra
말씀하심
간단히
origin
미용하고
유연증상
간단한
인터넷
상황에
공복에
##성분리
EA
Maintenance
##ocon
출혈반점
##ecin
희망하심
##so
오전에는
##athion
점막색
Echo
관계로
귀도
키튼
내원할
Inf
##imeth
##eric
##ases
##oprim
국소적인
##어도
호전되어
남음
수컷
##보시고
처방한
serosal
긁지
있어요
lesions
##인이
##orubicin
평소에는
kcl유지
enlarged
epidermal
이리
##결막염
염증에
GV
되었
선예도
보호소
prot
마음
유동성
hypoechoic
코막힘
miosis
leak
사이폴
Cephalexin
NCP
호산
central
이어서
##DI
enoxaparin
불편해하는
fist
밖에서
액와
##격막
구토하고
호흡정지
##istant
일반건사료
postural
##ered
검사후
중이염
폐고혈압
현금
##분비물
pyel
mucous
조치함
gingiv
NCPE
걷기
흘리는
acc
진찰료
좋으나
##자마자
generalized
걸릴
치유
##패널
##ovecin
57
토하고
##lum
##르면
심하진
허탈
##thyroid
그후
pres
발라줌
fp
항생제는
kg으로
특이소견없음
익일부터
만성췌장염
normot
gastroenteritis
한두
like
94
##itidine
확인되면
퇴원후
고려시
문진상
적용중
거상
강급함
splen
##진수
##실조
설사로
보호자님은
UA
##셨다고함
구강소독
동생
에어
##set
##하라고
##텍스
회복상태
종양이
지내는
네뷸라이저
dalteparintime
폐패턴
nitroprusside
시원하게
났음
##sis
ventrally
lvd
하셨다고
##고정
횟수가
##달라
##쳐서
##itin
##전도
형태로
지난번과
횡격막
꾸준한
dermatophytosis
Liver
쇼파
열흘
keto
stitch
아침은
과장님
##HPI
##른자
가량의
parenchym
거대
##kalemia
확인되었음
##키넷
##rup
경우도
BA
안약점안
##파놀
##RE
끈적
안현
힘들다고
specific
thrombocytopenia
아마
##해주고
##거리며
epis
줄이고
##세지
채취
뿌리
염증은
네블라
과식
불명확
##uinal
지어드림
Nd
가운데
전부터는
귀끝
플라
높습니다
확인되었던
cpv
inflammatory
높이
엊그
회씩
stop
스트레스를
부토파놀
인하여
캐닌
주사함
##ypnea
ctni
fd
##트리
배뇨시
##earing
##aryn
파행이
ivsd
TG
##인트
스타키넷
doc
씌워
##색소
생각되어
injury
300
##ade
3T
가정분양
나타내
cardiomegaly
어렵다고
오염
이나
struct
##림자
일반적으로
퇴원하여
##ipenem
단호박
올라옴
##리무스
Trache
mtc
##외선
설사증상
##악화
canin
incidental
gentamycin
재진하여
감소증
##seud
IVSd
##Dx
##탈장
simple
##ematous
alveolar
진정제
padd
네오덤
비출혈
입원환자
예약함
amputation
##roxil
목적으로
얌전
##hpi
seen
다니는
희석액
gain
없으심
##40
##ire
##세균
##bility
포피염
cholecystitis
높아서
주시는
##olithiasis
약물은
신경증상은
##gestion
성상
##vit
산소방
초기접종
Oto
strepto
##zyme
##ted
##쪽에서
##실에
약간씩
즉시
##app
주사맞
수액속도
전반에
다음번에
slowly
반에
할수
##iary
##체중
##박스
예약잡
두번째
##에코성
lay
변함
차오
편이라
있는것
movement
안현수
강하게
높으며
서지
initial
혈액검사는
들어간
잘지냄
싫어해서
fb
무료
커지고
걱정이
반복적으로
FOR
특정
##irub
colitis
hopping
ve
물려고
##abil
##시기로함
ketoconazole
##known
흥분하면
면역매개
leakage
##있다가
##니다졸
저하된
조영제
herpes
기억
편안
##mez
##으로부터
현증의
클라바목스
##ai
##놓고
보호자는
보호자상담
내복약에
##adir
일주일전부터
농이
모니터링이
감안하여
mix
미미
##테스트
Tramadol
이차적인
Defec
가바
넣지
음수는
##aphy
반그릇
어디
##bic
보면
회복됨
##하기는
처방된
abscess
중간에라도
extraction
둔성분리
##가면서
51
HR
쪽에
상황이라
사망가능성
작게
##uto
일주일치
부위에서
##urrent
되도록
밥그릇
처방하였으며
uw
테스트
##한다
분양처
연기
상승함
pot
소변이
##로스포린
자발식욕은
이물섭취
arter
membrane
일찍
##ool
보였던
아랫
설사약
invol
SI
##이스
##우고
로우팻
##로스탄
##해지고
실시하였으며
pds0
only
인접
##생활
##자궁
심장평가
발생하는
iii
굉장
분당
Hx
억지로
##분해
구토물
회로
##텐트
clostridium
nex
다리는
저는
##ison
amy
국소마취
FD
입을
말에
트릴로스탄
양치질
유루증
것만
##까봐
리마
자체
물고
소간
아이로
노스
재발할
하셨고
상황에서
functional
##제스
받아먹는
잘지냈음
brown
##iation
검이경상
바뀌
레날어
의식저하
보강접종
개시
호전없으면
뇌수두증
반점
전까지는
##td
##ross
##ella
소실되어
수평
##중간
##zia
##클로스포린
##ormation
myel
조금더
Urin
지나서
협소화
##mail
있으셔서
좋아졌다고
비장종괴
사상충예방
2015
sulf
##콕스
##onal
리마딜
찾으러
##골이
##더스
이물이
##thalm
이버
조각
않았다고
Dobu
뿌옇
##등을
내부에
임시
무릎관절
수질
##eria
ofloxacine
##드려서
##성숙
Az
것일
##ution
종합접종
BNP
확인되었고
margins
트리밍
간염
안좋아짐
자극시
##crip
싸이
칼리시
고려되어
##tramadol
방광염에
##onephritis
불편감
##ectrolytes
굉장히
전원
butophanol
사상충은
자세한
자극에
eosinophilic
cobal
오랜
입실
##안함
##두면
치료중
우측이
줄여서
간식으로
없다가
##1차
##검사결과
##ogram
59
Drh
Vmt
vmt
놀고
안절
킁킁
##성을
##스러
drh
인계해야
inflam
쯤에
drug
##점액종
다제스
##플러
##obacter
nodules
손가락
spur
mida
적외선
##있던
trunk
끝나고
안된
##estibular
##농양
##있습니다
시력이
rad
환자라
경구제로
fdt
알로
##nI
설탕
감소되어
상승으로
Comments
빠지고
한달전부터
발톱정리
##logic
Fr
불균질
되었다고
bile
##hepagen
acetylcysteine
artifact
부정
시골
##adroxil
소수의
FDT
border
methocarbamole
FeLV
shap
synechia
이리온
감염에
2차접종
수포
중이나
##ND
##오늘
##initis
지시함
docp
5칸
##PIC
지간부
질문사항
##허니아
처치에
Ctime
견인
발병
별도
이식
amo
건사료는
inguinal
lab
루비
회음
##etron
sylimarin
경혈
복배
##istent
deform
강한
##alking
##epp
가져오신
반려동물
##nar
안내드리고
##kinase
포함하여
surface
92
##번호
crystal
문제되는
현증관련
예후가
##동의서
빈혈이
##omatous
forte
##imethoprim
##았다가
저녁때
##anti
상승이
reverse
충혈이
치석이
Heart
xcm
경도
##kcal
부어있음
경우에
##정도는
프레비
elevated
##eb
##enton
오리젠
##ditional
심했음
##소양감
강급시
transfusion
방지
조금만
없었습니다
각질이
대소부동
엊그제
대해서도
##imentary
일으킬
cTnI
Can
돼지고
##연우
hco
분이
가능성을
##diet
먹여야
chemotherapy
##투과성
next
Mild
do
복용중인
낮에는
심전도
안통
##하겠다고
##구조
##저류
악화됨
bu
hac
갔다
강조
##위주
##감수성
##퀴드
stress
uwtm
##vac
##anning
fpv
08
나미
section
체온은
의심할
episcl
##투스
##민지
##ale
##phema
터는
ray상
67
재고
코피
##졌고
치료기간
생각하심
CPV
thrust
63
##ring
재내원하여
##력이
메트로니다졸
초콜렛
##드밴스드
HAC
지리는
칫솔
DOCP
식탐이
##UTD
inflamation
요독
##구충
draw
이해
산책배뇨
형태는
호흡곤란으로
corona
##다량
##가루
장착함
##있으며
##줘야
프레드포르테
stimulation
그리
##tt
뱉어
알수
##기종
##rob
enzyme
carpal
##rowth
pack
요척
위하여
##상처
PHOS
FLUTD
d로
되었습니다
주신다고
##flex
##corbic
variant
철저히
밥먹고
##PV
##ically
유선종괴
##사상균
HG
모레
심원성
##자리
##ocytic
sarcoma
고려되나
요도결석
##해보시고
0를
사정상
##por
##oyal
02
Hepatic
걷다가
솔론
예방접종은
확장되어
수차례
##dle
##따라
atopy
원래는
protocol
88
zenton
찔끔
오전중
후지마비
Metronidazole
MICR
난원형
내년
대식
울혈성
count
때문일
불분명
늑간
편이
##IL
분리불안
1g
시스테
##주기
##인다고
있다고함
캡슐로
canned
LD
용혈
위탁
##ulus
내림
멀미
약값
장안에서
컨트롤
하신
일주일분
자연식
Edema
Prednisolone
##보이나
확인될
평가를
와류가
##부절
가려워하는
대부분의
If
위장약
##OSCO
코코
##되기
이외에는
##OSCOPIC
##근처
연고는
##장에
##하자고
흔들림
##과정
##ullary
아세틸
MICROSCOPIC
stool
단위로
Doxycycline
EN
절제하여
뒤쪽으로
혈류
가수
확인하여
의심소견
progress
vacuolar
의심되며
tim
좋아서
##rong
esp
68
권해드림
대퇴부
mpss
염좌
아파하고
melting
잔디
좌측전지
일단은
안절부절
극소량
prur
cytoplasm
ranitidine
계셨음
데리
##acing
need
신우확장
동의서
KCl유지
tit
피부사상균
관찰되고
일주일전
주치의와
azath
먹였는데
##등록
##eca
투여하고
대형
##자는
걸어다님
스피로락톤
배에
헉헉
Aus
다르게
##발란스
모습이
kn
코어
##ansetron
poss
구토하는
개선되었음
138
melan
넣어줌
걸을
머리를
가수분해
냉감
##lin
##농도
평가가
동배
##eni
외측상에서
크레메진time
set
좋아하는
먹은것
##디슨
수액은
하였고
##artan
antib
##amethox
Externa
very
물린
위생
잇음
##라면
##혈병
##erated
유지되어
오실예정
Malassezia
급사
경련은
1박
강력
다녔
##곳에
##짜리
헥헥거리는
제대
기침도
관리할
심한편
나머지는
periph
전날에
되었으나
바꿈
설사함
acidtime
궁금해
penis
들림
악취
cc씩
담낭점액종
깨어
남김
먹이셨다고
교정이
iliac
##한것
##plant
최소화
detected
##vial
##때마다
물어뜯
멘탈
부전
가능한지
##연락
##jd
배변없음
내원하시면
돼지
##외에
같은데
##보단
##해드리기로
우측으로
종양으로
added
##민트라
이전보다는
보내드림
아포퀼
테라
##등에
intr
##ensual
받으신
paddling
Per
narrow
상처부위
락툴로
프레비콕스
없는데
shad
##잘먹음
있어보임
De
case
내복
급여하고
로도
##aropitant
hyphema
KCL
예전부터
재처방
follic
5배로
때가
##사료로
감염체
doxorubicin
process
난다고
이렇게
##CE
##때도
##ober
약욕샴푸
쓰레기통
grad
아직까지
mac
보이지는
hydrocephalus
나우
##정도의
대사성
그릇
멈추
##ctober
자극으로
그로
내측으로
안운
자지
수술여부
이상시
물구토
##였으며
복수는
백혈병
##는지는
시작하여
보였으며
아닌지
생기면
##조림
전신상태
76
힘들어하는
안검염
안운찬
RC
requ
먹기는
##rous
통증관리
것이라고
먹어야
컴플레인
Gl
안주심
양호하다고
방광에
종양에
나왔다고
1차접종
상피화
lo
하겠습니다
저하됨
Hem
심하다고
##rate
한번더
저번에
epilepsy
맞는
쩝쩝
##enti
어머님이
무정형의
Mammary
##오실
양상을
간식에
03
T13
ball
못해서
안초음파
##고관절
구토없음
##부탁드립니다
깜빡
드는
전부
아파서
##았다
Lung
긁은
절차
##니스
반응을
pann
##15
##특이
진행되고
급여횟수
소장분절
탐색적
맞은
자유
방광초음파
eu
농축
원인일
##이라서
것과
G1
##ancy
화장실을
pentox
meal
로도질
wa
치료계획
안내염
주호소CC
fiv
하도록
한스푼
힘듬
고지드림
IU
##cription
악성종양
normotensive
수립
##AIR
Re
어덜
##장액성
감소됨
이용해
##지속시
DEA
있다면
지지
접종알러지
접근하여
데리러
##JD
전염성
캐닌슐린
확인해
CD
심연우
any
canal
##예방접종
견갑부
참치캔
진행하여
슈가드
초록
유지하면서
길에서
혈뇨를
노력성의
후엽의
뒷다리에
세민트라
##진통
##제거술
##심장
bromhexin
extensor
걷고
경부터
##inephrine
vitb
atopic
Tracheal
슈가드레싱
유과장님
##이염
재채기는
주호소cc
consensual
##보관
발견됨
some
vestibular
##ulent
피부를
현증경과HPI
response
Calc
선혈
있거나
메토카바몰
키우는
Microscopic
RBC
안되고
없으
탈출
판정
##키는
보행이상
##oot
##iu
관련한
뒷다리가
모습을
156
촉진됨
감별을
SU
넣어서
받으셨음
양안의
왔음
ah에서
비틀거림
DJD
mes
그에
##해냄
이버멕
nadir
##색은
local
소세지
이도에
제외한
djd
azodyl
93
겐타
벌어
strong
##feeding
가실
##장기
##되어있음
통증으로
체중지지
측정됨
빈혈의
안과진료
parvo
3안검
##ej
현증경과hpi
상위검사
mitotic
안주
자두
cry
추후에
또다른
stag
main
pb
먹을때
변상태는
잘받아
훈련
처방후
weeks
자라
잡을
분변검사상
받기로
시각
##드린다고
mct
카디
회장
원장님께
얼마전
진행시
경로
위벽
##entif
중간중간
드렸으며
invasion
it
요실금
잠은
우측에
bpm
시력은
마취전검사
aluminium
zentonil
royal
##위한
##수화
의뢰해
##ird
느껴짐
##flexia
Bid
눈도
##쪽의
감소하는
fanning
##셨다가
일반수액
어제부터는
EAU
뿌옇게
처방을
MCT
pseud
늘고
한달간
감기약
Right
UW
##어주세요
associ
보조기
xalatan
끼는
##ES
##romazine
문의하셔서
간질패턴
흑색
좌측이
공급하다가
##oplasma
달리
며칠전
물체들이
pelvic
통해서
##ucral
glands
진행하기로함
액상
##mic
사료량
often
##athy
정밀검사
물림
##보기
##졌을
저녁은
감염증
못자고
설정
##있지
concentrations
stick
입원실
일주일후
부탁드림
눈밑
##ty
##bond
후지에
radiographic
자세를
eros
의뢰해주셔서
##othin
1L
Cer
FPV
인천
sms
나타나지
##bling
시스테이드
시일
의심되나
보행양호
행동을
honking
호흡을
perine
아목사
요척골
##amethoxazole
말초
못해
베이
##azepine
베트
이형성
yellowish
일어날
troch
확인차
중성화는
주변의
##arded
펜톡시필린
timolol
4개
관납
항목
##랗게
tract
스트레스로
Electrolyte
가진단
##alothin
echocardiography
eau
흉벽
##위수
금액
##않아
##mect
##ermia
##arian
vein
변에서
necrosis
urolithiasis
wound
##let
##제팜
##되므로
##roma
also
의심됩니다
sin
오이
핵소
##비스로
consid
아파트
et
##식도
혈당이
보여짐
복압상승
만큼
빠지는
원하시
##메디
정도임
asp
캡슐에
viral
water
커져
##rag
중환자실
짓무
고기류
##추럴
##조각
발톱이
07
어제저녁
분양받으심
사람이
제품
##fundus
제거후
키트검사
##untary
##쪽이
서기
##자국
##스럽게
처치실에서
아이는
ta
스카
자제
주사는
투약하고
피하기종
Stime
화상
##TER
##ectasia
##ometr
두드러진
##졌다
음수량이
혼합백신
FB
##과는
##무리
##enz
양상이라
돼지고기
감소된
시간에
개수
균형
추적
##로의
확장은
부직
생겨
소실된
CT촬영
요즘은
air
칼륨
electrolytes
동의하에
것인지
수첩
##실도는
gingivitis
상관
##ced
제거한
개복술
야외
전적출
했을
##은아
others
##부의
한달전에
15cc
어덜트
훨씬
##tember
##갈이
##피더스
예정이었으나
피부병변은
mesenteric
끊어
사료가
빌리루빈
들어올
ct촬영
불편함
Pyometra
섬유화
간생검
Mit
통조림
##wks
부직포
74
혈액장액성
해주시라고
포함된
예상됨
가까이
sediment
혹이
구토한
비장종양
##피부염
wane
헬릭
환불
##tur
##식으로
##처리
색소침착
5dex
SMS
##pcr
적용하면서
lower
crtsec
apical
넣어주세요
3배
넣으
acep
hemangi
지난주에
없슴
06
남겨
혀가
시져
##행동
pentoxif
##bol
##가스
##르지
##마사지
혈액형
##해주시라고
bronchop
nephritis
발습진
##보이고
ondansetron
임파
점상
##isis
의뢰중
flutd
음성으로
shadowing
cu
혈압은
cyclophosph
##O3
시작한
fistula
귀세척
먹이세요
안정됨
만성신부전
diagnosis
뇨팩교체
##변위
##먹이
famo0
cholangitis
초코
동시에
혈토
##arm
패혈증
소변도
가라앉음
PB
강은아
백지선
저용량
##itive
##function
##등이
##니랩
##놓은
실시하여
reduction
dip
못할
담낭벽
##하기도
##SAA
김건
변형
##bow
안내드렸으나
신우신
site
확인을
유지되면
fordaysp
##절제술
Left
노책
##들을
입양일
분비물이
HCO3
proced
##나트
##증강
##NF
##aresis
비장의
동안은
식도관
무게
유두
검사로
체중도
안좋을
##지지는
##luc
hypertrophy
##물약
입원시
악화되는
피질의
##화학검사
김건희
가쁘
엽간
##크랄
epithelial
불러
있을때
문제일
vetbond
##thma
시간은
영향으로
기다리
##들의
각막에
유사합니다
구강검사
경계가
tox
##졌으며
##ocate
##졌습니다
우측눈
권유함
cefotaxim
UWTM
골관절
번갈
압출
했지만
##GA
##호전
radiop
limit
장골
##고는
##roneph
특성상
밤에는
여기저
요골
털고
나갈
##지며
수술비용
짖음
pinna
사이토
딱지가
어떤지
이완기
##inued
설명드렸고
보였다고
stippl
mirtazepine
먹으나
번약
##elet
##pig
진료시
additional
먹었습니다
않으므로
엉덩이쪽
middle
대식구
At
주문
##yth
iol
회충
##emark
ascorbic
붓고
첨부
상담후
mediated
루비날
변에
요로
전송
검사도
extension
좋은편
비뇨기초음파
periodontitis
dur
##량의
귀가함
먹여보고
반복적인
정기적으로
cpcr
endoth
맞춰서
확률
추가비용
epithel
적절한
수분
할머
##활력
투약이
맞았음
##bun
##하겠습니다
##네요
수액치료
방광의
아이스
IOL
hi
수동
상황이나
associated
##eu
active
identif
건사
요합니다
사이클로스포린
좋아지는
영역에서
he
비중
쓰러지
외부기생충제
령에
신경써
MPSS
##ample
이상한
아니며
fordaysP
절제술
dysplasia
nephrolithiasis
##기관지
tube로
##atheterization
생겼음
Cerenia
위약
폐전이
혈청검사
##셨던
보호자의
증가된
실제
##이와
호흡도
36회
acepromazine
강민
중등
##혈종
좌측으로
아이라
증량하고
남자보호자
Sus
시메
인후
수술예정
iver
PO2
바람
수크랄
사망함
3차접종
수신증
01
짙은
힐스
##isk
hyperth
출혈성
이틀간
처방받음
##orn
호전되는
익일까지
먹습니다
##door
##ronephrosis
86
화장실에
부모님
강민형
긁거나
드물
마무리
##들도
##엇음
##ixime
will
매주
안된다고
##주시라고
주치의가
episcleral
경험
도입
편이며
##적혈구
소변량
##illine
스케줄
생기고
babesiosis
해열
배뇨산책
goose
pati
간약
진료비
cpr
두마리
##애니랩
경우는
넥칼라는
혈변을
##해지는
##러지는
##geal
양측슬개골
클리핑
Ketamine
l로
잘하고
줄고
구토시
without
나온다고
기왕증PH
saa
비상약
fac
빠져서
지속된다면
피부병이
##형광염색
기침함
괜찮고
formation
기왕증ph
생존
임윤
잠혈
alimentary
incision
컥컥
##저것
##참조
초음파로
prost
보호
스텐트
##min
##봤음
왼쪽귀
prolif
무기
마취후
##rolact
CPA
임윤지
위와
5sec
크고
증가하고
마취시간
BL23
지루성
4kg
강화
미루
##ceptibility
duoden
분비
##시거나
약간지연
귓병
팝애니랩
taping
미루어
##학교
높아보임
흡입치료
집을
##수가
수술진행
##ophen
elbow
##덜미
##inct
##epo
언제든
discont
편은
안움직
관찰되었으며
저녁으로
tarsal
Radiographic
submitted
입원해서
obs
훼로바
causes
그럼
##mitt
개선되면
연락주시기로
guarded
##ian
##랐음
전발치
확인하심
못먹이
탈수소견
리퀴드
본다고
세포충
thickening
노스벳
신생
carb
peripheral
인후두
loc
헬릭스
설치
크기로
좌측에
설사도
##클린
관리하기로
토브라마이신
가려움증
비투과성
##가실
##소연
피부소독
경과관찰
이것저것
##심히
##VAC
필요하면
##vention
미수금
엽간열
4cm
5로
ec
장문
하부
##env
hypog
##ENV
전이평가
CPCR
pt
이벤트는
pupil
##cv
##arox
신장보조제
##oneal
예방접종VAC
foreign
들락
채워
##로만
##걸음
allergic
예방접종vac
골반골절
indicates
phacoem
요카테터
먹이다가
약물치료
우선은
맛유
edematous
hydronephrosis
##후엽
진행되는
감소중
kbr
바르고
##시도
검사만
데려옴
봉합부위
##ddst
잘지내고
면역매개성
5g
통화자
횟수는
graft
솔론엠
##가셔서
떨어뜨
전해질물
hyal
토마
##였는데
##항생
구두
담아
스캔
호의
##샵에서
##arpal
##apr
맞추고
불임
약과
결과를
호전되고
##ycardia
fill
##DST
이틀정도
도말검사상
sternal
양을
##이용
##imen
파모스
##uvite
##microb
##스토
daytime
닭가슴살에
differenti
##한다면
안먹었음
나타냄
진노랑색
##microbial
3kg
##였습니다
doxo
##다녀
##요함
##oling
구토에
전화드리기로
없었는데
Chol
interpretation
##ejun
베이비
일분
식욕테스트
호흡이상
##osition
목욕은
정상범위로
적극적으로
All
나아지
내원하기로
SKIN
parenchyma
폐문부
##man
안먹는다고
organism
가바펜
번호
최선
##iti
복부촉진시
HAIR
his
못뜸
흡기
##었어요
##슬러지
진료기록
유사하나
충혈은
캐니플루
S14
##부신
##alate
hyperpig
FIV
tathion
남편
목줄
third
아니므로
이틀전에
supplement
aer
발달
변으로
처방할
요추하
##arsal
골편
##iline
간수치는
안먹이
under
노른자
일이
layer
체리
##onate
상태여서
리터
암컷
큐아
적용해
넣어주고
따뜻
신종
집으로
##ostic
항문낭염
power
간내
##pg
##구멍
나아지는
호산구
##포마
##otal
##oplasia
##확인되어
과거병력
##먹은
설사에
10회
ampic
cip
근거
관리하고
특이점
수액맞
안정적이나
pyelonephritis
Sh
밑에
##ii
퇴원하기로
처치후
식이DI
##exture
apy
patients
넓게
##장에서
현재로
unknown
간접면회
서지민
여기저기
##제를
##phylline
tria
coughing
PDs
pentoxifylline
ter
소파
열개
평생
##일정
##acement
에코상승
LS
lddst
촬영시
누워만
3마리
오시도록
##었지만
amitr
forl
들어가서
outdoor
lipa
##었다고함
##색으로
상승하여
##ould
##capsul
관련되어
신경반사
수화
##ony
하는지
##bolism
첫번째
배변을
메일로
식이DIET
되었고
제왕
##ype
추가접종은
마이뷰
pet
해드리기로
들어가는
흔들리는
SUB
오랫
##intime
식이diet
큐아렌
원보호자
상태보고
패드에
radiopaque
위쪽
편하게
resection
질환으로
vag
##나요
##eutic
가바펜틴
##거라
45N
##드렸는데
##ctomy
악화된
cystaid
fPL
pust
할지
##희연
투약함
발적과
ext
사이노퀸
모호
박소연
상태이므로
##하는게
uremic
prox
생각하고
들어갈
담낭염
insuff
과도한
같았음
일년
주황
줄었으나
##하루
퇴원전
면회시간
##rophic
tid로
한달후
교체함
구석에
si
vial
확인한
확인해보
하루정도
증가로
식사는
##해주시도록
치아상태
mark
cdv
중복부
##선생님께
zonisa
lvidd
유즙
복용하며
종괴제거
침윤은
혈구검사
도그
호염
thickness
mixed
##GATIVE
ped
이러
최희연
##셨었음
##근래
해주셨음
serra
elect
##mittent
끝난
목덜미
##말고
증상일
식사량
복수천자
우심부전
##urrence
베트메딘
갈비
겁이
정상이나
동물등록
줄어듦
질환이
100cc
가고
치만
##upor
서비스로
##거같
정상임
conf
spirono
목을
##없어서
적용함
봤을
내복약을
심장의
복용후
혈당은
프로맥스
여름에
human
판독
처방만
##증상으로
보인다
NEGATIVE
이개혈종
성대
내원하셨습니다
퇴원하고
class
89
검정
근래
제공
핥아
예방적
##intestinal
육안적으로
rhinitis
관찰시
야간동안
부재중
changes
아드님
cutaneous
소견을
adj
##itinib
삶의
##귀세정
##arth
##드리겠습니다
않으려고
깨갱
꼬리쪽
에어컨
맡겨
서비스
##ronchitis
어젯
검사비
들어갔
which
tarsorrh
일치
정식
##추천
입원은
ulnar
올라가
산화전
mos
기력없이
advocate
##metronidazole
babesia
원충
코솝
하다고
##증의
구강점막
LDDST
광구
##조성술
##ola
defined
##칼슘혈증
deformans
##지로이드
##phor
##opl
space
음식알러지
suction량
axial
번갈아
Dry
건삭
간수치상승
##aminectomy
역시
기침하는
평가됨
displ
lumbar
##클링
추천함
안좋으면
에코가
뇨를
주시기로
##ie
##omed
##ucralfate
밥에
받으시라고
bic
닭캔
좋습니다
잡아주세요
nsaids
알로빈
##atr
호전양상
2019
portal
##aroxab
For
##rt
관리에
plasm
discontinued
##압산소
상황임
갑작스럽게
Fentanyl
색이
해요
##입구
재검은
먹이신
cefadroxil
상비약으로
##AH에서
안나옴
ivermect
69
##드기는
양호하였음
누워있는
ppn
3단계
61
제왕절개
83
Ecto
목격
보채
주시도록
핫팩
##max
##오시면
##aps
심해졌음
폐포패턴
T12
ote
비피더스
선형
정재
최우
했던
통화완료
light
곡선
귀재진
보냄
배변시
다녀온
sel
림포마
prevention
안구적출
간효소
분홍
정지
형광
##원장
상의후
느낌이
CPR
demod
observ
보았음
저희
chloram
##oconjunc
종괴에
끙끙거림
arthrod
드려
##우리
##esia
##othorax
##스로반
mandibular
erosion
pur
##듯하다고
##OT
##ani
발현시
칫솔질
고려해보
한달치
##ified
syring
긁는다고
support
pathologist
음수공급
판단되나
데려온
일어나지
모낭염
비심인성
에스로반
euthyroid
됐음
의심되지
먹여주시고
플라스틱
폐엽
rabies
유대
급여사료
cefixime
hyperpigmentation
riv
차에
##밀즈
처치가
먹이기로
가루로
##cornea
헤파밀즈
뒤부터
싸고
처방하지
동반됨
같기도
안쪽에
오지
사용하지
lidocaine
안들
##uation
방사선촬영
asthma
혈검상
고정력
계셔서
숨이
압력
전정
코에서
##하되
식이적인
특이소견은
결정하심
mu
짖는
##참고
##action
폐렴에
줄어들고
bearing
sial
넘게
생후
이민
##보이는
##enro
진단받음
contact
multic
pruritus
뇌내성
도로
배쪽에
안아
안쪽으로
##리면서
필요가
소화기초음파
호흡수회
사용하고
간수치가
기구들에서
Postural
FORL
09
설명드렸으나
sized
깨끗함
물어보
조니
##16
placing
형태가
심질환
이와
있지는
콤보
##종으로
##곳에서
##하시겠다고
발사는
##ahepatic
##aryngeal
##atits
metronid
optic
##항생제
GL
Lux
이름
잘먹는
줘도
타서
##어있음
scars
항생제감수성
##되었다가
manage
확실치
##의료
##aily
position
##색소뇨
백민지
urs
지난달
OUT
해줄
##르기
처방받고
아프리카
간에
심하며
##발톱
수술종료
요구됨
##ardial
신명
심장관련
주사기급여
맡기고
baby
고무
고압산소
저장
##내로
##줬음
##ulsification
유대선
iron
포말
##inter
호전되었으나
없는지
어릴때부터
경결
400
appl
언니
##눈꼽
양측후지
gh
걸려
살펴
##ival
##르렁
확인안됨
감소하였습니다
##ioprine
granuloma
정용량
##BO
##패치
이외의
오르니푸랄
못뜨고
시메티딘
물이
##희석
##롭게
식이알러지
skip
들으시고
담도계에서
캔을
티몰
##쯤에
불안정성
신명철
산책도
hyperre
가정관리
hip
보유
줄기
투명한
regional
스크류
주셨다고
눈꼽은
사이폴엔
만지
워낙
##신다고함
폐포침윤
CDV
산화전위수
골격계
낮을
신수
하니
자궁경
형태없는
치과방사선
nuclei
만지는
뻣뻣
operated
bronchopneumonia
77
한계
##부에서
빈혈은
수박
##빠짐
소독후
2kg
욕창
지알
축농증
##54
##시는게
remark
좌우측
오랫동안
식이변화
여름에만
바나
늘어난
섞어주면
##apride
동맥
예치
올려
##어지고
현재관리
아침에도
부위를
사용중
73
##eptid
상승에
촉진제
oxalate
collarette
##히지
##ily
stone
고려하기로
소견으로
rechek
pmol
경련이
Luxation
대여
에도
##fib
보이다가
theoph
aluminum
케토코나졸
lamp
tonic
##erum
##ampyl
배를
타크로
상담함
자궁내
레보
수가
SAA
amox
##부위가
심해져
flr
신우신염
Gait
fll
잡으
추간
cavity
ulna
FLR
FLL
어젯밤
OTE
##ester
부신피질
한봉지
##하긴
##였고
incre
관련해서는
##aroxaban
##개월
##병원에
##neal
wave
지알디아
LI
개의
전조
##배액
하나의
불균질한
못잠
혈구토
##없다고
then
지나면
프레드니
caused
투약에
관절영양제
피부도
trich
##드리겠다고
Phos
Di
딛지
미열
플랜
##하셨는데
일어남
맞춤
부유
돌아왔
요도루조성술
못가
혈복
두드러지지
부드러운
##콧물
dysfunction
테라마이신
jejun
두껍
처리
충격
##ica
결과가
안정되면
areas
동거견이
모르겠다고
대변은
쓰러지는
흘러내
Vomiting
dk
않는다
호르몬약
##oconjunctivitis
회음부
보호자께
처음엔
조영증강
handfeeding
요근래
##거품
##ket
##백내장
안정시
예약은
hepame
점액질
heal
귀병
하다
##RA
250
please
길이
##tim
뽑아
상한치
호흡수가
현재관리상태
82
오기
##3회
##못함
뇌신경
##astarch
안압이
lobes
족발
추이
##rog
specimen
아프기
양측슬관절
잡아주
좋겠다고
내원하지
option
넣어주심
metastatic
안되서
최초
##way
약물로
세균감염
아이스팩
##ament
제거수술
연부조직에서
괜찮은데
기다려
sinus
입천
지어서
내원해
Dermatitis
신장처방식
##하시길
giardia
흉수천자
갑상선기능저하
csf
port
보면서
식도이물
PDA
바나나
##uck
감염으로
아래쪽
##사이에
##odeoxycholic
꼬리를
##iotics
가족분들과
6kg
청라
받아먹
60회
진행하였으며
복부통증
증가는
tachypnea
##maropitant
##스프레이
##ivid
such
pustule
##있게
투약하며
##ceptible
부은
##인혈증
##메론
##ene
감량하고
leflu
##어지는
##해주시면
옆에
잦아
##위험
수술로
##부분이
세균은
부어오
육아종
neurologic
Ox
mite
추가해서
좌안은
palate
##arction
##시기에
overload
CPL
hu
소형
잠이
##aze
어려서
키우고
DK
소양
##야지
##olate
돌아다
진찰상
이민재
고칼륨혈증
제거가
측정불가
이물로
##드리지
공복혈당
saliv
외측으로
퇴실예정
excised
Enter
effect
공포
오세요
안구압박
피지샘
자충
저주
털을
퍼피
진행해
결막플랩
papill
esome
담요
스틱
양파
착색
풀고
소량만
2단계
융해
지표
##maintenance
##하더라도
딱히
차는
##줘도
scar
수축력
tens
수직
##수는
##RT
##린지
의뢰병원에
##진통제
zepp
##ga
봐야
시에도
해볼
괜찮을
##enomegaly
proximal
##토콜
stupor
30cc
사항은
자두씨
많았음
바늘
##지희
##17
##높이
##하시기
우안은
훼로바유
연골
하거나
투약을
170
sph
자국
##유래
##omic
소장내
There
##velop
sections
보실
봉합하여
##argy
hemangiosarcoma
전형
진물
스케쥴
streptokinase
insufficiency
기형
고양이가
numbers
87
레메론
##병리
체중변화
재채기를
강급중
혈소판감소증
치조
식욕이나
##atarsal
개선될
강직성
집안
##점에서
이용한
항혈전
##catheterization
##profen
피부의
추간판
문맥
피하에
significant
진정됨
며느
사료됨
진통처치
vas
시니어
입주위
하진
하더라도
##cat
퇴원할
cort
beat
interrup
Deposit
리터박스
mening
막혀
베타딘
쉬는
혈색소뇨
##주시도록
검사없이
췌장의
숨쉬는
ursodeoxycholic
Dors
##로리
##조금
종괴로
안약으로
받으세요
survi
##메디컬
뇨가
##호텔
일주일전에
광견병은
azathioprine
identified
출국
##균형
##etastarch
프레드니솔
Doppler
차도가
##외이염
##느라
1amp
계시는
##와류
##배쪽
위치에서
교상부위
##venous
nor
변색
##보이지
##복강
2020
120회
제제
##상에
##acitinib
##osic
시작해서
##owever
호전없을
ang
경구로
infarction
명확하게
PROM
초콜릿
보호소에서
DS
다친
먹는것
내측탈구
titration
남기
##안압
20회
shen
동거묘가
보기로함
중등도로
mosapride
HT
gm
마시는
비듬
##입술
resistant
여러군데
쓰지
bleeding
잘받아먹음
ring
##연장
labor
Mass
PTE
바쁘
부여
신3
짜리
감별이
안압은
방광벽의
버둥
토핑
##thisis
stent
ace
##cef
빈혈로
가정에서
포말성
##eptidase
sensory
늘릴
##괴사
morphologic
lola
관련성
이내에
근위축
피딩튜브
uti
열심히
재개
후지는
감소했으나
나타나기
몇개월
고질
포장
투약하면서
bacteria
냉장보관
말티
부풀
식이조절
rechekc
Lip
내츄럴
답변
되어서
란투스
##x1
응급수술
지켜봐야
모습은
군데군데
두개골
##bits
받으시고
치아가
##하셨으며
##irubin
##결핍
콧물도
위장관보호제
elong
몇일전부터
배변배뇨상태
AR
이정
중단한
깨물
소뇌
양호시
물질이
tarsorrhaphy
일어서
탐식
##오신
##etely
선생님이
비강내
국소적
t씩
제가
##암모니아
##urin
##opeptidase
buncre
카톡으로
줄어드는
Tumor
핀제거
좌심방비는
액체저류
캔은
##부위의
uterus
daily
##meter
##있는지
야간모니터링
been
저번약과
해야함
만져지는
79
mass는
##ressing
hematuria
mesentery
1포
내성
주요
##어제
상태였음
정상식욕
##ulum
심장에
##uminemia
보행이
비장에
flur
전체미용
사경
##려는
##유발
구토의
상처는
drawer
u1
아팠
##중독
처치로
당시에
인지장애
pannic
Se
조기
조니사
이전처럼
붕대교체
장기적으로
lvpwd
LVPWd
involuntary
hlr
경직
그이후
바탕
전구치
##fer
##약간
##보호
##자가
##테타
##날짜
sten
anechoic
HLR
며느리
veter
##중인
##집에서
미용시
회복함
원내에서는
1알
걸을때
더디
볼때
저칼륨혈증
질켄
##60
##찜질
kidneys
acidosis
91
고막
##셨을
##ilar
진행하였으나
지금도
광범위한
이불에
hll
핍뇨
했다
mucoid
##효과
좌심방와류
##ossible
##이상으로
followed
HLL
놀이
특수
##일때
혈뇨가
BL11
mastectomy
경결감
UTI
낫지
##진것
각막염색
분양받음
twice
Cranial
펌프
##포인트
있었을
cortex
척골
##atiopeptidase
종합검사
seb
##내원시
가루약으로
##oembolism
미성숙
싶음
확정
##연결
##remez
되어있음
고암모니아
##bend
##였다고
기침의
체크표
건사료를
저하로
내어
적당
개선을
비용없이
하셨으나
base
앞에
##ink
해주시도록
괜찮아졌음
consistent
후코이
endothelial
##중임
##되다가
##불균형
10L
요청하셔서
받았던
분절의
위의
재측정
##ypt
gkg
rule
공원
메디
응집
real
pda
김태현
주시라고
토한
토대로
##흥분
ultras
uterine
PA
stand
##uctive
동일처치
저주파
ant
kid
lump
작용
칼라
하려고
##HP
검사하고
왼쪽으로
김태은
Dys
d에
약복용
뇌수막염
나미야지
perineal
이러한
도부
이안
설명들
넥칼라를
aptt
FIC
묻어나옴
INTER
Sensory
깜짝
한마
상승과
PLE
##albuminemia
초록색
interrupted
생선
없었던
Morph
성충
##mis
종양은
봤는데
재봉합
##cp
##청구
##꺼풀
안약처방
피하수액은
원내투약
##부분은
struvite
설탕물
구토했음
##stime
##aracter
dermatits
Hct
치료적
dea
다니고
강제급여함
wor
누관
죄송
배변활동
기력도
시키고
arthrodesis
ocl
둘째
전용
##했다
intermediate
잇몸이
ligament
최소한의
Par
hp
잠들
짖고
##보여서
##리면
hyperadrenocorticism
appear
contain
tsh
##상태가
종대가
구멍
tri
탈구가
##다니고
안사진
##중이심
치료후
trim
시작했음
immune
압박시
내시경으로
기관지염에
프레드니솔론
##roil
시작하고
TT
ht
표시
##lens
##졌는데
##센터에서
CHX
Test
손지희
연접
차서
한끼
현상
cysts
누락
슈가
##ih
##sp
##opyon
위에서
장외
##으신
##시간에
complex
게실
##네프
수술자
병원을
각막염
불량함
날씨
수복
앉아서
이어나
##린다
비용문제로
자세반응
앞발목
도부타민
1fold
junction
깊게
내원하신다고
진행되지
character
기능저하
##atremia
원칙
##천공
완화됨
Spl
gall
못쓰
산책하다가
profil
장기들에서
Dex
골유합
어제보다는
phthisis
움직이는
자세히
벽비후
청력
양호했으나
측정되어
information
예전보다
세포충실도는
무름
안와
증후군
호흡기증상
최우주
본인
중에도
##LR
silymarine
적출술
주시면
한적
##록시
전해질검사
sour
되었으며
여기
요팩
##ropri
##가능성이
##절개술
Infection
만질
입냄새
콧등
withdog
##omyopathy
외이도염
ovarian
줄기세포
source
수정
심장크기
##ouble
##rolone
##umen
선천적
Ul
u2
비우
##nu
##추세
##메드
phacoemulsification
토를
##ray
##올라
##acillin
##uscular
의심된다고
##질환에
500
받았다고
GM
물러
좋으면
##ming
TSH
수평이도
막힌
매시간
##overy
##면에
##응집
예정이
처방이
지속되거나
주사를
medullary
시도해
고기를
하셨는데
##ampylobacter
파행증상
좋아졌으나
8kg
보다가
얇은
조성술
풀어주
104
신부전에
caninsulin
다식
절고
한참
##하시라
소독제
약물반응
따님이
TE
약속
##결장
보호자께서
시간을
점막층
4T
bc
씬지로이드
##hou
##완전
성장판
예치금
덜함
입에서
##예은
##종의
##anal
##상태에서
고려하고
먹는편
슬러지가
들어가고
stomatitis
L3
키로
Trunk
ventric
강도
관통
##ophage
나오기
##androlone
##sive
##ugust
비해서는
같지는
뇨검사상
밥잘
콩팥
ample
168
반복함
황달수치
composed
수개월
일어나면
bulbi
kremez
보심
##BIL
##것처럼
이전의
compression
좋아져서
##oplastic
trama
rivaroxaban
단기간
보시도록
실명
울퉁
자체는
재생
정복
구토없었음
좌측눈
마취자
transudate
보조자
1kg
일후
cereni
사육환경ENV
알려주
2018
mirta
Stage
후반
##펙스
췌장염으로
사망한
구조물의
Cefotaxime
안저
주실것
파나
pos
##emper
개선은
지난번보다
못먹이심
군집
##포틸
##완화
피부체크
##omide
증가하는
cord
해주실것
사육환경env
전처치사항
survival
##플라
meds
##enicol
갈은거
강예은
덱사
밥과
앉음
##oval
##MED
##겹살
양상이며
lipoma
해당부위
울퉁불
5도
배꼽
##치고
내원전
모니터링하기로
##필요함
치매약
목뒤
##닙니다
처방예정
##프라졸
L4
tT4
##집니다
대장내
벤토
연고만
평가는
implant
용량을
Cepha
나누어
Home
절음
##시에도
cefovecin
iso
metacarpal
불임수술
하실것
##pril
어제도
마취에
삶아서
복용함
엉덩이를
가습
##봤는데
각막의
발견함
요청함
생식기에서
주황색
##기능항진
여러개의
fen
부분을
spine
장착하여
##세포가
##INE
재료
집이
##ioma
bilirubin
보였고
약먹이
원형의
hypoglycemia
낮아서
상태라고
생각되는
##ungal
deep한
telmis
우심방에서
고유자세반응
회사
##ubc
##sr
혈장액성
fiss
목이
인도
##했어요
먹었던
##ealPCR
현저히
치조골
aff
배고
주행
metatarsal
프로토콜
강직증상
amlo
PPN
root
마세요
순환
##지진
##데리고
##진다고
##관지
복부에
spay
자견
장벽
##결막
하는것
모르겠
효과는
바탕으로
안검사상
##스턴
##당일
##질은
ivss
고려해야
금속
만들어서
스마
항문낭액
유기묘
IVSs
gastrointestinal
Urinary
81
갔다가
별개
##어야
자발호흡
전지의
귀가하여
선생님에게
##tensive
말랑
부음
최리
토했음
##될수
##보기로함
앞발을
##acetyl
타크로리무스
Pim
urod
마트
coli
BL54
하얀색
발란스
이며
##시진
##대고
##acytic
CCLR
예방약
병변으로
epithelium
재탈구
##보이며
##사민
관련되서
얼마나
gross
울퉁불퉁
pte
rom
나은
##iomy
##가면
cond
masses
요청하에
망막박
FUR
각결막염
##들고
발작이
운동불
배제됨
염색됨
대장성
심리
않기로
##GI
cclr
##acterial
요청에
clemastin
GV14
fic
건식
말려
물먹고
버릇
식단
안부
##amid
동일처방
210
김성수
perforation
말티즈
커서
코를
위치에
diameter
결장염
Anemia
self
tone
소론
웅크
##ucil
hypopyon
removal
serratiopeptidase
거위
호전도
소독하고
부분발작
30days
description
고질소혈증
Morphologic
병소
풀숲
정상이
처치만
감염이
##는것은
##탁액
##나절
배뇨함
술부는
안정된
##이라는
가족들과
걸친
극심한
식욕과
point
##ystic
나타나고
##houette
가시
전화드릴
forus
hr에서
recomendation
흥분할
이번달
구부
상대
##중으로
##oxin
##arbepo
주저앉음
lvpws
furd
CS
sens
연휴
##PTT
cause
분양받으
식도내
폐침윤은
어제밤에
LVPWs
##ability
MU
안전
줄었다고
##지켜
##니메드
##간염
##orp
##phal
생각되나
건강한
유발하는
겐타마이신
urode
risk
기울
똑같이
##시킨
신장3
##plas
stay
clip
부위로
drain
##medication
##angiectasia
lvdd
7kg
Failure
네츄럴
##두고
입원후
105
각막형광염색
검사결과에
NSAIDs
개체
기계
누수
##했는지
사망시
치아는
facial
혈중
##수첩
ivrt
다음달에
cobalamine
드물게
일전
입맛
예정으로
관리하는
정신
##가신
##문자
음식에
##cerenia
그렇지
hemolytic
Em
놔두면
신장이
sepsis
뇨침사
락툴로즈
DZ
dic
변검사
일전부터
하셔야
##었었음
##BID
##분께
##내는
내과MED
경련을
regard
7cm
식염수
심해지거나
내과med
complain
umbl
cuff
dh
상하
##SR
##itic
##라임
##파모
##umatic
아침밥
무서
분명
장분절
차지
쿠키
하늘
##오후
수술적으로
마지막에
기존의
미만성
원위치
삼출
외안각
inapp
IVRT
Chlorphen
##arthritis
전혈
##보면
##았었음
##타워
진행이
유지수액
관찰된
회복되지
radiology
다발성으로
urodeoxycholic
매번
바꿨
##oon
배변도
##esterol
##uckling
Sep
안봄
줄일
입원하면서
위장증상
바꾸심
Amp
including
LVDd
confir
##리기
계좌
번에
상태이고
##utamin
입양하심
nodes
들으셨다고
infiltrative
어려우나
ent
문합
수원
추측
하시면
협조
##AS
PO1
때문인지
이민재선생님
your
점을
##세이
##는데도
##ylococcus
##genital
면회실에서
##agul
갈색뇨
##ORY
레포틸
저단백
태어
화식
##적임
##건강
##챔버
##oli
신장기능
atov
##quel
점액종
##해보기로함
확연히
고음영
불능
한방울
##계심
##inking
주기관지
realpcr
mv
비가
##증후군
##저하는
연고로
비용이
오른쪽으로
좋으며
##itivity
##표시
전반의
항암전
악성도
##rometra
급격하게
많지는
봐주세요
에페
##CG
##린트
##부위를
imipenem
radiograph
가쁜
만족
점진
##nomide
##gree
##부작용
특이적으로
않아도
아니어서
손상이
unr
불가능한
double
##누리
timetid
같으나
무리가
웨스턴
##iw
##프리
timeq
현재도
혈액검사와
develop
심장약물
동반하는
빠졌음
##니다가
##arrowing
마저
##itary
상태도
##assium
정확하게
impossible
needle
##하는것
rib
피멍
##NU
통증에
##ired
cholel
##시기를
무리한
연습
영구치
없는것
clean
낑낑거림
groove
ef
긁지는
낮으나
물과
##but
진행해야
건강상태
변연이
증거는
체리아이
bony
지림
혈증
##elow
시작하기로
##onographic
수액을
isch
문진SR
확인하기로
처치하고
상황입니다
문진sr
먹여보시고
뇌내
움찔
빈혈에
##ocla
마이다
찡그림
##ophageal
Hep
sing
과자
식분
입으로
##요관
##로부터
예전에도
debris
##나트륨혈증
pv
##덱스
##ilym
필요에
##agic
며칠간
외측상
##oxaparine
RealPCR
hypertensive
아파하지
PLAN
부신의
Sub
dens
멜라
어두
##르륵
##되지만
이유로
Grade
부었음
작음
##안구
##전환
inh
ammon
떨어졌음
mo귀세정
언제부터
tempor
displacement
간간
눈꺼풀
기관자극
붕대처치
사람먹는
가져오심
건조한
반대쪽도
71
접종을
spirolact
부신종대
intermittent
lasix
cf
그전에
신전
쌕쌕
##는거
##실수
##elia
##ompl
recovery
변화에
carprofen
ci
tear
삼겹살
숟가락
입금
현탁액
##유무
시도해보
어제밤부터
##furosemide
KB
못봄
좋지는
혈압이
연락드릴
addison
무료로
무기력
개월
##모양
##위치
##PA
활력감소
##osity
5V로
PV
목쪽
음낭
작고
지간습진
evaluate
않으셨음
defect
감압처치
내추럴
말아
일상
##보인다고
##icine
recurrence
확진을
포기
##atal
현재의
당시에는
arr
mofe
##ubcutaneous
PT
냉각
정도를
leth
안과검사
나비
##려함
확인하지
혈액섞인
비만세포
공격성
카디악
mofetil
집앞
차이가
전해질불균형
cellular
marked
휴가
식욕정상
1회씩
평가시
명확치
wks
2도
Surg
간4
나무
숨소리가
##야의
호전되면
diaph
Education
전형적인
ET
골밀도
삼키
##일드
##동정맥
##됐음
##펌프
##asid
고려해볼
immun
세파렉신
lvds
애견용
LVDs
해열제
spher
간종대
오시기
투명
trochle
tak
있긴
##gative
trig
##하시면서
이질성
MV
rot
반나절
편이고
##렸다고
내원이
unremark
fasc
접종후
보이기도
않았지만
적어도
tail
의사
주니
차가
enc
생각해보
혈변은
esophag
analysis
flex
출신
##정으로
증상지속시
비명지
Ref
요비중
타액
##bet
##eiv
##번에
내원하도록
입원을
##ips
챙겨주세요
##같음
실시하였으나
commun
보충
##ually
화장실에서
##avirus
6차
EF
원하십니다
항문에
##집에
##챙겨
##phenicol
metron
체크하고
촬영부위
힘들게
lists
뮤코
##모드
##퓨터
배뇨도
##alcemia
##2배
##딱지
stroma
보이지만
스트레스성
구충은
oclacitinib
못오
##한적
##티오
있을수
##드리면
안구건조
며칠전에
지내다가
Bacterial
가골
핵은
##교육
##poquel
레날어드밴스드
코골이
먹이신다고
##uch
##다리를
작년부터
##하실것
1000
fenbend
Sulf
wood
높았으며
성묘
충란
캣타워
##있을때
##센트
설사와
reticul
아기
찡긋
이물에
중요함
Recomendation
bas
혈흔
##봤을
##une
호전되었음
양성으로
osteoph
telmisartan
##mann
##lip
##인듯
##일수
염증반응
활발한
hot
등에코성
인정
##이틀
입양함
어려움이
받았으며
##ailable
fre
토해
monitor
경련증상
clavulanate
피지샘종
FURD
유성
##다심
##보내
##프로스
##가능한
지간사이
자극이
눈앞
응고
##페니
잡아드림
뇌척
밀려
vitc
않으시고
##선생님과
힘들어서
keratoconjunctivitis
그림자
불완전
장안에
##aqu
##다하심
##가며
소견도
10pm
amino
oe
증강
##때만
##ornipural
##elen
##omon
##ocytoma
변연의
과흥분
##있는데
말씀드렸으며
hydrometra
빠름
용혈성
지는
##을수
##금식
싫어하는
혹시나
권해드렸으나
trimming
diver
유전
##구제
관절보조제
Spinal
net
vs
원하시면
표피
##임신
##에서의
##ishing
피부재진
vitB
지켜본
metronidazol
에페드린
chord
progn
슬개골의
측정시
animal
치석제거
때문으로
6cm
OE
great
##생물
퇴원여부
##사료를
의뢰하신
wire
##vid
##3차
돌아오지
observed
반쯤
핥는다고
##omate
특이한
시작된
peric
단단하게
potassium
ot
감고
끊으면
시린지
위확장
##폐렴
비용에
골반강
카드결제
신수진
warm
분주
외관
있기는
폐사
##폐엽
##plomate
leiomy
기관지확장제
silimarin
hypoalbuminemia
안하는
설명드렸음
진단이
##izon
그제부터
세포학검사
anisocytosis
2칸
g씩
사서
소인
용적
컴퓨터
##압제
출혈로
##드려요
##프로틴
부러진
ice
무호흡
##찌아
신경쓰
고지해드림
말라세찌아
dorsally
Pancreas
##roiliac
물그릇
##습관
오후에는
예후불량
into
병력상
##artmann
가슴쪽
palperal
wed
알러
##해져
##acent
한달분
병변의
herniation
##ophenolate
치우
예정이고
가능하며
악화되면
권유했으나
존재함
ovary
자유급식
8cm
더불
##분과
times
therapeutic
좌안에
고에코의
##시에만
상완골
##란다
contr
이번엔
##로나민
결절이
결절들
관절염이
##turition
3도
Sever
##lz
봉합함
splint
##comycin
responsive
재료비
침전
##altal
불량한
eod로
equ
권혁
##걸이
거부하심
물어보심
찔끔찔
##minist
Cystitis
등록
마찬
성숙
심종대
이진수
히알
liu
당분간은
다닌
work
망막박리
5s
네불
딛고
미란
심할때
##타고
진행하였습니다
lymphangiectasia
경구수액
두께는
##conj
hyperreflexia
8도
근본
잔뇨
##lor
발작약
안구세정
권혁재
상담을
주사하고
vessels
vascularization
include
1살
단기
별도로
##ornea
수액요법
한번은
시도하였으나
##thalmos
ivermectin
But
무뇨
##vascular
##GS
조금전
phe
이물질
면역력
3차까지
hypothyroid
##queous
성형술
마이다케어
Dressing
Ointment
cy
csa
온몸
왁스
##양은
흥분해서
커지거나
##bpm
BL40
aspiration
부러짐
밀어넣
네블라이져
걸림
##IOP
tobra
##ipt
진단검사
얼마전에
remod
reported
CSF
기인한
##지영
확장제
일어났
female
subman
주사맞고
varia
늘려서
##ancomycin
scrap
multicentric
KBr
divertic
나음
물마
##해드렸습니다
##테롤
podays
인슐린은
silhouette
micturition
tachiontime
피부절개하여
organisms
lat
노랗게
누운
발은
약함
코에
##34
진행하기
##eling
조제함
바꿔서
등도
주된
##uous
심해졌다고
선예도는
curelen
마찬가지
Sc
반캔
##tum
##tium
ccv
항문쪽
호흡곤란이
screening
structure
lumpectomy
aa
나을
떼어
발진
위협
중에는
폐종양
amocla
방광은
perianal
피부사상균증
##기관지염
건대
반흔
심부
##1T
현재상태
##스러워
뼈가
##호르몬
##으셨음
내원하였으며
진행에
##ronate
##azolamide
##해주셨음
##레스테롤
피지낭종
##록시캄
##보이면
##밀한
##하였다가
마취시
적용하고
소양감으로
사이토포인트
lethargy
2로
4배
apoquel
저산소
##x2
##감별
탈구증
정확하지
변위가
impro
시킴
전보다는
신장은
drib
다량에
blunt
인해서
지났
쳐져
##ditis
##쿠어
##olith
보호자분도
모르고
절뚝거림
기구의
발급
후복강
##일수도
전신적으로
귀세정제
소염진통제
보일시
치킨캔
##위주로
할머니
Rab
fron
재교정
congestion
leflunomide
##ilymarin
below
##출로
비용안내
점심약
affected
김세
이승
##위로
ivtaurine
gravity
타고
##후에도
수술할
제거를
용량은
먹였다고
umblicus
금주
무언
양의
##연습
수술도
##tebra
먹지않음
내강의
clipping
6am
##이거나
##oderm
##opress
크기변화
더불어
김은
때에는
많으심
##GC
##EL
주사마취
##idement
전지를
melanoma
Dorsally
막혀서
현대
##enoxaparin
치료받
##는것도
##것같음
긁기
우는
주인
##tre
##해지면
상태체크
상태봐서
개선시
미용을
연락주세요
september
5개
김강
핥습니다
##라이
하루time
biot
입구에
남건
한알
의뢰원에서
자료포함
갈비뼈
운동불내성
남건우
treat
오픈
행복
##gc
##배지
골절부위
사항없음
물리적
김강산
오면서
일정도
##으로만
##icular
양측신장
접종함
떨어지지
포피소독
SP
더모
받기
토하는
##flamm
##안정제
##고정술
proliferation
los
재입원
초부터
##있거나
##노장
재진은
##terus
결석들
종양세포
후엽으로
뭉쳐
부어서
비어
moder
구충제는
외용처치
젖어
하던
이물가능성
프로펜
지어달라고
fissure
communication
4마리
Path
fSAA
growth
발이
##주셨음
##싸고
##둥이
이상증상
보이면서
진통수액
sacroiliac
##ochrom
논의
못한다고
##pical
##멘트
##olent
관찰될
말씀드렸
시작할
congenital
심장약을
##사이클린
##피로신
mediast
4dx
AA
세팔
연락주실
등쪽으로
치첨
##위에
##증량
재검예정
상담한
사망할
dextr
처방받아서
요관의
weekly
knuckling
보유여부
basal
fungal
ip
줬는데
##oh
##러서
##ellular
obj
그때는
관리중인
정맥수액
##insignificant
ENC
것이라
나가서
발에
성견
##명진
수술하고
내복약처방
부종과
촬영을
배제를
clopido
예전에는
osteotomy
중심부
histopath
rj
serv
교환
심실
팀장님
예정이라
진료보
목욕후
gre
과다
맡겼
지르
타원
##uven
##오전
imm
polishing
possible
5D
qu
amoxi
개선되었으며
문자로
그러면
clinda
아버님이
고체온증
##ulsion
shape
1층
권함
뜨지
별도의
편이라고
없음을
호흡양호
필요하고
재진할
간질침윤
changed
구두인계
Pol
oval
눈에서
좋아지
아래층
glarg
깨서
staph
tuber
malase
장염으로
##이하로
adjacent
IC
Table
갈아
고통
##시다
##선종
##됨을
유지2배
전화드림
헤파틱
고름이
끝부분
약투약
##주실것
##리거나
amoc
계획이나
원래도
헥시딘소독
직경의
짓무름
미정
##열상
##푸른
##orizon
##esity
수술이후
심장은
안약처치
신우의
꺼내
내내
부들
차후에
안정적이며
지시되는
확실하지
소간증
무언가
ect
부원장님
오시는
##omal
##해주실것
좋아지면
자율배
IF
RJ
시흥
유미
히스토
urination
악화로
불규칙성
결찰한
돌아다니는
전정계
1도
치수
특징
##치료를
아이의
탈구로
자궁과
되었을
시킨
울고
줄임
##개통
##덩어리
진료는
전신염증
cardiomyopathy
혈관이
임파절
혀를
##trusion
above
흉관배액
weakness
Cefotaxim
cryotherapy
Biddays
##aquone
##orizontal
과산화
맛사지
##하였다고
한번만
동거견과
debridement
김정
넓은
##해져서
내원하기
괜찮으나
사진상
##고계심
연구개노장
프로펜더
0v로
lick
##식염수
##diets
지켜봐
첨가제
dextran
선회
핑크
##금지
Cushing
까맣
이루
이때
##OB
pds는
산소l
발사예정
수제간식
index는
취함
후유
##pds
복용에
산소L
예약변경
##시간이
색깔이
morphone
Las
보낼
않는지
의증
##모타
##었는지
##기만
##내측
신장과
소변에
진단됨
일부러
호소는
neutrophils
1EA
fact
famc
많다고
오셨다고
커지면
##있었으나
##감각
##날락
접종기록
indolent
##eleg
Ampicillin
찔끔찔끔
LIU
bal
dai
가로
미생물
옅은
정수
짧아
포대
##수록
예정이라고
혈액검사시
lns
MUE
femor
pluc
##것만
전화드렸으나
근육이
고정술
다녀오
주식캔
극히
마일드
알갱
애디슨
결석으로
야간진료
hypokalemia
철저한
항혈전제
daiy
RT
cop
와보니
케이
##bip
##아제팜
진행하실
상승한
10배
핸드피딩시
고민해보
LNs
vertebral
정재하
Severe
액체가
이종
##팀장님
원장님이
비틀거리는
esomeprazole
상공
##ran
degenerative
S13
고단백
적용하여
비후는
mucosal
Mul
##강직
##비용은
이갈이
상담된
##까지도
소양감도
있으시면
세포는
지켜보실
방법이
냄새는
하시나
ecg
조니사마이드
##betes
##테이
##되어있는
##elly
mass가
##ertor
elec
농성삼출물
국소적으로
맥박
비비는
##물에
##검사시
필요하여
감소양상
체온계
administ
This
##증가증
단계로
october
검사나
stertor
접종수첩
봉합부
조직검사는
down
##antron
이물제거
완전한
하시는데
cdm
intestines
옵타젤
복배상에서
##ropriate
CDM
LT
tet
안맞
은박
이제는
코텍스
##눈곱
##께요
##버림
##increased
triz
나가면
stenosis
CA
가스로
슬러지는
##미만
검사기록
부종으로
하나도
##다니는
괜찮은지
Splenic
새로나민
소리는
##으시고
수술상담
##소견이
파행으로
동일함
운동량
다음날부터
고령의
GLU
FC
High
bite
아는
연한
키움
한쪽으로
##renal
##조영
##불린
trimethoprim
안내완료
스테로이드제
백신은
안남
식욕부진으로
데려오신
mycoplasma
7도
귀물약
벽의
잘잠
##복수
min로
##astric
어머님께서
##모타부
반경
복방
용인
examined
##상피세포
신종플루
Chlorpheniramine
scraping
dribbling
더모센트
tuberosity
##biprofen
박진수
변비약
시야
중자궁
##bar
##다졸
##position
##겠지만
안좋았음
종료함
전환하여
새로이
예민함
규칙
당겨서
처방하기로
체중조절
안약만
동일약
것이며
넘어서
밀고
벽에
사상충검사
하이프로틴
액와부
hepamelz
감각
##셔너
구토증상이
예방을
컨디션도
##ropathy
lymphocytes
Palpebral
differentiated
our
sick
놀라는
메로
박스
안양
이를
##이니
##싶어
##oric
cefo
결석사료
좌심종대
냄새도
보류하고
잘안먹음
hemolysis
cyclophosphamide
00
반컵
##솔루션
##alysis
접종하고
시간되
사이로
she
ROM
중이라
##pid
기침과
제거할
used
연관성
간실질내
요독증
간5
계시고
##glu
##페이트
캡슐조제
식도튜브
spirolactone
관골
맡아주
알지
##잡고
##atime
##poon
복부초음파검사
##것같다고
0로
##지에
##둘레
atyp
오실것
행동은
pathology
노는
안들어
진행하며
하루한번
원장님께서
직장탈
시점에서
fascia
AV
사체
##sh
##수연
##reous
calici
보채는
스마트
##다시
##oxantron
paras
보류함
당일이나
노출시킴
저알러지사료
mobility
amocra
femoris
마루
발도
줬음
편이었음
##시럽
##24
식사와
악화되지
동거묘와
incompl
가려워하고
해야할
procedures
자율배식
Pink
더워서
붓기
코발
항생제와
기관의
질환은
소장의
두개내
두드러짐
drugs
건삭파열
찍고
구토해서
재검일
접종이
보행가능
Dermatophytosis
7d
융기
집근처
##부들
##관계
hypers
hyperg
촬영은
선생님께서
중요한
palpation
pedal
tcc
도망
주에
##onam
##apo
resol
조제약에
데려가실
Negative
NO
지어주세요
##비독
처방드림
수액에
회복이
Amikacin
독시사이클린
nandrolone
경등도
약화
뛰어다님
pica
두가지
수년
진행여부
치료로
주사후
고려했을
식욕부진이
신경증상이
occasion
hydroxy
Mitral
rotation
lich
가셨음
더워
멈춤
잡기로
##플리
하는게
받아야
장기적인
gram
##ichia
ondan
유성종
##treonam
Mental
TCC
놀러
못하여
못보는
벌어짐
색은
쉬고
정보
종일
호박
##시킬
##fore
##에선
##왔다고
##YL
접종시
보행실조
traumatic
지냈어요
Cardiac
목표로
##omonas
부들부들
TBIL
깊이
미비
불려
관리받
Rx2
후지가
약물처치
astaltal
pigment
taurin
들락날락
4cc
7회
cross
나지
술야
하기도
##모닝
##탁심
##ilin
진단받
유선염
vacc
소실되었으나
반복됨
전날과
Pimobendan
however
mov
못보
블루
왕복
차이는
##모델
##뒤로
넥칼라유지
##echeck
Nebul
transfer
single
보험
그러다가
토마토
김정남
##체에
개선되었
산책하고
SCC
만성적으로
않았던
외상에
##모델링
되며
제티
내원후
질환의
혈청화학검사
호르몬검사
흘러나
csr
pall
물어서
##g씩
hyperem
PDS0
네블라이저
##pggt
후코이단
세팔렉신
##거는
##우측
recession
유선에
fluorescent
이종길
KTH
나기
진혜
##이었으며
##드펫
혈압측정
산책후
##동물의료
연변을
glargine
진혜주
kth
계시며
앞당
일전에
제주
파동
##감이
##romorph
세포탁심
필요할수
올라오
받은적
adrenomegaly
axon
lumen
귓속
멀어서
흡인
##opo
##ylin
중요성
경골조
axillary
COMMENTS
그랬음
breath
파나쿠어
굿모닝
김준
이지
투비독
##등으로
정상보다
병원이
반응에
아닌것으로
##OLA
##ometrial
Laser
##ww
##졌었음
hg로
방울방울
보존적
간효소수치
Silymarin
center
검게
안가
제조
##하셔도
##CRI
##롱이
자발적으로
식이와
##omer
white
lichen
몇시간
쓰는
phal
hyperkalemia
distension
##rostomy
장이
##ano
수술과
##charge
##yllin
발생하면
판단되는
목욕을
평상시에
갑상선기능저하증
각화
울음
##주신
##섭식
유지비
사료변경
지속복용
혈액수치
spe
붕대상태
얼굴을
잠정진단
고암모니아혈증
길에
홍지영
##발견
##분께서
##카페
##ican
내원하면
접종완료
##양상은
##quent
tort
2번째
비명을
extrahepatic
뇨침전
hetastarch
살령
완벽
conc
소염요법
osteo
greater
##opressin
ECG
LK
www
나간
시기에
##시니
먹이라고
##vertebral
오메프라졸
폐패턴의
amitript
profile
Refer
중자궁동정맥
##romorphone
까지만
parap
지나고
남아있으나
patchy
##ikely
바이러스성
사나워서
clearity
bra
묽음
상실
침이
캑캑
타히
항생제를
112
하락함
좌심방압
거리고
뇨당
아빠
앞에서
주기로
##수소
##코어
##abd
들은
모견
못하셨음
의해서
##지시
##하다는
##그림자
분리해냄
높이에서
6번
늘푸른
무증상
에너
활차
황원장님
수술경력
귀세정후
before
잘먹었음
아세틸시
6도
Glu
lk
까다
당곡선
드린
##성형
##억제제
전화주심
고려하였을
발생했을
반응으로
요도카
눈물량이
스카겐
ques
would
간에코
나름
말기
##ner
##전반
전화옴
thromboembolism
2기
walking
대폭
박리
홈케어
##렀음
timemaintenance
보호자분에게
재발가능성
있을시
##ovir
눈꼽도
뇌척수액
TDx
걸려서
혼재
phys
##obronchitis
눈곱은
생겼다고
1로
간손상
괴롭
오승
회차
##etin
stap
교체하여
비후와
응급내원함
fa
seleg
##uary
##램프
##imin
성격이
헥헥거리고
이상소견은
돌아다니고
청라라임
2am
Dent
squ
재실시
##장으로
##일로
##들에
##박터
종괴와
seg
병원에서도
구강상태
부토판
위생관리
오승국
0cc
##어려
##공동
피부상태는
##eps
하루이틀
오리존
선천적인
두세
부산
접합
##위축
##때가
##스질
##바람
의뢰된
##UNI
귀세정시
탈모가
소양증
음경
줄이기
정상에
prod
곰팡이백신
맞추러
하시며
mitoxantron
granulation
산재
양고기
잡힘
침사
##대비
##병에
##취소
피부발적
혈당관리
피부염으로
정중절개
##로디
##종양이
##우더
align
일주후
##rhyth
lichenification
mue
공캡슐
베란다
안마
##bur
활동성은
horizontal
ima
터져서
산소발생
스트레스에
##oventral
하나씩
pole
남아있다고
trochlear
DHP
hel
중입니다
폐실질
##18
##위약
상태확인
지속중
중단시
aggress
40회
2017
먹일것
subcutaneousmaropitant
닥터하
상상
편입니다
##인가
##한편
ccnu
##부위에서
안내해드렸으며
양측슬개골탈구
Non
SO
라이
무엇
빈도가
어딘
페니
품종
힘듦
Hg로
말라쎄
후방그림자
diagnostic
vaginal
못먹음
자체가
##리산
##국에
재검하기로
나이에
유기농
Depress
좁아져
electro
LOLA
비벼
수일
싸는
후극
##음성
감소로
action
췌장염은
부작용에
외상성
냉장고
타히보
brad
뾰루
유지상태
괜찮았으나
triaditis
##기능항진증
경골조면
무르
##지역
피부와
항생제에
조직학
lymphoid
##achexia
##ternal
oxygenation
과수화
##들링
##바로
##코판
tooth
CCV
cvc
부딪힘
인도어
##에서만
폐수종에
나아졌음
허리통증
지나면서
증세는
##icuspid
부풀어
상공막
눈가
염려
##pan
##사랑
처치하며
신경반응
joints
올해는
mycophenolate
네불라
age
잘놀
##anuary
##omyc
주사만
##정도만
닥터하비스
4도
거라고
마보실
바뀜
붉게
손바닥
타입
##우는
##폐쇄
##erally
양호해서
진행하심
clonic
없어진
병변부위
Thromb
미만으로
자가혈청
remodeling
유성종과장님
더마겔
자면서
##하시다가
마취회복
들어가지
삽입하여
조심스럽게
부스코판
Mis
진균
##리나
##작년
##odium
호전은
연고를
먹였고
척수공동
간과
습성
승압제
##생김
##외용
##란색
설사하고
추천드립니다
##예정입니다
##관련하여
당일수액
나왔습니다
circ
걱정되심
lh
하려
##네랄
##비에
내원하세요
수술함
신장약
plta
세정제
좋아졌다가
시저캔
졌는지
조규
중반
수액중단
spind
목욕하고
bgtime
전이소견
참고범위
행동제한
통증반응은
many
조영촬영
complication
##capsulated
아팠던
##었더니
##친구
hyperech
파행을
검이경검사
T11
pneum
개념
모양이
했었는데
##하강
##arab
입원하고
없어지고
black
안락사도
위내시경
##ission
생리식염수
42회
지역병원에
쓰러져
미끄러지
강화운동
코발라민
hosp
teca
소분
해외
떨어지기
자궁확장
##merican
skelet
밥잘먹고
기르
의견
##흉부
##창백
receiv
hypoadrenocorticism
교육함
아침저녁으로
macroph
stippling
##iwalking
submandibular
듀오
세니메드
앉은
##의한
진행하였고
신경안정제
anf
약먹이고
trachea
정상적임
댁에
##bucil
##yle
##일한
##률은
진행하면서
stud
보이거나
CCNU
exudate
안먹이심
기관지패턴
상의하여
데려오신지
받았고
범위로
전화주시기로
##로디핀
comed
mL
moxi
부천
애기가
##으로도
진행하시도록
사료랑
부분의
건강함
끙끙거리는
어렵고
항히스타민제
Canine
inappropriate
우드
주어
##지나
확인은
입원조치
지속된
탈구는
기력저하로
부작용이
머리쪽
시점에
##프로펜
bullae
티몰렌
ONF
강남
다르
보신
삼킴
##혈검
indist
보행도
강아지가
dobutamin
흉강내
antibiotics
papilloma
유난
적어서
유지하여
기침으로
저녁밥
여부를
cooling
##때문인지
독성변화
Seizure
뇨색
도는
비특이
없다고함
##amsul
inst
재발한
진정후
##안내드림
황호
##nr
##어줌
##36
##metro
초음파검사상
소실되고
##copy
희석하여
atovaquone
황호준
haz
vip
안줌
암로디핀
전후지
코고는
##d는
먹는다
modified
vertebra
캐니슐린
부유물
questions
발로
##드리는
##실루엣
유지될
아니었음
##CATION
available
FR
뇌실
물먹
분비물은
어릴적
##go
##간질
신장에서
방광이
##ymix
##ycle
좋아질
30초
115
탈모는
심화됨
higher
엑스레
여쭤보
스타터
길어질
애매함
##ividual
movable
fig
hol
넓어
말라고
벌레
보았을
원주
표면
##vl
처방하며
보호자분만
소변에서
2차까지
치주질환
COMMUNI
peritoneal
pelvis
마당에서
삼출액
COMMUNICATION
깽깽
속발
##기전
##카솔
sided
경련약
먹여서
점심에
움직임은
현재로서는
검정색
Un
보라
새롭게
수술완료
new
liposic
50cc
발끝부종
걱정되셔서
장문정
구치
구역
가능합니다
부작용으로
그런데
심화되어
관심은
digit
찍어서
포르
##인것
atten
돌아온
##주사기
##ween
sys
맛난
##적으로는
제거는
clos
수치도
계획함
##가능성도
DIC
Azotemia
싸이노퀸
오고
입고
했는지
##정량
##amous
투여하면서
장착하고
안좋고
노란물
결막염에
##는것이
플루비
들었다고
명절
질도말
푸들
##스케
배변과
퇴원은
감소는
산책중
먹고도
외이염으로
신체검사시
##구조물
넣음
##갔다가
##준다고
##갑상선
먹이셔야
위장관염
vx
소진
최민
##그라
구토설사
예정이나
문제를
이물을
continu
유리네
keratectomy
during
taken
뜨거
장에
재차
프라
##주지
cephalothin
기본용량
chemi
CRTsec
형성되어
이트라코나졸
옵타낙
Tumors
Sy
곳은
늘리고
물급여
씹어
안쓰
##재발
##HC
##퍼링
##eroid
##rot
cephotax
조직은
재발하는
알러지가
echocardi
좌심이
treating
최민서
검사한
##ecity
알려져
Trimethoprim
chordae
눈의
멀쩡
서로
억제
젖혀
##회로
##수저
예정된
관찰되지않음
먹은지
추정되며
##aking
거품성
갑작스러운
shaped
Xylazine
kvl
토사
##be
##IG
##NR
수치에
##encephal
이메일로
two
수크랄페이트
분홍색
moderately
요법
이수연
##래끼
내원하신
신장혈청
진단되었습니다
검사상에서
어려워서
레날캔
decom
남아있어
necro
과산화수소
중자궁동정맥을
칸으로
항바이러스
장착한
부담이
##스테인
무서워
End
될수
비오
##데카솔
blind
임상증상의
개인간식
결장내
##패드로
between
식분증
Vx
han
계십니다
잔기침
하긴
##고함
처방내역
사료교체
운동실조
먹었는지
100g
안보이는
##amsulosin
Ag
카페
호홉
##있었고
##점이
##lege
급여하심
유사하며
몇일전
limited
fenbendazole
biotype
PS
auto
campylobacter
지남
피도
##tiz
퇴원을
접종위해
protrusion
media
glyc
190
걸쳐서
오금림프절
테이퍼링
##enza
KID
icu
나이는
왔을
커질
표현
##이내
comb
##ropenia
먹는거
관찰되는데
Echocardiography
간실질의
한방치료
웅크리고
licking
유난히
유리네이드
Ple
내피
받으면
소생
저조
내과에서
왼쪽은
hemorrhagic
##oket
멀미약
Not
상담은
접종예정
onf
##raw
levels
flurbiprofen
에너지
##막의
일주일동안
식이에
##드려야
치근단
DKA
rf
강심
나중
핥거나
##li
##줘서
증가하였으나
시작하면
괜찮았다가
피지종
가리
낮부터
독스
##놨음
관찰되었으나
투여할
각막봉합
궤양부위
거품구토
##받으러
수면시
면봉으로
제대허니아
dka
골라
보니까
서진
치약
##주시면
##흔적
##atemia
siddays
변화없음
췌장염이
올라감
나가는
##ocolitis
가습기
Gross
Rod
미네랄
유지하는
##ext
없어요
데려오셔서
나아지고
전쯤에
TECA
아세틸시스테인
indistinct
ES
귀쪽
뇨카
양도
##아야
scc
전신에
##astolic
귀진드기는
##hepati
극소량의
박진수선생님
먹어요
볼록
봤다고
억제제
##oderate
배뇨배변
관련해
대장염
가족분들
duodenum
wedge
ER
기종
뇌외
먹거나
없던
적고
즈음
##분은
##치병
있는듯
결절은
싫어하고
강제급여시
3번째
잠복기
두꺼워져
뇨배양검사
적도
##다며
##넥삼
hypov
vitC
올라온
경추디스크
돌출된
sulfamethoxazole
성대수술
RF
컨설
##지게
##ohyd
##거려서
##39
##섬유
chew
##endent
직접적인
distemper
두드러기
2살
uL
##비슷
##속에
grid
aortic
알아서
##모두
투여하다가
혈당체크
스테로이드는
##드리기로함
받았었음
복배상
Urolithiasis
bur
facet
코반
##것에
##RS
##빈혈
##atosis
구토증상은
처치하면서
chop
교정을
지금처럼
hemiwalking
cachexia
고밀도
귀상태는
어쩔
일산
전극
##19
##으시다고
##겠다고함
##충격
##플로
##메이드
##암종
비슷하나
재발하여
발사완료
생식기를
교상으로
redness
네오딘
##중이셔서
한두달
filled
넘어짐
놓고
산에
시신경
전종
##없으나
##mecta
다른병원
재발함
pentoxyphylline
가슴부위
그렇다고
toxicity
urethrostomy
중앙부
낯선
묽게
미뤄
숨소리
아닙니다
차있음
##동물메디컬
주간동안
inpatientmonitoring
케어센터
반대편
지저분함
간간히
내장
버티
짧음
carved
지켜보시기로
Immune
plucking
마데카솔
풀밭
하자고
##mall
##먹이고
##볼때
##교합
내복약과
스트레스가
arrhyth
##iteal
혈전증
비정상적인
소장분절의
##프로스톨
linjection
일회
정말
##니즈
검사예정
prof
무른변을
leukopenia
알아보
cereniasid
관골구
mail
집안에서
재진하기로
혈액검사에서
##tical
평가상
대변을
podS
##bulatory
며느리발톱
히스토리
근무
깜박
스플
##estr
증가시
IVtaurine
completely
histologic
bradycardia
##상화
##하더니
##변성
##잔존
##opol
관찰하기로
진단받은
췌장염과
agonal
술식의
선택하심
service
1칸
##하다고함
검사하기로
재검할
부어있는
Cataract
가게
관한
있슴
##까요
양상에
악화되고
flor
먹여보기로
돌아가
이번에도
실질에
의식상태
##olactone
말라세치아성
활발하게
대동맥비는
LVIDd
까다로
세침
않는데
##억압
##icosis
##uritis
ingestion
이야기를
Neut
뱉어냄
Mm
으르렁
터진
##buto
##어리가
진행했으나
##anephrine
외이염은
키우던
내부기생충
근처에
애견카페
##burary
sul
잠잘
주니어
##사메딘
##프리카
##검사에서
수술중
피하부종
각막이
##phora
regarding
aggressive
hanmail
long
혈액가스
고려해서
##ments
107
뒷다리는
오래된
그때부터
##undant
Imipenem
농축적혈구
Sulfamethoxazole
엑스레이상
타박
##로불린
##PRE
##ildenafil
109
snack
SBP
높으므로
만일
아시
심장실루엣
개선없을
미용실에서
BGtime
위험할
구조물이
tamsulosin
마스질
보는데
##함께
##38
##했었는데
오른쪽눈
보호자분께서는
ACE
slit
정량검사
쇼파에서
##amidetime
tension
박치병
##아요
입원연장
추가하고
문제에
간격이
운동을
지켜보자고
rer로
직경은
고개가
variants
dark
fc
스텝
어쩌
출력
흥분하고
##hexidine
Hs
낮고
보자고
우울
##했더니
##동반
좌측엽
지속시간
##하였는데
부분도
있었지만
상황이며
담낭적출술
동반되지
##받으셔서
이내로
corrugated
tendon
##arabine
대뇌
##연속
필요하다
보호자님도
비용적인
있으시다고
silybid
honey
치첨농양
DES
남았음
네발
반스푼
차적인
폐에
##데터
수액으로
echogen
녹내장으로
RER로
달라질
징후
찌꺼
코로
확인예정
epinephrine
coronavirus
splenectomy
전종격동
대칭
##mo
관찰되었고
cholesterol
hydromorphone
아닌가
discharg
neutrophilic
Coll
전북대학교
귀소양감
날은
리모델링
재투약
##톱틱
##강화
고관절의
##pleen
발정기
##TATION
저지방식이
hb
개씩
스킨
##볼릭
##entation
보호자분의
비슷하거나
유동식으로
종대는
##ages
obesity
지켜보기로함
metronomic
continuous
Ls
Te
mas
월드펫
인형
좋았으나
##나가
##PTION
방광천자
소변량이
왼쪽이
관절약
few
미소프로스톨
4로
frag
옮기
외에도
전낭
힘드시
##성준
##VL
양호하였으나
they
##하였다고함
중단할
내원시에는
broncho
물어보셔서
Tt
서류
홈메이드
##으니까
popl
컨디셔너
신장수치가
흥분하여
움직이고
male
fever
lvd는
강력히
과호흡
배열
생리는
흐름
##pH
##웠음
정상변을
안좋다는
prev
chemo
외음부에서
##CRIPTION
넣는
넥가
에게
##amuscular
전신마취
##piration
pulmon
LVd는
resolved
##PRETATION
약국에서
판교
##뒷다리
진행해주세요
회복중
##endicular
운동은
전이가
가스가
유발할만한
artery
핵소체는
##timmune
남기범
INTERPRETATION
파동감
뮤로
구토1회
퇴원일
재검하여
증가됨
##선생님이
가라앉은
cholelithiasis
카드결제완
Es
Spleen
가보
긁으려고
되나
미다졸
상에서는
숨어
##sed
##ilaminectomy
있는것으로
복용시
사이가
아파해서
posture
fibro
기관자극시
ME
S12
나갔다
무는
오름
##놀이
##콘틴
보이므로
일반혈액검사
체크할
관절고정술
##해보시도록
##질환으로
금식하고
강제로
EHBO
먹였으나
스플린트
부평
혀밑
##나마
##확실
배뇨하는
시작하면서
spots
서기연습
갔는데
걸렸
베톱틱
inlet
아침엔
소화되지
건사료만
##romal
##여부는
반복되는
dependent
음식물이
NaK
##시키는
우려되어
old
Her
저하는
코아
##ien
##ramycin
검사할
biliary
short
알러지에
##감염성
개구부
##같은게
마른기침
인근병원에서
##ecause
stapler
study
미다졸람
단체
헥사메딘
##마커
##명서
kgs
우측의
##ocellular
##luenza
없어졌음
발작을
해주시면
cereb
##gestive
3으로
공동
류상화
울타
##드벤
##토사민
수술사진
##omorph
다음내원시
술부체크
담낭슬러지
점차적으로
역류량
urethra
##CREA
pericardial
mitoxantrone
컨설팅
고용량
##iuria
내복약투약
##oscopy
106
##ietin
##ostomy
2016
arterial
cast
zone
긁었음
돌봐
밀도의
순서
흔적이
##명음
##onus
##uster
지속되며
마취가
진단은
기본2
우안에
전엽의
icce
세게
##atro
아이인데
##이후에
부어있고
DESCRIPTION
겨우
구리
신수치
아들
에디슨
펫티
발적된
호흡곤란은
susceptibility
tubular
호소함
넣어주시고
지혈제
자가접종
부족한
위축의
상대적으로
##odermatitis
6cc
Vet
##다은
지켜보시라고
않았을
메타볼릭
권장드림
chlorambucil
KVL
쉽지
오프록
페디
회맹
hypot
부종도
경과지켜
생각해
##oxygen
후엽에
##하신지
neoplasms
Fracture
##flammatory
젤리
##Kg
##끼고
먹이실것
진료실
사진참조
미약함
붕대는
받았는데
moist
cannot
Creat
cbd
sodium
테가
##었을때
##par
##안좋
재활운동
폐색을
retin
위주의
수중치료
아마도
김은실
skeleton
3d
뇨실금
바퀴
쌀밥
##uly
배변곤란
진료에
Cephalothin
Medication
selegiline
가면
시켰
계속적으로
부정교합
상상임신
몽우리
치료하고
촬영이
점심때
걱정되서
소요될
미끄러짐
대형견
띄게
목소리
봤을때
임재
내원일
결과와
차트에
음영은
ingest
spindle
임재학
Gram
texture
배쪽으로
병용
본인이
줄은
##imately
방광으로
각질은
##iacornea
그저께부터
단미
류다은
혼입
##25
##실장
배변이
처치에도
들어있는
추정됩니다
고빌
바꿀
##주시는
##파우치
##UL
오늘밤
이상하다고
다음부터
예방적으로
변경하고
carbopl
unremarkable
##페니콜
CBD
간결절
뒤에도
마실
안이
약먹는
##sA
##기지
##말씀
##미스트
확인필요
##asing
변화를
임상증상을
오심증상
활동량
관절염모드
편측성
요팩교체
울타리
높으면
이상함
진료예약
응급으로
점안중
ago
받았을
enterocolitis
further
반알
오시고
유랑
활용
##마귀
수액량
101
관련이
blinking
##이후로
오줌은
발라주세요
spoon
면역억제
##CCE
여쭤보심
휴무로
코아텍스
##드벤스
October
비전
이라고
##eyelid
포함되어
발정이
mediastinal
Cystic
과립
늘림
오셨습니다
왔는데
위정체
내원하였습니다
환자이므로
아이덱스
연락처
형태를
장염약
불량하여
활발함
septic
gingival
cufen
##iticide
케이콘틴
우드램프
강심제
##hepatica
lf
pyl
보리
앓는
잦아짐
진행키로
치료의
pco
neutropenia
Cefovecin
센터
얇게
##왔는데
피부과
##actan
내과재진
자궁수종
의뢰병원으로
받으셨다고
조제약은
염색질은
동의하심
##imentation
이유는
다온
캔만
##있었다고
##US
paralysis
압박붕대
주위로
혹시라도
levo
무에코성
성남
연계
하세요
##만하면
모니터링하며
##ocrine
결석의
부신종양
데려오실
키우신지
손상으로
doxyc
buph
더러
디아제팜
중격
##수의사
##할인
진행하시라고
관찰할
설명해
안먹을
lymphocytic
일부는
위내이물
두번정도
##ulture
후라베린큐
##관찰됨
기존약에
hyperthermia
산소발생기
popliteal
4Dx
배정
부비
빠르
수영
윤성준
줄음
폴리
회의
daycatheterization
치료받은
다음에는
본원에서는
사이의
Man
불만
성공
진해
처방에
추가조제
수액time
떨어지면서
##uble
앉아있음
bena
끝나면
더딜
실제로
앞쪽으로
외엔
채뇨
폐복
##icl
지속되나
개선되는지
최근엔
식욕부진의
240
않았는데
처방식은
자세교체
초기에
주워먹
tendin
아시메딘
1초
라고
맞지
살아
크리스
환묘
##tain
필요는
하루동안
비장내
힘들어하고
파열로
간담도초음파
structures
갖는
경증
귀외용
로컬
원하셨으나
##ns
##마개
입원유지
관찰되면
hrinjection
작년까지
심장초음파상
식도염
stimesc
거대식도
바쁘셔서
Sono
ber
jt
달려
당겨
##연히
##방광
##티슈
금일까지
예약하고
optimmune
처음부터
발치함
걱정하셔서
양쪽귀
여러차례
지시됨
코막힌
possib
bac
가깝
결국
맞을
##단열
##누액
처방해서
진행은
증가와
후지위약
촬영후
2차적인
넥스가드로
나빠짐
골수억압
이정원
써서
펫샵에서
##외에는
##좌측
##iliary
구토유발
내원하는
진행을
혈액검사를
소화기증상은
붉은색
ammonia
8회
약로
폐전
효모
##케닌
##어져서
##CM
##신호
##레칭
투약으로
자발응집
ehbo
enteropathy
주말동안
curve
follicular
9kg
봐주실
어드밴스
잘봄
##데려
##육종
##LE
관리해
소견과
##owel
##aceous
CVC
트라넥삼
temporal
Next
tom
봐달라고
##면역
##보나
##rg
##inine
##tiaz
##해주신
결석에
느끼지
supplimentation
좌심방과
48회
묻어있음
담즙정체
뮤코미스트
동결
차타고
##연령
chrom
162
determ
우심실
최선을
Mel
근데
되면서
않기
토끼
흉곽
##ergen
##reated
정도씩
환자임
체온도
계획에
자주함
안먹으려
임상적으로
에코증가
Gland
어두운
Tach
##cardi
##체어
##dis
##남김
##변을
식욕활력
가능하다면
좌측이도
##해서는
outpatient
breed
vaccine
rd
고칼슘혈증
방석
불확실
자묘
##있다
##수증
##줬는데
##olumbar
처방원하심
먹이던
안정되어
피부염에
메일발송완료
felis
transient
내강에
말고는
동네병원에서
저항감
biceps
confirm
Pneumonia
확인위해
산책하면서
tracheobronchitis
Deep
TTT
경화
뇌압
않거나
장솔루션
하겠다고
##sion
##부턴
##21
##비해
우측엽
퇴원하는
상승의
오른쪽은
키우시는
원인으로는
파보장염
이전검사시
ttt
기름진
잔뇨감
hypovol
den
가누
계시다고
네프리
미니
요스틱
##른다고
내원하였으나
좌측신장
먹고있음
안먹습니다
발바닥에
meas
decompression
네프리솔
CsA
뒤집
실비에
합병
##주니
##되는데
##emi
판단하여
집에만
방사선상에서
##TIS
당부드렸습니다
맡기실
유래의
hill
귀와
그다음
노랑
단층
사마귀
참외
timeim
crani
나서부터
retr
antimicrobial
Calculus
Depressed
환묘복
들이
멀리
신선
체외
취약
##분석
##za
##였던
내원하셔야
전화연락
하루치
투여후
안먹이고
조직검사결과
##umeral
##받으시도록
돌출되어
ICCE
because
found
ld
경감
멈췄
배경
안으로
터짐
##sucralfate
##zzia
##말단
사료토
about
125
해주시는
먹여주심
GB34
marrow
바깥쪽
borderline
다먹고
땅콩
못하도록
세워
재골절
한지
##tor
##29
abs
40g
지난주부터
following
AH에서
genta
말라셉f
이주령
##plastic
외관상
1cap
백탁
빈맥
수의
요당
칼시
증상보임
처치중
초음파는
소독만
이틀동안
hiatal
C2
내재
디디
배재
털도
한다면
##BUN
##thral
특이적
아미노산
까맣게
cephotaxime
##tiazem
시진
외의
##한데
기침하고
##irs
##ests
echot
일반상태GC
일반상태gc
인공누액
도그런
theophyline
고빌리루빈
##일이
##강하
##각막
양측성으로
2회정도
평소처럼
데려와서
애드보킷은
로얄케닌
오래됨
통증호소는
##거리다가
피부봉합하여
chloride
##okary
healing
6개
김유
비싸
안넣
중국
하한치
##양측
##아름
##릴리
##밀고
##병원으로
amx
방향에
귀도말검사
안심
저작
##분만
##플러스
##aliv
##acia
체온정상
앞으로도
pattern이
클로람페니콜
나누어서
두리
에정
##부는
##부족
##졌어요
phase
간식캔
##ellitus
흥분상태
골절로
acthst
빨갛고
1st
##요근
##외이도
##먼저
##ilol
acous
추천되나
원인감별
저하가
잇몸에
느끼는
##HST
polyd
linear
아물었음
##ipsia
Ret
aur
등과
안한지
울혈
첫째
콧잔
토르
휠체어
##리코
##유도
##실로
hyperc
전이성
조영검사
laceration
dvh
oxacillin
양호한편임
저체온증
Antimicrobial
끈적한
Susceptibility
뾰루지
발전
빠질
잡혀
천추
커졌음
##이에
##대해
##안된
##본다고
정상입니다
피부시진
기력없음
conn
각막손상
##filaria
위험도
넣어둠
DVH
내려가
나이를
펫티닉
##okaryosis
3기
동시
만졌을
삼각
서있는
함유
##부가
##혈장
##atch
##asol
state
##하시어
흉수는
남아있어서
##ukopenia
ACTHST
걸어다
척수공동증
hum
급작스
엘리
저나트륨혈증
##같다고
가능성으로
##uted
아파한다고
스테로이드에
135
##agin
행동이
부탁드려요
점이액
그림자를
후방그림자음영
ingesta
acoustic
복숭
안티
조그
유지로
배뇨1회
좌측의
먹이시면
소변색
##ralazine
##ubation
##ivirus
시도했으나
cystolithiasis
phosph
##TIN
원치않
핸드폰
근처병원에서
나비침
놀았음
못했다고
##vol
##결손
##먹어서
관찰되었
기침증상은
최근들어서
비교할
주위에
혈장수혈
보존처치
정식소견
##ochromocytoma
d사료
섞임
스펙
##응급
200g
4차접종
Intermediate
SIRS
나아지지
Collapse
고기는
밥안
중이심
##매시간
##최근
상태와
crypt
##ize
폐수종이
속도가
acetab
때문인
어금니쪽
침대에
xalactan
무릎관절의
application
건들
먹진
##ticular
병변에
해주시길
method
반려견
5fr
귓털
끊은
낀다고
드립니다
뭉친
휴지
##견갑
활력좋음
동물병원으로
KCl20
희석해서
Resistant
위액구토
Hypo
Hepat
Multiple
가지러
다래끼
뚜껑
직전에
##DX
##돌아
##onatremia
관찰되었음
연고처방
##내용물
##URCE
같으면
먹기도
제3
좋겠습니다
짓물
참는
##약만
##icivirus
활력이나
급여는
투약시
degree
주변에서
##tiven
갈색으로
시도해볼
불가피
epiphora
달라진
considered
remarkable
전조증상
astaltalpggt
tortuous
SOURCE
주셨는데
훔쳐
##비가
하시겠다고
Color
bulla
hyperemiacornea
chromatin
AT
그것
보시라고
일은
확인되던
##epith
없이도
이루어지지
뿌려줌
lam
간성
배설
오셨는데
##예슬
stromal
미용은
재발하면
난소자궁
일어난
anisokaryosis
physi
wid
거기
골피질
그쪽
맛있게
변실금
오셨
항문을
관절의
전신적
방법을
흉수가
보였습니다
모르는
없을경우
백신접종
##bladder
28days
안좋아진
sampl
##ophagia
umbil
마찬가지로
osteoarthritis
clum
fast
##인해
##tich
cm로
canth
척추사이
안좋아지면
증세가
아물고
5km
LF
ft
fir
g짜리
건지
귀의
민재
##HF
##간균
##anced
심장관리
##ially
204
감량하면서
응급조치
있었는지
탈구에
수혈이
아닌데
##blood
어깨관절
##apsular
culture
##less
##잠복
##ops
결과상
귀세정은
intens
nucleoli
쓰러진
오늘아침에
부모님이
hyperthyroidism
sx
검경
시킬
항원
##락스
##olip
입원이
##질환이
체외충격
8로
AND
fair
때와
양예슬
##운팅
##낸다고
##atures
산책할
교정은
그런것
구취가
말라셉F
cipro
복숭아
났다고
뚝뚝
먹다
변한
엉켜
팜시
##ving
##pation
##럭토사민
입원Kg
발적되어
일부가
위장관계
후방으로
##ragm
attenuation
개방
고인혈증
껍질
난후
못해주심
##오지
kgbid
신장관련
개선없으면
208
shaking
145
diastolic
김유랑
Taurine
trop
글루
뒷쪽
매트
오니
지르고
hypoplasia
연락드림
동안에는
치석은
전엽과
4번째
김준환
Asc
제거시
골절은
skull
약먹으면
gon
가방
나가지
프럭토사민
##염이
양측고관절
비슷하다고
항암환자
폐수종으로
생리적인
기간동안
안되셔서
일으키
코어근육
다녔음
귓속털
tendinae
CM
HI
늘음
동그
못걷
신기능
종창
청취
##와의
##원함
##orb
조금은
먹은거
자궁축농증으로
##림프절종대
더이상의
hal
나라
의자
주1회
##약근
##난소
있음에
처방으로
입원kg
##imazole
개인사
진통제는
omep
고민정
먹어보고
안되어있음
주워먹는
##antihistamine
chewing
darbepo
hit
단두
매개
##점적
##ecreased
감소하였음
148
Stable
cobalamin
##수화물
hospital
blindness
2알
foc
주소
했어요
##mass
##아민
주사로
##ocular
chest
병원가서
##하시며
show
can에
거부함
성격상
싶어함
관심이
빨라짐
Chlor
위협반사
드러
##현영
##면의
##ida
금일도
전화문의
isl
조직병리
음식과
약처방만
사람음식은
부딪히
적용해제
aqueous
개입
심방
하길
##재영
접종하러
오른쪽이
rani
histi
연접부
arrhythmia
까미
멍울
##주에
##깁니다
##노출
103
##teal
받아간
아토피성
공격적인
Dobutamine
trouble
Record
장외배뇨
dimin
벤조
엄살
작아짐
파래
한국
##슬개골
진행했고
소화가
내과적인
눈물자국
##berine
유산균제
생리중
얼굴쪽
주기적
호흡양상은
심부전의
호기시
staging
7로
모자
커져서
##이긴
##약에
##불명
소독은
변경된
##orphine
had
pit
ucc
누출
세밀도
실험
열려
이른
작아서
현치료
##리며
자발식이
Rx1
건사료로
##호흡수
##ah에
several
mucosa
핸드피딩으로
생겼을
이어가
배고파
Sur
가쁨
너클링
물토
보냈
이중
폐의
##한다고함
##inf
still
Calcium
기능저하증
RD
Turgor
gs
받던
내원을
thin
##상태에
응급진료
높음을
##oletil
civ
개가
다솜
물건
생략
##eous
##기면
##두께
배뇨가
##chf
복용할
감량해서
어려우심
ICU
Creatinine
eph
비하여
순간
알씩
차원에서
채소
##넥칼라
##상태임
피하절개
피부염이
contusion
나왔으나
색깔은
고압산소챔버
페디라
물티슈
##zol
##크기는
유지가
##ocor
호전시
호전되었다고
intak
조제약으로
병력이
위험이
##havi
못뜨는
canthus
고실
못보고
약의
엎드려서
##운지
어제까진
피하봉합
아파하면
스테로이드를
건강체크
동거견은
microhepatica
연하반사
purulent
가진
털은
##both
##pro
##regenerative
mods
agent
나타나는지
제외함
pentoxi
가까움
##증세는
ventricular
carboplatin
l정도
못느
온찜질
장재영
찾기
##중첩
##문진
내원하셨음
유지한
결정예정
재발이
##agging
관찰되어서
amitriptyline
Ep
SH
고생
긁어
달걀
마운팅
입안
##더밀
##폐야
보이진
전지에
충혈시
뛰어놀
malasezzia
##encephalitis
3살
tab
누리
실혈
알기
좌전지
체형
##토닌
##dig
##우면
##꺼번에
##카신
trabid
기침이나
아래로
정기적
오래전부터
포비돈소독
profopol
방사
##나타
time씩
혈액은
산책함
resorp
주의깊
features
Neuro
대기실에서
균질
근경련
둘레
떨음
복측
팽창
호보나
후대
##토록
##오셨음
##잤음
이상없
해주셨다고
예후에
##ovirus
고양이의
buncrea
sg
sirs
구획
비감염성
숨쉴
오류
진갈색
##growth
##vet
##vular
##술로
##PE
우측신장
hyalosis
밀크
얇아
전두
출장
활달
##led
##약이
##순이
##오일
배뇨실금
배변상태
지속하기로
제거하는
소화된
부종이나
배제하기
간단하게
빨개짐
페니라민
뇌외성
벤조일
그간
돌보
링웜
얌전히
없으니
주면서
##능력
##끝에
배뇨양호
먹고는
pain은
광견병접종
cytop
##간격으로
MC
Murmur
닭죽
때까지는
힘없이
복용은
외부면회
영향이
나가고
mpa
cyan
january
안주고
오라
오셔야
털에
한꺼번에
##수치는
##print
흥분하거나
힘들고
digoxin
panniculus
uccr
낮다고
미야
사실
안아주
##으셨다고
검사비용
정도라고
오후까지
말씀드리
발생가능성
외이염에
탈수가
골절선
먹었었음
폐수종은
위치한
먹였더니
응고계검사
carcin
twit
MODS
CDS
pg
##안하고
식욕결핍
poten
하루2회
사용하는
##해보니
귀가조치
오리더밀
cytarabine
interpreted
육아종성
유미흉
echocardiogram
뜨는
먹게
복명음
##ton
##단축
##put
##되던
##넛볼
입원예정
증가에
보행에
촬영하여
아파하거나
기본건강
먹은후
안검반사
부작용은
##원장님께
예민해서
limbus
Hyperplasia
아드님이
이승현
##cardiogenic
어드밴스드
##나감
##마세요
진행후
양측이도
가족과
뒷발목
자리에서
소리지르
prostatic
멜라토닌
4DX
Bw
pass
단지
말부터
##거상
##카인
##갔음
모니터링할
##사료는
보이다
사용할
주변을
같은게
의식이
절제함
##원장님과
가져온
subcapsular
AMYL
아미카신
거부감이
재진일에
흡기시
비가목스
Teeth
##olipoma
UCC
막힘
초유
##kine
alapril
출혈소견
안먹임
호흡기약
반복될
병원에선
##otherwise
animals
##havior
DNR
고여
된다면
회복은
복수의
소실이
처방받으심
좋은데
검은귀지
쓰러져서
클리퍼
타액선
어딘가
후방그림자음영을
Free
IPL
그륵
##ning
##라진
##도에
##협조
입원하
##수술을
같다고함
치아에
내원하시라
echotexture
lamin
기시
박장
##기때문에
내원당일
하루만
plaque
예약되어
##romhex
병력은
넣어주실
pleomorph
북어국
언제든지
aerophagia
박장순
dro
낮추
넓어짐
다섯
보지는
##can
##보입니다
##했다고함
##먹임
##헥신
주사부위
발적이나
소양감에
Halfsol
그리니즈
dnr
ipl
ptium
끄는
대고
미음
속이
해봐야
##색의
##컨디
내원하셨
오전에도
마취방법
귀청소는
얼굴이
aminoph
granulomatous
Total
itras
동전
비빔
웰케어
한컵
##시게
##다란
##먹으면
##융해
##검사가
##junctival
비심원성
##fibrate
factor
carvedilol
go
먹으며
바빠
조용
합사
혹여
흉복수
##유선
##oche
있는거
조금이라도
염증부위
##oxyb
레날처방식
##OLO
5차접종
수중보행
demodicosis
standing
Co
몇주
차에서
케타딘
##보였음
##omin
우측이도
재검을
enoxaparine
##arbonate
susceptible
갈색의
##ological
감기증상
하시길
배뇨량이
생기지
다쳤
뒤에는
요천
##요로
진행했으며
처치유지
상승된
일반적
소화불량
##ift
점안하면서
초음파상에서
언급함
비비고
squamous
봐주
##중성화
##metr
##entesis
alm
pm10
알러지반응
방광염으로
beza
Neoplastic
MPA
pets
sle
받길
불연속
붙여
야옹
##등쪽
##허리
지속함
신장4
현재와
수혈은
diets
방법은
궤양은
##crib
##ucleation
내부에서
괜찮았다고
아픈지
벗겨짐
자체의
##ochezia
u3
삭제
##감초
##슈어
timep
정도부터
##yping
체크하기로
심장사상충약
sequ
넣어주면
단단함
편안하게
궁금해하심
##플리딘
5v로
ANF
dw
얘기를
잘라서
클린다
##요구
##리어
##용으로
##늦게
pouch
관리하면서
염증관리
불안정한
지인분
소리지르고
잔디밭
administration
라이펙스
곳이
판매
##기운
한번으로
약물처방
이번이
다녀옴
중지하고
##oplasmacytic
Parv
Ker
Pi
R14
R13
Tbil
정자
##이력
간모니터링
오줌이
caps
자가손상
소개로
veterinary
안이비인후
##tichiasis
몰라
미국
위쪽으로
키모타부
턱부위
##MN
##봤으나
perman
retching
##스트리
확실한
myx
approximately
UCCR
HP
hd
같지
싶어서
안한
위가
입마개
젖을
중이었음
먹이셨고
통증이나
발적도
췌장다리
발생하지
결정하실
촬영상
있으신
hydralazine
오큐플리딘
CHOL
airway
ciprofloxacin
두껍게
Stifle
되심
백산
##biosis
##타이드
##adia
떨어졌다고
124
##astro
pers
내외로
권고함
##가량의
소리지름
submitting
supplementation
stippled
고빌리루빈혈증
based
느려
말것
씹지
잘모
##inosis
##etal
확인되었다고
개선되었다고
10days
마취위험
usually
응급내원한
sediments
입천장
일상생활
제3안검
Other
귀안
몰아
##aa
##네스
##물로
##DER
##enorphine
##ank
clph
결정하시기로
아파하지는
noted
내원하실것
증식성
contrast
vancomycin
##eed
##량을
투약할
최근까지
복용한
복용하지
신부전으로
어릴때만
폐쇄봉합하여
진노랑뇨
방금전
##iclovir
cases
가신다고
이환
파고
##려면
정상보행
diltiazem
맞추심
##neumonitis
발털
카테타
##recheck
처방시
필요하지
위장염에
목욕시키
감기에
귀원하여
관심없음
duodenitis
bf
근력
목소리가
바른
##벨라
##erry
##inetime
am6
보행양상
먹여달라고
치아관리
움직일
클로스트리
일으키는
microfilaria
locking
Muc
nas
듯이
쌌음
해드릴
휴식
##부로
##밀도의
수술하기로
보이던
림프관
내용은
이뇨제는
serous
폐렴으로
예민하여
복통은
예약잡고
osteophyte
AAI
목아래
털빠짐
##이동
보호자한테
25cc
##세균총
phosphate
TX
김혜
되서
차를
##gi
##설화
급여하시도록
note
안먹기
고지방
흥분하지
호흡곤란을
가쁘게
dhppl
Pathologist
후대정맥
top
끼어
넣으면
배속도로
하기는
##다다
배변양호
신장2
항문에서
##ectasis
종합적인
분양받
뚜렷함
되어있는
##stipation
Stom
소론도
히알산
atypical
Idiopathic
NM
것입니다
둥글
뛰고
봅니다
요소
저칼슘혈증
지어주
양호하다면
환자에
##여부에
외부구충
자세에서
양안에
문의사항
문자발송
파보바이러스
구매하심
twic
자극시험
tetrap
DHPPL
twitching
5DS
6pm
humeral
가늘
늘지
만성화
했을때
##강아지
인계사항
올라오는
##irubinemia
hypercalcemia
His
떨었음
이대로
후시딘
##subcutaneous
입원비용
##azolin
촉진검사상
귓바퀴에
coagul
foci가
내어드림
덩어리가
##슬관절
##제품
##antus
cremez
폐색음
처방받으신
almost
fT4
last
그나마
분출
잡지
클로나
##IV
##ROM
구토할
있는편
산책할때
보호자님만
진단되어
##해주시길
새벽에는
통화함
돌아오고
붕대가
##amed
고양이는
흉수량
##omyelia
40cc
기간이
늑골궁
튀어나온
hyperechogenic
##oxybenz
클로나제팜
못씀
씌우
인데
프릴리
##약감초
##거에
구토후
구토하면
이후는
없는듯
Enal
deficiency
기운도
기관지염약
몸무게가
borders
따뜻하게
ampicilline
Oxygen
echogenecity
갯수
권했지만
그럭
슬릿
임설화
폴립
##시지는
##해드릴
##물을
##아버
##통에
##말린
##하시다고
의심으로
판단할
소실되었으며
브롬헥신
retina
구획단축
프릴리움
ll
곳을
무슨
찾지
##주름
수술해야
저하증
NStime
Neoplasia
Protein
duration
##atrogenic
aai
끝이
더딘
막고
맞게
벌어진
신뢰
엔젤
한캔
##ooth
##x3
##추정
##뿌리
##inc
수술위해
아침까지는
호전될
사상충약
방법도
디스크에
파열된
완화를
feburary
##cortis
영역의
angle
staphylococcus
알갱이
omepra
낮동안
안걸
용이
줄었고
타원형
퇴실시
안면신경
사식에
임시보호
Veter
마시지
손톱
시침
안계
약0
없도록
##가지고
이후엔
실시해
설명해드림
안구에
눈물을
이후로도
lvot
분리한
##ogeneous
Diabetes
bupr
instability
figures
atr
목부분
비협조
아티오
##으실
##엑스
좌측도
지냈으나
절개술
PM4
Susceptible
3칸
hard
kpo
pub
사례
환축
##AA
##발로
##수질
##학적인
##워짐
관찰이
off
진단하고
적용할
발작으로
스트레칭
검진을
가루약과
보인다면
액체로
제한적
Indoor
받아가신
filling
안구건조증
구획단축률은
오일
장운동
파프리카
표층
##자로
38도
예약진료
골절이
대퇴근육
LVOT
##THOLO
Cough
May
pa
별이
절룩
##시려고
##로우
##더기
##득한
방사선은
경우엔
혈액검사결과
uremia
186
데려올
노란눈꼽
신경증상으로
초기에는
존재하는
정중으로부터
주관적
미세한
PATHOLO
근본적인
polydipsia
HCC
cup
##비타
##문동
##페넴
time파모
##onds
모니터링중
##부위로
약물을
1T씩
##merus
acetazolamide
obstructive
이빨이
갔더니
기분
김주
앓고
춘천
##동식
##RBC
##LN
##노력
급여할
급여하지
식이제한
투여는
연고처치
##lastic
당부함
visit
애기때부터
capsules
Problem
확인해보니
condyle
Str
f2
높지만
딛는
이아름
잦음
##eri
##odies
exten
괜찮아서
건사료도
식욕부진과
스테이
142
엉덩이에
노출된
걸어다니
튜브로
Hyperadrenocorticism
수제사료
spayed
아티오닐
LH
vasc
zoletil
비스
일본
전패드로
##고지
##진드기
##없거나
##줄것
##탕bid
##랜드
유지cepha
술부확인
저하에
유선상담
shu
집에선
방광염약
나서도
고기만
fibrous
단계는
clinically
lvids
##omalacia
snacks
8km
hcc
간질환
둘러
##라운딩
##심하고
##런스
##urulent
각막천공
lymphoplasmacytic
앞으로의
##umerous
견갑골
겨울에
두드러지게
rabbits
AG
보시기로
##메타
##끼리
##ility
다음부터는
있으면서
50g
저류가
아픈적
절단술
histopathologic
As
못일
##부를
##세트
##껍질
검사의뢰
##uli
metocl
compr
현증과
asteroid
detection
esophageal
급이중
Dyspnea
Score
improved
2군데
미실시
수지
시와
한강
효소
##지어
##4차
##TORY
##들으심
##inef
##leukopenia
지속할
감소하였으며
먹이시기
##cher
영상학적
돌아와
급성췌장염
하이디
directly
CHOP
malignancy
그럼에도
hpf
##glut
기본건강체크
Foy
Sid
만지지
청결
##베리
식욕없고
접종까지
hyponatremia
통증도
##하였지만
췌장효소
prec
repair
manual
ostear
##metocele
icterus
비만세포종
맡아주기
##alivation
oph
수건
열어
잡기
핥으려고
##저럭
##돌출
##orr
설사의
먹이시면서
방광에서
진단된
BID로
##을때도
흥분하면서
136
혈소판감소
##동물병원입니다
기초예방접종
중심으로
temper
prognosis
discharging
nstime
골융해
빠지지
싶으심
쿨펫
##gor
##lak
##화된
##제외
##셧음
기력저하는
다른데
식욕부진은
severely
참고하여
요인으로
뒷발로
ascite
5차까지
CIV
어제저녁부터
demodex
Rabbits
찌꺼기
Gastric
VL
rv
내고
두스푼
상으로는
시엔
알콜
여아
장소
##rum
##거부
##증을
##우진
##점은
퇴원결정
슬개골이
see
심장약에
기본검사
안과재진
시력소실
세정시
crackles
codeine
서울대에서
##lobulin
선형이물
##interstitial
레보프록
##네프린
speeed
aurial
##cribed
buprenorphine
Flu
RV
cds
nk
된것
원하여
##ypo
항생제만
다니심
##arcated
tpa
listed
어미가
##부신종대
tathiontime
spherocyte
곳으로
대발작
빈도는
사무
위염에
차있는
천장
표재
호출
##종훈
##엽의
pop
정상의
치료하면서
먹이셨는데
접종도
복용하는
평소랑
백내장이
검사결과를
디스크약
solid
요즘에는
약욕은
실내생활
뛰어내린
extrusion
코코넛
멈추지
pheochromocytoma
losartan
1정
9도
B12
RX
납니다
마름
보았습니다
장안
##돗개
상담하기로
감소에
초음파에서
재발성
좌안이
돌아감
60cc
피부병변이
근처에서
POD1
cyclophosphamidetime
permanent
tn
도중에
점검
정해진
##요인
##아파
##링킹
감소추세
투약하지
scab
기력부진
일반체크
##반응이
먹여드림
지켜보시다가
구조물들
##quate
overgrowth
various
보행평가상
벤토린
분명하지
그럭저럭
1캔
Small
horm
의지
진돗개
쪽에서
케타민
티어
##와는
##다수
##맛사지
술부에
미용한
사이는
들어옴
안검플랩
노출되어
##esthesia
평상시에도
산증교정
Nebulizer
크리스탈
굴신
될지
순으로
##아주세요
확인해주세요
진행하였음
소견에
##치료는
##해주셨다고
좋아요
심한상태
배제는
세포가
##혈관화
##oreflexia
omega
역류속도
영역이
귀분비물
살고
장시간
흉터
흰자
##nel
##vey
##hu
##28
##kw
##점을
증상호전
enar
탈수로
##rier
retinac
vlas
잠실
하라고
##온화
내복약도
유지하도록
먹이시다가
췌장염의
받으시기로
보여드림
지냈으며
약먹으면서
sugg
생기기
동공반사
호산구성
management
salivary
VLAS
pun
누가
츄르는
핸들링
##재활
##수치가
##가능성은
배양결과
##icken
mucop
요즘들어
220
##ofur
단독으로
arthritis
sequestr
Lidocaine
계신다고
굳은
끊을
빠르면
사는
흡수성
##있었는데
##idor
치료시
간식이나
변화와
회복되어
다리쪽
##ibom
비교해
호소하는
외측에서
기초접종만
이로인한
목적의
활차구
laminectomy
꺽꺽
대학
지음
##dob
먹는지
사지강직
발라주고
##epithelial
2층
귀만
대망
막기
뮤피로신
베타
오셨고
핵대
##상은
양상이면
##지는지
복용하도록
마취하
예후를
아니라서
걱정됨
실질내
##진행함
노출한
많은편
뛰어다
지방종으로
애견샵
어려우셔서
후로는
관찰되므로
여자보호자님
민감한
humulin
개인사정으로
Ben
dir
것들
항혈청
##부근
##치가
##채취
먹이도록
체크위해
계획은
주변이
묻어있는
비상약으로
demarcated
incidentaloma
myelolipoma
라임
씨앗
였음
우회로
천문
##지않
##피하
정상이며
지속여부
혈액학적
소견상
보호자분들
의심될
피하종괴
투여시
출혈에
대해선
요도내
관절이
근육을
유합부전
농도검사
##atophyte
안들림
상하악
알러젠
hypotension
골피질의
diminaz
nme
rc
식습관
올랐
전기
진물이
##tiofur
증상없음
##imum
enucleation
안약투약
lymphatic
혈변이
##oclonus
비틀거리고
안되어서
섞어주심
실수로
LVIDD
KID1
냉동
뇨는
많으나
변의
변도말
복식
수종
원하는
편혜
픽업
한데
##무는
##점에
검사필요
generally
실질은
glut
급성의
주말까지
transposition
whole
말단부
휘청거림
김세은
스텝온
바빠서
편혜수
4days
qol
가동
굳이
원장
커보임
한다고함
##거린다고
##IA
##chem
외이염이
용량이
조직검사를
지방층
맞추기로
스크래
기호성이
prescap
Butophanol
buphthalmos
병적인
블링킹
씹는
주었음
##구요
##흡인
##킬로
정도까지
forcep
술부에서
수치의
발작증상
155
담낭의
만성적
변위되어
rodents
dull한
미끄러지는
immiticide
Rodents
GS
듣지
##SC
##어금니
##새벽
osm
behavior
공복토
심잡음은
##ongue
keratopathy
Perit
수직이도
nac
끝남
날이
취하고
##de
##으론
##flur
적용하며
감염의
치아방사선
식도에
느낌은
닭고기캔
백혈구증가증
흔적은
테이프
부스팅
임보처
가신
끝났
물렸
원발성
풀림
poket
체중을
coms
내원시에도
ct검사
처방식으로
하락하여
##보호자분
급성신부전
##bilirubinemia
vasopressin
말라쎄지아
어쩌다
cycle
iatrogenic
골증식
달래
뛰는
임지선
재작년
키워
##la
##위산
퇴원한
설명을
external
추천되지
경구투여
힘들어해서
2차례
교상부
최종적으로
afterweeks
친구분
헐떡거림
jejunal
September
flexion
Pets
멜록시캄
외국
##erit
입원한
ste
##indamycin
plts
기립은
stich
기절증상
애기때
메토클로
dystrophic
similar
입천장에
##discharge
Hyd
RH
먹지만
서있
안방
안한다고
##ln
##rain
##물고
##접근
##유니
시작되어
항생제로
체크해
회복되는
pm6
들어오
분양시기
담당선생님
천자시
폐색은
안면부종
Lymphoma
##방향으로
김지영
택배로
##ities
help
단체화장
합병증으로
cyanosis
Castration
NK
Poket
구름
여드름
요일
있어도
30g
15cm
Spec
깨끗한
사나움
jejunum
여기서
alignment
bezafibrate
fer
물먹는
안해주심
앉는
없기
연두
잃어
장의
질염
혈설사
형질
##아니
##arse
진행했음
이상에
방광확장
떨어지거나
빈혈과
간격의
복수량
소실되었습니다
therapyfold
누워있으나
superfitial
이첨판막의
변비가
curative
norep
풀러
##닐라민
피부검사
부분으로
tetraparesis
ps
담아서
좁아짐
폐혈관
##상악
##ones
enh
증가하였습니다
후지time
심장사상충검사
보여주심
조직검사상
켁켁대는
앞다리가
행동학적
궤양성
##atories
그때까지
200cc
거즈로
reticulocyte
못보심
슬라
유니
탄력
상담드림
진료받
10cm
plat
tissues
calicivirus
광주
없으셔서
유입
주둥이
편인데
##형규
##실이
##플란
상태평가
배뇨자세
안정되는
prior
inject
##ppy
발견되어
받으면서
안구상태
##동물병원으로
가져가
어머님과
구매해
병발한
##과정에서
procedure
토사물
tick
걸으려고
구별
분석
##대에서
##신생
##릴때
##내일
신장사료
20cm
보조제는
두개부
august
계실
금수
뇌손상
저인혈증
짐작
탁한
힐링
##연접
##전후
povid
이후부터는
오전중에
10번
종괴를
ceftiofur
좋아지지
adh
내원시에
꼬리에
Corneal
전십자
훈련소
김주형
SY
##이외
##adyl
염증과
증량한
기관지약
이도입구
피부염증
가루약은
ketamin
사라지고
frequent
폴리싱
Gall
oment
계절
낼름
놓음
채형규
##body
##각질
치료도
10am
시작했고
보행상태는
아이들이
##해보실
kitten
메일완료
보인다고함
들으셨고
polyuria
대소부동은
##노력성
3스푼
rchf
용액
통하여
하네스
##oung
##돌이
##업체
치료받음
간격을
##하셨다고함
갑상선호르몬
라식스1
tracheostomy
prolong
숨쉬기
RCHF
티어젠
거주
건국
아까
입혀
##차이
##esit
사료됩니다
flat
알러지로
에코는
포함해서
심잡음이
점심부터
대소변은
중순에
접촉성
불분명한
dos
가야
깁스
파우더
##있으
##배출
##aton
이전까지
##outh
넣어드림
Disc
자리에
balance
마일드한
늦어
덜덜
방치
시기는
재의뢰
투석
##5차
##onitoring
필요해
##uminal
##echan
피지선종
낙상으로
떨어지나
이질적인
snap
부여함
circum
비오칸
Lab
Sta
hsa
못먹고
##연변
##ertion
medicine
과거에
퇴근하고
Adrenal
loos
ultrasound
tncc
August
TN
나선
더마
안긁
엄지
중이라고
지낼
##았을때
##베스
##with
##먹었음
##학적으로
필요하지만
치료할
심장과
증가할
##하시나
말씀드릴
##하였을때
이물섭식
예약이
요도에
관절운동
아파했음
구강종괴
세균이
##quired
대소변을
배뇨량은
그전에는
테가덤
실비에정
5마리
HSA
안산
안해서
오현영
전마취
##순환
##동이
##원에
오전약
먹는중
생리를
mult
혼합3차
아무데
삭모후
intravenous
when
힘드셔서
LVIDs
부전마비
장문합
diverticulum
정수리
potential
##cherichia
ecc
늘어서
삼키는
오시겠다고
장요근
##edrine
우측도
사료나
설사해서
상담시
주사와
am2
##obramycin
hyperplastic
118
들어와
손상은
폐색이
laboratory
c0
주2회
##나오면
한달동안
stable한
ausc
가정견
typically
##fatetime
nephropathy
토르세
##oxybenzamine
위치의
잡히지
##4회
##유동식
##날은
확인하시고
피부유합
투여하지
관절에
귀가하심
예전처럼
예상되는
연결성
옆구리에
Radiograph
amoxa
sensitivity
bronchointerstitial
트라넥삼산
2days
rin
안자고
여유
피는
##모래
##이식
##전까지
구토증세
##phen
진행하시기로
결과로
ray촬영
애드보킷으로
##는것을
group
aPTT
gp
거리가
옥종훈
잘자고
출발
콜레스테롤
##했었고
##구가
확인하였을
치료와
비용청구
증량해서
복수검사
예후나
담낭에서
느끼시기에
mri촬영
meg
axis
부재중이셔서
values
늘리기
인접한
##GIST
구역감
분은
코멘트
##시술
surround
subcon
Cats
distinct
samylin
붙어있는
PATHOLOGIST
개를
남겼
두군데
시츄
엑티베이트
흐르는
##데아민
##식사
##omatic
10g
추천되는
소독및
##flec
악화소견
다량으로
전신미용
사망선
붕대를
phosphor
dilution
불균일한
간략히
부딪힌
몇개의
여자보호자분
내츄럴발란스
cytopoint
enarapril
rare
윗입술
자기가
##보인
##태훈
관절사료
image
enalpril
안락사를
비강튜브
나아졌으나
고민중이심
levet
brach
COMS
splenomegaly
베이비캣
appears
Tachypnea
RI
그만
나쁜
늘었다고
선호
준하는
케프라
회색
##나핀
time정도
##ylamine
전에라도
12cc
shift
##iform
효과를
폐색으로
영양공급
못먹임
##common
ureterolithiasis
테이블
견인하여
더디면
가리유니
귀외용제
엘리자
싸움
염두
주시기
##수정
##ropi
이상을
설명하고
연락달라고
수혈후
받으셔야
불편해서
눈물은
부신비대
추가처방함
##시작함
먹여보실
##ophagus
rimadyl
스펙트라
Staph
L7
과성숙
남우진
놀라
뛰다가
에드보킷
##도를
##길에
##NS
##금액
확인하는
po제로
수술하는
실시하였습니다
nov
fluc
추천합니다
건강백
약처방은
괜찮아졌다가
브로낙
골관절염
salivation
##cefradine
paraparesis
mucopurulent
phosphorus
morn
ten
걸리는
구비
비아
애들
함을
##된것
##pre
##dia
##졌다고함
##츄리스
치료하기로
오전라운딩
양상도
dise
활동성이
1번씩
항암치료는
담관간염
가빠짐
front
Add
Apical
Bromhex
갔음
다운
위는
차로
후낭
##매우
##점으로
##inent
호흡안정
ambulatory
##해주시는
감량중
다리도
premedication
143
지켜보는
pimo0
##otility
BL60
생기는지
humerus
esophagitis
엘리자베스
maze
가이드
마킹
파이
##연골
##폐수종
##옵니다
혈액농성
접종차
있었다
먹여주실
CT검사
meibom
다이어트사료
Metoclopramide
요도카데터
Bab
lect
간크기
안하신다고
억압
주셔도
죽을
##나오는
##셨다
timefor
##anc
수술의
판단하고
paresis
않은데
급성으로
네뷸치료
안좋아질
supports
sialocele
##ocoria
drooling
##lakiuria
Bo
BC
Mites
TA
갈지
잘때는
##oabd
##mild
##되진
imprint
고양이용
Clindamycin
예민하고
##과장님께
연락주시도록
식탐은
첫날은
##NDIN
temperature
6으로
lysis
뇨취
식탁
왔다고
조율
찾음
호두
##리아
##그램
좋아보임
152
연락부탁드립니다
canis
수술적교정
FINDIN
Obj
치료반응이
forming
CHF
이버멕틴
상관없이
쓰러지고
부신피질기능항진증
leiomyoma
hyperglycemia
두세번
##강하제
##cortisone
fall
빗질
위보호제
##또는
복용이
##되었지만
128
비장결절
##lying
소장벽
혈청안약
##유지중
가피형성
##comp
narrowing
fcov
dam
rk
v표시
wide
될것
멈춘
비정
빠르고
아플
##있었던
상태의
예방도
적용하기로
##agia
침윤이
거품을
##crp
radio
원내에서도
##medin
부딪히는
부재로
##lycer
원활하지
한계가
elongation
별개로
FINDINGS
##매일
##일은
##oler
##olling
보호자도
호흡시
##ositive
stra
##tral
발적만
시간당
사진찍
cm정도
집에와서
동물약
바이오
소리남
보내달라고
오실때
나쁘지는
괜찮아졌다고
위험성이
Injection
좋아졌는데
묻어나오는
aspar
Enalapril
Direct
SD
mouth
보기는
우다다
줘야
##ying
##uronic
진단받으
소리도
이용해서
인계하여
위험한
subt
감사드립니다
느껴지
근육층의
펜타닐패치
부드럽게
가깝게
##엑스레이
Fore
ma
numerous
자정
재수혈
줬더니
진균제
페니스
해부
##시픽
##yn
먹이셔도
부종성
소변보는
##anged
켁켁거리고
기운없고
나아졌다고
##TAL
capsular
L5
aut
보상
원하셨습니다
진해짐
##견인
##많음
##먹이심
##히면
##뒤쪽
##ention
정상수치
tricuspid
감소했음
심해지지
종합예방접종
있으시
복강장기
방광염이
백내장으로
처방받았던
조절이
그러고
가라앉고
직경이
사타구니쪽
혈액도말상
결손부
Mitotic
이어나가
침전물
ectopic
받도록
옮겨
요침
쳐다
검사위해
구토요법
정상세균총
설사하는
사용함
하는편
받으시길
점막창백
위내에
##arcomas
요인은
이력이
consist
분양받은지
kremezintime
2fold
귀국
멍한
무에코
미량의
심하나
침울
할아버
화분
확인돼
피부에서
관리해보기로
촬영함
돌아오는
##하기에는
##하셨던
나왔고
보인적
들으셔서
관심을
CREATIN
GV4
하부요로
0V
lif
못넣
좋겠음
토했습니다
##ful
##양의
##구매
##탈출
##ato
##stx
부위도
소양감을
distichiasis
발사함
기관지협착
분변도말
전환함
incis
맛있는거
puppy
tachycardia
먹인다고
헛구역질을
연속으로
Ultras
NAC
누고
약효
인사
지고
##olysis
입원해
저녁까지는
산책여부
hyperbilirubinemia
##해주시기로
술전전화
omepr
##이어티
suture로
아침저녁약
안부문자
hypovolemic
가영
듯하여
우전지
정대
크림
##발라
##oring
배양중
Thorac
기운없음
2번약
VIP
vertical
lviddn
##ymixin
효모균
rinse
정대욱
S로
bom
벌리고
영구
접히는
정황
핥은
했더니
##ped
##EC
##졸린
##tile
투약하기로
방광종괴
제거하지
식사량이
##드리며
줄어들어
광견병만
하악림프절
유치잔존
고민중
coarse
정체기
고령이라
veterin
TNCC
3가지
싸우
콩이
##영향
##됐으나
추가투약
방사선체크
withd
158
오래걸
myoclonus
열상부위
Lowfat
나타내는
포르자
구체
기원
비롯
이가
##중환자
##레닐
##혼탁
##검사와
내원은
cherry
하루는
양상이었음
염증의
불편해보
챙겨주
불편해하고
발라주심
알려드리고
하시면서
애기들
많아지고
깨어있을
macrophages
CREATININE
Sup
rcm
두경
묻은
##재채
##해졌음
##함을
피부소양감
현재까지는
사라진
십이지장염
chloramphenicol
후유증
incomplete
9로
그람
분지
싶은
약끊
줄어서
턱을
##훈련
kg기준
증상이나
전화주실
급여후
10이하
복용으로
##ahco
stridor
##병변은
낭성구조물
받아보시도록
bicarbonate
diaphragm
retinacular
둘이
만졌
맹장
무마취
뽑고
유독
지질
##직후
##ush
##eptic
보이는지
azith
올라왔
후두골
duodenal
태어난
inhib
Endometrial
oc
스피
임플란
##일리
퇴원해서
약간은
실시중
기관거상
회복된
하악의
smooth
typing
1번약
##신체검사상
지저분한
median
indoorsdiets
whealb
맥박수
##tizing
Veterinary
##fluridine
a는
d는
미룸
배치
커다란
포메
합쳐서
##현재
##pathy
##비틀
##변동
disk
육안으로
5정
ATE
RK
ctr
닦고
미확인
서있을
##gel
##참치
##각결막염
##als
내원가능
이상무
관리하며
병원체
빈혈을
##ronchial
부신크기
Tract
괜찮아진
제한이
질병의
딸기맛
globulin
잘놀고
island
november
kd
다먹음
반으로
손을
안해도
우연히
하므로
핥았음
횡와
##사시
##배제
##ITH
hypoch
마취동의서
conca
유선상으로
없는편
염색검사
메로페넴
가기
넣을
도데아민
될듯
방귀
양념
언알러제닉
여겨
콧구멍
함몰
##가다가
##수수
##폐동맥
주사처방
계속적인
추천드렸음
생각보다
##방사선상
교정에
##하기를
상처로
infrap
시도해보기로
괜찮아지면
syll
비공협착
장착중이며
Intervertebral
prostate
occasionally
Cataracts
connective
whealbarrowing
Cyst
간세포
놓은
안받으셔서
##pain
##intra
입원시키
증가증
##azoline
12회
피하수액으로
preload
고양이에서
권장함
줄어들었으나
츄르에
presence
구성
눈동
대구
령부터
부딛
사랑이
위절개술
죽은
##uitary
##rated
##스럽
##봐주세요
##ampo
##ithm
문제될
압박으로
소폭씩
사지말단
당뇨성
해야한다고
저류되어
모양은
두꺼운
세번째
튀어나와
request
부어오름
내피손상
실험실
##infection
damage
Foreign
syllimarin
A는
Dec
Spi
닿는
돌려
지장
질종괴
토해냄
##독성
##뒤에
배변판
기침없음
sch
다른아이
abundant
tube를
##ryth
interfer
These
화장실은
2번정도
unc
토마신
구개
자다
##플러싱
검사하여
##acid
접종하기로
recurrent
individual
조직구
집에있는
기력저하가
흥분한
남아있고
양호한데
조절해서
나타나서
##tracon
Fluids
수의사가
인지하고
비율은
Reac
물혹
절어서
칼로리
킬로
##해피
##테니
##괜찮
검사에서는
전화주세요
먹이시던
세파졸린
얼마전부터
궁금해서
어머니가
물러짐
Neurologic
##ropion
HD
dop
상에서도
안그
흔드는
##조정
##phosph
입원하기로
입원하며
chf
약물관리
감량할
먹은게
대퇴골절
발바닥털
복초상
난소낭종
부중도
##이용하여
##glutination
miss
내는
내리고
했다가
##wner
tob
기본검진
##이상은
사람을
동거묘는
refers
Hypert
ISAC
##CRP
FHV
hartmann
감아
국물
궤양이
단간균
달고
덴탈
멸균
생명
##food
##Cre
##니톨
##eday
치료받고
퇴원고려
말씀하셔서
급식중에
안먹다가
골절된
주치의에게
입양한지
방사선상에
##anges
몇일전에
외상으로
확실하게
섞여나옴
플루맥스
tuberosity를
Gastro
mechan
많을
인폼
주니까
##소인
##간다고
##먹여
##믹스
##ores
전화번호
##드렸지만
##부분을
피부염은
##캡슐에
절뚝거리는
요새는
힘드시다고
겹쳐
원할
폐혈전
##음소리
##리게
##좋고
##직경
기침증상이
scap
식이공급
복용을
결석수술
sign이
감염은
연락이
혈뇨증상
유선종양은
##tour
나쁘진
detect
앉아있는
전방으로
간지러워함
chlorhexidine
주저앉는
pupd
말초림프절종대
시흥이지
diminazene
들리지
먼지
원무
진드기는
크다고
혈색
##벌레
##ider
입원동의서
기침에
##ipital
경미함
shampo
유합이
POD2
Amyl
Bilat
prominent
빨간색
1ample
bord
nat
rolling
건너
나았음
맞춘
분문부
살코
폐음영
한것
##나오
##놓으면
오늘이
지속되는지
음수급여
중단후
부분에서
경련의
perip
동반되는
행동약
보류하심
요인이
Intestinal
expected
concurrent
florinef
4am
9cm
Gab
Moderate
뺏어
##Na
137
음수량time
결절성
##tivait
##요청하심
advanced
panniculitis
고안압
두시간
애가
##사로
##사람
##질병
##타이어티
배뇨양상
전화주시고
contour
촬영한
생각된다
귀지도말
세포의
3회정도
소리에
보내드리기로
실내에서
##할때는
약먹은
현미경상
긴장도
의미가
퇴원조치함
##ranul
건강백서
HA
Serum
맞출
사가심
이므로
좋았다고
##술을
##섞어서
##봤을때
reti
coma
예약취소
carbo
경구제제
부탁하심
내용물은
수면중
##형태의
wat
경색
대주면
회신
##주예
##세진
##wbc
계속됨
medical
비용때문에
상황을
연락을
장기의
d캔에
##iotic
모낭충은
영역들
늘어나는
consider
retraction
##kwang
Panting
mst
못만
세라
토출
##시엔
##amyd
다른곳에서
안좋아져서
fhv
straight
d소량
간이심
당수액
백주예
연달
찍은
총비용
커지기
티모
핥을
행위
회수
##스러운
양호하지만
##pim
관련성은
추천되며
완료된
응급약물
데려가서
안과검진
넣어주셨음
분리하여
자연스럽게
입원장내에서
터비나핀
부딪히고
두께가
pituitary
vom
목구멍
보셨음
원해
좋다
##시되
##안부전화
우측고관절
전신질환
않아요
impression
combination
아무데나
경증의
길어서
답답
되었는데
물약은
번으로
상한
으깨
일차
정렬
타크
##성상
##마디
##봉투
##익기
보호자요구
먹이니
##해주는
빈혈패널
데려왔
검사결과는
polyc
들으신
호중구와
집중치료
periodontal
분양처에서
카디슈어
1단계
스탠
##0cc
##yph
##arp
alf
전화와서
추천드렸습니다
췌장염키트
재발로
전지파행
muco
collagen
meat
staining
hypersalivation
Systolic
상으로
세밀
주폐동맥
##nectomy
##긴함
traz
실시예정
간식류
보이는데
말씀드린
소변색이
##ellite
##해주신다고
아이임
종양과
나오기도
교체하고
양성종양
드렸는데
어려우며
결제받음
Stre
5번째
RCM
extend
sebaceous
2가지
could
고글
멍이
보기도
스페
오플로
자녀
전지는
좌골
풍부
##형성이
##abin
컨디션양호
소변양
자궁은
147
피부병으로
안쪽은
전침을
##gaes
intake
원무과
1dog
4칸
괄약근
베레닐
사납
약1
유해
좋았
편이어서
형제
##iate
##산증
설사없음
##stem
병원은
prokine
심장약만
혈뇨로
##ervical
고양이를
Increased
보내고
절개한
노란색의
예민하게
GBM
세레타이드
foci들이
ileum
Fructosamine
characterized
gonio
보호자요구사항
BY
네추럴
단축
##보아
##경계
##osine
진료받으
연변으로
##alformation
기생충예방
testing
pododermatitis
##oidal
ACU
##스트레스
Diarrhea
검붉
대전
보러
사체는
속발성
안잡
절기
편평
상태에서는
정상체온
호흡성
##osystemic
ceh
am9
시작하는
미용실
119
않으려
mucom
경력이
발정은
enterococcus
좋을듯
어렵습니다
trifluridine
내추럴발란스
##컨디션
LVIDDN
ame
긍정
도플러
바륨
심합니다
유효
지은
##SID
##없으며
##형으로
##각화
1회정도
보행장애
없었어요
insulinoma
diplomate
할인해
마른편
neutrophilia
제주도
R10
cid
목주변
못했으나
반년
붙이고
않다면
지났음
##시까지
##주셨는데
##보시도록
처치와
산책나
내일이라도
산소없이
결정하고
##valence
비장적출술
새벽에도
세균총
섭취한
외측엽
나타날수
이첨판의
절반정도
흘러나옴
##원인으로
맛유에
호염성은
쌕쌕거리는
미야리산
박장순선생님
##gorithm
ISACHC
wb
갈라
스파
적정
##안경
##난다고
##되어야
10kg
isdays
감별위해
ClpH
##arbofloxacin
대기중
wheel
Adv
##loremia
저산소증
행복한
povidone
비아그라
Nov
많으셔서
미슬
온누리
재현
청담
##입력
##본드
##째로
##졌는지
관리차
실시했으며
extra
actions
##urea
면회는
점안마취
##ostan
##ostat
세포학적
음수량도
phenoxybenzamine
천자함
90회
통원치료로
bru
globe
저번주에
Ulcer
미슬토
5x
Mellitus
hock
loose
연수
파양
플로리
휴진
##oencephalitis
##과민
##FO
##앞으로
재진간격
##obid
받으셔서
##사이즈
생식기쪽
##efore
myo
anisocoria
락툴로오
안구압박으로
BE
Or
current
tongue
긁을
모질
비워
신손상
피남
한주
##oV
##보시라고
##IC
##algorithm
##encapsulated
모니터링을
문제인지
음수욕도
계획을
먹는양
심장약과
앞다리는
외이도는
유산균제제
##blast
##amicin
septum
유착되어
##동물메디컬센터
APTT
Typing
kr
맞았다고
물려서
##거즈
##anter
amoxic
##ticus
호흡곤란의
149
CBC상
##strus
계단을
##CO3
마당에
Hemat
Diplomate
breathing
Stomach
##pimobendan
Cime
Ome
PG
가면서
그거
났었음
넣은
들었고
무너
아스
잘게
절골
정세진
좁쌀
지정
##현정
##해봐야
##자연
##미지
##줬더니
##inous
내원하였고
상태악화
정상이었음
지속하고
##tered
만성기관지염
146
꼬리가
SID로
존재하지
2010
깨끗하게
남아있을
질병이
딱딱하게
##자세로
Diabetic
intensity
watery
It
귀바퀴
점도
##res
##ativ
진행성
진행하길
실시하며
드레싱은
충혈되어
재채기도
감수성검사
hepatocellular
specpl
생존기간
arranged
Surgical
WITH
구해서
긁힌
멸치
박준
안하셨음
제법
좋았는데
줄이는
질게
파괴
##ained
##해놓음
##나온
stump
간식과
슬개골은
회복될
회복되고
발작의
해주셔야
감별하기
##opidogrel
영향일
간담도염
synov
remov
한쪽눈
좌측후지파행
##rograde
Enteritis
점진적으로
RL
erg
먹을때는
벌어져
봤으나
앓았던
토해서
헬리코
##드렷
##렸는데
##고름
##전해질
##바꾸
##버둥
##노른자
##inpatient
##odone
항문이
아래쪽으로
저녁에만
진드기가
valvular
##ebrom
스카이
##gaesophagus
Hip
끝까지
더위
들지
리브
많습니다
몰라서
액티
얘길
잡아서
점으로
퓨어
했었고
##시켰
##대줌
##동생
##외측
##카락
하루만에
고려될
추천드렸고
##정도에
발생하고
비장과
영상에서
irr
내시경을
머리카락
샴푸로
흉방상
구매해서
불가능함
말린것
길이의
비움
줘서
회이상
##조건
##끝나고
확인되어서
처치실
상담예정
약간노력성
leg
먹는건
##PIRA
upro
생긴것
##atella
polyph
gallbladder
박준호
고비
과하게
들었는데
맞으면
면담
재시작
측면
평일
##가에
##감마
유지되는지
퇴원이후
급여하는
고려하면
이물의심
노란콧물
붕대제거
오줌도
당뇨병
발라서
육안검사
에날라0
해보기로함
네불라이저
2V
Sucralfate
개로
온다고
##bina
##lac
##하니까
##인슐린
##체의
##NE
##빼고
##amphenicol
##ilamine
접종만
blade
opening
influenza
mucometra
내부구충
맞추어
remission
amounts
##냄새가
Peri
Atopy
심부통증
##omycine
##aginase
morning
shampoo
남을
남아서
뇨에서
묽어짐
벽이
상에
수유
식후에
친정
##이다
##게요
##위부
##받아서
##필로
확인불가
증상악화
이상있으면
phebrom
##axis
onset
데려오지
않으니
음식물로
켄넬2차
가져다
unl
고환하강
상당한
부스터
trochanter
경과관찰하기로
채워져
동결건조
콧잔등
withdraw
ACUTE
6T
못하셔서
봄에
식빵
완납
##화씨
##FER
필요하므로
호전세
안정제
원래대로
116
보고있음
귀청소시
##드려야함
범백혈구
radial
초코렛
elongated
슬라이드
1vial
뉴트리
말을
밑으로
쓰면서
안오
않던
##olon
투약한
반응하는
##부분의
##uncul
수액처치를
##ertain
fat에
사람용
##talan
고구마를
무릎에
애견샵에서
입원장에서
##형태로
과도하게
##동물의료센터
Cell
june
김수
안봤음
인포
##유착
##계속
##FR
확인해야
10개
췌장은
##urethral
출혈도
사진참고
특별하게
압박드레싱
referS
활동량이
papillary
우심비대
specPL
부족으로
poorly
polyg
사나운
동생분
따뜻한
life
0으로
5U
bb
잠듬
현상태
##없슴
##Fr
확인해서
치료방법
관찰되었던
allergen
이뇨제에
캡슐time
발톱은
누워있다가
##거리거나
장간막의
평상시와
확진은
대체적으로
전화주시면
##스테로이드
##000
##색깔이
쩝쩝거리는
acei
transposition하여
diseases
s입니다
차고
##roz
##etella
nrflens
flutic
##정도가
##endronate
자궁의
눈물도
Enro
MRI촬영
fix
##coriation
nonregenerative
주사기에
##entricular
parenchymal
azithro
belly
da
gion
hesit
late
rub
긁으면
높아짐
도달
못찾
앓은
오르는
친척
편이었으나
해제
##격한
발생으로
##izures
생각함
누워있고
캔사료는
##실시함
괜찮아져서
cPLi
이사를
불가함
180회
알아보고
겨울에는
##ochem
건성기침
pinnae
hesitate
배부위
약cm
전문
하울
##HCO3
##기구
##텔라
##놨습니다
##ennel
along
양측으로
##othyroidism
먹었다
인계함
안검종괴
높은편
권장됨
전침치료
hematochezia
Cancer
데려온지
페디라산
2A
거라
되셨음
맞췄
멕시트롤
##격이
##떨어
##ident
신장내
stu
초음파를
증가하지
평가할
요청하여
##확인되지
intubation
장기에서
알려드릴
KCl10
형광염색검사
안좋아지는
현미경검사
대략적인
syringomyelia
##butorphanol
persistent
prescapular
inhibitor
removed
두정
만니톨
조혈
탄수화물
팬타닐
##oll
증상완화
사료외
metocarbamol
흉부기관
##ropine
원인불명
한달반
정상변에
불편해보임
같은것
반복되면
완화된
assess
##ugar
trilo
glandular
석션시
드리기
다양하게
칼슘제
총담관의
FCoV
resorption
임플란트
polygonal
남양
싸서
##상이
##50
##iteria
예정되어
통증의
cluster
acquired
이물의
종합하여
recheck시
피하수액처치
##려고함
나오지는
안검경련
기운은
100IU
두꺼워짐
현저하게
Surgery
ERG
myxomatous
천장골
pw
모른다고
안을
없엇음
줄인
콜라
##oL
##중이라
치료에도
chyl
관리의
forweeks
##tril
감량한
임상증상과
##rosarcoma
##ultation
테이핑
각막봉합사
날카
레진
목쪽에
뭉치
샤워
안보고
차부터
현증상
##있지만
##로카
##공의
내원하셨고
##사항이
치료경과
##관리는
연락드렸습니다
충혈도
탈모부위
papules
생겼다가
correction
핵경화증
bullous
시골에
straightening
5IU
peng
rl
리퍼
사랑
소극
지점
진도
처방해주세요
급여하면서
관리로
154
지켜보시도록
구조적
##보호자님
2014
timeqid
스테이플러
같다는
난리
늦은
매스
못쉬
보며
##ru
##단면
##KD
##inate
##uciate
떨어졌으나
spray
항문부
조직이
임상병리
흥분을
돌아올
aztreonam
손상에
그러다
진행할지
##적이지는
좋을것
이번주는
포도막염에
광범위하게
vacuol
Diazepam
레날어드밴스
##mannitol
Thrombocytopenia
조규만
췌장다리의
5v
8cc
Back
ri
term
경정맥
어떠
좁은
페티
홍화씨
##gg
##vr
##십자인대
##건술
##그람
진행가능성
10초
adg
약먹이기
범위가
다녀간
uncommon
submuc
complications
Recorded
개에서
골극
그르렁
몰폰
의료
입질
##나리
##파락
timeeyelid
정상이고
보호자통화
가능여부
치료만
관찰하고
ivenro
이상일
상승해
후지혈압
excoriation
##ellar
판단하기
권유하였으나
담낭벽의
내원시보다
피부병은
치석껌
안압체크
CTR
검사자료포함
건강검진을
RESPIRA
192
피모0
결장벽
##irement
한방울씩
개념으로
공동화장
RESPIRATORY
7번
물로
외전
점은
주무
한포
##밑에
투여에
##초음파상
##되었는데
다리의
MST
음식물과
methimazole
자가상처
Compl
##시켜서
##스케일링
0km
기인
끝나
삐콤
앉고
약용량
준중환자
##rac
##거렸음
##였을
##췌장
##롤리무스
kg에서
진행하도록
필요로
자발급식
예약을
예약일
drill
귀가후
우안이
닭가슴살을
아주잘먹음
키우실
2013
PLTA
어렸을때부터
확률이
수액맞고
Pleural
세침흡인
physiologic
mil
##주시길
##하악
##ither
소독액
하나는
이뇨제를
##echol
유발된
내측에
유치가
레볼루션은
라니티딘
umn
better
헬리코박터
4단계
Itraconazole
g연고
나니
듀파락
애기는
##인점
##중익기
##비만
증상없이
추가할
우측만
먹이는데
개선되었고
방광을
encephal
환자에게
중단된
파행의
##반응은
진통은
117
기본적으로
필요할수도
super
당시에도
자극검사
174
요즘에
manag
retrograde
lateral하게
기초접종완료
##방울씩
##ontaneous
거리면서
나갔다가
##보이지는
남자보호자님
소파에서
imaging
uncertain
November
리브감마
Dr
Ging
MT
malformation
맞으러
몰래
배희석
순대
푸르
##ycephal
##위해서
##언스
##패취
##싶다고
처방하였습니다
추천해드림
내과로
cere
도포함
외이도에
3번정도
150회
전쯤부터
교통사고로
olig
##vitreous
킁킁거림
Survey
Tril
buc
공사
남기고
땅에
육류
피를
후폐엽
##gm
##hyp
##해줄
##화가
alendronate
감소와
식이를
식이섬유
일반식
염증이나
##하였던
ate
측정되며
문제시
결정하신다고
임상증상에
시도할
부신은
저녁부터는
이소켓
혼자서
탈락된
normoreflexia
초반에
못느끼
##intravenous
2D
PW
공덕
내리
뇌종양
매듭
허리가
##atx
전화달라고
금식후
견갑하
Prevalence
침흘리고
asparaginase
##ycephalic
So
Tobramycin
네번
리도
양해
오기로
온지
입안에
##포지
##SH
##가요
##hg
방사선검사상
##istance
염증을
다른곳
중단하기로
constipation
귀세정만
output
돌아와서
기관지폐렴
입양한
약처방을
하여서
않으셔도
않을경우
##ustomer
muscularis
예전과
이차감염
일으킬만한
자충검사
차가운
meibomian
글라진
소모
어드벤스
잘보고
조합
주름
쪽을
커지지
피딱지
##요도
##ML
##숟가락
배변함
치료받으
isos
탈수는
조직검사가
##orsal
생길수
협착증
플로리네프
Toxic
tod
밀도가
안하기로
오라고
왠만하면
쪘음
찾아서
치골
##smecta
##듣고
##onge
수술만
가능성과
설사증상은
안내드렸으며
방광종양
##estation
300g
자궁벽
cancer
에코의
##변화는
주의할
혼합2차
다녀와서
질병에
언급드림
빈혈수치는
아니라면
cortices
발라주시라고
확연한
##RESS
심리적
itrasid
잘모르
내피손상성
alfax
Lameness
레이
레오
피하로
체크후
##되었는지
동안에
늘려주세요
indicated
강력하게
부비동
La
pect
국한
방에
볼수
촉촉
##셨다함
상태였으며
##edd
수술했던
유지된다면
다른곳에
진단받으심
REFER
필요함에
depth
##TIC
arabin
과일류
변상태도
잠깐씩
보행평가시
불명확한
##플라워
타크롤리무스
June
메모
별일
흰거품
##ential
구토없고
##elle
##opet
이전까지는
부분과
아직까지는
있었다고함
전신경련
촉진되지
환경에
하악골절
챙겨드리기
dermatophyte
lamina
dazole
긁다가
난산
때에
린스
빙글
약v로
자택
준다고
착함
##하자
##하수
##초기
피부사료
추가문진
기침하다가
recent
식사를
cepha20
##ensitivity
##ENCE
탈수없음
동반하지
cystotomy
유발하고
transverse
나이도
프세파
연결된
2000
모양의
그럴수
시일내에
항목은
increase
활용하시기
HIST
##vrcp
hole
muro
각성
눈위
옥수수
이라
흘리
##hartmann
##머니
양호하므로
##etx
alma
일주일만
vitamine
진단서
##anding
Inflammatory
눈물량은
허리쪽
clava
아포퀴
##apsed
##uvenile
하울링
0V로
ye
묻혀서
반용량
열도
일부분
자일리
재교육
중이고
쳐짐
홍현정
##배로
##건입니다
##jor
상승하는
BUNCre
배제된
흉수의
환경적인
화장실도
외용제로
싶어하셔서
heterogeneous
d를
ntt
냉찜질
바소
좌후지
치워
##au
##iated
##케이
##Ca
##거의
##먹지
신장패널
급여한
##acted
스케일링은
항문낭은
쿠싱에
외래처방
sling
단순골절
배출됨
##클로람
powder
티몰롤
meningioma
정복술
비벼서
Meloxicam
cranioventral
구개열
아포퀴엘
pill
가소견
가예약
갈수록
느림
다발
몰아서
봉투
부자연
수내
양태훈
없다는
점에
카누
필건
##달링
##기기
##메가
##idemia
##icated
수술일정
정도입니다
재진때
수액줄
관리하시도록
##implant
안먹던
검사상에
##rolith
비장종대
수혈을
받으셨고
있을지
39도
방법에
추정되나
결막염으로
약먹을
가라앉지
포피세척
불가능할
우리아이
기저질환으로
중증도
밥그릇대줌
##나트륨
##volution
분출성
표재성
nmes
R12
gem
걸을때는
계실때
농신
무관
문을
악액
##1개
치료법
방사선사진
stab
상승하고
받아주세요
있을경우
선천성
Bladder
연간접종은
##NDROM
seborr
pyloric
SYNDROM
나뭇
못잘
바라
밥이랑
사인
안할
이따
자상
희미
##지표
##대에
##아지는
##르바몰
##내서
##귀비
##레신
ala
고려해보기로
보행을
없이는
해주면
좌안을
이도부종
고관절이
레날k
일어나는
바닥을
치킨캔에
오르내
거칠고
grey
myoepithelial
자일리톨
COP
PKD
불명
식간
위종양
절었음
초과
캔과
##이기는
##바이트
##ilateral
##odine
##증상을
통증과
사진과
사진은
sign은
하악질
referral
45g
활발하고
거위소리
Unknown
loosening
SG
liv
계시나
낮으며
낮지만
돌고
뿐만
역재채
요하는
현관
##renic
##탈모
##냉감
##돌기
양호해보임
검사들
피부연고
##관리중
설명하였으며
##chol
아이상태
##enshu
##에코상승
calculated
좋아졌습니다
유리너리캔
##STRESS
DISTRESS
힘드심
누관개통
만질때
Syndrome
거기서
Mucocele
카누랄
SYNDROME
1병
느슨
떨면서
캔도
했다고함
##긴하나
##oside
reme
예방중
적용해보기로
##allergenic
corenal
해주지
일어나고
단백뇨약
Hypothyroidism
accum
necrotizing
악액질
LSA
NTT
nahco
예측
원해서
원하실
직원
##주셔서
##해드리고
##영실
##22
##당부
##ke
유지되나
확인되지만
컨디션에
결석성분
간수치의
malass
보내드릴
strain
nonthyroid
체표LN
체표ln
감안하면
이어패드
제외하고는
does
의심할만한
antech
비특이적인
nonthyroidal
2sec
font
느린
보챔
##되심
##축농
##놀론
##씁니다
##inolone
운동치료
pmi
봉합한
세포검사상
개인화장
calcinosis
외출하고
megaesophagus
sulfa
고무줄
Labor
##olerance
mechanical
Bronchitis
LCP
vocal
young
검색
경기도
낮에도
도에
면밀한
보시기에
빠지면
이면
폐기
##ui
##sono
##Hg
##쉴드
퇴원가능
전화를
meta
##plan
식이변경
소독과
노란구토
발견된
134
##riacetam
당일입원
액체성
보기에는
intramuscular
요로결석
handfeeding시
못쓰고
famciclovir
moxifloxacin
Neuter
Tib
plu
견적
권했으나
무렵
문에
묽어
살때
양말
용해
플러스
##yg
##드록
##에대한
##MA
##통보
##끼는
설사변
catar
입양을
Ther
올라갈
들고다님
PMI
##pretation
Lower
플루비프로펜
fragment
TEN
깜놀
넣기
뜯는
심하거나
씌우고
재드레싱
챠트
##보면서
##resent
##자주
##신다
##길래
##미귀비
##그니
##inum
구토하면서
치료예정
##eptiven
전화해서
병원서
##obic
반응도
림프절은
곰팡이약
장기복용
##연고도포
tapering하여
심초상
받아가실
소형견
단두종
주의깊게
gonioimplant
REFERENCE
개용
송림
이고
지위
카토
한땀
한군데
##natremia
##ryl
##츠레
내원하였다가
inade
ivmetronidazole
재검이
소화안된
안약과
##양호함
발치가
malassez
앞으로는
defin
##epha
피부질환으로
죄송하다고
Staphylococcus
못만지게
ka
그당시
꼬박
놀아주
다가
되었던
푹신
##갈비
##디움
##됐으며
inwks
day로
필요하다면
환자에서
의뢰해주심
death
다른것
clop
괜찮습니다
##anto
기관반사
상황임을
아파할
이틀뒤
있을것으로
검진은
##해야한다고
질환을
진통제를
먹었으며
혈관염
참고하시어
파열이
세정후
발라주실
다녀오심
bulge
어린연령
입원기간동안
휴약기간
Biopsy
나타났음
쩝쩝거림
plasmasol
한마디
바퀴벌레
Ascites
##메타손
HISTORY
7cc
fo
lsa
거침
광진
나는것
올리
젖은
쿠션
통과
##ng
##거린
##zine
##떨림
관찰안됨
병원와서
1회로
15L
세파드록
이번약
닭가슴살만
hemilaminectomy
빼고는
aktivait
finely
나미진
규칙적으로
concavity
natural
퓨어비타
지위픽
BO
lcp
mentation
구로
끼기
넣었음
마진
불투
뽑아서
채우고
##보일
##해지면서
##중엽
##미가
양호했으며
유지하되
우측에서
마취는
prp
한달간격
비장적출
안좋아지
국소제제
연부조직의
period
병리검사
axitrol
활동성도
주신건
아버님께서
그로인한
적당히
타박상
enhance
UMN
잔다고
커피
##spoon
안먹은
흥분으로
##ogenicity
문의전화
dysbiosis
건조함
염증소견은
케톤뇨
expos
시골에서
번호로
arrest
##테이션
pneumothorax
Chloramphenicol
두경부
Soft
inadequate
est
간뒤
눈부
뜯어서
만들
사가
생애
올리고
했었다고
##꼴로
##asive
내원이후
처방했고
진행으로
오후들어
내일이나
##cture
combo
##teus
상황이므로
사이언스
수혈진행
탈수에
안압측정
보였었음
##조직검사
40도
##rhaphy
감기기운
여름철
기간은
##으려는
넘어지는
지속적임
separ
##PO4
내안각쪽
petechia
남양주
LCPD
2pm
crown
동행
등에서
등피부
목걸이
접수
줬을
피넛볼
항감
##주면서
##xal
##기형
##무름
##카손
##긴장
##enrofloxacin
혈액화학검사
상승하였으나
IVmetronidazole
염증상태
udcap
안구돌출
Clemast
keratin
맡기심
나올때까지
습관이
##phosphatemia
2호
cam
수두증
씨펙스
오돌
중형
팬팅
##발가락
##초에
##크리스
##마시고
검사하지
##ste
모니터링하고
chicken
환자이나
반응하지
murmurii
spore
요도의
골절면
근육봉합
먹었어요
중요합니다
cytosine
subcutaneousenoxaparin
호흡마취하에
insertion
Theophylline
협소화가
형질세포
검붉은
7T
kennel
라미
보려고
쪽은
##stick
##발달
##스터
##티카손
##anth
##ict
부위와
결정하여
확장과
나오는지
영상상
아래와
syrup
강아지를
##바이오틱
내용물이
normo
hui
significantly
냉장고에
carcinomas
세파드록실
either
섞은
솜붕대
약조제
위절개
틀어
황색
##mode
##gl
##virus
##zzle
##오줌
##뜨고
##icamide
퇴원하였습니다
방광팽만
안정될
##ended
##romy
경련시
림프절이
내원시엔
발치를
보였다고함
환경관리
기운없이
넥스가드는
##먹는다고
지난주와
약먹이는
뛰어오
폐쇄봉합함
먹여주시라고
닦아주고
골라먹음
##ongeur
BI
pure
물려
밤에도
##원하셔서
##떨어짐
##idazolam
##alte
이상증세
cric
요도폐색
##해보자고
가량으로
견갑부위
d로우
배꼽탈장
Good
단핵
먹자마자
성신
습도
피설사
한봉
##시지만
##체를
##있으므로
##야할
내원하라고
유지되며
어제오늘
많이함
방사선에서
##해보는
##해보시라고
153
감염체는
충혈되고
therapyhartmann
지켜보다가
것이므로
레날독
seroma
seconds
위치상
50회
아닌것
무릎골
십이지장의
좋아졌어요
섞어줌
척수신경
coat
미세하게
##소화기
비율이
cholecyst
경혈맛사지
maintain
신경써서
호전없을시
Massage
bus
lantus
김에
무조건
알고계심
종결
##포도
##fine
##면조
##odular
입원할
안내출혈
##chrom
예방위해
마취비
투여로
##exy
검진차
하나가
재채기가
ulcerative
강아지와
제한급식
pcr검사
##관찰되지
불안해함
EOD로
후코참치
간섭
대리
드라
못핥
봐주시고
적을
좁음
핥기
##장난
##들로
##좌안
##불편
##못하고
정상적이
가능하지만
마취를
rectal
withcat
##ather
현증에
알러지검사
이틀째
##양상으로
방광염은
##agn
using
명확함
GB29
형성재
##바이오
퇴근해서
중심을
양호해졌음
부중력
메토카르바몰
differentiation
gallop
lcpd
2봉
Dist
KPO4
쪽의
##농균
##2개
##중지
##셨는지
##통해
##놓았습니다
##쟁이
##istic
항생안약
중단하면
##axity
소변량은
another
유선의
chole
198
발바닥을
통원처리
바닥에서
코데날
##ptokinase
담아드림
Referral
platelet
##미지황
studi
My
Sx
껴서
끊음
박혀
방추
삼성
연갈색
적합
주중에
최명진
##이체
##밀히
##봐도
##anechol
criteria
제거하기로
계속되는
##관절염
비슷하고
##oviral
##해야하는
위치가
##선생님에게
염색은
얼굴에
지어가
몇일간
가족들
물질은
플루티카손
간기능저하
AUS
cutis
미루고
만지려고
한마리는
덱사메타손
received
##traconazol
페티앙
게슴
비운
선풍
직후에
페닐라민
할증
##정보
##치지
##우안
##ising
전화오심
감소를
응급시
사이에서
백내장은
불가한
해보시고
##enchymal
dipeptiven
syringe
Misoprostol
fasting
5fold
LP
자려고
주종
추워
튀어
##utive
##이면서
##로워
##락탄
##르르
##졌던
##old
호흡에
##ucent
소량먹음
진단함
크기도
metrobid
##pred
처음보다
##세포질
##NAL
represent
이하의
오큐클로람
적극적
건조하지
단순발치
myosis
Metro
연하반응
동생분이
3배로
pus
강원
녹농균
됬음
보낸
보신다고
본적
사시
주다가
차차
캔으로
타러
심장검사
##ept
항문종괴
사진으로
귀지도
같다고하심
##드리세요
쿠싱검사
올라가는
권장됩니다
심비대는
만져도
비틀비틀
어머니께서
Cholang
triage
pulmonic
Bromhexine
Omeprazole
TENS
Likely
내의
장폐색
지희
햝음
황토
##영역
##한거
##받을
##imination
문제없이
아이라고
20g
좋아져
회복에
먹는게
고양이와
등쪽의
앞다리에
점막이
dermis
해보시도록
전화주신다고
빌리루빈뇨
##tured
ultrasonographic
##anoate
twiceday
##unculosis
enhancement
b0
rough
내번
다이
웰니스
적인
조면
칠면조
턱관절
##경험
##스틴
##뼈를
##바랍니다
수술필요
알러지사료
눈곱도
##기간에
켄넬1차
경골의
HGE
udcapo
owner
그건
때에도
배측
봤었음
여의
중인데
편히
풀려서
##하연
##해지
##호천
수술결정
##osus
재검상
전화드려
by최
##ocyst
투약반응
혈액검사만
의심되고
##ropulsion
사용하면서
유사분
진통관리
전이는
Clopidogrel
solution
60g
decanoate
하시라
##usea
나빠질
장내이물
Meto
일으켜
propria
##하려는
헐떡임
##자리에서
모호한
segment
Superf
unlikely
remeron
감돈
개와
걸리
소심한
##상실
##인줄
##발사
##직염
입원호텔
안내해주세요
관리되고
medull
경과보고
adult
콧물을
111
113
스테플러
much
완전폐색
required
dipstick
계좌이체
유니필
pneumonitis
xx
갈은것
걸었음
경제
계열
녹아
마르고
부갑상선
잡힌
종의
환절
##nant
##bly
##초롱
##있으니
##되니
##갔는데
##징어
전화오셔서
전화연결
이상행동
관리예정
상승을
att
원래부터
현증은
pltp
##uda
받았다고함
거부반응
저혈당증
ADG
시원한
특이증상없음
엄마가
강조드림
prokinetics
##rozil
Remark
S17
bowel
horn
골막
놀라서
다다음
독소
붙은
입캔
질질
폐종괴
##증명서
##용해
##PD
##놓으
##ortal
심장사료
관리하실
운동시
노란눈곱
하악골
레볼루션으로
자가급식
lobar
자연사
occipital
invasive
##심장사상충
원하시나
저단백혈증
1봉지
TOB
넘음
뇌질환
띄는
몸에서
무통
아로
옅어짐
왔었음
이쪽으로
##라기
##방지
##되게
##볼것
##빙글
ivvit
안내드릴
보이기는
안정되고
해주는
담낭은
모습도
식도확장
진정되지
하락세
슬관절의
##환자로
배뇨량에
뇌신경계
deny
##호천사
7개
Cervical
Oste
dar
감퇴
노화
못자는
봤고
질은
##생리
##중이며
##도중
##선염
##받지
입원함
먹이시지
pkd
계속함
mmhg
18cm
##부종괴
succ
species
몸무게는
개별적으로
synechiae
titer
narrowed
다닌다고
studies
0이하
2g
깔아
미국에서
배준
볼염
소하연
있나요
잘락탄
펫샵
##파악
##결찰
##큐어
내원하시는
유지후
가능성있음
주사제로
방광상태
mild하게
술부가
이물이나
anesthesia
먹는양이
오른쪽귀
촉진검사
보내주세요
각막궤양으로
긁는다
해보자고
많아진
##TERI
gluconate
두부모래
탈락한
잠정적으로
나타났을
배준우
1봉
똥을
장군
##인두
##거렸
##스템
##존재
timerx
수술예약
유지해
피부치료
양측에
##umm
core
흥분함
염색상
##SITIVE
turb
espec
major
Cycl
american
mcv
금번
본래
소금
안해
알레
알팍
윤영실
##대기
##WT
##오기
##icox
처방도
##ocardial
hr까지
병원내원
진료가
말씀드려
마취하에
적용후
계획이며
##athyroidism
종합적으로
생각이
132회
injectioncimetidine
폐색에
2배속도로
뛰어다니
여름부터
##oaden
찰과상부
neuropathy
헉헉거림
plasmacytic
별개의
dense
pleomorphic
불연속성
subconjunctival
by최명진
PI
Vital
cost
ica
드라이
락타
일관
##이터
##연휴
##비공
##아님
##ations
ivhepagen
전화드렸는데
추천해
부분초음파
atel
나오는데
##andage
perfr
만성간염
코로나2차
두번씩
srr은
아파하는것
해부학적
게슴츠레
골두
사회
식으로
쌀죽
아시는
주었을
지리고
##모차
##pitus
##절로
##했었다고
##물러
##스텐
##판정
검사의
POSITIVE
경과가
조제해
받으시는
##어주고
##nish
Result
늘어났
창백함
척수염
절뚝임
granular
Conjunctivitis
##없을시
thoracolumbar
오연성폐렴
progressive
동배견
antibody
물어뜯음
일년에
알팍산
DAR
Sugar
sen
마늘
바름
옴진드기
장중첩
##bal
##리퍼
##있으심
time이내
검사함
수술하지
방사선과
mmHg
왼쪽에
들어와서
알려드리기로
samples
pubis
카토살
PAR
노엘
놀음
맡긴
부하
세이
싶지
연노
왔을때
지르는
턱아래
한가지
할수도
##수납
##콜레스테롤
##idus
구토하여
##ety
가능하고
오늘만
시작했다고
##aining
아이와
2회로
##endum
##induction
Rt39
통화내용
body로
탈모와
소화기계GI
공급중이며
subst
기립하지
호르몬질환
심부전에
먹여보시도록
아프고
conjun
림프구가
##ource
##움직임
안움직임
##fibrozil
hazzy
fixed
빙글빙글
American
Sim
못긁
세마리
심하다
외사시
일절
종기
##일주
##비어
##날부터
##졌지만
술부를
부분만
2회씩
있어야
재발될
##기도함
소화기계gi
비강에서
상악의
샴푸는
넘어가는
이어갈
회음허니아
일어날때
bro
turg
꼬르륵
단락
명태
에이
##걸린
time유지
제거하여
IVenro
발적및
신경손상
변화일
미용후에
anap
저하되고
비슷하며
disinfection
##prednisolone
141
##에게서
serial
##ording
유발될
추가검사하지
비대되어
PLTP
endometr
정확히는
stream
##lobar
가을에
##거같다고
isoechoic
배치플라워
exposure
C3
MA
fcv
사구
식품
이었음
##아도
##견관절
##없었고
처치할
고려함
술부염증
투여하며
통화하여
교상에
필요성에
##forte
thrill
중증의
Aztreonam
관련되서는
especially
LL
까진
더운
본격
실금
써클링
저키
주는데
프1
후폐야
##pcv
##기성
##되더라도
진행하려
급여가
혈액검사및
췌장엽
207
요도를
면회실
안구로
돌아왔음
장염이
이외에도
폐야에
보내주심
solitary
나왔었음
로우펫사료
떨어져보임
Vitreous
호중구가
케이지에
hypothermia
chlorphenilamine
북어포
왼쪽눈을
늘어나고
호산성
cryo
Ultrasonographic
Fem
bor
고등
눈과
두면
뭍어
비토
##져있는
##왔고
##저히
좌측에서
##stt
실시했으나
시작하였으며
activ
발생기
##장님께
유선으로
다음주까지
흥분할때
blepharitis
구토증상을
찡그리고
돌아왔으나
만졌을때
결핍
그뒤로
든다고
방식으로
베라
보도록
붓거나
뿌리는
선행
안드림
유모차
젭스
차량
폐후엽
피고름
##nect
##이로
##rz
##pd
##술부
##두근
##RO
##amarin
추가분
심장상태
통증없음
##ellate
therefore
151
안구초음파
133
자세변경
360
내원하시겠다고
데려오셨음
받았습니다
pollakiuria
인공호흡
패드가
나이와
기능적
ileoc
folliculitis
항생제감수성검사
앞발목관절
신전시
Peritonitis
긁습니다
뇨단백
뇨천자
위중
##후반
##asy
입원하는
hrcepha
dehyd
hyperphosphatemia
122
127
pm2
안구가
##ah로
흉수time
being
각막궤양에
혼합에코
저번과
창백한
mesenchymal
바꿨음
brachycephalic
바소탑
Ig
estrus
juvenile
tol
수호천사
위함
일체
##나오고
time캡슐
##odorsal
사료구토
급여를
수액제거
간식먹고
식이로
일반샴푸
neu
산소는
회복하고
내과치료
15회
경련으로
담낭에
발치는
##어주심
느끼고
세정으로
강제급여중
줄어들음
기절은
사람음식을
방문하여
무리하게
안움직이
##지역병원에서
요천추
##장난감
EM
divid
luminal
배둘레
살도
삼킨
선홍
순함
자라고
조현
핥지는
##하락
##며칠
##나갈
구토억제제
복용에도
다른건
closed
##roperit
진통주사
데려다
만성외이염
신경증상의
##ismus
##rhosis
##PCV
##크기의
brid
##linical
autoanti
THE
dd
lbo
vmax
가봉합
걷기는
굳어
농후
늦추
매월
못올라
받기를
앞배쪽
외장
지골
찾는
##ious
##zole
##소리는
##스톤
##동일
##김에
유지되지
추가처치
저녁엔
환자이며
증가하였으며
술부의
least
평소의
안먹은지
드레싱으로
데려감
##astom
dressing시
올라오고
경력은
##hydrate
##주사기로
부담스러워
잘먹지
해마루에서
불안정하여
Coron
퇴근후
선예도의
##famotidine
고려중이심
신종원
못핥게
깔고
낳은
딛음
반만
작약감초
코골
##지간
##주치의
##이완
##전에는
##문제는
증상있음
피부내복약
퇴원시간
의심된다
##otoxic
##estine
내과적으로
pm3
##asty
infestation
항문낭이
절개부위
완화소견
multi
라식스2
이동현
왔다갔
hypertrophic
점상출혈
##ohydromy
##연접부
circums
스페시픽
accumulation
1펌프
fvrcp
qi
개정도
결합
구더기
되기
못하면
박원장님
백선
뼈를
원하시고
저용량으로
전야의
timeb
kg까지
##atric
내원했을
##read
유지하시도록
가능하여
방광과
prem
괜찮아지
udc
새벽까지
구강검사상
##결과에
139
닭가슴살은
지방괴사
당시부터
maximum
motion
형성됨
지혈이
파우치에
Interpretation
기다리는
제조연고
삭제할
있으시다면
RCC
WB
열은
재투여
##SED
##핵세포
의뢰예정
결과상담
사진을
##어나서
안압검사
바이탈양호
절개부
완화되어
가정내
오늘부터는
걷는게
tramd
입냄새가
population
d로우펫
g으로
꾸르륵
나트
너비
높았던
뛸때는
밤까지
선상
세밀한
약9
없지는
절제한
제어
찬바람
창문
피하고
##rl
##진시
##했었으나
##물품
##우울
##날에
##wt
##insulin
처방과
배뇨2회
추가적
설사나
상담하고
관리받고
복부쪽
##되었다고함
미약하여
비후되어
혈변으로
전이로
모르나
부신종괴
키우시던
elimination
염색되지
발정출혈
##적이면
적은편
비틀거리
점액변을
미끄러운
그랬다고
계단에서
몇달전부터
ST36
occurs
차오르고
Polymixin
NMES
levetriacetam
fluticasone
arabinoside
FSAA
Marg
kc
온도
잠자는
파텔라
했다함
##포장
##원으로
##머지
수술관련
실시했고
##tric
진단명
크기와
종합만
adverse
침윤성
염색안됨
사나워
호기심
그후로
쓰레기통을
원하시지
terbina
핑크색
topical
divided
S10
감수
김설
네모
몽우
빈속에
새는
세트
손님
슈거
쓸린
약10
쯤부터
파는
피수
##수에
##80
timea
신장낭종
오전까지는
설명드릴
상승시
발적있음
세포들이
25T
실질이
##rownish
들어가면
물리적인
SRR은
108회
가래가
마음의
위생미용
못가림
삼키지
Kcl
Maropitant
cub
메리
세벨라
위쪽에
자잘
##GGT
##itosis
이후의
설사시
혈압체크
##otus
해주신다고
있으셨으나
키우기
trilostan
백혈구감소증
resulting
허피스바이러스
leukemia
계란노른자
움직이려고
근래에
콤보대로
Oxacillin
클로스트리디움
polyphagia
Body
FV
d건사료
가림
가출
강박
급한
바를
보시는
봤더니
안지
주시지
체액
템테이션
폐안
항우울
회분
##시호
##된것으로
##원형의
##펩티
##urage
안내를
주사도
미용하면서
회복세
간수치증가
상황이라고
소실되었음
이틀치
용량조절
비후된
구조하심
자세는
압박이
느끼기에
남은약
퇴원시키
심화시
뒷발을
걱정되어서
양상이어서
복합골절
움직이려
aspect
불러도
##ihem
점진적인
유전자
interferon
김설아
1통
Vmax
남깁니다
높았음
안했다고
약이랑
저혈
토할
##즈마
##항암
유지1
저녁에도
진료보고
##abismus
미용하다가
예약후
interdig
##으려함
나빠진
얌전한
cobalaminetime
nasoph
것이고
구정
극심
만든
시험
에나
유출로
##될지
##yr
##음이
##노락톤
이상하게
am10
방광파열
마취하고
소독시
daysp
15days
처음보다는
하였을
입양처
internal
medicationdays
관절염에
피질에코
march
##cystein
이번주에
##음수공급
개복하여
오르락
desc
ovari
polyamide
##thalmitis
버둥거림
##atively
Sildenafil
밝은
하얘
##이었습니다
##반복
##OOD
##확보
##isp
##ett
투약하는
투약중단
실시하였고
수치로
hypernatremia
college
pyr
낑낑거리고
ureterolith
예약잡아
같으심
게워
고동
고신호
교차
끓는
뇨관
대개
먹기로
발버둥
삐끗
사산
순차
중첩
폐결절
##sk
##보조
##았다고함
##스키
##VAL
##organ
내원안내
좌측만
고려했을때
pressing
적용시
조직의
나오다가
점안제
##질환의
검진시
agg
evaluated
atropin
절개함
귀청소를
지어드리고
ao는
턱밑에
난원형이었으며
내림결장
멘탈은
pathologists
trichiasis
리터박스에
receiving
대칭성
##pretive
1V
LBO
tip
ㅠㅠ
끊으
안데리고
줄지
초이스
풀려
##이던
##보류
##육아
##착용
##변은
##표면
관찰된다고
전신증상
노력성호흡
상처난
생식기가
척추골절
matching
장난치
상부호흡기감염
diagnosed
desce
College
prognostic
hydroxyurea
WITHIN
S1
Source
뉴트로
시기가
시그니
저밀도
짧아서
##utis
##정기
##미는
##녔음
##opro
##ocu
##allow
평가에
건사료와
봉합하고
아래에
고관절은
##ropharyngeal
nausea
완화되었으나
좌심방의
피질에
visib
GB30
구매하셔서
생기거나
brace
범백키트
바깥으로
toxin
원보호자님
정재훈
두껍고
INTERVAL
표피낭
FCV
seborrhea
Superficial
애니
요카
입은
파란색
##였다가
##여행
내원요망
배뇨정상
염증치료
염증물질
왼쪽다리
삼출물로
발사진행
무른편
침샘류
INCREA
이완기능
주입하여
fluconazole
동물약국에서
고글로불린
Ar
March
갑기
걷는데
걸어서
귀밑
금강
모모
부었다고
수명
이행
적으나
전처럼
중력
핥으면
##KG
##홍석
호흡이나
퇴원상담
체크를
사용시
응급검사
악화에
하는거
고구마에
힘들어했음
한번씩은
외이도의
manace
보일경우
smell
인공안구
떨어진다고
내려감
고환집
개구호흡은
언제라도
부족하여
96회
낮아보임
흉복부방사선
근거는
돌아다니다가
omeprazol
으깨서
나트륨
INCREASED
bd
ven
다고
보긴
우성
중동
지탱
피해
호발
힘은
##나게
##텔민
##orch
방광목
체중부종
반응함
아파하진
탈모병변
지방조직
450
##하신다고함
따님과
먹는약으로
모래를
mpk
Meds
먹으려함
가쁘고
손지희선생님
frontal
ipak
##oabdomen
cuboidal
Scal
격일로
계양
뒤져서
무르게
물었음
밸런스
벌벌
보시기
삼켰
세울
층에서
카라
##여도
##마리는
추가됨
확인되므로
사료먹고
혈액도
음수도
vitcomp
피하조직
적용하지
없어졌다고
조제하여
발톱을
folate
혈관신생
파열되어
##corneal
그때도
예상됩니다
balloon
핵소체가
previcox
norepinephrine
Trilostane
단핵구
Lef
Myc
SLE
경기
절치
취침
피내
회성
##주셨다고
##이었고
##hib
##말랑
##RCP
##곰팡이
유지해주세요
추가구토
감소하였고
##관리가
진료받고
먹고나면
##있는것
유선종양이
하나로
fatty
appendicular
바이탈은
CEH
##brain
POD3
한쪽만
histamine
Dermat
끝난지
muzzle
entropion
parasite
요침사
eval
난원형의
들었으나
등산
멍하게
못하며
반개
빠졌다고
에스
오신지
인강하제
현처방
회전
##거려
##았어요
##한듯
##혔음
피부관련
##ape
##ronolactone
##essive
환자와
조직을
새벽중
구강출혈
않았다
##제거수술
지방에
고구마는
위치는
받은적이
고에코로
soo
결장의
하트가드로
##시키기
말라세지아성
전화주셔서
공격적
친구분이
받아보실
사이즈가
거칠게
아랫입술
Azithromycin
엊그제부터
자궁내막염
Addison
gemfibrozil
M1
On
Zepp
a캔
뒤척
약침
와이
의인성
잘되고
통통
##가방
##rp
time하루
처방위해
1회성
비용상
회복양상
anastom
지켜보신다고
gluteal
nail
한쪽이
Leve
거칠어짐
임파선
phalange
extends
Simple
1컵
lys
다를
다르지
미드린
서있음
선고함
심했던
안하다가
애니스
조홍석
주시
해드렸습니다
##이었는데
##파절
##쯤부터
##arely
진행하면
정상상
three
##omaly
수액과
dev
염증약
연고도
##되었다
근육의
기관지간질
양쪽에
디스크로
추가검사는
NaHCO3
앞발로
stern
안면경련
허리를
서서울
주관적인
장기간의
##때문으로
related
Infectious
underlying
찡긋거림
체온계에
Herpes
determine
PAN
Positive
made
rcc
물많이
변하고
사상
애교
용품
위산
쳐지는
피곤
회에
##iative
##좋아
##PT
##황달
##윤희
##idism
입원하에
##omine
안구내
점막의
Phen
레이져치료
fluorets
AO는
인터넷으로
triamc
##arbepoietin
development
융기된
medulla
된다
막히는
미아
않다가
오르고
줄였음
큰이상
퓨리나
##전체
##담제
식욕없어
##ilotus
재검에
모니터링과
수치를
보호자님의
결정을
종양일
resistance
촉진되는
뒷다리로
종대된
##어나옴
먹었는지는
혈청검사상
mucus
feed
폐렴이
##확장증
머리가
epul
predforte
기초접종은
상태라면
열감이
우리들
먹여주셨음
eosinophil
걷기운동
##appy
ENV
단미술
4살
laxity
눌러
보았으나
인플
저하시
커져있음
##ione
##cue
##eh
##아웃
kgb
monohyd
##estern
##aces
배뇨카테터
##osc
이상해서
neuritis
안약이
fluox
ism
없어도
minihem
157
##배뇨카테터
안과질환
BPH
전일부터
받은지
나왔는데
230
괜찮았었음
선천적으로
스피로노락톤
작아진
##uvant
이정진
immuno
난소자궁적출술
dirty
72회
brownish
강함
겉에
망고
밥먹는
오트
오징어
제반
중대
케이스
포셉
##시일
##2번
##만으로는
##로운
##뮤실
재진료
통증반사
추천드렸으며
결정하기로함
평가하기
회복을
회복하여
##반응성
아니기
영상진단
치아의
가려워한다고
가스음영
배쪽을
곤란으로
맡기시고
원위부의
안내해드렸음
간엽의
간엽세포
숨쉬는게
수포성
deformity
copper
##방광염
gpatch
Hw
xi
농흉
뇨세균
들리는
무척
좋았다가
주라고
코딱지
##키지
복수time
용량의
환경이
조절할
필요한지
밤사이에
공복시
##촉진시
잘지내
126회
azathi
말랑말랑
뜨거운
mucomist
##ocufen
We
솜으로
습윤
안되었음
와이어
잘하는
주셨고
진전
집안에
한편
##cyt
##된다는
##덕원
##유출로
##UM
##oration
양호해진
구토처치
설명은
상승했으나
##check
exhib
years
##ropropulsion
재발여부
종대되어
이도는
주간사이
parr
지방세포
섭취함
존재하나
마리가
척추체
연결되지
Anorexia
성분은
도움을
먹여주시도록
prolapse가
담즙산
편안해
식도관급여
호의주
심리적인
못오신다고
정중절개하여
나중에는
갑기항
9cc
foot
검안경
봉와
업체
펜스
##신우
##르비탈
##apeutic
##oglob
orth
안검부종
##바닥에
##림프구
retro
요망됨
안나감
채혈시
대기시간
소독솜으로
##종합혈액검사
항바이러스제
acetabulum
atelectasis
monohydrate
0cm
5초
5살
toc
내벽
늘은
닭발
될만한
때에만
샾에서
어리고
음압
이즈
잘잤음
전미
축적
카펫
##이시고
##위에서
##안쪽
##았지만
##수로
##수축
##ayl
##aste
##phys
##entative
증가하면
증가양상
시작했으며
발생했던
안먹어요
결막의
없는것으로
159
아니냐고
통화후
같은거
시력회복
유선종양의
string
발가락사이
정상범위내
##oprin
남아있으면
이차적으로
탈락되어
##cept
기대할
안보이고
페노바르비탈
##설명드림
originated
